
    // if having troubles with min/max, uncomment the following
    // #undef min    
    // #undef max
    #ifdef __has_attribute
    #define HAVE_ATTRIBUTE(x) __has_attribute(x)
    #else
    #define HAVE_ATTRIBUTE(x) 0
    #endif
    #if HAVE_ATTRIBUTE(aligned) || (defined(__GNUC__) && !defined(__clang__))
    #define DATA_ALIGN_ATTRIBUTE __attribute__((aligned(4)))
    #else
    #define DATA_ALIGN_ATTRIBUTE
    #endif
    const unsigned char model_data[] DATA_ALIGN_ATTRIBUTE = {0x1c, 0x00, 0x00, 0x00, 0x54, 0x46, 0x4c, 0x33, 0x14, 0x00, 0x20, 0x00, 0x1c, 0x00, 0x18, 0x00, 0x14, 0x00, 0x10, 0x00, 0x0c, 0x00, 0x00, 0x00, 0x08, 0x00, 0x04, 0x00, 0x14, 0x00, 0x00, 0x00, 0x1c, 0x00, 0x00, 0x00, 0x8c, 0x00, 0x00, 0x00, 0xe4, 0x00, 0x00, 0x00, 0xe4, 0x0b, 0x00, 0x00, 0xf4, 0x0b, 0x00, 0x00, 0x00, 0x14, 0x00, 0x00, 0x03, 0x00, 0x00, 0x00, 0x01, 0x00, 0x00, 0x00, 0x10, 0x00, 0x00, 0x00, 0x00, 0x00, 0x0a, 0x00, 0x10, 0x00, 0x0c, 0x00, 0x08, 0x00, 0x04, 0x00, 0x0a, 0x00, 0x00, 0x00, 0x0c, 0x00, 0x00, 0x00, 0x1c, 0x00, 0x00, 0x00, 0x3c, 0x00, 0x00, 0x00, 0x0f, 0x00, 0x00, 0x00, 0x73, 0x65, 0x72, 0x76, 0x69, 0x6e, 0x67, 0x5f, 0x64, 0x65, 0x66, 0x61, 0x75, 0x6c, 0x74, 0x00, 0x01, 0x00, 0x00, 0x00, 0x04, 0x00, 0x00, 0x00, 0x9c, 0xff, 0xff, 0xff, 0x16, 0x00, 0x00, 0x00, 0x04, 0x00, 0x00, 0x00, 0x08, 0x00, 0x00, 0x00, 0x6f, 0x75, 0x74, 0x70, 0x75, 0x74, 0x5f, 0x30, 0x00, 0x00, 0x00, 0x00, 0x01, 0x00, 0x00, 0x00, 0x04, 0x00, 0x00, 0x00, 0x4a, 0xf5, 0xff, 0xff, 0x04, 0x00, 0x00, 0x00, 0x01, 0x00, 0x00, 0x00, 0x78, 0x00, 0x00, 0x00, 0x02, 0x00, 0x00, 0x00, 0x34, 0x00, 0x00, 0x00, 0x04, 0x00, 0x00, 0x00, 0xdc, 0xff, 0xff, 0xff, 0x19, 0x00, 0x00, 0x00, 0x04, 0x00, 0x00, 0x00, 0x13, 0x00, 0x00, 0x00, 0x43, 0x4f, 0x4e, 0x56, 0x45, 0x52, 0x53, 0x49, 0x4f, 0x4e, 0x5f, 0x4d, 0x45, 0x54, 0x41, 0x44, 0x41, 0x54, 0x41, 0x00, 0x08, 0x00, 0x0c, 0x00, 0x08, 0x00, 0x04, 0x00, 0x08, 0x00, 0x00, 0x00, 0x18, 0x00, 0x00, 0x00, 0x04, 0x00, 0x00, 0x00, 0x13, 0x00, 0x00, 0x00, 0x6d, 0x69, 0x6e, 0x5f, 0x72, 0x75, 0x6e, 0x74, 0x69, 0x6d, 0x65, 0x5f, 0x76, 0x65, 0x72, 0x73, 0x69, 0x6f, 0x6e, 0x00, 0x1a, 0x00, 0x00, 0x00, 0xfc, 0x0a, 0x00, 0x00, 0xf4, 0x0a, 0x00, 0x00, 0x44, 0x0a, 0x00, 0x00, 0x28, 0x0a, 0x00, 0x00, 0x88, 0x08, 0x00, 0x00, 0xe8, 0x06, 0x00, 0x00, 0x48, 0x05, 0x00, 0x00, 0xa8, 0x03, 0x00, 0x00, 0x70, 0x03, 0x00, 0x00, 0x38, 0x03, 0x00, 0x00, 0x00, 0x03, 0x00, 0x00, 0xc8, 0x02, 0x00, 0x00, 0x90, 0x02, 0x00, 0x00, 0x58, 0x02, 0x00, 0x00, 0x20, 0x02, 0x00, 0x00, 0xe8, 0x01, 0x00, 0x00, 0xb0, 0x01, 0x00, 0x00, 0x94, 0x01, 0x00, 0x00, 0x78, 0x01, 0x00, 0x00, 0x5c, 0x01, 0x00, 0x00, 0xac, 0x00, 0x00, 0x00, 0xa4, 0x00, 0x00, 0x00, 0x9c, 0x00, 0x00, 0x00, 0x94, 0x00, 0x00, 0x00, 0x74, 0x00, 0x00, 0x00, 0x04, 0x00, 0x00, 0x00, 0x22, 0xf6, 0xff, 0xff, 0x04, 0x00, 0x00, 0x00, 0x60, 0x00, 0x00, 0x00, 0x0c, 0x00, 0x00, 0x00, 0x08, 0x00, 0x0e, 0x00, 0x08, 0x00, 0x04, 0x00, 0x08, 0x00, 0x00, 0x00, 0x10, 0x00, 0x00, 0x00, 0x24, 0x00, 0x00, 0x00, 0x00, 0x00, 0x06, 0x00, 0x08, 0x00, 0x04, 0x00, 0x06, 0x00, 0x00, 0x00, 0x04, 0x00, 0x00, 0x00, 0x00, 0x00, 0x00, 0x00, 0x00, 0x00, 0x0a, 0x00, 0x10, 0x00, 0x0c, 0x00, 0x08, 0x00, 0x04, 0x00, 0x0a, 0x00, 0x00, 0x00, 0x01, 0x00, 0x00, 0x00, 0x02, 0x00, 0x00, 0x00, 0x04, 0x00, 0x00, 0x00, 0x12, 0x00, 0x00, 0x00, 0x32, 0x2e, 0x31, 0x34, 0x2e, 0x30, 0x2d, 0x64, 0x65, 0x76, 0x32, 0x30, 0x32, 0x33, 0x30, 0x35, 0x32, 0x35, 0x00, 0x00, 0x8e, 0xf6, 0xff, 0xff, 0x04, 0x00, 0x00, 0x00, 0x10, 0x00, 0x00, 0x00, 0x31, 0x2e, 0x31, 0x33, 0x2e, 0x31, 0x00, 0x00, 0x00, 0x00, 0x00, 0x00, 0x00, 0x00, 0x00, 0x00, 0xfc, 0xed, 0xff, 0xff, 0x00, 0xee, 0xff, 0xff, 0x04, 0xee, 0xff, 0xff, 0xb6, 0xf6, 0xff, 0xff, 0x04, 0x00, 0x00, 0x00, 0xa0, 0x00, 0x00, 0x00, 0x00, 0x00, 0x00, 0x00, 0x00, 0x00, 0x00, 0x00, 0x00, 0x00, 0x00, 0x00, 0x00, 0x00, 0x00, 0x00, 0x00, 0x00, 0x00, 0x00, 0x00, 0x00, 0x00, 0x00, 0x00, 0x00, 0x00, 0x00, 0x00, 0x00, 0x00, 0x00, 0x00, 0x00, 0x00, 0x00, 0x00, 0x00, 0x00, 0x00, 0x00, 0x00, 0x00, 0x00, 0x00, 0x00, 0x00, 0x00, 0x00, 0x00, 0x00, 0x00, 0x00, 0x00, 0x00, 0x00, 0x00, 0x00, 0x00, 0x00, 0x00, 0x00, 0x00, 0x00, 0x00, 0x00, 0x00, 0x00, 0x00, 0x00, 0x00, 0x00, 0x00, 0x00, 0x00, 0x00, 0x00, 0x00, 0x00, 0x00, 0x00, 0x00, 0x00, 0x00, 0x00, 0x00, 0x00, 0x00, 0x00, 0x00, 0x00, 0x00, 0x00, 0x00, 0x00, 0x00, 0x00, 0x00, 0x00, 0x00, 0x00, 0x00, 0x00, 0x00, 0x00, 0x00, 0x00, 0x00, 0x00, 0x00, 0x00, 0x00, 0x00, 0x00, 0x00, 0x00, 0x00, 0x00, 0x00, 0x00, 0x00, 0x00, 0x00, 0x00, 0x00, 0x00, 0x00, 0x00, 0x00, 0x00, 0x00, 0x00, 0x00, 0x00, 0x00, 0x00, 0x00, 0x00, 0x00, 0x00, 0x00, 0x00, 0x00, 0x00, 0x00, 0x00, 0x00, 0x00, 0x00, 0x00, 0x00, 0x00, 0x00, 0x00, 0x00, 0x00, 0x00, 0x00, 0x00, 0x00, 0x62, 0xf7, 0xff, 0xff, 0x04, 0x00, 0x00, 0x00, 0x0c, 0x00, 0x00, 0x00, 0x01, 0x00, 0x00, 0x00, 0x01, 0x00, 0x00, 0x00, 0x01, 0x00, 0x00, 0x00, 0x7a, 0xf7, 0xff, 0xff, 0x04, 0x00, 0x00, 0x00, 0x0c, 0x00, 0x00, 0x00, 0x00, 0x00, 0x00, 0x00, 0x00, 0x00, 0x00, 0x00, 0x00, 0x00, 0x00, 0x00, 0x92, 0xf7, 0xff, 0xff, 0x04, 0x00, 0x00, 0x00, 0x0c, 0x00, 0x00, 0x00, 0x00, 0x00, 0x00, 0x00, 0xff, 0xff, 0xff, 0xff, 0x00, 0x00, 0x00, 0x00, 0xaa, 0xf7, 0xff, 0xff, 0x04, 0x00, 0x00, 0x00, 0x28, 0x00, 0x00, 0x00, 0xaa, 0xe8, 0xe1, 0x3e, 0xc4, 0x62, 0x5a, 0x3f, 0x72, 0x15, 0x5b, 0x3e, 0x19, 0x29, 0x18, 0x3f, 0x68, 0x7e, 0xe5, 0xbe, 0xeb, 0x85, 0x2a, 0x3f, 0xe4, 0x44, 0x1a, 0xbe, 0x88, 0xa1, 0x37, 0xb9, 0x1f, 0xef, 0xa1, 0xbe, 0x85, 0x79, 0x77, 0xbe, 0xde, 0xf7, 0xff, 0xff, 0x04, 0x00, 0x00, 0x00, 0x28, 0x00, 0x00, 0x00, 0xd2, 0xaf, 0xb2, 0xbd, 0x97, 0x6b, 0xda, 0x3e, 0xd7, 0xd8, 0xdd, 0xbc, 0x61, 0xa1, 0xb8, 0xbd, 0x27, 0x0d, 0xe8, 0x3e, 0xcd, 0x56, 0x00, 0x3e, 0xaf, 0x05, 0xef, 0xbe, 0x46, 0xc9, 0x11, 0x3e, 0xb7, 0xff, 0xb0, 0x3e, 0x64, 0x54, 0xbb, 0xbe, 0x12, 0xf8, 0xff, 0xff, 0x04, 0x00, 0x00, 0x00, 0x28, 0x00, 0x00, 0x00, 0x24, 0x63, 0xea, 0x3e, 0x94, 0x82, 0x06, 0x3f, 0xe7, 0x16, 0xad, 0x3d, 0x80, 0x10, 0x61, 0x3e, 0x74, 0x5a, 0x12, 0xbe, 0x9e, 0x3a, 0x8e, 0x3e, 0xf7, 0x79, 0x03, 0x3e, 0xc6, 0xb8, 0x6f, 0xbe, 0x1f, 0xd7, 0x93, 0xbe, 0xfe, 0x57, 0xb7, 0xbe, 0x46, 0xf8, 0xff, 0xff, 0x04, 0x00, 0x00, 0x00, 0x28, 0x00, 0x00, 0x00, 0x9e, 0xe6, 0xc0, 0x3d, 0x2e, 0x3a, 0x9b, 0x3c, 0xac, 0x98, 0xd7, 0xbd, 0xa5, 0x9e, 0x09, 0xbe, 0xe6, 0xbb, 0xa8, 0xbd, 0x5a, 0xc7, 0xa8, 0x3e, 0xc5, 0x4a, 0x1a, 0xbd, 0xa0, 0x88, 0x92, 0x3e, 0x29, 0x6a, 0xaf, 0x39, 0xb0, 0x8f, 0x0e, 0xbf, 0x7a, 0xf8, 0xff, 0xff, 0x04, 0x00, 0x00, 0x00, 0x28, 0x00, 0x00, 0x00, 0xbd, 0x47, 0xa7, 0x3e, 0xdf, 0x21, 0x79, 0x3e, 0x55, 0xae, 0x1b, 0x3e, 0xb8, 0x8f, 0x4e, 0xbd, 0x4f, 0x92, 0xad, 0x3e, 0x51, 0x8c, 0xd8, 0xbb, 0xc4, 0xac, 0x9e, 0xbe, 0x2e, 0x08, 0x9d, 0x3e, 0xbb, 0x19, 0x0e, 0x3f, 0xab, 0x34, 0xa8, 0xbd, 0xae, 0xf8, 0xff, 0xff, 0x04, 0x00, 0x00, 0x00, 0x28, 0x00, 0x00, 0x00, 0x58, 0x0b, 0x02, 0x3e, 0x5d, 0x72, 0x02, 0x3e, 0xbc, 0x9a, 0x10, 0x3d, 0xef, 0x99, 0xb4, 0x3d, 0x7f, 0x1c, 0x01, 0x3d, 0xd8, 0x74, 0xba, 0x3d, 0x1a, 0x89, 0x3a, 0xbe, 0xaa, 0x6a, 0xdb, 0xbb, 0x55, 0xd8, 0xe1, 0x3d, 0x26, 0xd2, 0x24, 0x3e, 0xe2, 0xf8, 0xff, 0xff, 0x04, 0x00, 0x00, 0x00, 0x28, 0x00, 0x00, 0x00, 0xd4, 0xd8, 0x8a, 0xbc, 0x13, 0xcf, 0x63, 0x3c, 0x96, 0x80, 0x5f, 0xbd, 0x25, 0xe1, 0xb6, 0x39, 0xad, 0x7d, 0x0a, 0xbd, 0x64, 0x8b, 0xa7, 0x3c, 0x9e, 0x27, 0xa3, 0xbb, 0x2a, 0x44, 0xc7, 0x39, 0x59, 0x16, 0x39, 0xbd, 0x9d, 0xb3, 0xb5, 0x3d, 0x16, 0xf9, 0xff, 0xff, 0x04, 0x00, 0x00, 0x00, 0x28, 0x00, 0x00, 0x00, 0x52, 0x39, 0x7b, 0x3f, 0x22, 0x39, 0x82, 0x3f, 0x54, 0xf5, 0x68, 0x3f, 0x3b, 0x71, 0x7b, 0x3f, 0x9b, 0xf2, 0x7a, 0x3f, 0xb0, 0x0e, 0x7d, 0x3f, 0x0d, 0xc6, 0x6d, 0x3f, 0xbb, 0x7a, 0x70, 0x3f, 0x97, 0xda, 0x80, 0x3f, 0xdf, 0xa2, 0x4e, 0x3f, 0x4a, 0xf9, 0xff, 0xff, 0x04, 0x00, 0x00, 0x00, 0x28, 0x00, 0x00, 0x00, 0xbc, 0x9b, 0xf9, 0x3d, 0x95, 0xf9, 0x14, 0x3e, 0xad, 0x21, 0xeb, 0x3c, 0x0c, 0x56, 0xa9, 0x3d, 0xc3, 0x08, 0x4c, 0x3d, 0xf5, 0x48, 0xbe, 0x3d, 0xc9, 0xb9, 0x38, 0xbe, 0xcd, 0xa4, 0x2e, 0x3b, 0xae, 0x74, 0xfc, 0x3d, 0x52, 0x52, 0x32, 0x3e, 0x7e, 0xf9, 0xff, 0xff, 0x04, 0x00, 0x00, 0x00, 0x90, 0x01, 0x00, 0x00, 0xef, 0xb4, 0x7a, 0xbe, 0x8b, 0xc0, 0x85, 0x3d, 0xe8, 0x8b, 0x2e, 0xbd, 0xa9, 0x36, 0xa7, 0x3e, 0x30, 0x5b, 0x51, 0xbc, 0xd0, 0x8a, 0x09, 0x3d, 0xfc, 0x0e, 0xe6, 0xbe, 0x48, 0x94, 0x2a, 0xbd, 0xc8, 0x60, 0x55, 0xbe, 0xcd, 0x32, 0x55, 0x3e, 0xe2, 0x8d, 0x57, 0xbe, 0x58, 0xb9, 0x53, 0x3e, 0x7a, 0x27, 0x19, 0xbe, 0x26, 0xa8, 0x94, 0x3e, 0x72, 0x1e, 0x69, 0x3a, 0xbe, 0xee, 0x93, 0x3c, 0x3b, 0x9f, 0x91, 0x3e, 0x22, 0xd3, 0x88, 0xbd, 0xcd, 0xd9, 0xf8, 0xbd, 0x0d, 0xd8, 0x06, 0xbe, 0x62, 0x5b, 0xd4, 0xbd, 0xe6, 0x92, 0x8f, 0x3e, 0x46, 0x7d, 0xa3, 0xbb, 0x3c, 0xec, 0x4a, 0xbe, 0x5e, 0x41, 0x79, 0x3e, 0x30, 0xca, 0x0c, 0x3c, 0xb1, 0xe3, 0x10, 0xbe, 0x4d, 0xc8, 0x45, 0xbe, 0x73, 0xed, 0x50, 0x3e, 0x30, 0x30, 0xbd, 0xbd, 0x45, 0xa8, 0x8d, 0x3e, 0x21, 0x6d, 0xe8, 0xbc, 0x52, 0xd9, 0x8c, 0xbe, 0xb6, 0x1d, 0x03, 0xbc, 0xbc, 0xf8, 0xc3, 0x3d, 0x63, 0x2d, 0x1f, 0x3d, 0xa9, 0x20, 0xf6, 0xbd, 0xd6, 0x22, 0xaa, 0x3e, 0x56, 0x9f, 0xd5, 0xbd, 0xff, 0x8a, 0x3b, 0x3d, 0x0f, 0xc3, 0x89, 0xbc, 0x06, 0xd6, 0xba, 0x3e, 0x06, 0x8d, 0xa0, 0xbe, 0x35, 0xd8, 0xe6, 0x3c, 0x18, 0x33, 0x5e, 0x3d, 0xe7, 0x2b, 0x11, 0x3e, 0x8b, 0xc9, 0x40, 0x3e, 0xac, 0xa6, 0xdb, 0xbd, 0x4e, 0xbf, 0x59, 0xbe, 0xce, 0xc6, 0x92, 0x3d, 0x32, 0xe1, 0x9b, 0x3c, 0x20, 0x1f, 0x7e, 0x3e, 0x66, 0x86, 0x76, 0x3d, 0xf3, 0xbb, 0x7b, 0x3d, 0x27, 0x3f, 0x97, 0xbe, 0xf5, 0x7f, 0x8f, 0xbd, 0x9c, 0x18, 0x1c, 0x3d, 0x94, 0xe9, 0xfd, 0xbd, 0x49, 0x55, 0xcf, 0xbd, 0xa7, 0x10, 0x0c, 0x3e, 0x75, 0x2c, 0xb4, 0xbe, 0xdb, 0xb2, 0x4c, 0xbe, 0xb1, 0xf5, 0x92, 0x3d, 0x38, 0x58, 0x2a, 0x3c, 0xce, 0xf8, 0x0c, 0x3f, 0x0e, 0xab, 0xa6, 0xbe, 0xe4, 0x28, 0x70, 0xbd, 0x9c, 0x40, 0x33, 0x3d, 0xbe, 0x26, 0xb8, 0x3d, 0x8a, 0x23, 0x60, 0x3e, 0x20, 0x6e, 0x0a, 0xbe, 0x49, 0xfd, 0x33, 0x3e, 0x82, 0x85, 0xc4, 0x3c, 0x54, 0x19, 0x8b, 0xbd, 0x5c, 0x19, 0x39, 0x3e, 0x77, 0x70, 0x7f, 0xbd, 0x62, 0x9f, 0x97, 0x3d, 0x47, 0x84, 0x00, 0x3e, 0x17, 0x81, 0x70, 0x3e, 0xe7, 0x31, 0xea, 0xbd, 0xe3, 0x1d, 0xb2, 0xbd, 0x1a, 0xad, 0xd7, 0xbd, 0xf1, 0x12, 0xc0, 0xbe, 0x57, 0x94, 0x62, 0x3e, 0x84, 0x20, 0x11, 0xbd, 0x7e, 0xa2, 0x1a, 0xbe, 0x03, 0x36, 0x8d, 0x3e, 0x93, 0xa6, 0x6c, 0x3e, 0x89, 0xff, 0x5e, 0xbe, 0xbe, 0x50, 0x5e, 0xbe, 0xc0, 0xc2, 0x4c, 0x3d, 0x46, 0xca, 0x8f, 0xbe, 0x5e, 0x8c, 0x43, 0x3d, 0xfd, 0x68, 0xea, 0xbb, 0x48, 0x9e, 0x36, 0xbe, 0x2c, 0x26, 0x50, 0xbc, 0xab, 0x01, 0x2b, 0xbd, 0xf6, 0x66, 0x42, 0xbd, 0x60, 0xdc, 0x33, 0x3e, 0xbb, 0x2a, 0xab, 0x3e, 0x1a, 0xfb, 0xff, 0xff, 0x04, 0x00, 0x00, 0x00, 0x90, 0x01, 0x00, 0x00, 0x44, 0x9e, 0xfc, 0x3d, 0xc9, 0x86, 0x0b, 0xbe, 0x68, 0x33, 0x5a, 0xbd, 0xfb, 0x22, 0xa4, 0xbb, 0x1a, 0xb3, 0x6a, 0x3e, 0xc8, 0xb0, 0xda, 0xbe, 0xd5, 0x41, 0xdb, 0xbd, 0x96, 0xa1, 0xc0, 0xbe, 0x01, 0xeb, 0x30, 0x3e, 0x76, 0x59, 0x2a, 0x3c, 0xd7, 0xdc, 0x89, 0xbe, 0xae, 0xc6, 0xd2, 0xbd, 0xb3, 0xf5, 0xa4, 0xbe, 0x52, 0x9a, 0x04, 0x3e, 0x15, 0xc1, 0x2f, 0x3d, 0xba, 0xf2, 0xa3, 0x3d, 0x43, 0x03, 0x4f, 0x3d, 0xb4, 0xf6, 0x3e, 0xbe, 0xd7, 0xac, 0x71, 0x3d, 0xa7, 0xb1, 0xc0, 0xbc, 0x17, 0xcc, 0x01, 0x3e, 0x70, 0xda, 0xa8, 0x3e, 0x47, 0xb1, 0x49, 0xbe, 0x47, 0xe9, 0xb7, 0x3d, 0x8f, 0x13, 0xd4, 0x3c, 0xe9, 0x6c, 0xc5, 0xbd, 0xce, 0x03, 0x26, 0xbe, 0x21, 0x63, 0xba, 0x3c, 0x35, 0x71, 0x1b, 0x3e, 0x11, 0x3a, 0xd9, 0xbd, 0x37, 0x9b, 0x33, 0xbd, 0xf4, 0x3a, 0x24, 0xbe, 0xff, 0xea, 0x03, 0x3e, 0x15, 0xbf, 0x49, 0x3d, 0xb9, 0x52, 0x18, 0x3d, 0xc0, 0x4d, 0x80, 0x3d, 0x7b, 0xc3, 0x58, 0x3e, 0x9e, 0x01, 0xa8, 0xbd, 0xe9, 0x6f, 0xab, 0x3e, 0x6a, 0x4e, 0x7e, 0x3e, 0x4e, 0x13, 0x0e, 0xbe, 0xf4, 0x34, 0x70, 0xbd, 0x76, 0x34, 0x99, 0x3e, 0xb3, 0xda, 0x48, 0xbe, 0xdc, 0xb8, 0x20, 0xbe, 0x83, 0x80, 0x19, 0xbe, 0xbe, 0xdb, 0x7f, 0xbc, 0xa7, 0x3f, 0x56, 0x3e, 0x52, 0xeb, 0x2f, 0xbd, 0x05, 0xf5, 0x87, 0xbe, 0x3e, 0x9d, 0x54, 0x3e, 0x20, 0xf8, 0x2d, 0xbd, 0x85, 0xaf, 0x4c, 0x3d, 0x66, 0x73, 0x8b, 0x3d, 0x58, 0x48, 0x01, 0x3e, 0x58, 0x23, 0x0e, 0xbe, 0xaa, 0x84, 0x2f, 0xbc, 0x8c, 0xae, 0xc6, 0xb9, 0x3d, 0xd5, 0x7a, 0x3c, 0xd0, 0xcc, 0xd0, 0xbe, 0x8a, 0xd6, 0x20, 0x3e, 0x03, 0x40, 0x2e, 0x3c, 0xf8, 0xb7, 0xc4, 0xbd, 0xbf, 0xc5, 0x51, 0xbc, 0x09, 0xcc, 0x8f, 0x3e, 0x0f, 0xdf, 0x8f, 0xbe, 0xa0, 0x46, 0xa7, 0x3d, 0xf1, 0x20, 0x5b, 0x3d, 0x4d, 0xfb, 0x27, 0xbe, 0x4e, 0xf4, 0x8c, 0x3e, 0x17, 0xf7, 0xf1, 0xbd, 0x73, 0x08, 0x3e, 0xbc, 0xe1, 0xbe, 0xc2, 0xbc, 0xe5, 0x13, 0xa1, 0xbe, 0xe9, 0x4b, 0x76, 0x3d, 0x5f, 0xfa, 0xe8, 0x3d, 0xb3, 0x02, 0x12, 0xbe, 0x3d, 0x42, 0x80, 0xbd, 0x52, 0xdc, 0x73, 0xbe, 0x45, 0x21, 0x90, 0xbe, 0xcf, 0xb6, 0x22, 0xbd, 0x23, 0x8f, 0x77, 0xbe, 0xc5, 0x6d, 0x22, 0x3f, 0x81, 0x67, 0x90, 0x3d, 0x05, 0x21, 0x74, 0x3e, 0x23, 0x71, 0xff, 0xbb, 0xda, 0x34, 0xe8, 0xbc, 0x53, 0x8d, 0x83, 0x3e, 0x79, 0x67, 0x9c, 0xbd, 0x96, 0xaa, 0xdb, 0x3d, 0x80, 0x0a, 0x8c, 0x3e, 0x51, 0x58, 0xcc, 0xbd, 0xb1, 0xf9, 0x58, 0x3e, 0xc3, 0xc8, 0x89, 0x3c, 0x91, 0x6d, 0xae, 0xbe, 0x8d, 0x00, 0x91, 0x3d, 0x56, 0xc3, 0x2f, 0xbd, 0xc2, 0xa3, 0x4f, 0xbe, 0xc3, 0xbb, 0xb6, 0xbe, 0x25, 0xea, 0xb1, 0x3c, 0xb6, 0xfc, 0xff, 0xff, 0x04, 0x00, 0x00, 0x00, 0x90, 0x01, 0x00, 0x00, 0xf2, 0x84, 0x81, 0xbe, 0x26, 0x47, 0x82, 0xbe, 0x96, 0x64, 0xac, 0xbe, 0x6e, 0xb8, 0xcc, 0xbd, 0xc8, 0x58, 0x2b, 0xbd, 0x6e, 0xe8, 0x3f, 0x3e, 0x3b, 0x1a, 0xb2, 0xbd, 0xbb, 0xf4, 0x5e, 0xbd, 0x0c, 0x7e, 0xaa, 0x3d, 0x2e, 0xfe, 0x43, 0x3e, 0x18, 0x95, 0x96, 0xbd, 0x80, 0x89, 0x35, 0xbe, 0x6c, 0x92, 0xa2, 0xbe, 0x20, 0xb3, 0xe6, 0x3d, 0x18, 0x94, 0x62, 0xbe, 0xe4, 0x1c, 0x3d, 0x3d, 0xf8, 0xae, 0x8d, 0x3e, 0xaa, 0x11, 0xd7, 0x3a, 0x43, 0x79, 0x68, 0xbe, 0xe0, 0x71, 0x49, 0xbd, 0xee, 0xa7, 0x3b, 0x3e, 0x41, 0x34, 0x1a, 0xbe, 0xcf, 0x68, 0x19, 0x3e, 0x50, 0x9b, 0xae, 0x3d, 0xf9, 0xae, 0x0a, 0x3d, 0x8b, 0x33, 0x92, 0xbd, 0xbf, 0x1f, 0xbb, 0xbd, 0xa3, 0x11, 0xa4, 0x3d, 0x86, 0x72, 0xce, 0x3d, 0x4e, 0xc3, 0x21, 0xbe, 0x0c, 0x15, 0x0c, 0xbe, 0x16, 0x21, 0x31, 0xbe, 0xcd, 0x11, 0x89, 0xbe, 0x78, 0x55, 0xf6, 0x3d, 0xf7, 0x84, 0x84, 0x3e, 0xd1, 0x0c, 0x51, 0xbe, 0xac, 0x2f, 0xf1, 0x3d, 0xf1, 0x95, 0x8b, 0xbe, 0x42, 0xf5, 0x4a, 0x3e, 0x1a, 0x54, 0xc4, 0x3b, 0xa2, 0x3d, 0xcc, 0xbd, 0x32, 0x08, 0xa2, 0xbe, 0x42, 0x52, 0x8b, 0xbe, 0x3c, 0x3e, 0x11, 0xbe, 0x6f, 0x8a, 0x82, 0x3e, 0x40, 0x67, 0xc6, 0xbc, 0x6b, 0x4e, 0x70, 0x3d, 0xbb, 0x3e, 0xe5, 0xbd, 0xe2, 0x2c, 0x53, 0x3e, 0x2b, 0x1e, 0x89, 0xbe, 0x31, 0xe0, 0x54, 0x3e, 0x05, 0x2d, 0x64, 0xbe, 0x31, 0x5a, 0xa2, 0xbe, 0xa5, 0x8d, 0xe4, 0x3b, 0x7c, 0xe4, 0x1e, 0x3e, 0x28, 0x8c, 0x82, 0xbd, 0x08, 0x22, 0xbe, 0x3d, 0xf4, 0x9b, 0x25, 0xbe, 0x17, 0xf4, 0xcb, 0xbd, 0x70, 0xb2, 0x6d, 0x3e, 0xf1, 0x41, 0x7f, 0xbe, 0x6a, 0x17, 0x46, 0xbe, 0x30, 0x6f, 0x99, 0x3d, 0x27, 0x6c, 0x38, 0xbc, 0x66, 0x2c, 0x4a, 0x3c, 0x6f, 0xf4, 0x0e, 0xbe, 0x1a, 0x92, 0x0a, 0xbe, 0x8b, 0x9f, 0x94, 0x3e, 0x65, 0x3f, 0x67, 0x3e, 0x16, 0xb6, 0x1a, 0x3e, 0xc6, 0x86, 0xaa, 0xbe, 0x4b, 0x1d, 0x39, 0xbe, 0x88, 0xe7, 0x15, 0xbd, 0x5b, 0x84, 0xc4, 0x3c, 0x1e, 0x50, 0xec, 0x3d, 0xaf, 0x09, 0xc5, 0xbe, 0x85, 0x98, 0x07, 0x3e, 0x77, 0xf8, 0x87, 0x3e, 0x26, 0x5b, 0xcc, 0x3e, 0x3d, 0x13, 0xdb, 0x3e, 0xf3, 0x38, 0x35, 0xbe, 0x86, 0x59, 0xf2, 0x3d, 0xde, 0xd6, 0x47, 0xbe, 0x23, 0x2e, 0x01, 0xbe, 0x4b, 0x94, 0x0d, 0x3d, 0x35, 0x59, 0xf7, 0xbe, 0xe9, 0x53, 0x8f, 0x3e, 0xd1, 0x88, 0x3b, 0xbd, 0x87, 0xcc, 0x0d, 0x3d, 0xc4, 0x24, 0x64, 0x3d, 0x96, 0x1d, 0x9b, 0xbe, 0x68, 0x84, 0x96, 0xbe, 0xb2, 0x06, 0x83, 0xbe, 0x15, 0xc1, 0x48, 0xbe, 0x8c, 0xe6, 0x0e, 0x3f, 0xc6, 0xbd, 0xad, 0xbe, 0x59, 0xfa, 0x9b, 0xbe, 0x67, 0x59, 0xfc, 0x3e, 0x63, 0xab, 0x02, 0x3f, 0x32, 0x2b, 0x43, 0x3e, 0x52, 0xfe, 0xff, 0xff, 0x04, 0x00, 0x00, 0x00, 0x90, 0x01, 0x00, 0x00, 0xfa, 0x33, 0x5c, 0x3e, 0x6a, 0x38, 0xf9, 0x3d, 0x3f, 0x6c, 0x1d, 0xbe, 0x5e, 0xae, 0xa7, 0x3e, 0xea, 0x51, 0x17, 0xbe, 0xfc, 0x8a, 0x4d, 0x3e, 0x0f, 0x31, 0x46, 0xbc, 0x2f, 0x42, 0xd8, 0xbc, 0xaf, 0x80, 0x91, 0x3e, 0xc2, 0xb2, 0xa6, 0x3d, 0x5b, 0x6e, 0x86, 0x3e, 0x8f, 0xf9, 0x3f, 0x3d, 0xc9, 0xbc, 0x25, 0xbd, 0x14, 0x61, 0xd5, 0x3e, 0xab, 0x0f, 0xaa, 0x3d, 0x00, 0xff, 0x69, 0x3e, 0xb4, 0x9a, 0x3e, 0x3d, 0x64, 0x31, 0x97, 0xbd, 0x91, 0x7d, 0xa7, 0xbe, 0x44, 0x44, 0xa9, 0x3d, 0x81, 0xa4, 0x58, 0xbe, 0xc6, 0x02, 0x26, 0xbe, 0x25, 0x1e, 0x24, 0x3e, 0xef, 0xdc, 0x7d, 0xbe, 0x46, 0xc9, 0x5d, 0x3e, 0x7a, 0x65, 0x9c, 0x3e, 0xcd, 0x58, 0xf4, 0x3c, 0xf4, 0xda, 0x7a, 0xbc, 0x46, 0x70, 0xdd, 0xbd, 0x15, 0xc7, 0x08, 0x3e, 0xa7, 0x1e, 0x32, 0x3e, 0x36, 0x63, 0x50, 0x3e, 0x39, 0x5e, 0xa1, 0x3b, 0xe8, 0xe5, 0xac, 0xbd, 0x5d, 0x63, 0x53, 0x3e, 0x70, 0xc7, 0x51, 0x3e, 0xe8, 0xb4, 0xa4, 0x3e, 0xa6, 0x2a, 0x1e, 0x3d, 0x68, 0x78, 0x76, 0xbd, 0xbf, 0xa2, 0x3a, 0x3e, 0x0a, 0xe1, 0xb7, 0xbd, 0xf5, 0x30, 0xa3, 0x3d, 0x49, 0x9a, 0x3a, 0xbe, 0x4e, 0x8d, 0xc4, 0x3d, 0x1e, 0x4d, 0x9d, 0x3c, 0x0f, 0xf7, 0x5a, 0xbd, 0x02, 0xb0, 0x77, 0xbd, 0x88, 0x58, 0x20, 0xbe, 0x9c, 0xc4, 0x6c, 0xbe, 0xa8, 0x39, 0x21, 0xbe, 0x54, 0xa4, 0xad, 0x3d, 0x3e, 0xce, 0x99, 0x3d, 0x0c, 0x5e, 0xa7, 0xbd, 0x49, 0xb8, 0x85, 0x3d, 0xab, 0x1b, 0x08, 0xbe, 0xce, 0x14, 0xf5, 0x3d, 0x1a, 0x7a, 0x4c, 0x3e, 0x46, 0xad, 0xdf, 0xbd, 0xe8, 0x20, 0xae, 0x3c, 0xb0, 0xf9, 0x8c, 0x3d, 0xea, 0x4e, 0xa4, 0xbe, 0xe6, 0x83, 0x89, 0xbe, 0xc2, 0xdb, 0x19, 0x3d, 0xd7, 0xfd, 0x0f, 0x3c, 0xf5, 0x31, 0xe5, 0x3e, 0x24, 0xcd, 0x00, 0xbe, 0x11, 0x33, 0x03, 0xbd, 0xe0, 0xe2, 0x20, 0x3e, 0xb6, 0x14, 0xac, 0x3e, 0x23, 0x0c, 0x56, 0xbe, 0xc5, 0xee, 0x02, 0xbc, 0xd0, 0x66, 0x25, 0x3e, 0xb2, 0x1b, 0x5d, 0x3e, 0x24, 0x6c, 0x23, 0x3e, 0x36, 0xf9, 0x14, 0x3e, 0xfc, 0x57, 0xee, 0x3d, 0x7b, 0x7b, 0xbe, 0xbc, 0xe0, 0xb9, 0x7c, 0xbd, 0xfa, 0x75, 0x67, 0x3d, 0x27, 0x4b, 0x19, 0x3e, 0x2c, 0x1a, 0x42, 0x3e, 0x35, 0x3c, 0x8a, 0x3d, 0xb7, 0xb3, 0xa7, 0xbe, 0xf3, 0xe4, 0x2c, 0xbd, 0x27, 0xe0, 0x03, 0xbd, 0x01, 0x6b, 0x44, 0x3e, 0x9e, 0x70, 0x46, 0x3e, 0x36, 0x8b, 0x77, 0xbe, 0x6a, 0x66, 0xcc, 0xbd, 0xb3, 0xc1, 0xc3, 0x3d, 0x34, 0x45, 0xf5, 0x3d, 0x4d, 0x04, 0xce, 0x3d, 0x03, 0xe5, 0xe9, 0x3d, 0xcf, 0x32, 0x48, 0xbd, 0x47, 0xed, 0x08, 0xbf, 0x6f, 0x0a, 0xe3, 0x3c, 0x2a, 0x64, 0x44, 0xbe, 0xb7, 0x56, 0x5f, 0xbe, 0x2b, 0x86, 0xff, 0xbe, 0x2c, 0x28, 0x67, 0x3e, 0xee, 0xff, 0xff, 0xff, 0x04, 0x00, 0x00, 0x00, 0x04, 0x00, 0x00, 0x00, 0x34, 0x82, 0xc1, 0x3c, 0x00, 0x00, 0x06, 0x00, 0x08, 0x00, 0x04, 0x00, 0x06, 0x00, 0x00, 0x00, 0x04, 0x00, 0x00, 0x00, 0xa0, 0x00, 0x00, 0x00, 0x00, 0x00, 0x00, 0x00, 0x00, 0x00, 0x00, 0x00, 0x00, 0x00, 0x00, 0x00, 0x00, 0x00, 0x00, 0x00, 0x00, 0x00, 0x00, 0x00, 0x00, 0x00, 0x00, 0x00, 0x00, 0x00, 0x00, 0x00, 0x00, 0x00, 0x00, 0x00, 0x00, 0x00, 0x00, 0x00, 0x00, 0x00, 0x00, 0x00, 0x00, 0x00, 0x00, 0x00, 0x00, 0x00, 0x00, 0x00, 0x00, 0x00, 0x00, 0x00, 0x00, 0x00, 0x00, 0x00, 0x00, 0x00, 0x00, 0x00, 0x00, 0x00, 0x00, 0x00, 0x00, 0x00, 0x00, 0x00, 0x00, 0x00, 0x00, 0x00, 0x00, 0x00, 0x00, 0x00, 0x00, 0x00, 0x00, 0x00, 0x00, 0x00, 0x00, 0x00, 0x00, 0x00, 0x00, 0x00, 0x00, 0x00, 0x00, 0x00, 0x00, 0x00, 0x00, 0x00, 0x00, 0x00, 0x00, 0x00, 0x00, 0x00, 0x00, 0x00, 0x00, 0x00, 0x00, 0x00, 0x00, 0x00, 0x00, 0x00, 0x00, 0x00, 0x00, 0x00, 0x00, 0x00, 0x00, 0x00, 0x00, 0x00, 0x00, 0x00, 0x00, 0x00, 0x00, 0x00, 0x00, 0x00, 0x00, 0x00, 0x00, 0x00, 0x00, 0x00, 0x00, 0x00, 0x00, 0x00, 0x00, 0x00, 0x00, 0x00, 0x00, 0x00, 0x00, 0x00, 0x00, 0x00, 0x00, 0x00, 0x00, 0x00, 0x00, 0x00, 0x00, 0x00, 0x00, 0x00, 0x04, 0xf8, 0xff, 0xff, 0x08, 0xf8, 0xff, 0xff, 0x0f, 0x00, 0x00, 0x00, 0x4d, 0x4c, 0x49, 0x52, 0x20, 0x43, 0x6f, 0x6e, 0x76, 0x65, 0x72, 0x74, 0x65, 0x64, 0x2e, 0x00, 0x01, 0x00, 0x00, 0x00, 0x14, 0x00, 0x00, 0x00, 0x00, 0x00, 0x0e, 0x00, 0x18, 0x00, 0x14, 0x00, 0x10, 0x00, 0x0c, 0x00, 0x08, 0x00, 0x04, 0x00, 0x0e, 0x00, 0x00, 0x00, 0x14, 0x00, 0x00, 0x00, 0x1c, 0x00, 0x00, 0x00, 0x74, 0x01, 0x00, 0x00, 0x78, 0x01, 0x00, 0x00, 0x7c, 0x01, 0x00, 0x00, 0x04, 0x00, 0x00, 0x00, 0x6d, 0x61, 0x69, 0x6e, 0x00, 0x00, 0x00, 0x00, 0x03, 0x00, 0x00, 0x00, 0xbc, 0x00, 0x00, 0x00, 0x4c, 0x00, 0x00, 0x00, 0x04, 0x00, 0x00, 0x00, 0xca, 0xff, 0xff, 0xff, 0x14, 0x00, 0x00, 0x00, 0x00, 0x00, 0x00, 0x08, 0x10, 0x00, 0x00, 0x00, 0x14, 0x00, 0x00, 0x00, 0x02, 0x00, 0x00, 0x00, 0x84, 0xf8, 0xff, 0xff, 0x01, 0x00, 0x00, 0x00, 0x16, 0x00, 0x00, 0x00, 0x03, 0x00, 0x00, 0x00, 0x15, 0x00, 0x00, 0x00, 0x0f, 0x00, 0x00, 0x00, 0x02, 0x00, 0x00, 0x00, 0x00, 0x00, 0x0e, 0x00, 0x1a, 0x00, 0x14, 0x00, 0x10, 0x00, 0x0c, 0x00, 0x0b, 0x00, 0x04, 0x00, 0x0e, 0x00, 0x00, 0x00, 0x24, 0x00, 0x00, 0x00, 0x00, 0x00, 0x00, 0x20, 0x2c, 0x00, 0x00, 0x00, 0x30, 0x00, 0x00, 0x00, 0x01, 0x00, 0x00, 0x00, 0x00, 0x00, 0x0e, 0x00, 0x10, 0x00, 0x0c, 0x00, 0x08, 0x00, 0x00, 0x00, 0x00, 0x00, 0x04, 0x00, 0x0e, 0x00, 0x00, 0x00, 0x02, 0x00, 0x00, 0x00, 0x05, 0x00, 0x00, 0x00, 0x05, 0x00, 0x00, 0x00, 0x01, 0x00, 0x00, 0x00, 0x15, 0x00, 0x00, 0x00, 0x04, 0x00, 0x00, 0x00, 0x14, 0x00, 0x00, 0x00, 0x10, 0x00, 0x00, 0x00, 0x11, 0x00, 0x00, 0x00, 0x12, 0x00, 0x00, 0x00, 0x00, 0x00, 0x16, 0x00, 0x18, 0x00, 0x00, 0x00, 0x14, 0x00, 0x10, 0x00, 0x0f, 0x00, 0x08, 0x00, 0x00, 0x00, 0x00, 0x00, 0x00, 0x00, 0x04, 0x00, 0x16, 0x00, 0x00, 0x00, 0x14, 0x00, 0x00, 0x00, 0x1c, 0x00, 0x00, 0x00, 0x00, 0x00, 0x00, 0x47, 0x20, 0x00, 0x00, 0x00, 0x24, 0x00, 0x00, 0x00, 0x00, 0x00, 0x00, 0x00, 0x08, 0x00, 0x0c, 0x00, 0x0b, 0x00, 0x04, 0x00, 0x08, 0x00, 0x00, 0x00, 0x00, 0x00, 0x20, 0x41, 0x00, 0x00, 0x00, 0x04, 0x01, 0x00, 0x00, 0x00, 0x14, 0x00, 0x00, 0x00, 0x18, 0x00, 0x00, 0x00, 0x00, 0x00, 0x00, 0x00, 0x0b, 0x00, 0x00, 0x00, 0x0c, 0x00, 0x00, 0x00, 0x0d, 0x00, 0x00, 0x00, 0x0e, 0x00, 0x00, 0x00, 0x03, 0x00, 0x00, 0x00, 0x04, 0x00, 0x00, 0x00, 0x05, 0x00, 0x00, 0x00, 0x06, 0x00, 0x00, 0x00, 0xff, 0xff, 0xff, 0xff, 0xff, 0xff, 0xff, 0xff, 0xff, 0xff, 0xff, 0xff, 0x07, 0x00, 0x00, 0x00, 0x08, 0x00, 0x00, 0x00, 0x09, 0x00, 0x00, 0x00, 0x0a, 0x00, 0x00, 0x00, 0xff, 0xff, 0xff, 0xff, 0xff, 0xff, 0xff, 0xff, 0x01, 0x00, 0x00, 0x00, 0x13, 0x00, 0x00, 0x00, 0xff, 0xff, 0xff, 0xff, 0xff, 0xff, 0xff, 0xff, 0xff, 0xff, 0xff, 0xff, 0xff, 0xff, 0xff, 0xff, 0x01, 0x00, 0x00, 0x00, 0x16, 0x00, 0x00, 0x00, 0x01, 0x00, 0x00, 0x00, 0x00, 0x00, 0x00, 0x00, 0x17, 0x00, 0x00, 0x00, 0x1c, 0x06, 0x00, 0x00, 0xc0, 0x05, 0x00, 0x00, 0x54, 0x05, 0x00, 0x00, 0x14, 0x05, 0x00, 0x00, 0xd4, 0x04, 0x00, 0x00, 0x94, 0x04, 0x00, 0x00, 0x54, 0x04, 0x00, 0x00, 0x18, 0x04, 0x00, 0x00, 0xdc, 0x03, 0x00, 0x00, 0xa0, 0x03, 0x00, 0x00, 0x64, 0x03, 0x00, 0x00, 0x24, 0x03, 0x00, 0x00, 0xe4, 0x02, 0x00, 0x00, 0xa0, 0x02, 0x00, 0x00, 0x5c, 0x02, 0x00, 0x00, 0x14, 0x02, 0x00, 0x00, 0xd0, 0x01, 0x00, 0x00, 0x74, 0x01, 0x00, 0x00, 0x30, 0x01, 0x00, 0x00, 0xec, 0x00, 0x00, 0x00, 0x94, 0x00, 0x00, 0x00, 0x50, 0x00, 0x00, 0x00, 0x04, 0x00, 0x00, 0x00, 0x56, 0xfa, 0xff, 0xff, 0x00, 0x00, 0x00, 0x01, 0x10, 0x00, 0x00, 0x00, 0x10, 0x00, 0x00, 0x00, 0x17, 0x00, 0x00, 0x00, 0x28, 0x00, 0x00, 0x00, 0x40, 0xfa, 0xff, 0xff, 0x19, 0x00, 0x00, 0x00, 0x53, 0x74, 0x61, 0x74, 0x65, 0x66, 0x75, 0x6c, 0x50, 0x61, 0x72, 0x74, 0x69, 0x74, 0x69, 0x6f, 0x6e, 0x65, 0x64, 0x43, 0x61, 0x6c, 0x6c, 0x3a, 0x30, 0x00, 0x00, 0x00, 0x02, 0x00, 0x00, 0x00, 0x04, 0x00, 0x00, 0x00, 0x01, 0x00, 0x00, 0x00, 0x9e, 0xfa, 0xff, 0xff, 0x00, 0x00, 0x00, 0x01, 0x10, 0x00, 0x00, 0x00, 0x10, 0x00, 0x00, 0x00, 0x16, 0x00, 0x00, 0x00, 0x20, 0x00, 0x00, 0x00, 0x88, 0xfa, 0xff, 0xff, 0x11, 0x00, 0x00, 0x00, 0x74, 0x66, 0x6c, 0x2e, 0x73, 0x74, 0x72, 0x69, 0x64, 0x65, 0x64, 0x5f, 0x73, 0x6c, 0x69, 0x63, 0x65, 0x00, 0x00, 0x00, 0x02, 0x00, 0x00, 0x00, 0x04, 0x00, 0x00, 0x00, 0x0a, 0x00, 0x00, 0x00, 0xde, 0xfa, 0xff, 0xff, 0x00, 0x00, 0x00, 0x01, 0x10, 0x00, 0x00, 0x00, 0x10, 0x00, 0x00, 0x00, 0x15, 0x00, 0x00, 0x00, 0x30, 0x00, 0x00, 0x00, 0xc8, 0xfa, 0xff, 0xff, 0x20, 0x00, 0x00, 0x00, 0x74, 0x66, 0x6c, 0x2e, 0x75, 0x6e, 0x69, 0x64, 0x69, 0x72, 0x65, 0x63, 0x74, 0x69, 0x6f, 0x6e, 0x61, 0x6c, 0x5f, 0x73, 0x65, 0x71, 0x75, 0x65, 0x6e, 0x63, 0x65, 0x5f, 0x6c, 0x73, 0x74, 0x6d, 0x00, 0x00, 0x00, 0x00, 0x03, 0x00, 0x00, 0x00, 0x04, 0x00, 0x00, 0x00, 0x05, 0x00, 0x00, 0x00, 0x0a, 0x00, 0x00, 0x00, 0x8a, 0xfb, 0xff, 0xff, 0x00, 0x00, 0x01, 0x01, 0x0c, 0x00, 0x00, 0x00, 0x0c, 0x00, 0x00, 0x00, 0x24, 0x00, 0x00, 0x00, 0x18, 0xfb, 0xff, 0xff, 0x16, 0x00, 0x00, 0x00, 0x73, 0x65, 0x71, 0x75, 0x65, 0x6e, 0x74, 0x69, 0x61, 0x6c, 0x2f, 0x6c, 0x73, 0x74, 0x6d, 0x2f, 0x7a, 0x65, 0x72, 0x6f, 0x73, 0x31, 0x00, 0x00, 0x02, 0x00, 0x00, 0x00, 0x04, 0x00, 0x00, 0x00, 0x0a, 0x00, 0x00, 0x00, 0x7e, 0xff, 0xff, 0xff, 0x00, 0x00, 0x00, 0x01, 0x14, 0x00, 0x00, 0x00, 0x14, 0x00, 0x00, 0x00, 0x13, 0x00, 0x00, 0x00, 0x00, 0x00, 0x00, 0x02, 0x20, 0x00, 0x00, 0x00, 0x60, 0xfb, 0xff, 0xff, 0x10, 0x00, 0x00, 0x00, 0x61, 0x72, 0x69, 0x74, 0x68, 0x2e, 0x63, 0x6f, 0x6e, 0x73, 0x74, 0x61, 0x6e, 0x74, 0x31, 0x34, 0x00, 0x00, 0x00, 0x00, 0x01, 0x00, 0x00, 0x00, 0x03, 0x00, 0x00, 0x00, 0xbe, 0xff, 0xff, 0xff, 0x00, 0x00, 0x00, 0x01, 0x14, 0x00, 0x00, 0x00, 0x14, 0x00, 0x00, 0x00, 0x12, 0x00, 0x00, 0x00, 0x00, 0x00, 0x00, 0x02, 0x20, 0x00, 0x00, 0x00, 0xa0, 0xfb, 0xff, 0xff, 0x10, 0x00, 0x00, 0x00, 0x61, 0x72, 0x69, 0x74, 0x68, 0x2e, 0x63, 0x6f, 0x6e, 0x73, 0x74, 0x61, 0x6e, 0x74, 0x31, 0x33, 0x00, 0x00, 0x00, 0x00, 0x01, 0x00, 0x00, 0x00, 0x03, 0x00, 0x00, 0x00, 0x00, 0x00, 0x16, 0x00, 0x1c, 0x00, 0x18, 0x00, 0x17, 0x00, 0x10, 0x00, 0x0c, 0x00, 0x08, 0x00, 0x00, 0x00, 0x00, 0x00, 0x00, 0x00, 0x07, 0x00, 0x16, 0x00, 0x00, 0x00, 0x00, 0x00, 0x00, 0x01, 0x14, 0x00, 0x00, 0x00, 0x14, 0x00, 0x00, 0x00, 0x11, 0x00, 0x00, 0x00, 0x00, 0x00, 0x00, 0x02, 0x20, 0x00, 0x00, 0x00, 0xf8, 0xfb, 0xff, 0xff, 0x10, 0x00, 0x00, 0x00, 0x61, 0x72, 0x69, 0x74, 0x68, 0x2e, 0x63, 0x6f, 0x6e, 0x73, 0x74, 0x61, 0x6e, 0x74, 0x31, 0x32, 0x00, 0x00, 0x00, 0x00, 0x01, 0x00, 0x00, 0x00, 0x03, 0x00, 0x00, 0x00, 0x4a, 0xfc, 0xff, 0xff, 0x00, 0x00, 0x00, 0x01, 0x10, 0x00, 0x00, 0x00, 0x10, 0x00, 0x00, 0x00, 0x10, 0x00, 0x00, 0x00, 0x24, 0x00, 0x00, 0x00, 0x34, 0xfc, 0xff, 0xff, 0x17, 0x00, 0x00, 0x00, 0x73, 0x65, 0x71, 0x75, 0x65, 0x6e, 0x74, 0x69, 0x61, 0x6c, 0x2f, 0x64, 0x65, 0x6e, 0x73, 0x65, 0x2f, 0x4d, 0x61, 0x74, 0x4d, 0x75, 0x6c, 0x00, 0x02, 0x00, 0x00, 0x00, 0x01, 0x00, 0x00, 0x00, 0x0a, 0x00, 0x00, 0x00, 0x8e, 0xfc, 0xff, 0xff, 0x00, 0x00, 0x00, 0x01, 0x10, 0x00, 0x00, 0x00, 0x10, 0x00, 0x00, 0x00, 0x0f, 0x00, 0x00, 0x00, 0x20, 0x00, 0x00, 0x00, 0x78, 0xfc, 0xff, 0xff, 0x10, 0x00, 0x00, 0x00, 0x61, 0x72, 0x69, 0x74, 0x68, 0x2e, 0x63, 0x6f, 0x6e, 0x73, 0x74, 0x61, 0x6e, 0x74, 0x31, 0x31, 0x00, 0x00, 0x00, 0x00, 0x02, 0x00, 0x00, 0x00, 0x0a, 0x00, 0x00, 0x00, 0x01, 0x00, 0x00, 0x00, 0xce, 0xfc, 0xff, 0xff, 0x00, 0x00, 0x00, 0x01, 0x10, 0x00, 0x00, 0x00, 0x10, 0x00, 0x00, 0x00, 0x0e, 0x00, 0x00, 0x00, 0x20, 0x00, 0x00, 0x00, 0xb8, 0xfc, 0xff, 0xff, 0x10, 0x00, 0x00, 0x00, 0x61, 0x72, 0x69, 0x74, 0x68, 0x2e, 0x63, 0x6f, 0x6e, 0x73, 0x74, 0x61, 0x6e, 0x74, 0x31, 0x30, 0x00, 0x00, 0x00, 0x00, 0x02, 0x00, 0x00, 0x00, 0x0a, 0x00, 0x00, 0x00, 0x01, 0x00, 0x00, 0x00, 0x0e, 0xfd, 0xff, 0xff, 0x00, 0x00, 0x00, 0x01, 0x10, 0x00, 0x00, 0x00, 0x10, 0x00, 0x00, 0x00, 0x0d, 0x00, 0x00, 0x00, 0x1c, 0x00, 0x00, 0x00, 0xf8, 0xfc, 0xff, 0xff, 0x0f, 0x00, 0x00, 0x00, 0x61, 0x72, 0x69, 0x74, 0x68, 0x2e, 0x63, 0x6f, 0x6e, 0x73, 0x74, 0x61, 0x6e, 0x74, 0x39, 0x00, 0x02, 0x00, 0x00, 0x00, 0x0a, 0x00, 0x00, 0x00, 0x01, 0x00, 0x00, 0x00, 0x4a, 0xfd, 0xff, 0xff, 0x00, 0x00, 0x00, 0x01, 0x10, 0x00, 0x00, 0x00, 0x10, 0x00, 0x00, 0x00, 0x0c, 0x00, 0x00, 0x00, 0x1c, 0x00, 0x00, 0x00, 0x34, 0xfd, 0xff, 0xff, 0x0f, 0x00, 0x00, 0x00, 0x61, 0x72, 0x69, 0x74, 0x68, 0x2e, 0x63, 0x6f, 0x6e, 0x73, 0x74, 0x61, 0x6e, 0x74, 0x38, 0x00, 0x02, 0x00, 0x00, 0x00, 0x0a, 0x00, 0x00, 0x00, 0x01, 0x00, 0x00, 0x00, 0x86, 0xfd, 0xff, 0xff, 0x00, 0x00, 0x00, 0x01, 0x10, 0x00, 0x00, 0x00, 0x10, 0x00, 0x00, 0x00, 0x0b, 0x00, 0x00, 0x00, 0x1c, 0x00, 0x00, 0x00, 0x70, 0xfd, 0xff, 0xff, 0x0f, 0x00, 0x00, 0x00, 0x61, 0x72, 0x69, 0x74, 0x68, 0x2e, 0x63, 0x6f, 0x6e, 0x73, 0x74, 0x61, 0x6e, 0x74, 0x37, 0x00, 0x01, 0x00, 0x00, 0x00, 0x0a, 0x00, 0x00, 0x00, 0xbe, 0xfd, 0xff, 0xff, 0x00, 0x00, 0x00, 0x01, 0x10, 0x00, 0x00, 0x00, 0x10, 0x00, 0x00, 0x00, 0x0a, 0x00, 0x00, 0x00, 0x1c, 0x00, 0x00, 0x00, 0xa8, 0xfd, 0xff, 0xff, 0x0f, 0x00, 0x00, 0x00, 0x61, 0x72, 0x69, 0x74, 0x68, 0x2e, 0x63, 0x6f, 0x6e, 0x73, 0x74, 0x61, 0x6e, 0x74, 0x36, 0x00, 0x01, 0x00, 0x00, 0x00, 0x0a, 0x00, 0x00, 0x00, 0xf6, 0xfd, 0xff, 0xff, 0x00, 0x00, 0x00, 0x01, 0x10, 0x00, 0x00, 0x00, 0x10, 0x00, 0x00, 0x00, 0x09, 0x00, 0x00, 0x00, 0x1c, 0x00, 0x00, 0x00, 0xe0, 0xfd, 0xff, 0xff, 0x0f, 0x00, 0x00, 0x00, 0x61, 0x72, 0x69, 0x74, 0x68, 0x2e, 0x63, 0x6f, 0x6e, 0x73, 0x74, 0x61, 0x6e, 0x74, 0x35, 0x00, 0x01, 0x00, 0x00, 0x00, 0x0a, 0x00, 0x00, 0x00, 0x2e, 0xfe, 0xff, 0xff, 0x00, 0x00, 0x00, 0x01, 0x10, 0x00, 0x00, 0x00, 0x10, 0x00, 0x00, 0x00, 0x08, 0x00, 0x00, 0x00, 0x1c, 0x00, 0x00, 0x00, 0x18, 0xfe, 0xff, 0xff, 0x0f, 0x00, 0x00, 0x00, 0x61, 0x72, 0x69, 0x74, 0x68, 0x2e, 0x63, 0x6f, 0x6e, 0x73, 0x74, 0x61, 0x6e, 0x74, 0x34, 0x00, 0x01, 0x00, 0x00, 0x00, 0x0a, 0x00, 0x00, 0x00, 0x66, 0xfe, 0xff, 0xff, 0x00, 0x00, 0x00, 0x01, 0x10, 0x00, 0x00, 0x00, 0x10, 0x00, 0x00, 0x00, 0x07, 0x00, 0x00, 0x00, 0x1c, 0x00, 0x00, 0x00, 0x50, 0xfe, 0xff, 0xff, 0x0f, 0x00, 0x00, 0x00, 0x61, 0x72, 0x69, 0x74, 0x68, 0x2e, 0x63, 0x6f, 0x6e, 0x73, 0x74, 0x61, 0x6e, 0x74, 0x33, 0x00, 0x02, 0x00, 0x00, 0x00, 0x0a, 0x00, 0x00, 0x00, 0x0a, 0x00, 0x00, 0x00, 0xa2, 0xfe, 0xff, 0xff, 0x00, 0x00, 0x00, 0x01, 0x10, 0x00, 0x00, 0x00, 0x10, 0x00, 0x00, 0x00, 0x06, 0x00, 0x00, 0x00, 0x1c, 0x00, 0x00, 0x00, 0x8c, 0xfe, 0xff, 0xff, 0x0f, 0x00, 0x00, 0x00, 0x61, 0x72, 0x69, 0x74, 0x68, 0x2e, 0x63, 0x6f, 0x6e, 0x73, 0x74, 0x61, 0x6e, 0x74, 0x32, 0x00, 0x02, 0x00, 0x00, 0x00, 0x0a, 0x00, 0x00, 0x00, 0x0a, 0x00, 0x00, 0x00, 0xde, 0xfe, 0xff, 0xff, 0x00, 0x00, 0x00, 0x01, 0x10, 0x00, 0x00, 0x00, 0x10, 0x00, 0x00, 0x00, 0x05, 0x00, 0x00, 0x00, 0x1c, 0x00, 0x00, 0x00, 0xc8, 0xfe, 0xff, 0xff, 0x0f, 0x00, 0x00, 0x00, 0x61, 0x72, 0x69, 0x74, 0x68, 0x2e, 0x63, 0x6f, 0x6e, 0x73, 0x74, 0x61, 0x6e, 0x74, 0x31, 0x00, 0x02, 0x00, 0x00, 0x00, 0x0a, 0x00, 0x00, 0x00, 0x0a, 0x00, 0x00, 0x00, 0x1a, 0xff, 0xff, 0xff, 0x00, 0x00, 0x00, 0x01, 0x10, 0x00, 0x00, 0x00, 0x10, 0x00, 0x00, 0x00, 0x04, 0x00, 0x00, 0x00, 0x1c, 0x00, 0x00, 0x00, 0x04, 0xff, 0xff, 0xff, 0x0e, 0x00, 0x00, 0x00, 0x61, 0x72, 0x69, 0x74, 0x68, 0x2e, 0x63, 0x6f, 0x6e, 0x73, 0x74, 0x61, 0x6e, 0x74, 0x00, 0x00, 0x02, 0x00, 0x00, 0x00, 0x0a, 0x00, 0x00, 0x00, 0x0a, 0x00, 0x00, 0x00, 0x56, 0xff, 0xff, 0xff, 0x00, 0x00, 0x00, 0x01, 0x10, 0x00, 0x00, 0x00, 0x10, 0x00, 0x00, 0x00, 0x03, 0x00, 0x00, 0x00, 0x34, 0x00, 0x00, 0x00, 0x40, 0xff, 0xff, 0xff, 0x27, 0x00, 0x00, 0x00, 0x73, 0x65, 0x71, 0x75, 0x65, 0x6e, 0x74, 0x69, 0x61, 0x6c, 0x2f, 0x64, 0x65, 0x6e, 0x73, 0x65, 0x2f, 0x42, 0x69, 0x61, 0x73, 0x41, 0x64, 0x64, 0x2f, 0x52, 0x65, 0x61, 0x64, 0x56, 0x61, 0x72, 0x69, 0x61, 0x62, 0x6c, 0x65, 0x4f, 0x70, 0x00, 0x01, 0x00, 0x00, 0x00, 0x01, 0x00, 0x00, 0x00, 0x00, 0x00, 0x16, 0x00, 0x14, 0x00, 0x10, 0x00, 0x00, 0x00, 0x00, 0x00, 0x0c, 0x00, 0x08, 0x00, 0x07, 0x00, 0x00, 0x00, 0x00, 0x00, 0x06, 0x00, 0x16, 0x00, 0x00, 0x00, 0x00, 0x00, 0x01, 0x01, 0x0c, 0x00, 0x00, 0x00, 0x0c, 0x00, 0x00, 0x00, 0x24, 0x00, 0x00, 0x00, 0xa4, 0xff, 0xff, 0xff, 0x15, 0x00, 0x00, 0x00, 0x73, 0x65, 0x71, 0x75, 0x65, 0x6e, 0x74, 0x69, 0x61, 0x6c, 0x2f, 0x6c, 0x73, 0x74, 0x6d, 0x2f, 0x7a, 0x65, 0x72, 0x6f, 0x73, 0x00, 0x00, 0x00, 0x02, 0x00, 0x00, 0x00, 0x04, 0x00, 0x00, 0x00, 0x0a, 0x00, 0x00, 0x00, 0x00, 0x00, 0x16, 0x00, 0x18, 0x00, 0x14, 0x00, 0x00, 0x00, 0x10, 0x00, 0x0c, 0x00, 0x08, 0x00, 0x00, 0x00, 0x00, 0x00, 0x00, 0x00, 0x07, 0x00, 0x16, 0x00, 0x00, 0x00, 0x00, 0x00, 0x00, 0x01, 0x14, 0x00, 0x00, 0x00, 0x14, 0x00, 0x00, 0x00, 0x01, 0x00, 0x00, 0x00, 0x24, 0x00, 0x00, 0x00, 0x04, 0x00, 0x04, 0x00, 0x04, 0x00, 0x00, 0x00, 0x13, 0x00, 0x00, 0x00, 0x73, 0x65, 0x72, 0x76, 0x69, 0x6e, 0x67, 0x5f, 0x64, 0x65, 0x66, 0x61, 0x75, 0x6c, 0x74, 0x5f, 0x78, 0x3a, 0x30, 0x00, 0x03, 0x00, 0x00, 0x00, 0x04, 0x00, 0x00, 0x00, 0x05, 0x00, 0x00, 0x00, 0x01, 0x00, 0x00, 0x00, 0x03, 0x00, 0x00, 0x00, 0x30, 0x00, 0x00, 0x00, 0x14, 0x00, 0x00, 0x00, 0x04, 0x00, 0x00, 0x00, 0xe8, 0xff, 0xff, 0xff, 0x09, 0x00, 0x00, 0x00, 0x00, 0x00, 0x00, 0x09, 0xf4, 0xff, 0xff, 0xff, 0x2d, 0x00, 0x00, 0x00, 0x00, 0x00, 0x00, 0x2d, 0x0c, 0x00, 0x0c, 0x00, 0x0b, 0x00, 0x00, 0x00, 0x00, 0x00, 0x04, 0x00, 0x0c, 0x00, 0x00, 0x00, 0x2c, 0x00, 0x00, 0x00, 0x00, 0x00, 0x00, 0x2c};
const int model_data_len = 5236;
float x[5] = {0.2715297121634169, 0.32079851439182916, 0.2946262766945218, 0.2924791086350975, 0.26978876508820804};
const int input_size = 5;
const int output_size = 1;