
    // if having troubles with min/max, uncomment the following
    // #undef min    
    // #undef max
    #ifdef __has_attribute
    #define HAVE_ATTRIBUTE(x) __has_attribute(x)
    #else
    #define HAVE_ATTRIBUTE(x) 0
    #endif
    #if HAVE_ATTRIBUTE(aligned) || (defined(__GNUC__) && !defined(__clang__))
    #define DATA_ALIGN_ATTRIBUTE __attribute__((aligned(4)))
    #else
    #define DATA_ALIGN_ATTRIBUTE
    #endif
    const unsigned char model_data[] DATA_ALIGN_ATTRIBUTE = {0x1c, 0x00, 0x00, 0x00, 0x54, 0x46, 0x4c, 0x33, 0x14, 0x00, 0x20, 0x00, 0x1c, 0x00, 0x18, 0x00, 0x14, 0x00, 0x10, 0x00, 0x0c, 0x00, 0x00, 0x00, 0x08, 0x00, 0x04, 0x00, 0x14, 0x00, 0x00, 0x00, 0x1c, 0x00, 0x00, 0x00, 0x8c, 0x00, 0x00, 0x00, 0xe4, 0x00, 0x00, 0x00, 0x08, 0x15, 0x00, 0x00, 0x18, 0x15, 0x00, 0x00, 0x34, 0x1d, 0x00, 0x00, 0x03, 0x00, 0x00, 0x00, 0x01, 0x00, 0x00, 0x00, 0x10, 0x00, 0x00, 0x00, 0x00, 0x00, 0x0a, 0x00, 0x10, 0x00, 0x0c, 0x00, 0x08, 0x00, 0x04, 0x00, 0x0a, 0x00, 0x00, 0x00, 0x0c, 0x00, 0x00, 0x00, 0x1c, 0x00, 0x00, 0x00, 0x3c, 0x00, 0x00, 0x00, 0x0f, 0x00, 0x00, 0x00, 0x73, 0x65, 0x72, 0x76, 0x69, 0x6e, 0x67, 0x5f, 0x64, 0x65, 0x66, 0x61, 0x75, 0x6c, 0x74, 0x00, 0x01, 0x00, 0x00, 0x00, 0x04, 0x00, 0x00, 0x00, 0x9c, 0xff, 0xff, 0xff, 0x16, 0x00, 0x00, 0x00, 0x04, 0x00, 0x00, 0x00, 0x08, 0x00, 0x00, 0x00, 0x6f, 0x75, 0x74, 0x70, 0x75, 0x74, 0x5f, 0x30, 0x00, 0x00, 0x00, 0x00, 0x01, 0x00, 0x00, 0x00, 0x04, 0x00, 0x00, 0x00, 0x76, 0xec, 0xff, 0xff, 0x04, 0x00, 0x00, 0x00, 0x01, 0x00, 0x00, 0x00, 0x78, 0x00, 0x00, 0x00, 0x02, 0x00, 0x00, 0x00, 0x34, 0x00, 0x00, 0x00, 0x04, 0x00, 0x00, 0x00, 0xdc, 0xff, 0xff, 0xff, 0x19, 0x00, 0x00, 0x00, 0x04, 0x00, 0x00, 0x00, 0x13, 0x00, 0x00, 0x00, 0x43, 0x4f, 0x4e, 0x56, 0x45, 0x52, 0x53, 0x49, 0x4f, 0x4e, 0x5f, 0x4d, 0x45, 0x54, 0x41, 0x44, 0x41, 0x54, 0x41, 0x00, 0x08, 0x00, 0x0c, 0x00, 0x08, 0x00, 0x04, 0x00, 0x08, 0x00, 0x00, 0x00, 0x18, 0x00, 0x00, 0x00, 0x04, 0x00, 0x00, 0x00, 0x13, 0x00, 0x00, 0x00, 0x6d, 0x69, 0x6e, 0x5f, 0x72, 0x75, 0x6e, 0x74, 0x69, 0x6d, 0x65, 0x5f, 0x76, 0x65, 0x72, 0x73, 0x69, 0x6f, 0x6e, 0x00, 0x1a, 0x00, 0x00, 0x00, 0x20, 0x14, 0x00, 0x00, 0x18, 0x14, 0x00, 0x00, 0x18, 0x13, 0x00, 0x00, 0xfc, 0x12, 0x00, 0x00, 0x68, 0x0f, 0x00, 0x00, 0xd4, 0x0b, 0x00, 0x00, 0x40, 0x08, 0x00, 0x00, 0xac, 0x04, 0x00, 0x00, 0x60, 0x04, 0x00, 0x00, 0x14, 0x04, 0x00, 0x00, 0xc8, 0x03, 0x00, 0x00, 0x7c, 0x03, 0x00, 0x00, 0x30, 0x03, 0x00, 0x00, 0xe4, 0x02, 0x00, 0x00, 0x98, 0x02, 0x00, 0x00, 0x4c, 0x02, 0x00, 0x00, 0x00, 0x02, 0x00, 0x00, 0xe4, 0x01, 0x00, 0x00, 0xc8, 0x01, 0x00, 0x00, 0xac, 0x01, 0x00, 0x00, 0xac, 0x00, 0x00, 0x00, 0xa4, 0x00, 0x00, 0x00, 0x9c, 0x00, 0x00, 0x00, 0x94, 0x00, 0x00, 0x00, 0x74, 0x00, 0x00, 0x00, 0x04, 0x00, 0x00, 0x00, 0x4e, 0xed, 0xff, 0xff, 0x04, 0x00, 0x00, 0x00, 0x60, 0x00, 0x00, 0x00, 0x0c, 0x00, 0x00, 0x00, 0x08, 0x00, 0x0e, 0x00, 0x08, 0x00, 0x04, 0x00, 0x08, 0x00, 0x00, 0x00, 0x10, 0x00, 0x00, 0x00, 0x24, 0x00, 0x00, 0x00, 0x00, 0x00, 0x06, 0x00, 0x08, 0x00, 0x04, 0x00, 0x06, 0x00, 0x00, 0x00, 0x04, 0x00, 0x00, 0x00, 0x00, 0x00, 0x00, 0x00, 0x00, 0x00, 0x0a, 0x00, 0x10, 0x00, 0x0c, 0x00, 0x08, 0x00, 0x04, 0x00, 0x0a, 0x00, 0x00, 0x00, 0x01, 0x00, 0x00, 0x00, 0x02, 0x00, 0x00, 0x00, 0x04, 0x00, 0x00, 0x00, 0x12, 0x00, 0x00, 0x00, 0x32, 0x2e, 0x31, 0x34, 0x2e, 0x30, 0x2d, 0x64, 0x65, 0x76, 0x32, 0x30, 0x32, 0x33, 0x30, 0x35, 0x32, 0x35, 0x00, 0x00, 0xba, 0xed, 0xff, 0xff, 0x04, 0x00, 0x00, 0x00, 0x10, 0x00, 0x00, 0x00, 0x31, 0x2e, 0x31, 0x33, 0x2e, 0x31, 0x00, 0x00, 0x00, 0x00, 0x00, 0x00, 0x00, 0x00, 0x00, 0x00, 0xc8, 0xe4, 0xff, 0xff, 0xcc, 0xe4, 0xff, 0xff, 0xd0, 0xe4, 0xff, 0xff, 0xe2, 0xed, 0xff, 0xff, 0x04, 0x00, 0x00, 0x00, 0xf0, 0x00, 0x00, 0x00, 0x00, 0x00, 0x00, 0x00, 0x00, 0x00, 0x00, 0x00, 0x00, 0x00, 0x00, 0x00, 0x00, 0x00, 0x00, 0x00, 0x00, 0x00, 0x00, 0x00, 0x00, 0x00, 0x00, 0x00, 0x00, 0x00, 0x00, 0x00, 0x00, 0x00, 0x00, 0x00, 0x00, 0x00, 0x00, 0x00, 0x00, 0x00, 0x00, 0x00, 0x00, 0x00, 0x00, 0x00, 0x00, 0x00, 0x00, 0x00, 0x00, 0x00, 0x00, 0x00, 0x00, 0x00, 0x00, 0x00, 0x00, 0x00, 0x00, 0x00, 0x00, 0x00, 0x00, 0x00, 0x00, 0x00, 0x00, 0x00, 0x00, 0x00, 0x00, 0x00, 0x00, 0x00, 0x00, 0x00, 0x00, 0x00, 0x00, 0x00, 0x00, 0x00, 0x00, 0x00, 0x00, 0x00, 0x00, 0x00, 0x00, 0x00, 0x00, 0x00, 0x00, 0x00, 0x00, 0x00, 0x00, 0x00, 0x00, 0x00, 0x00, 0x00, 0x00, 0x00, 0x00, 0x00, 0x00, 0x00, 0x00, 0x00, 0x00, 0x00, 0x00, 0x00, 0x00, 0x00, 0x00, 0x00, 0x00, 0x00, 0x00, 0x00, 0x00, 0x00, 0x00, 0x00, 0x00, 0x00, 0x00, 0x00, 0x00, 0x00, 0x00, 0x00, 0x00, 0x00, 0x00, 0x00, 0x00, 0x00, 0x00, 0x00, 0x00, 0x00, 0x00, 0x00, 0x00, 0x00, 0x00, 0x00, 0x00, 0x00, 0x00, 0x00, 0x00, 0x00, 0x00, 0x00, 0x00, 0x00, 0x00, 0x00, 0x00, 0x00, 0x00, 0x00, 0x00, 0x00, 0x00, 0x00, 0x00, 0x00, 0x00, 0x00, 0x00, 0x00, 0x00, 0x00, 0x00, 0x00, 0x00, 0x00, 0x00, 0x00, 0x00, 0x00, 0x00, 0x00, 0x00, 0x00, 0x00, 0x00, 0x00, 0x00, 0x00, 0x00, 0x00, 0x00, 0x00, 0x00, 0x00, 0x00, 0x00, 0x00, 0x00, 0x00, 0x00, 0x00, 0x00, 0x00, 0x00, 0x00, 0x00, 0x00, 0x00, 0x00, 0x00, 0x00, 0x00, 0x00, 0x00, 0x00, 0x00, 0x00, 0x00, 0x00, 0x00, 0x00, 0x00, 0x00, 0x00, 0x00, 0x00, 0x00, 0x00, 0x00, 0x00, 0x00, 0x00, 0x00, 0xde, 0xee, 0xff, 0xff, 0x04, 0x00, 0x00, 0x00, 0x0c, 0x00, 0x00, 0x00, 0x01, 0x00, 0x00, 0x00, 0x01, 0x00, 0x00, 0x00, 0x01, 0x00, 0x00, 0x00, 0xf6, 0xee, 0xff, 0xff, 0x04, 0x00, 0x00, 0x00, 0x0c, 0x00, 0x00, 0x00, 0x00, 0x00, 0x00, 0x00, 0x00, 0x00, 0x00, 0x00, 0x00, 0x00, 0x00, 0x00, 0x0e, 0xef, 0xff, 0xff, 0x04, 0x00, 0x00, 0x00, 0x0c, 0x00, 0x00, 0x00, 0x00, 0x00, 0x00, 0x00, 0xff, 0xff, 0xff, 0xff, 0x00, 0x00, 0x00, 0x00, 0x26, 0xef, 0xff, 0xff, 0x04, 0x00, 0x00, 0x00, 0x3c, 0x00, 0x00, 0x00, 0xd6, 0x59, 0xbb, 0x3e, 0xa6, 0x4e, 0xdb, 0x3e, 0xef, 0xb5, 0x0c, 0x3f, 0x09, 0xea, 0x2d, 0x3e, 0xba, 0x6a, 0xb4, 0xbe, 0x62, 0xef, 0x13, 0xbe, 0x80, 0x83, 0x41, 0x3e, 0xfb, 0x08, 0xd6, 0xbe, 0x2a, 0xdf, 0xff, 0x3e, 0x1e, 0x29, 0x22, 0xbb, 0xa9, 0x20, 0x6b, 0xbe, 0x1c, 0xea, 0x29, 0x3f, 0x00, 0xae, 0x25, 0x3f, 0xf3, 0xb6, 0x17, 0x3f, 0x97, 0x43, 0xc3, 0x3e, 0x6e, 0xef, 0xff, 0xff, 0x04, 0x00, 0x00, 0x00, 0x3c, 0x00, 0x00, 0x00, 0x38, 0x18, 0x34, 0x3e, 0xa7, 0x7c, 0xd3, 0xbd, 0x50, 0x46, 0x84, 0xbd, 0xb6, 0xd0, 0xb5, 0x3d, 0x56, 0x92, 0xe5, 0xbe, 0x70, 0xb5, 0xe0, 0xbc, 0xef, 0x43, 0xdc, 0xbe, 0xc4, 0xa4, 0x62, 0xbc, 0x8f, 0xce, 0x21, 0x3f, 0xb2, 0xbe, 0x93, 0xbe, 0x78, 0x19, 0x2e, 0x3e, 0x5f, 0x66, 0x84, 0x3e, 0x3e, 0x12, 0xdd, 0x3e, 0xf8, 0x19, 0xd2, 0x3e, 0x0e, 0xb0, 0xdb, 0x3e, 0xb6, 0xef, 0xff, 0xff, 0x04, 0x00, 0x00, 0x00, 0x3c, 0x00, 0x00, 0x00, 0xa7, 0x52, 0x60, 0x3e, 0xeb, 0x98, 0x92, 0x3e, 0x6c, 0xb6, 0x25, 0x3e, 0x6c, 0x14, 0xef, 0x3d, 0xe0, 0xb7, 0x11, 0x3d, 0x8f, 0x0b, 0xaf, 0xbe, 0xe5, 0xc4, 0x93, 0x3e, 0xb6, 0x18, 0xe2, 0xbd, 0x67, 0xc9, 0x53, 0x3e, 0x7c, 0xbe, 0xd4, 0xbd, 0x53, 0x09, 0xa0, 0xbe, 0x5f, 0x4f, 0xbb, 0x3e, 0xf8, 0xcd, 0xdc, 0x3e, 0x2e, 0xa0, 0xb3, 0x3e, 0x39, 0xd4, 0xbd, 0x3d, 0xfe, 0xef, 0xff, 0xff, 0x04, 0x00, 0x00, 0x00, 0x3c, 0x00, 0x00, 0x00, 0x9d, 0x85, 0x46, 0xbc, 0xf8, 0x08, 0x1a, 0x3e, 0xad, 0xb2, 0xcc, 0x3c, 0x66, 0xe9, 0xc3, 0xbd, 0xc2, 0x18, 0x70, 0x3e, 0xf1, 0x4c, 0x7c, 0xbe, 0xde, 0xd4, 0x90, 0xbe, 0x7e, 0xee, 0x02, 0x3e, 0x67, 0x76, 0xd9, 0x3e, 0x12, 0x76, 0x85, 0x3b, 0x25, 0xf9, 0x30, 0xbd, 0x3c, 0x7d, 0xc8, 0x3c, 0xf5, 0x4c, 0x87, 0x3e, 0xef, 0xaf, 0xfb, 0xbd, 0x85, 0x33, 0x4f, 0xbe, 0x46, 0xf0, 0xff, 0xff, 0x04, 0x00, 0x00, 0x00, 0x3c, 0x00, 0x00, 0x00, 0x3f, 0x78, 0x42, 0xbd, 0x1f, 0xcb, 0x04, 0xbe, 0x29, 0xbf, 0x1c, 0xbe, 0x36, 0xb0, 0x88, 0x3c, 0xfd, 0x66, 0x9f, 0x3d, 0x1b, 0xc4, 0x88, 0x3e, 0x76, 0x6d, 0x91, 0xbe, 0x45, 0x7f, 0x36, 0xbe, 0x8f, 0x46, 0x2b, 0x3d, 0x1d, 0xea, 0x30, 0x3d, 0x9f, 0x1e, 0xc0, 0x3e, 0x56, 0x96, 0x5d, 0xbc, 0x5f, 0xe9, 0x9d, 0x3e, 0xab, 0xf8, 0xad, 0xbd, 0xea, 0xe2, 0x91, 0x3e, 0x8e, 0xf0, 0xff, 0xff, 0x04, 0x00, 0x00, 0x00, 0x3c, 0x00, 0x00, 0x00, 0xbf, 0xfa, 0x18, 0x3e, 0x82, 0x39, 0x91, 0x3d, 0xe1, 0xd4, 0x62, 0x3d, 0xf5, 0x35, 0x24, 0x3d, 0x8f, 0x95, 0x23, 0xbe, 0x00, 0x72, 0x47, 0x3d, 0x7d, 0x2b, 0x0c, 0x3d, 0xa4, 0x84, 0x21, 0x3c, 0x0c, 0x01, 0x44, 0x3d, 0x3b, 0x0d, 0x17, 0xbd, 0xca, 0x9d, 0x6b, 0x3e, 0xfb, 0x80, 0x7b, 0x3d, 0x82, 0x27, 0xba, 0x3d, 0x56, 0x72, 0x14, 0x3e, 0x93, 0x5b, 0x80, 0xbc, 0xd6, 0xf0, 0xff, 0xff, 0x04, 0x00, 0x00, 0x00, 0x3c, 0x00, 0x00, 0x00, 0x5f, 0x47, 0xf4, 0xbb, 0x11, 0x21, 0x31, 0xbc, 0x11, 0x5a, 0x44, 0xbc, 0x64, 0x30, 0xb7, 0xbc, 0x8b, 0xb9, 0x9d, 0xbc, 0x70, 0x5c, 0x99, 0x3d, 0x45, 0x4b, 0x70, 0xbd, 0x0d, 0xfd, 0xd6, 0x3b, 0x84, 0x22, 0x4e, 0x3d, 0xab, 0x00, 0xd8, 0x3c, 0xe3, 0x46, 0x51, 0x3d, 0xc0, 0x5c, 0x04, 0x3c, 0xdf, 0xbc, 0x94, 0x3c, 0x41, 0x57, 0x0a, 0x3b, 0xb5, 0x28, 0x93, 0x3c, 0x1e, 0xf1, 0xff, 0xff, 0x04, 0x00, 0x00, 0x00, 0x3c, 0x00, 0x00, 0x00, 0xd0, 0x00, 0x77, 0x3f, 0xbe, 0x34, 0x77, 0x3f, 0x64, 0x26, 0x6f, 0x3f, 0xf7, 0x5e, 0x70, 0x3f, 0x56, 0x5a, 0x6d, 0x3f, 0xa5, 0x7e, 0x65, 0x3f, 0x29, 0x33, 0x4c, 0x3f, 0x4a, 0x0d, 0x69, 0x3f, 0xfb, 0x2b, 0x7e, 0x3f, 0x6b, 0x74, 0x38, 0x3f, 0x98, 0x1f, 0x76, 0x3f, 0x6d, 0x24, 0x7e, 0x3f, 0x27, 0x5e, 0x7e, 0x3f, 0xd1, 0xdd, 0x80, 0x3f, 0x1a, 0x6e, 0x6c, 0x3f, 0x66, 0xf1, 0xff, 0xff, 0x04, 0x00, 0x00, 0x00, 0x3c, 0x00, 0x00, 0x00, 0xa3, 0xdc, 0x1b, 0x3e, 0x3f, 0x60, 0x8b, 0x3d, 0xd1, 0x3b, 0x4f, 0x3d, 0x82, 0xd0, 0x18, 0x3d, 0x58, 0x6d, 0x2c, 0xbe, 0x82, 0xcc, 0x44, 0x3d, 0x8e, 0x8b, 0x12, 0x3d, 0x07, 0x34, 0x1c, 0x3c, 0x46, 0xe4, 0xc0, 0x3d, 0x7a, 0x72, 0x18, 0xbd, 0x01, 0x9c, 0x64, 0x3e, 0x6b, 0xca, 0x8d, 0x3d, 0x52, 0x5c, 0xce, 0x3d, 0x12, 0xb0, 0x27, 0x3e, 0xcb, 0x65, 0x40, 0xba, 0xae, 0xf1, 0xff, 0xff, 0x04, 0x00, 0x00, 0x00, 0x84, 0x03, 0x00, 0x00, 0x8a, 0x40, 0x58, 0x3e, 0x02, 0xfe, 0x6b, 0xbc, 0x3a, 0xa7, 0x95, 0xbe, 0x61, 0x8d, 0xb8, 0xbe, 0x0b, 0x63, 0xc0, 0x3d, 0xe4, 0xfe, 0x41, 0x3e, 0x06, 0x2d, 0x7e, 0x3d, 0x88, 0x14, 0x0e, 0xbe, 0x55, 0x39, 0x01, 0x3d, 0x75, 0xd0, 0x3f, 0x3b, 0x8a, 0xde, 0x50, 0xbc, 0xfe, 0x91, 0x83, 0x3e, 0x66, 0x9d, 0x86, 0x3d, 0x8a, 0xb7, 0x2e, 0xbd, 0x6d, 0x23, 0x80, 0x3e, 0x46, 0x32, 0x16, 0xbe, 0x00, 0x09, 0x4a, 0xbd, 0x56, 0xb0, 0x9f, 0x3d, 0x29, 0xb0, 0x85, 0xbe, 0xec, 0xd8, 0xf0, 0x3d, 0x7c, 0xed, 0x8f, 0x3d, 0x7f, 0x9c, 0x86, 0x3c, 0xb5, 0xab, 0x4c, 0x3c, 0xb2, 0x2d, 0xbb, 0xbe, 0xe6, 0x49, 0xb5, 0x3d, 0x69, 0xfb, 0x00, 0x3d, 0x56, 0x10, 0x65, 0x3d, 0xae, 0x9a, 0x93, 0xbd, 0x29, 0x94, 0x87, 0xbd, 0x58, 0x3f, 0x32, 0xbe, 0x3e, 0x88, 0x4b, 0x3d, 0xf2, 0x7d, 0x6d, 0xbd, 0x93, 0xe8, 0x16, 0xbe, 0xc2, 0x98, 0x2e, 0xbe, 0x04, 0xfa, 0x06, 0x3e, 0xdc, 0x2e, 0xe7, 0x3d, 0x1b, 0xe9, 0xc5, 0xbc, 0xac, 0x1a, 0x68, 0xbd, 0xd5, 0xd2, 0x5c, 0x3e, 0x4d, 0x19, 0xdd, 0xbd, 0x4a, 0x2f, 0xe7, 0xbd, 0xfb, 0x3c, 0x0e, 0xbe, 0xfa, 0xc1, 0xb3, 0x3a, 0x43, 0xd6, 0xdc, 0x3d, 0xf9, 0x18, 0x36, 0xbd, 0x1d, 0x15, 0x9f, 0x3e, 0x1e, 0xf6, 0x6c, 0x3e, 0x36, 0x67, 0x97, 0x3d, 0x79, 0xb7, 0x28, 0x3d, 0xc4, 0x9a, 0x1f, 0x3e, 0x89, 0x60, 0x03, 0xbb, 0x18, 0x67, 0xf3, 0x3d, 0x30, 0x29, 0x22, 0x3e, 0x56, 0x13, 0x42, 0x3d, 0x37, 0x2c, 0x11, 0x3e, 0x40, 0xe0, 0x9d, 0x3d, 0xaf, 0x73, 0x5f, 0x3e, 0xe8, 0x97, 0xe5, 0xbd, 0x47, 0x8a, 0x52, 0xbe, 0x28, 0x81, 0x88, 0x3c, 0xf5, 0x4e, 0x04, 0xbe, 0xed, 0x73, 0x25, 0xbe, 0xfd, 0xb7, 0x95, 0xbd, 0xbe, 0xff, 0xed, 0xbd, 0xe4, 0x9f, 0x6e, 0xbe, 0xdf, 0x8f, 0xae, 0xbd, 0x83, 0x49, 0x74, 0xbd, 0xae, 0x8f, 0x09, 0x3e, 0x75, 0xb1, 0x69, 0xbe, 0x8a, 0xd9, 0x3b, 0x3b, 0xa3, 0xce, 0x7d, 0x3d, 0x4f, 0x0a, 0xfe, 0xbd, 0x72, 0xec, 0x44, 0x3d, 0xe3, 0xf1, 0x6d, 0xbe, 0xe2, 0x32, 0x8e, 0xbe, 0xe0, 0xe3, 0x13, 0xbd, 0x2b, 0xa3, 0xc9, 0xbd, 0x9b, 0xdb, 0xe9, 0xbd, 0x6c, 0xb7, 0x56, 0xbe, 0x5e, 0x81, 0x71, 0xbc, 0x51, 0x03, 0xc8, 0xba, 0x48, 0xfa, 0x3a, 0xbe, 0xb0, 0x71, 0x97, 0xbc, 0xe9, 0xe9, 0xbc, 0xbe, 0xbf, 0x94, 0x5d, 0xbd, 0xa8, 0xaf, 0xca, 0xbc, 0xe9, 0xcb, 0xa6, 0x3d, 0xc5, 0x4d, 0xb0, 0x3c, 0x6a, 0x80, 0x9d, 0x3e, 0x5c, 0xa9, 0x38, 0xbd, 0x08, 0x40, 0x3c, 0x3e, 0x6e, 0x63, 0x66, 0x3d, 0x91, 0x05, 0x31, 0x3e, 0x72, 0x11, 0x09, 0xbc, 0xbe, 0x6e, 0x4e, 0xbe, 0x9e, 0x11, 0x3c, 0xbe, 0xa8, 0xbd, 0x28, 0xbe, 0x76, 0x76, 0xe8, 0x3c, 0xfc, 0x33, 0x4f, 0x3e, 0xa9, 0xf6, 0xf2, 0x3d, 0x70, 0xea, 0x83, 0xbd, 0xba, 0xb4, 0xdb, 0x3b, 0x3b, 0x46, 0xc8, 0xbb, 0xce, 0x98, 0x8c, 0x3e, 0x23, 0xba, 0x15, 0xbd, 0x19, 0xe8, 0x17, 0x3e, 0xc1, 0x37, 0x90, 0xbd, 0xfe, 0xfc, 0x68, 0xbd, 0x21, 0xb5, 0x25, 0x3e, 0x3c, 0x8d, 0x85, 0x3c, 0x90, 0x32, 0xed, 0xbc, 0x8c, 0x33, 0xf2, 0x3d, 0x3f, 0x04, 0x16, 0x3d, 0x0a, 0x15, 0x30, 0xbd, 0x7d, 0xa2, 0x6d, 0xbe, 0x37, 0x75, 0x56, 0xbe, 0x9e, 0xd2, 0x6c, 0xbe, 0xbb, 0x67, 0xff, 0xbd, 0xf2, 0xea, 0xd5, 0xbd, 0x7b, 0x37, 0x19, 0xbd, 0x45, 0xa8, 0xde, 0xbc, 0xe4, 0x65, 0xe7, 0x3c, 0xa1, 0x3e, 0xcf, 0x3b, 0x4a, 0x86, 0x20, 0x3e, 0x37, 0x47, 0x9a, 0x3d, 0xce, 0xbf, 0xb9, 0x3d, 0x28, 0x80, 0xe9, 0x3d, 0xb3, 0xac, 0x43, 0x3d, 0x3a, 0xf6, 0xcd, 0xbd, 0x53, 0xfa, 0xd4, 0xbd, 0xea, 0xd0, 0x40, 0xbc, 0x7a, 0x72, 0x02, 0x3e, 0x6b, 0x7a, 0x50, 0x3d, 0x5e, 0xbb, 0xfc, 0x3d, 0x48, 0x37, 0xb6, 0xbd, 0x94, 0xa2, 0x86, 0x3e, 0x42, 0xe1, 0xe0, 0xbb, 0x44, 0x26, 0x6c, 0x3e, 0x62, 0x6e, 0x83, 0x3d, 0xe8, 0x9f, 0xb6, 0x3d, 0xb9, 0x92, 0x75, 0xbe, 0x4d, 0x2a, 0x94, 0x3e, 0xa0, 0xb9, 0x83, 0xbe, 0xe6, 0x61, 0xac, 0x3d, 0xb4, 0xc0, 0xff, 0xbe, 0x12, 0xc4, 0x85, 0xbe, 0xf8, 0x92, 0x0e, 0x3e, 0x74, 0xeb, 0x91, 0x3e, 0x07, 0x3a, 0x6d, 0x3e, 0x00, 0x1c, 0xe7, 0x3d, 0x99, 0x7e, 0x5a, 0xbd, 0x6f, 0xf0, 0x9b, 0x3e, 0x89, 0x17, 0x13, 0x3e, 0x7d, 0x81, 0x60, 0xbe, 0xff, 0x40, 0x07, 0x3e, 0xf1, 0xfd, 0x82, 0xbe, 0x9b, 0xad, 0x92, 0x3c, 0xed, 0xda, 0x11, 0xbe, 0xda, 0xe2, 0x88, 0x3e, 0x6f, 0x6b, 0x4b, 0xbc, 0x89, 0xa6, 0xf1, 0xbd, 0x05, 0x8f, 0x7e, 0x3e, 0x26, 0x54, 0xf4, 0xbd, 0x6d, 0x13, 0x8e, 0x3e, 0xbc, 0x05, 0xf8, 0x3d, 0x1c, 0xb3, 0x81, 0xbe, 0xa0, 0x73, 0x02, 0x3e, 0x8d, 0xba, 0x8a, 0x3d, 0xb9, 0xd8, 0xdf, 0xbc, 0xf1, 0x65, 0xda, 0xbd, 0x4a, 0x5e, 0x18, 0xbd, 0x9f, 0x01, 0x24, 0x3d, 0xc7, 0x02, 0xbd, 0x3e, 0xcb, 0xa1, 0xc3, 0x3c, 0x0d, 0xc9, 0xaa, 0xbd, 0x7e, 0x71, 0xba, 0x3a, 0x09, 0x51, 0x26, 0xbe, 0xe1, 0xdb, 0x1c, 0x3e, 0xb7, 0x7a, 0x5f, 0x3d, 0x0d, 0x54, 0xf5, 0x3d, 0xde, 0xa6, 0x51, 0x3e, 0x48, 0x3d, 0xde, 0x3d, 0xb3, 0x2c, 0xcd, 0xbc, 0x78, 0x61, 0x8c, 0xbd, 0x40, 0xd2, 0xe5, 0xbd, 0xac, 0x62, 0x07, 0x3c, 0xfe, 0xcc, 0x9c, 0x3c, 0xdd, 0x3c, 0xdd, 0x3d, 0xa8, 0xc8, 0x2f, 0x3e, 0x3c, 0xd6, 0x8e, 0xbe, 0x1b, 0x58, 0x93, 0xbd, 0x8f, 0x65, 0xef, 0x3d, 0x00, 0xff, 0xd5, 0x3c, 0x93, 0x32, 0x35, 0x3e, 0x21, 0x47, 0xb7, 0x3d, 0x8b, 0xb6, 0x23, 0xbe, 0xf7, 0x12, 0x11, 0x3d, 0xc6, 0x14, 0x68, 0x3d, 0x3d, 0xb0, 0x0c, 0x3d, 0xa7, 0x23, 0x92, 0x3e, 0x51, 0x9c, 0x4d, 0x3d, 0xba, 0x4a, 0x0a, 0x3e, 0x44, 0xa2, 0xa4, 0xbd, 0xeb, 0x3d, 0x87, 0x3d, 0xad, 0xd5, 0xa6, 0xbd, 0xd7, 0x7b, 0x1f, 0x3e, 0xbb, 0x3c, 0x30, 0x3e, 0xf0, 0xff, 0x47, 0x3e, 0x65, 0x15, 0xc6, 0x3d, 0x1e, 0xd5, 0x2a, 0x3b, 0xa4, 0x01, 0xb4, 0xbe, 0x38, 0x8f, 0x33, 0xbe, 0x81, 0xb0, 0x8c, 0x3c, 0x78, 0xed, 0xbc, 0xbc, 0xb9, 0x1a, 0x71, 0x3d, 0x41, 0x28, 0x08, 0x3e, 0xb0, 0xfd, 0xce, 0x3d, 0xb3, 0xb4, 0x18, 0x3e, 0xd9, 0x0c, 0x27, 0x3e, 0x1b, 0x91, 0xad, 0xbe, 0x9a, 0xd4, 0xf1, 0x3d, 0xde, 0xfb, 0x91, 0x3d, 0x06, 0x5e, 0x13, 0xbc, 0x9f, 0x21, 0xb3, 0x3d, 0xc1, 0xbd, 0x71, 0xbd, 0x3e, 0xf5, 0xff, 0xff, 0x04, 0x00, 0x00, 0x00, 0x84, 0x03, 0x00, 0x00, 0x43, 0x98, 0x15, 0x3e, 0xbf, 0x49, 0x74, 0xbe, 0xdf, 0x74, 0x5d, 0xbe, 0xda, 0x1f, 0x31, 0xbe, 0xe6, 0x33, 0x39, 0xbc, 0xae, 0x65, 0x97, 0x3d, 0x33, 0x20, 0x81, 0x3e, 0xaf, 0xe9, 0x06, 0x3e, 0x65, 0x40, 0xe1, 0xbd, 0xfb, 0xf0, 0x91, 0xbe, 0x2b, 0xb5, 0x98, 0xbd, 0x3f, 0x26, 0x84, 0x3d, 0x50, 0xb5, 0xb9, 0xbd, 0x5f, 0x90, 0xa7, 0xbd, 0x80, 0xb5, 0xc7, 0xbd, 0x1a, 0x44, 0x61, 0xbd, 0x7c, 0xf7, 0x0e, 0x3e, 0xba, 0xf3, 0x4a, 0xbe, 0xef, 0x57, 0xba, 0xbd, 0x7d, 0x49, 0x8c, 0x3e, 0x3a, 0x55, 0xa9, 0xbe, 0x2e, 0xa6, 0x29, 0x3e, 0x3d, 0xf5, 0xea, 0x3d, 0x31, 0xcf, 0x3b, 0xbe, 0xda, 0xb9, 0x9e, 0xbe, 0x22, 0x2a, 0x52, 0x3e, 0x22, 0xcf, 0x59, 0xbd, 0xd4, 0xc6, 0x84, 0xbc, 0x4f, 0x76, 0x1b, 0xbe, 0x6a, 0xfa, 0xb0, 0x3d, 0xe1, 0x46, 0x22, 0xbe, 0x1d, 0x5e, 0x4a, 0xbd, 0x3f, 0xeb, 0x0c, 0x3d, 0x58, 0xfa, 0x4d, 0x3d, 0xda, 0xa2, 0xa6, 0x3d, 0x46, 0x86, 0x21, 0xbe, 0xc5, 0xae, 0xe1, 0x3d, 0xa6, 0x90, 0x33, 0xbe, 0x4f, 0xe2, 0xfc, 0xbd, 0xfe, 0xae, 0x18, 0xbe, 0x1c, 0x23, 0x5d, 0xbe, 0x12, 0xd7, 0xda, 0xbd, 0x1b, 0x20, 0xcc, 0x3c, 0x38, 0x59, 0x43, 0xbd, 0xf1, 0xbb, 0x7f, 0x3d, 0x81, 0x09, 0xb7, 0xbd, 0xf0, 0x4d, 0x2c, 0xbe, 0x74, 0x29, 0x9f, 0xbd, 0xac, 0x1b, 0x01, 0x3d, 0x69, 0x39, 0x35, 0xbd, 0x2c, 0x01, 0xfc, 0xbd, 0x17, 0xb8, 0x16, 0x3e, 0xe5, 0xac, 0x9b, 0x3e, 0x4e, 0xe1, 0x4d, 0x3d, 0x32, 0xc9, 0x3d, 0x3d, 0x7f, 0xb2, 0xda, 0xbc, 0x7f, 0x83, 0x7e, 0xbc, 0xfd, 0x66, 0xc3, 0x3c, 0x3f, 0x74, 0x6c, 0xbe, 0x6e, 0xb4, 0x8f, 0xbe, 0x53, 0x73, 0xf7, 0xbd, 0x3c, 0xf9, 0x26, 0xbc, 0x52, 0xd4, 0x94, 0x3e, 0x14, 0x97, 0x74, 0xbd, 0xa3, 0x62, 0x04, 0xbd, 0xed, 0xb9, 0x06, 0xbc, 0x6b, 0x84, 0x5f, 0x3e, 0x1a, 0x4a, 0x13, 0x3b, 0x1d, 0x30, 0xeb, 0xbb, 0x9e, 0x7c, 0xdd, 0xbd, 0x79, 0x2a, 0x8f, 0x3b, 0xc1, 0xa1, 0x6b, 0xbd, 0xb6, 0x39, 0xd3, 0x3c, 0xfb, 0x16, 0x2f, 0x3e, 0x3f, 0x08, 0xa2, 0x3c, 0x45, 0xf5, 0xa5, 0x3e, 0x79, 0x4b, 0xb7, 0x3b, 0xa2, 0xec, 0x84, 0x3e, 0xf1, 0xfa, 0x64, 0x3e, 0x2e, 0xa2, 0x65, 0xbe, 0x42, 0x65, 0x0b, 0xbe, 0x73, 0xbf, 0xeb, 0xbc, 0xe0, 0x82, 0x70, 0xbe, 0x69, 0xd3, 0x30, 0x3e, 0x0e, 0xd6, 0xaf, 0xbd, 0x76, 0xda, 0x11, 0x3d, 0x58, 0x67, 0xd0, 0x3c, 0xf9, 0xf7, 0xbb, 0x3d, 0xd3, 0xa8, 0xca, 0x3d, 0x24, 0x3a, 0x6b, 0x3b, 0xea, 0xb5, 0xa5, 0xbe, 0x9e, 0x6a, 0x07, 0xbf, 0x59, 0x08, 0xb7, 0xbe, 0xfd, 0x86, 0x01, 0x3d, 0xea, 0x92, 0x76, 0xbd, 0xdd, 0x51, 0x99, 0xbd, 0xe4, 0xf2, 0x83, 0xbd, 0x43, 0xa9, 0x55, 0x3e, 0x14, 0x9c, 0xbb, 0xbe, 0xe5, 0x08, 0x06, 0x3e, 0x07, 0x36, 0xc2, 0x3d, 0xda, 0xab, 0x80, 0xbd, 0xaf, 0xae, 0xa0, 0xbe, 0x43, 0xa7, 0x8d, 0x3c, 0x23, 0xc8, 0x16, 0xbd, 0x38, 0xeb, 0x07, 0x3e, 0x1e, 0x2a, 0xf1, 0x3c, 0xb5, 0x7d, 0x4d, 0x3d, 0xc7, 0x4c, 0x1b, 0xbe, 0x71, 0xef, 0xd4, 0x3b, 0x54, 0x4a, 0x5b, 0xbd, 0x8e, 0xd0, 0xd8, 0x3d, 0x64, 0xdb, 0xc3, 0xbb, 0xc5, 0xce, 0x3c, 0x3e, 0x96, 0x00, 0x2e, 0x3e, 0xec, 0xeb, 0x5b, 0xbd, 0xcf, 0x03, 0x9a, 0xbd, 0x27, 0xe5, 0x29, 0xbe, 0x1a, 0xc2, 0x0c, 0x3e, 0x19, 0x3e, 0x9b, 0xbd, 0x42, 0x06, 0x95, 0x3c, 0x01, 0x7c, 0x52, 0x3e, 0x64, 0x62, 0x0d, 0xbe, 0x8b, 0xa5, 0xff, 0xbd, 0x71, 0xcf, 0xb1, 0x3c, 0x4f, 0x38, 0x0f, 0x3e, 0xf5, 0x67, 0x03, 0x3e, 0x36, 0x72, 0xe9, 0xbc, 0xee, 0xe6, 0x35, 0xbc, 0xea, 0xcb, 0x88, 0xbe, 0xc4, 0xec, 0x00, 0xbe, 0x00, 0x29, 0x2e, 0x3e, 0xe2, 0xf9, 0xd4, 0x3d, 0x81, 0x3e, 0x95, 0xbc, 0x57, 0x16, 0xde, 0x3c, 0x1b, 0xce, 0x57, 0x3e, 0x29, 0x34, 0x25, 0x3c, 0xdd, 0xd8, 0x91, 0x3e, 0xdd, 0x1d, 0x3c, 0xbd, 0xe8, 0x0c, 0x1b, 0xbd, 0xf1, 0x4e, 0x63, 0xbe, 0xdd, 0xb1, 0x4a, 0x3e, 0xdd, 0xdd, 0x59, 0xbd, 0xd8, 0xfc, 0x98, 0x3e, 0x92, 0xcb, 0x66, 0xbe, 0xf2, 0xf4, 0x1f, 0xbe, 0x33, 0x6f, 0x65, 0x3e, 0x70, 0x1a, 0x63, 0x3e, 0xca, 0x4e, 0xf0, 0x3c, 0x0a, 0x29, 0x9d, 0x3e, 0xe3, 0x50, 0xe4, 0x3d, 0x4c, 0xa6, 0x59, 0x3c, 0xb1, 0xa7, 0x52, 0x3e, 0x6f, 0xbb, 0x7e, 0x3e, 0x7b, 0x76, 0x78, 0x3e, 0x1b, 0xfd, 0x5b, 0x3d, 0x71, 0xa0, 0x39, 0xbe, 0x7b, 0x89, 0xc6, 0xbd, 0x4f, 0x5d, 0xd3, 0x3c, 0xc4, 0xd7, 0x9b, 0x3e, 0x67, 0xb9, 0x09, 0xbe, 0x59, 0x6b, 0x26, 0xbd, 0xba, 0x5a, 0xd7, 0x3d, 0x8d, 0xa5, 0x46, 0x3e, 0xcf, 0x33, 0x4a, 0x3e, 0x91, 0x29, 0xf0, 0xbd, 0x1c, 0xd6, 0x30, 0x3e, 0x59, 0xec, 0x19, 0x3e, 0xfd, 0x3f, 0x03, 0xbe, 0x10, 0x3b, 0x7a, 0x3c, 0x11, 0xae, 0x2e, 0x3c, 0x33, 0x03, 0x4c, 0x3e, 0x29, 0x80, 0x43, 0x3b, 0x13, 0xba, 0x61, 0xbd, 0x8a, 0x8d, 0x25, 0x3e, 0x63, 0x1b, 0xcc, 0xbc, 0x9e, 0x86, 0x03, 0xbd, 0x98, 0xe6, 0x71, 0x3d, 0x4f, 0xc8, 0x45, 0x3d, 0x30, 0xe7, 0xb9, 0x3d, 0x07, 0x64, 0xb7, 0x3d, 0x59, 0x5e, 0x86, 0x3d, 0x9a, 0x40, 0xe1, 0x39, 0xd4, 0x42, 0x23, 0xbe, 0x8b, 0x8c, 0xb7, 0xbd, 0xa4, 0x8a, 0xb4, 0x3d, 0xd5, 0xab, 0x11, 0x3e, 0xac, 0x43, 0xe0, 0x3d, 0x12, 0x6b, 0x3b, 0xbe, 0x7d, 0xdb, 0x0b, 0xbe, 0xdf, 0xc4, 0xa8, 0x3e, 0x35, 0xd8, 0xb5, 0x3d, 0xfa, 0x49, 0xc1, 0x3d, 0x3f, 0x4e, 0x55, 0xbd, 0x9b, 0x77, 0x56, 0xbe, 0xf4, 0xed, 0x4c, 0xbe, 0xa5, 0x4c, 0x20, 0x3d, 0x68, 0x3a, 0xc8, 0xbd, 0x9b, 0x49, 0xd1, 0x3d, 0x47, 0x85, 0x5f, 0xbd, 0x7e, 0xe3, 0x2f, 0x3d, 0x6e, 0x41, 0x41, 0xbe, 0xef, 0xae, 0xbc, 0x3d, 0xef, 0xc4, 0xba, 0x3c, 0x22, 0x92, 0x31, 0xbe, 0xad, 0x18, 0x7d, 0x3e, 0x41, 0x28, 0xca, 0x3d, 0xf3, 0x6f, 0x12, 0xbe, 0x83, 0x54, 0x03, 0xbe, 0xd6, 0x2f, 0xa6, 0xbd, 0xbe, 0x2d, 0x12, 0xbe, 0x10, 0xa0, 0x6f, 0xbe, 0x13, 0xca, 0x11, 0xbe, 0x85, 0xbd, 0x34, 0xbe, 0xa1, 0x0e, 0x88, 0x3e, 0xd8, 0xa4, 0x2c, 0xbd, 0x0a, 0x0e, 0xc3, 0x3b, 0xf2, 0x58, 0x72, 0x3d, 0xfc, 0x4d, 0xb2, 0x3d, 0x88, 0x8e, 0x59, 0xbe, 0x7d, 0x6d, 0x30, 0x3e, 0x25, 0x48, 0x18, 0xbd, 0x45, 0xf5, 0x53, 0x3d, 0x5e, 0xdf, 0x42, 0xbd, 0x63, 0xc8, 0x09, 0xbc, 0xce, 0xf8, 0xff, 0xff, 0x04, 0x00, 0x00, 0x00, 0x84, 0x03, 0x00, 0x00, 0xbe, 0xd2, 0xc6, 0xbd, 0x88, 0x31, 0x62, 0xbd, 0x57, 0x20, 0xf0, 0xbd, 0x8e, 0x93, 0x16, 0xbe, 0xd0, 0xb9, 0x07, 0xbb, 0x24, 0x8a, 0x90, 0x3e, 0x4b, 0x68, 0x48, 0xbe, 0xe8, 0xd2, 0x8e, 0x3e, 0xe1, 0xd6, 0xf1, 0xbd, 0x49, 0xed, 0xdd, 0xbd, 0x83, 0x4b, 0x33, 0xbe, 0x0d, 0xf3, 0x94, 0xbd, 0x32, 0x1f, 0x64, 0xbc, 0xaa, 0xb3, 0xb3, 0x3c, 0x86, 0x0f, 0x54, 0xbe, 0x3d, 0x0d, 0xae, 0xbc, 0x65, 0x88, 0xf1, 0xbb, 0x26, 0x78, 0xe6, 0x3c, 0x1b, 0x30, 0x3a, 0xbd, 0x1c, 0xf9, 0xa3, 0x3c, 0x68, 0x90, 0x0b, 0x3e, 0x60, 0x6c, 0xfe, 0xbd, 0x4f, 0x2a, 0x1b, 0x3e, 0xe6, 0x3b, 0x1f, 0xbe, 0x31, 0xb0, 0x02, 0xbe, 0x80, 0x13, 0x2e, 0x3e, 0xab, 0x8d, 0x9e, 0x3d, 0xad, 0x6f, 0xaa, 0xbd, 0xb6, 0xf9, 0xe1, 0xbd, 0x81, 0x40, 0x3f, 0x3e, 0x0a, 0x4e, 0xe7, 0xbd, 0xaa, 0xa6, 0xfa, 0xbd, 0xfa, 0x77, 0x06, 0xbb, 0x50, 0x11, 0x56, 0x3d, 0xd8, 0xae, 0x1a, 0x3e, 0x3a, 0xf8, 0xe0, 0x3c, 0xcb, 0xa3, 0xd3, 0x3d, 0x2e, 0x16, 0x78, 0x3e, 0x00, 0xa6, 0x49, 0x3d, 0xaf, 0xcc, 0x61, 0xbe, 0x1b, 0x32, 0x25, 0x3d, 0x94, 0x44, 0x9a, 0x3e, 0xcf, 0x5c, 0xc2, 0xbe, 0x22, 0x36, 0x63, 0xbe, 0x70, 0x5a, 0x4e, 0xbe, 0x3f, 0x35, 0x3f, 0xbb, 0x24, 0x93, 0x9a, 0xbe, 0x2c, 0xb5, 0x0f, 0xbe, 0x33, 0x89, 0x6e, 0xbd, 0xce, 0x3e, 0x7e, 0xbc, 0x72, 0xd1, 0x54, 0x3c, 0x4d, 0xc8, 0xac, 0xbe, 0xc3, 0x67, 0xca, 0x3e, 0x5f, 0xe0, 0x82, 0xbd, 0x60, 0xa7, 0x55, 0xbd, 0x4e, 0x53, 0x73, 0x3e, 0xbd, 0xbb, 0x33, 0xbe, 0xf7, 0x3c, 0x9e, 0x3c, 0x8a, 0x55, 0x4c, 0x3c, 0x05, 0xbe, 0x3a, 0x3d, 0x93, 0xf0, 0x43, 0x3e, 0x22, 0xc5, 0xdb, 0x3d, 0x42, 0xec, 0x00, 0x3e, 0x64, 0x75, 0x43, 0xbc, 0x01, 0xd0, 0x14, 0xbe, 0xe5, 0xba, 0xf0, 0x3a, 0xed, 0x2b, 0xf6, 0xbd, 0x4c, 0x12, 0x0a, 0x3e, 0xd9, 0x9e, 0xd5, 0xbd, 0x12, 0xff, 0x0e, 0x3e, 0x40, 0x03, 0x70, 0xbd, 0x63, 0xee, 0x54, 0x3e, 0x39, 0x83, 0xd3, 0xbd, 0xb6, 0x8b, 0xf8, 0x3d, 0xd4, 0xfc, 0xb6, 0xbd, 0x27, 0x98, 0x09, 0xbe, 0xf4, 0x1a, 0xb3, 0xbd, 0x7d, 0x51, 0x15, 0xbe, 0x70, 0x45, 0x71, 0x3c, 0xcf, 0xc6, 0xb4, 0xbd, 0x57, 0xfe, 0xcf, 0x3d, 0x93, 0x8b, 0xe5, 0xbd, 0xd9, 0x1c, 0xe2, 0x3d, 0x7d, 0x35, 0x61, 0xbe, 0x5d, 0xe7, 0xa3, 0x3d, 0x28, 0xb6, 0x81, 0x3e, 0xeb, 0x85, 0x80, 0xbe, 0xc1, 0xba, 0x58, 0xbe, 0xb8, 0x98, 0x89, 0x3d, 0x95, 0x6b, 0x0c, 0xbe, 0x5a, 0xee, 0x89, 0xbe, 0x47, 0x63, 0x34, 0xbe, 0xc7, 0x3b, 0xe7, 0xbe, 0x04, 0x24, 0x3a, 0xbe, 0xe3, 0xcc, 0x60, 0xbd, 0xbc, 0x52, 0x9b, 0x3d, 0x0e, 0xa6, 0x1b, 0xbe, 0xb0, 0xf0, 0x9f, 0x3e, 0x39, 0x8a, 0x13, 0xbe, 0x56, 0xfc, 0xc9, 0x3d, 0x07, 0x7a, 0x98, 0x3e, 0xdf, 0x37, 0xc8, 0xbe, 0x85, 0x41, 0x57, 0xbd, 0x04, 0xd3, 0xa7, 0xbe, 0x0f, 0xf6, 0xad, 0xbe, 0x4b, 0x59, 0xd6, 0xbd, 0x28, 0x96, 0xb9, 0x3d, 0x18, 0x73, 0xa1, 0xbe, 0x3a, 0xd6, 0xb1, 0xbd, 0x8d, 0x0b, 0xe0, 0x3d, 0x7b, 0x46, 0xd9, 0xbd, 0x31, 0x3e, 0x5b, 0x3d, 0xca, 0x8c, 0xae, 0x3e, 0xbb, 0x15, 0x85, 0xbe, 0x80, 0x5b, 0x98, 0xbe, 0xa3, 0x6a, 0x60, 0xbd, 0xba, 0x06, 0x9e, 0xba, 0xd0, 0x23, 0x7c, 0x3d, 0x22, 0xb0, 0x5b, 0x3c, 0x6a, 0x4a, 0xa4, 0xbd, 0xe2, 0x6a, 0xc4, 0xbd, 0xcc, 0xd7, 0xe7, 0xbd, 0xe4, 0x42, 0x85, 0x3e, 0xda, 0x25, 0xc6, 0xbe, 0xb3, 0x3a, 0x2c, 0x3e, 0x3d, 0x17, 0x8a, 0x3d, 0x50, 0xb0, 0x19, 0xbe, 0x99, 0x50, 0xf3, 0x3c, 0x4c, 0x6c, 0xdb, 0xbd, 0xfc, 0xf4, 0x0d, 0xbe, 0xf2, 0xee, 0xad, 0x3d, 0xeb, 0x18, 0x01, 0xbe, 0x23, 0xc5, 0x22, 0xbe, 0x0a, 0x0f, 0x65, 0xbe, 0xe1, 0x0e, 0xa6, 0xbd, 0x18, 0xd2, 0x3f, 0xbe, 0xe6, 0x83, 0x46, 0xbe, 0xaa, 0x82, 0x36, 0xbe, 0x51, 0xf4, 0xf7, 0x3d, 0x35, 0x14, 0x70, 0xbd, 0x27, 0xda, 0x57, 0x3d, 0x47, 0xe3, 0xbd, 0x3d, 0xe3, 0x3f, 0x10, 0x3f, 0xb8, 0x39, 0x89, 0xbe, 0xe9, 0xb3, 0x5d, 0xbe, 0x19, 0xd8, 0x39, 0x3e, 0x65, 0x42, 0x98, 0xbe, 0x60, 0x4a, 0xce, 0xbe, 0x72, 0xaf, 0x0e, 0xbe, 0xd2, 0x0d, 0x17, 0xbe, 0xd8, 0x57, 0xa2, 0xbd, 0x9e, 0x5f, 0xe7, 0x3d, 0xea, 0x43, 0x8a, 0xbe, 0x0c, 0x57, 0x8d, 0xbe, 0xf9, 0xa2, 0x15, 0x3e, 0x4c, 0xf7, 0xd6, 0x3c, 0xe3, 0xd1, 0x82, 0xbe, 0x43, 0xe6, 0x41, 0x3e, 0xdd, 0xa3, 0x5a, 0xbe, 0xc6, 0x48, 0xb1, 0xbe, 0x88, 0x5a, 0xdf, 0xbd, 0x40, 0x12, 0xa6, 0xbd, 0x70, 0x16, 0xe6, 0xbd, 0x5e, 0xf1, 0x91, 0xbd, 0x3b, 0x0b, 0x42, 0xbe, 0x1d, 0x14, 0x2f, 0xbe, 0xae, 0xc4, 0x03, 0xbd, 0xf4, 0x93, 0x89, 0xbe, 0xf7, 0x32, 0x71, 0xbd, 0xfe, 0xda, 0xa8, 0xbd, 0x62, 0x57, 0x90, 0x3d, 0x35, 0xca, 0x0c, 0x3e, 0xb1, 0xd8, 0x23, 0x3e, 0x9e, 0x3d, 0x9e, 0x3d, 0x68, 0x9f, 0x25, 0x3e, 0xe5, 0x10, 0x38, 0xbe, 0xc9, 0x20, 0xbf, 0x3d, 0xbd, 0xf5, 0x48, 0xbd, 0x02, 0x05, 0xc3, 0x3c, 0x95, 0xa9, 0x2b, 0x3d, 0xac, 0x57, 0xa5, 0x3d, 0xc0, 0xdc, 0x02, 0xbe, 0x31, 0xe6, 0x50, 0xbe, 0xeb, 0x8a, 0xc8, 0x3d, 0xf7, 0x3b, 0x1d, 0x3d, 0x3b, 0x26, 0xa2, 0x3e, 0x6b, 0x7c, 0x1e, 0x3e, 0x14, 0x57, 0x05, 0x3e, 0xe8, 0xbf, 0xbf, 0x3c, 0xde, 0xb9, 0x38, 0xbe, 0x79, 0x3c, 0x9d, 0xbd, 0xbf, 0x5e, 0xf7, 0xbd, 0x10, 0xea, 0x83, 0xbc, 0x24, 0x36, 0xd4, 0xbd, 0x51, 0x18, 0x85, 0xbe, 0xee, 0x5f, 0xae, 0x3d, 0x4d, 0xf3, 0x9e, 0xbd, 0x37, 0xb4, 0x26, 0xbe, 0xba, 0x80, 0x78, 0xbe, 0xf3, 0x34, 0x20, 0xbd, 0x92, 0x9f, 0x35, 0xbe, 0xd0, 0xf2, 0x61, 0xbc, 0x97, 0x4e, 0xc8, 0xbb, 0xe3, 0xd6, 0x69, 0xbc, 0xd4, 0x27, 0x4b, 0xbe, 0xfd, 0x34, 0x49, 0x3e, 0x1a, 0x3f, 0xd3, 0x3b, 0x13, 0xf4, 0xb2, 0xbd, 0x2d, 0xc9, 0x1c, 0x3d, 0xb1, 0x74, 0xee, 0xbd, 0xc0, 0x2d, 0x81, 0xbe, 0xc2, 0x95, 0x4c, 0xbe, 0x8c, 0x2f, 0x05, 0x3c, 0xbb, 0x07, 0x17, 0xbe, 0x01, 0x3c, 0xd7, 0xbd, 0x63, 0x0b, 0xe5, 0xbb, 0x7a, 0x7c, 0x49, 0xbe, 0x58, 0x3f, 0x46, 0x3e, 0xb4, 0x73, 0x2b, 0xbb, 0x60, 0xb3, 0xc4, 0xbe, 0xf3, 0xad, 0xc0, 0xbd, 0x59, 0xc5, 0x63, 0x3e, 0x89, 0x34, 0xf0, 0xbc, 0x86, 0x56, 0x5a, 0xbe, 0x69, 0xd7, 0x55, 0xbe, 0x5e, 0xfc, 0xff, 0xff, 0x04, 0x00, 0x00, 0x00, 0x84, 0x03, 0x00, 0x00, 0xb5, 0x08, 0x42, 0x3e, 0xc9, 0x99, 0xba, 0x3b, 0xfb, 0x6a, 0xb2, 0x3e, 0xb5, 0x43, 0x07, 0xbe, 0x92, 0xae, 0x4a, 0xbe, 0xc0, 0xb0, 0xf4, 0x3c, 0x5a, 0x8c, 0x21, 0xbe, 0x0c, 0x7b, 0x89, 0xbe, 0xac, 0xb6, 0x0a, 0x3e, 0x59, 0x21, 0x2d, 0x3e, 0xb5, 0x05, 0x06, 0xbe, 0x35, 0x32, 0x24, 0x3d, 0x74, 0xb6, 0x91, 0x3d, 0x7b, 0x6d, 0xad, 0x3d, 0xf6, 0xc5, 0x68, 0x3e, 0xe3, 0x99, 0x8e, 0x3d, 0xd4, 0xbe, 0x87, 0x3c, 0x4a, 0x7d, 0xf2, 0x3c, 0x3d, 0x6e, 0x24, 0xbe, 0xa9, 0x9e, 0x0b, 0xbc, 0x34, 0x59, 0x10, 0xbd, 0x31, 0xa6, 0x81, 0x3e, 0x77, 0x71, 0x74, 0x3d, 0x7d, 0x47, 0x07, 0x3e, 0xfd, 0xe9, 0x57, 0x3e, 0x75, 0xd3, 0x2f, 0x3e, 0x8e, 0x17, 0x74, 0xbd, 0x30, 0x6f, 0xb2, 0x3d, 0xdc, 0xc3, 0x2f, 0x3e, 0x9d, 0x56, 0x0b, 0xbe, 0x6a, 0x5b, 0xc0, 0xbc, 0xc3, 0x6e, 0x78, 0xbe, 0xa9, 0xf7, 0x89, 0x3d, 0x6a, 0x27, 0x72, 0xbe, 0xd4, 0x9b, 0x27, 0x3e, 0xcd, 0x3b, 0x73, 0xbd, 0xa8, 0xc8, 0xfe, 0xbc, 0x17, 0x97, 0x06, 0xbd, 0x25, 0x6b, 0xa6, 0x3d, 0x4a, 0x04, 0x98, 0x3d, 0xa7, 0xb1, 0x51, 0xbd, 0x3c, 0x88, 0x18, 0x3e, 0x30, 0xa3, 0x0a, 0x3d, 0xe2, 0x13, 0xd6, 0x3c, 0xa6, 0xc9, 0x62, 0xbd, 0x5c, 0x30, 0x62, 0x3e, 0xbd, 0x2f, 0x30, 0xbd, 0x21, 0xe7, 0x15, 0x3e, 0x01, 0x0e, 0x8d, 0x3d, 0x64, 0x52, 0x47, 0xbc, 0x19, 0x5e, 0xac, 0x3d, 0xaf, 0x98, 0xd6, 0xbd, 0xb2, 0xd3, 0x09, 0xbe, 0xb1, 0x84, 0x4d, 0x3e, 0x86, 0xe9, 0x47, 0x3e, 0xc6, 0xb0, 0x37, 0xbc, 0x6b, 0x87, 0xd5, 0x3c, 0x33, 0x37, 0x83, 0x3e, 0x86, 0xf8, 0xd9, 0x3d, 0xd9, 0xad, 0xf8, 0xbd, 0x76, 0xe1, 0x7b, 0xbe, 0x59, 0xf7, 0x8f, 0xbe, 0x63, 0xce, 0x72, 0xbd, 0xff, 0x15, 0x47, 0xbe, 0xb7, 0xe8, 0xdf, 0x3d, 0xdd, 0x01, 0x53, 0x3e, 0xb9, 0x92, 0x90, 0x3e, 0x37, 0x02, 0xe8, 0x3e, 0x42, 0xbe, 0xa6, 0xbe, 0x2a, 0x0d, 0x81, 0xbe, 0x40, 0x98, 0x18, 0xbe, 0xb8, 0xb9, 0x74, 0xbe, 0x2b, 0x15, 0x20, 0xbd, 0xd1, 0x5d, 0xcc, 0xbe, 0x49, 0x75, 0x07, 0xbe, 0x06, 0xfd, 0x90, 0x3d, 0xf3, 0x4e, 0x17, 0x3e, 0x2f, 0x1f, 0x11, 0x3e, 0xa5, 0x52, 0xd8, 0xbd, 0xd4, 0x43, 0x55, 0x3e, 0xd8, 0x92, 0x8b, 0x3e, 0x9e, 0x77, 0x0e, 0xbe, 0xe1, 0xb0, 0x07, 0x3d, 0xcb, 0x26, 0x89, 0x3e, 0x87, 0xa5, 0x8e, 0x3e, 0x46, 0x6d, 0xcb, 0x3d, 0x04, 0x5d, 0x21, 0xbd, 0x18, 0x07, 0x94, 0x3d, 0x6f, 0x9e, 0x4f, 0x3e, 0x60, 0x20, 0x43, 0x3e, 0xab, 0x68, 0x23, 0x3e, 0x33, 0xec, 0x43, 0x3e, 0xc2, 0x3f, 0x25, 0x3e, 0x7b, 0xce, 0xcd, 0xbd, 0x83, 0x4b, 0xa5, 0x3d, 0x65, 0x29, 0xc9, 0xbe, 0x00, 0xd1, 0x95, 0xbe, 0x52, 0x1c, 0xf3, 0xbd, 0x9f, 0xbd, 0x90, 0x3e, 0x9f, 0xe1, 0xb7, 0x3e, 0x7b, 0x38, 0x91, 0xbe, 0xe2, 0x06, 0xdc, 0x3d, 0x80, 0x01, 0x1d, 0x3e, 0x7d, 0xc9, 0x4d, 0x3d, 0x3f, 0x50, 0x65, 0x3d, 0xd0, 0x14, 0x04, 0x3e, 0x0d, 0xe9, 0xf4, 0xbd, 0x5f, 0x06, 0x7e, 0xbd, 0x00, 0x65, 0xf3, 0x3d, 0xba, 0x1f, 0x0d, 0x3e, 0xec, 0xad, 0x53, 0xbd, 0x59, 0x5d, 0x72, 0xbd, 0xc6, 0x82, 0x1e, 0x3b, 0x98, 0x45, 0x0a, 0xbe, 0xfb, 0x82, 0x8a, 0x3c, 0x7d, 0xe8, 0x24, 0x3d, 0x21, 0xbe, 0xff, 0xbd, 0x72, 0x7f, 0x27, 0x3d, 0xe9, 0xc3, 0x74, 0xbc, 0x70, 0x14, 0x1a, 0x3e, 0x48, 0x9b, 0x06, 0xbe, 0xd1, 0x4d, 0xe0, 0x3d, 0x03, 0x87, 0x2b, 0xbc, 0x04, 0xa6, 0x4f, 0x3d, 0xab, 0x78, 0xe8, 0x3d, 0xe5, 0xed, 0xc2, 0x3d, 0xca, 0xdc, 0xf2, 0xbc, 0xe4, 0xc3, 0x25, 0x3d, 0xc5, 0xca, 0x30, 0xbe, 0xfd, 0xf4, 0x9e, 0xbd, 0xfb, 0xde, 0x31, 0xbe, 0xd9, 0xef, 0x10, 0x3d, 0x6a, 0xf4, 0x03, 0x3d, 0x47, 0x45, 0x99, 0x3d, 0x74, 0x2a, 0x83, 0xbe, 0xf5, 0xe0, 0x83, 0x3e, 0x3e, 0x7e, 0x11, 0x3d, 0x68, 0xf4, 0x3c, 0x3e, 0x28, 0xb2, 0x06, 0x3e, 0x9a, 0x7b, 0xa8, 0x3a, 0x1e, 0xcb, 0x70, 0xbe, 0x4b, 0x56, 0x1f, 0x3e, 0x77, 0x82, 0xaf, 0x3d, 0x9d, 0x03, 0x72, 0xbc, 0x06, 0x7f, 0x11, 0xbe, 0x86, 0x4e, 0x44, 0xbd, 0xce, 0x47, 0x6a, 0x3e, 0x18, 0x74, 0x0e, 0x3f, 0xb8, 0xba, 0x12, 0xbd, 0x7c, 0x29, 0x85, 0x3e, 0x59, 0xea, 0x47, 0x3c, 0xc8, 0xeb, 0xfc, 0x3d, 0x72, 0x26, 0x9d, 0xbd, 0xc6, 0x8a, 0xc2, 0x39, 0x64, 0x9a, 0x6b, 0x3c, 0x2e, 0x77, 0x09, 0xbe, 0xa9, 0x0d, 0x27, 0xbe, 0xf6, 0xcb, 0xb3, 0xbe, 0x4f, 0x85, 0x02, 0x3f, 0xff, 0xc7, 0xe0, 0x3e, 0x0c, 0x73, 0xb1, 0xbd, 0xc0, 0xe5, 0x71, 0x3e, 0xa8, 0xfc, 0x55, 0x3e, 0x78, 0x2c, 0x0b, 0x3e, 0xca, 0xf4, 0x5c, 0x3e, 0x80, 0xad, 0x92, 0xbd, 0x6d, 0x7a, 0x04, 0x3e, 0xa6, 0x4e, 0xa4, 0xbb, 0xb8, 0x81, 0x8d, 0xbe, 0xc9, 0x80, 0xa6, 0xbe, 0xb4, 0x8f, 0x44, 0x3c, 0x1a, 0x91, 0xde, 0xbd, 0x99, 0x66, 0xa2, 0x3d, 0xf1, 0x15, 0x64, 0xbd, 0xf1, 0x30, 0x8b, 0x3d, 0x29, 0xdf, 0x62, 0xbd, 0xce, 0x4c, 0x80, 0xbe, 0xa0, 0x9d, 0xd5, 0xbd, 0x69, 0x92, 0x5f, 0xbe, 0x54, 0x2b, 0xb4, 0x3d, 0x9b, 0x15, 0x89, 0x3e, 0xa3, 0x06, 0x47, 0xbe, 0x5d, 0x72, 0x2f, 0x3e, 0x41, 0x49, 0x8e, 0xbd, 0xf7, 0xe2, 0xf8, 0x3d, 0x2e, 0x42, 0x74, 0xbd, 0x6f, 0x0e, 0xe4, 0xbd, 0x3e, 0x4c, 0x33, 0x3c, 0xb3, 0x34, 0xf7, 0x3c, 0xd3, 0xab, 0xb1, 0x3e, 0xaf, 0x8f, 0x2f, 0xbd, 0x4c, 0x24, 0xe7, 0x3d, 0xf1, 0xea, 0x22, 0xbe, 0x06, 0x6d, 0x2e, 0x3e, 0xab, 0x48, 0x42, 0x3e, 0xc8, 0xab, 0xe6, 0x3d, 0x06, 0xc9, 0x0b, 0x3e, 0xe6, 0xd6, 0x13, 0x3d, 0xd6, 0xd4, 0x80, 0xbe, 0x1e, 0x95, 0x61, 0x3d, 0x2e, 0x98, 0xfa, 0x3c, 0x7d, 0x85, 0x5b, 0xbe, 0x93, 0x5c, 0x2b, 0x3d, 0xf7, 0x65, 0x6c, 0x3e, 0x45, 0xe2, 0x9c, 0x3e, 0x2b, 0xe8, 0x4f, 0xbd, 0x99, 0x1f, 0x27, 0x3e, 0x64, 0x0d, 0x20, 0x3d, 0x13, 0x20, 0xc0, 0x3e, 0x3f, 0x62, 0xba, 0x3e, 0xf9, 0xe0, 0x80, 0x3d, 0x2f, 0x22, 0x8c, 0x3d, 0xa5, 0x6a, 0x18, 0x3d, 0xb4, 0xe8, 0x65, 0xbc, 0x1a, 0xf8, 0x7a, 0x3e, 0x2d, 0x5b, 0xd6, 0xbc, 0x4c, 0x3a, 0x81, 0xbe, 0xb9, 0x09, 0x27, 0x3c, 0x87, 0x73, 0xa3, 0x3d, 0x2d, 0x7d, 0x9c, 0xbd, 0xd7, 0x95, 0x5c, 0xbd, 0xc6, 0x39, 0x5b, 0xbe, 0xc4, 0x42, 0x35, 0xbe, 0x7f, 0x95, 0x42, 0xbe, 0x61, 0x38, 0x81, 0x3d, 0xee, 0xff, 0xff, 0xff, 0x04, 0x00, 0x00, 0x00, 0x04, 0x00, 0x00, 0x00, 0x4e, 0x07, 0xb8, 0x3c, 0x00, 0x00, 0x06, 0x00, 0x08, 0x00, 0x04, 0x00, 0x06, 0x00, 0x00, 0x00, 0x04, 0x00, 0x00, 0x00, 0xf0, 0x00, 0x00, 0x00, 0x00, 0x00, 0x00, 0x00, 0x00, 0x00, 0x00, 0x00, 0x00, 0x00, 0x00, 0x00, 0x00, 0x00, 0x00, 0x00, 0x00, 0x00, 0x00, 0x00, 0x00, 0x00, 0x00, 0x00, 0x00, 0x00, 0x00, 0x00, 0x00, 0x00, 0x00, 0x00, 0x00, 0x00, 0x00, 0x00, 0x00, 0x00, 0x00, 0x00, 0x00, 0x00, 0x00, 0x00, 0x00, 0x00, 0x00, 0x00, 0x00, 0x00, 0x00, 0x00, 0x00, 0x00, 0x00, 0x00, 0x00, 0x00, 0x00, 0x00, 0x00, 0x00, 0x00, 0x00, 0x00, 0x00, 0x00, 0x00, 0x00, 0x00, 0x00, 0x00, 0x00, 0x00, 0x00, 0x00, 0x00, 0x00, 0x00, 0x00, 0x00, 0x00, 0x00, 0x00, 0x00, 0x00, 0x00, 0x00, 0x00, 0x00, 0x00, 0x00, 0x00, 0x00, 0x00, 0x00, 0x00, 0x00, 0x00, 0x00, 0x00, 0x00, 0x00, 0x00, 0x00, 0x00, 0x00, 0x00, 0x00, 0x00, 0x00, 0x00, 0x00, 0x00, 0x00, 0x00, 0x00, 0x00, 0x00, 0x00, 0x00, 0x00, 0x00, 0x00, 0x00, 0x00, 0x00, 0x00, 0x00, 0x00, 0x00, 0x00, 0x00, 0x00, 0x00, 0x00, 0x00, 0x00, 0x00, 0x00, 0x00, 0x00, 0x00, 0x00, 0x00, 0x00, 0x00, 0x00, 0x00, 0x00, 0x00, 0x00, 0x00, 0x00, 0x00, 0x00, 0x00, 0x00, 0x00, 0x00, 0x00, 0x00, 0x00, 0x00, 0x00, 0x00, 0x00, 0x00, 0x00, 0x00, 0x00, 0x00, 0x00, 0x00, 0x00, 0x00, 0x00, 0x00, 0x00, 0x00, 0x00, 0x00, 0x00, 0x00, 0x00, 0x00, 0x00, 0x00, 0x00, 0x00, 0x00, 0x00, 0x00, 0x00, 0x00, 0x00, 0x00, 0x00, 0x00, 0x00, 0x00, 0x00, 0x00, 0x00, 0x00, 0x00, 0x00, 0x00, 0x00, 0x00, 0x00, 0x00, 0x00, 0x00, 0x00, 0x00, 0x00, 0x00, 0x00, 0x00, 0x00, 0x00, 0x00, 0x00, 0x00, 0x00, 0x00, 0x00, 0x00, 0x00, 0x00, 0x00, 0x00, 0x00, 0x00, 0x00, 0x00, 0x00, 0x00, 0x00, 0xf4, 0xf7, 0xff, 0xff, 0xf8, 0xf7, 0xff, 0xff, 0x0f, 0x00, 0x00, 0x00, 0x4d, 0x4c, 0x49, 0x52, 0x20, 0x43, 0x6f, 0x6e, 0x76, 0x65, 0x72, 0x74, 0x65, 0x64, 0x2e, 0x00, 0x01, 0x00, 0x00, 0x00, 0x14, 0x00, 0x00, 0x00, 0x00, 0x00, 0x0e, 0x00, 0x18, 0x00, 0x14, 0x00, 0x10, 0x00, 0x0c, 0x00, 0x08, 0x00, 0x04, 0x00, 0x0e, 0x00, 0x00, 0x00, 0x14, 0x00, 0x00, 0x00, 0x1c, 0x00, 0x00, 0x00, 0x74, 0x01, 0x00, 0x00, 0x78, 0x01, 0x00, 0x00, 0x7c, 0x01, 0x00, 0x00, 0x04, 0x00, 0x00, 0x00, 0x6d, 0x61, 0x69, 0x6e, 0x00, 0x00, 0x00, 0x00, 0x03, 0x00, 0x00, 0x00, 0xbc, 0x00, 0x00, 0x00, 0x4c, 0x00, 0x00, 0x00, 0x04, 0x00, 0x00, 0x00, 0xca, 0xff, 0xff, 0xff, 0x14, 0x00, 0x00, 0x00, 0x00, 0x00, 0x00, 0x08, 0x10, 0x00, 0x00, 0x00, 0x14, 0x00, 0x00, 0x00, 0x02, 0x00, 0x00, 0x00, 0x74, 0xf8, 0xff, 0xff, 0x01, 0x00, 0x00, 0x00, 0x16, 0x00, 0x00, 0x00, 0x03, 0x00, 0x00, 0x00, 0x15, 0x00, 0x00, 0x00, 0x0f, 0x00, 0x00, 0x00, 0x02, 0x00, 0x00, 0x00, 0x00, 0x00, 0x0e, 0x00, 0x1a, 0x00, 0x14, 0x00, 0x10, 0x00, 0x0c, 0x00, 0x0b, 0x00, 0x04, 0x00, 0x0e, 0x00, 0x00, 0x00, 0x24, 0x00, 0x00, 0x00, 0x00, 0x00, 0x00, 0x20, 0x2c, 0x00, 0x00, 0x00, 0x30, 0x00, 0x00, 0x00, 0x01, 0x00, 0x00, 0x00, 0x00, 0x00, 0x0e, 0x00, 0x10, 0x00, 0x0c, 0x00, 0x08, 0x00, 0x00, 0x00, 0x00, 0x00, 0x04, 0x00, 0x0e, 0x00, 0x00, 0x00, 0x02, 0x00, 0x00, 0x00, 0x05, 0x00, 0x00, 0x00, 0x05, 0x00, 0x00, 0x00, 0x01, 0x00, 0x00, 0x00, 0x15, 0x00, 0x00, 0x00, 0x04, 0x00, 0x00, 0x00, 0x14, 0x00, 0x00, 0x00, 0x10, 0x00, 0x00, 0x00, 0x11, 0x00, 0x00, 0x00, 0x12, 0x00, 0x00, 0x00, 0x00, 0x00, 0x16, 0x00, 0x18, 0x00, 0x00, 0x00, 0x14, 0x00, 0x10, 0x00, 0x0f, 0x00, 0x08, 0x00, 0x00, 0x00, 0x00, 0x00, 0x00, 0x00, 0x04, 0x00, 0x16, 0x00, 0x00, 0x00, 0x14, 0x00, 0x00, 0x00, 0x1c, 0x00, 0x00, 0x00, 0x00, 0x00, 0x00, 0x47, 0x20, 0x00, 0x00, 0x00, 0x24, 0x00, 0x00, 0x00, 0x00, 0x00, 0x00, 0x00, 0x08, 0x00, 0x0c, 0x00, 0x0b, 0x00, 0x04, 0x00, 0x08, 0x00, 0x00, 0x00, 0x00, 0x00, 0x20, 0x41, 0x00, 0x00, 0x00, 0x04, 0x01, 0x00, 0x00, 0x00, 0x14, 0x00, 0x00, 0x00, 0x18, 0x00, 0x00, 0x00, 0x00, 0x00, 0x00, 0x00, 0x0b, 0x00, 0x00, 0x00, 0x0c, 0x00, 0x00, 0x00, 0x0d, 0x00, 0x00, 0x00, 0x0e, 0x00, 0x00, 0x00, 0x03, 0x00, 0x00, 0x00, 0x04, 0x00, 0x00, 0x00, 0x05, 0x00, 0x00, 0x00, 0x06, 0x00, 0x00, 0x00, 0xff, 0xff, 0xff, 0xff, 0xff, 0xff, 0xff, 0xff, 0xff, 0xff, 0xff, 0xff, 0x07, 0x00, 0x00, 0x00, 0x08, 0x00, 0x00, 0x00, 0x09, 0x00, 0x00, 0x00, 0x0a, 0x00, 0x00, 0x00, 0xff, 0xff, 0xff, 0xff, 0xff, 0xff, 0xff, 0xff, 0x01, 0x00, 0x00, 0x00, 0x13, 0x00, 0x00, 0x00, 0xff, 0xff, 0xff, 0xff, 0xff, 0xff, 0xff, 0xff, 0xff, 0xff, 0xff, 0xff, 0xff, 0xff, 0xff, 0xff, 0x01, 0x00, 0x00, 0x00, 0x16, 0x00, 0x00, 0x00, 0x01, 0x00, 0x00, 0x00, 0x00, 0x00, 0x00, 0x00, 0x17, 0x00, 0x00, 0x00, 0x2c, 0x06, 0x00, 0x00, 0xcc, 0x05, 0x00, 0x00, 0x5c, 0x05, 0x00, 0x00, 0x1c, 0x05, 0x00, 0x00, 0xdc, 0x04, 0x00, 0x00, 0x9c, 0x04, 0x00, 0x00, 0x5c, 0x04, 0x00, 0x00, 0x20, 0x04, 0x00, 0x00, 0xe4, 0x03, 0x00, 0x00, 0xa8, 0x03, 0x00, 0x00, 0x6c, 0x03, 0x00, 0x00, 0x2c, 0x03, 0x00, 0x00, 0xec, 0x02, 0x00, 0x00, 0xa8, 0x02, 0x00, 0x00, 0x64, 0x02, 0x00, 0x00, 0x18, 0x02, 0x00, 0x00, 0xd4, 0x01, 0x00, 0x00, 0x78, 0x01, 0x00, 0x00, 0x34, 0x01, 0x00, 0x00, 0xec, 0x00, 0x00, 0x00, 0x94, 0x00, 0x00, 0x00, 0x50, 0x00, 0x00, 0x00, 0x04, 0x00, 0x00, 0x00, 0x46, 0xfa, 0xff, 0xff, 0x00, 0x00, 0x00, 0x01, 0x10, 0x00, 0x00, 0x00, 0x10, 0x00, 0x00, 0x00, 0x17, 0x00, 0x00, 0x00, 0x28, 0x00, 0x00, 0x00, 0x30, 0xfa, 0xff, 0xff, 0x19, 0x00, 0x00, 0x00, 0x53, 0x74, 0x61, 0x74, 0x65, 0x66, 0x75, 0x6c, 0x50, 0x61, 0x72, 0x74, 0x69, 0x74, 0x69, 0x6f, 0x6e, 0x65, 0x64, 0x43, 0x61, 0x6c, 0x6c, 0x3a, 0x30, 0x00, 0x00, 0x00, 0x02, 0x00, 0x00, 0x00, 0x04, 0x00, 0x00, 0x00, 0x01, 0x00, 0x00, 0x00, 0x8e, 0xfa, 0xff, 0xff, 0x00, 0x00, 0x00, 0x01, 0x10, 0x00, 0x00, 0x00, 0x10, 0x00, 0x00, 0x00, 0x16, 0x00, 0x00, 0x00, 0x20, 0x00, 0x00, 0x00, 0x78, 0xfa, 0xff, 0xff, 0x11, 0x00, 0x00, 0x00, 0x74, 0x66, 0x6c, 0x2e, 0x73, 0x74, 0x72, 0x69, 0x64, 0x65, 0x64, 0x5f, 0x73, 0x6c, 0x69, 0x63, 0x65, 0x00, 0x00, 0x00, 0x02, 0x00, 0x00, 0x00, 0x04, 0x00, 0x00, 0x00, 0x0f, 0x00, 0x00, 0x00, 0xce, 0xfa, 0xff, 0xff, 0x00, 0x00, 0x00, 0x01, 0x10, 0x00, 0x00, 0x00, 0x10, 0x00, 0x00, 0x00, 0x15, 0x00, 0x00, 0x00, 0x30, 0x00, 0x00, 0x00, 0xb8, 0xfa, 0xff, 0xff, 0x20, 0x00, 0x00, 0x00, 0x74, 0x66, 0x6c, 0x2e, 0x75, 0x6e, 0x69, 0x64, 0x69, 0x72, 0x65, 0x63, 0x74, 0x69, 0x6f, 0x6e, 0x61, 0x6c, 0x5f, 0x73, 0x65, 0x71, 0x75, 0x65, 0x6e, 0x63, 0x65, 0x5f, 0x6c, 0x73, 0x74, 0x6d, 0x00, 0x00, 0x00, 0x00, 0x03, 0x00, 0x00, 0x00, 0x04, 0x00, 0x00, 0x00, 0x05, 0x00, 0x00, 0x00, 0x0f, 0x00, 0x00, 0x00, 0x7e, 0xfb, 0xff, 0xff, 0x00, 0x00, 0x01, 0x01, 0x0c, 0x00, 0x00, 0x00, 0x0c, 0x00, 0x00, 0x00, 0x28, 0x00, 0x00, 0x00, 0x08, 0xfb, 0xff, 0xff, 0x1a, 0x00, 0x00, 0x00, 0x73, 0x65, 0x71, 0x75, 0x65, 0x6e, 0x74, 0x69, 0x61, 0x6c, 0x5f, 0x31, 0x2f, 0x6c, 0x73, 0x74, 0x6d, 0x5f, 0x31, 0x2f, 0x7a, 0x65, 0x72, 0x6f, 0x73, 0x31, 0x00, 0x00, 0x02, 0x00, 0x00, 0x00, 0x04, 0x00, 0x00, 0x00, 0x0f, 0x00, 0x00, 0x00, 0x7e, 0xff, 0xff, 0xff, 0x00, 0x00, 0x00, 0x01, 0x14, 0x00, 0x00, 0x00, 0x14, 0x00, 0x00, 0x00, 0x13, 0x00, 0x00, 0x00, 0x00, 0x00, 0x00, 0x02, 0x20, 0x00, 0x00, 0x00, 0x54, 0xfb, 0xff, 0xff, 0x10, 0x00, 0x00, 0x00, 0x61, 0x72, 0x69, 0x74, 0x68, 0x2e, 0x63, 0x6f, 0x6e, 0x73, 0x74, 0x61, 0x6e, 0x74, 0x31, 0x34, 0x00, 0x00, 0x00, 0x00, 0x01, 0x00, 0x00, 0x00, 0x03, 0x00, 0x00, 0x00, 0xbe, 0xff, 0xff, 0xff, 0x00, 0x00, 0x00, 0x01, 0x14, 0x00, 0x00, 0x00, 0x14, 0x00, 0x00, 0x00, 0x12, 0x00, 0x00, 0x00, 0x00, 0x00, 0x00, 0x02, 0x20, 0x00, 0x00, 0x00, 0x94, 0xfb, 0xff, 0xff, 0x10, 0x00, 0x00, 0x00, 0x61, 0x72, 0x69, 0x74, 0x68, 0x2e, 0x63, 0x6f, 0x6e, 0x73, 0x74, 0x61, 0x6e, 0x74, 0x31, 0x33, 0x00, 0x00, 0x00, 0x00, 0x01, 0x00, 0x00, 0x00, 0x03, 0x00, 0x00, 0x00, 0x00, 0x00, 0x16, 0x00, 0x1c, 0x00, 0x18, 0x00, 0x17, 0x00, 0x10, 0x00, 0x0c, 0x00, 0x08, 0x00, 0x00, 0x00, 0x00, 0x00, 0x00, 0x00, 0x07, 0x00, 0x16, 0x00, 0x00, 0x00, 0x00, 0x00, 0x00, 0x01, 0x14, 0x00, 0x00, 0x00, 0x14, 0x00, 0x00, 0x00, 0x11, 0x00, 0x00, 0x00, 0x00, 0x00, 0x00, 0x02, 0x20, 0x00, 0x00, 0x00, 0xec, 0xfb, 0xff, 0xff, 0x10, 0x00, 0x00, 0x00, 0x61, 0x72, 0x69, 0x74, 0x68, 0x2e, 0x63, 0x6f, 0x6e, 0x73, 0x74, 0x61, 0x6e, 0x74, 0x31, 0x32, 0x00, 0x00, 0x00, 0x00, 0x01, 0x00, 0x00, 0x00, 0x03, 0x00, 0x00, 0x00, 0x3e, 0xfc, 0xff, 0xff, 0x00, 0x00, 0x00, 0x01, 0x10, 0x00, 0x00, 0x00, 0x10, 0x00, 0x00, 0x00, 0x10, 0x00, 0x00, 0x00, 0x28, 0x00, 0x00, 0x00, 0x28, 0xfc, 0xff, 0xff, 0x1b, 0x00, 0x00, 0x00, 0x73, 0x65, 0x71, 0x75, 0x65, 0x6e, 0x74, 0x69, 0x61, 0x6c, 0x5f, 0x31, 0x2f, 0x64, 0x65, 0x6e, 0x73, 0x65, 0x5f, 0x31, 0x2f, 0x4d, 0x61, 0x74, 0x4d, 0x75, 0x6c, 0x00, 0x02, 0x00, 0x00, 0x00, 0x01, 0x00, 0x00, 0x00, 0x0f, 0x00, 0x00, 0x00, 0x86, 0xfc, 0xff, 0xff, 0x00, 0x00, 0x00, 0x01, 0x10, 0x00, 0x00, 0x00, 0x10, 0x00, 0x00, 0x00, 0x0f, 0x00, 0x00, 0x00, 0x20, 0x00, 0x00, 0x00, 0x70, 0xfc, 0xff, 0xff, 0x10, 0x00, 0x00, 0x00, 0x61, 0x72, 0x69, 0x74, 0x68, 0x2e, 0x63, 0x6f, 0x6e, 0x73, 0x74, 0x61, 0x6e, 0x74, 0x31, 0x31, 0x00, 0x00, 0x00, 0x00, 0x02, 0x00, 0x00, 0x00, 0x0f, 0x00, 0x00, 0x00, 0x01, 0x00, 0x00, 0x00, 0xc6, 0xfc, 0xff, 0xff, 0x00, 0x00, 0x00, 0x01, 0x10, 0x00, 0x00, 0x00, 0x10, 0x00, 0x00, 0x00, 0x0e, 0x00, 0x00, 0x00, 0x20, 0x00, 0x00, 0x00, 0xb0, 0xfc, 0xff, 0xff, 0x10, 0x00, 0x00, 0x00, 0x61, 0x72, 0x69, 0x74, 0x68, 0x2e, 0x63, 0x6f, 0x6e, 0x73, 0x74, 0x61, 0x6e, 0x74, 0x31, 0x30, 0x00, 0x00, 0x00, 0x00, 0x02, 0x00, 0x00, 0x00, 0x0f, 0x00, 0x00, 0x00, 0x01, 0x00, 0x00, 0x00, 0x06, 0xfd, 0xff, 0xff, 0x00, 0x00, 0x00, 0x01, 0x10, 0x00, 0x00, 0x00, 0x10, 0x00, 0x00, 0x00, 0x0d, 0x00, 0x00, 0x00, 0x1c, 0x00, 0x00, 0x00, 0xf0, 0xfc, 0xff, 0xff, 0x0f, 0x00, 0x00, 0x00, 0x61, 0x72, 0x69, 0x74, 0x68, 0x2e, 0x63, 0x6f, 0x6e, 0x73, 0x74, 0x61, 0x6e, 0x74, 0x39, 0x00, 0x02, 0x00, 0x00, 0x00, 0x0f, 0x00, 0x00, 0x00, 0x01, 0x00, 0x00, 0x00, 0x42, 0xfd, 0xff, 0xff, 0x00, 0x00, 0x00, 0x01, 0x10, 0x00, 0x00, 0x00, 0x10, 0x00, 0x00, 0x00, 0x0c, 0x00, 0x00, 0x00, 0x1c, 0x00, 0x00, 0x00, 0x2c, 0xfd, 0xff, 0xff, 0x0f, 0x00, 0x00, 0x00, 0x61, 0x72, 0x69, 0x74, 0x68, 0x2e, 0x63, 0x6f, 0x6e, 0x73, 0x74, 0x61, 0x6e, 0x74, 0x38, 0x00, 0x02, 0x00, 0x00, 0x00, 0x0f, 0x00, 0x00, 0x00, 0x01, 0x00, 0x00, 0x00, 0x7e, 0xfd, 0xff, 0xff, 0x00, 0x00, 0x00, 0x01, 0x10, 0x00, 0x00, 0x00, 0x10, 0x00, 0x00, 0x00, 0x0b, 0x00, 0x00, 0x00, 0x1c, 0x00, 0x00, 0x00, 0x68, 0xfd, 0xff, 0xff, 0x0f, 0x00, 0x00, 0x00, 0x61, 0x72, 0x69, 0x74, 0x68, 0x2e, 0x63, 0x6f, 0x6e, 0x73, 0x74, 0x61, 0x6e, 0x74, 0x37, 0x00, 0x01, 0x00, 0x00, 0x00, 0x0f, 0x00, 0x00, 0x00, 0xb6, 0xfd, 0xff, 0xff, 0x00, 0x00, 0x00, 0x01, 0x10, 0x00, 0x00, 0x00, 0x10, 0x00, 0x00, 0x00, 0x0a, 0x00, 0x00, 0x00, 0x1c, 0x00, 0x00, 0x00, 0xa0, 0xfd, 0xff, 0xff, 0x0f, 0x00, 0x00, 0x00, 0x61, 0x72, 0x69, 0x74, 0x68, 0x2e, 0x63, 0x6f, 0x6e, 0x73, 0x74, 0x61, 0x6e, 0x74, 0x36, 0x00, 0x01, 0x00, 0x00, 0x00, 0x0f, 0x00, 0x00, 0x00, 0xee, 0xfd, 0xff, 0xff, 0x00, 0x00, 0x00, 0x01, 0x10, 0x00, 0x00, 0x00, 0x10, 0x00, 0x00, 0x00, 0x09, 0x00, 0x00, 0x00, 0x1c, 0x00, 0x00, 0x00, 0xd8, 0xfd, 0xff, 0xff, 0x0f, 0x00, 0x00, 0x00, 0x61, 0x72, 0x69, 0x74, 0x68, 0x2e, 0x63, 0x6f, 0x6e, 0x73, 0x74, 0x61, 0x6e, 0x74, 0x35, 0x00, 0x01, 0x00, 0x00, 0x00, 0x0f, 0x00, 0x00, 0x00, 0x26, 0xfe, 0xff, 0xff, 0x00, 0x00, 0x00, 0x01, 0x10, 0x00, 0x00, 0x00, 0x10, 0x00, 0x00, 0x00, 0x08, 0x00, 0x00, 0x00, 0x1c, 0x00, 0x00, 0x00, 0x10, 0xfe, 0xff, 0xff, 0x0f, 0x00, 0x00, 0x00, 0x61, 0x72, 0x69, 0x74, 0x68, 0x2e, 0x63, 0x6f, 0x6e, 0x73, 0x74, 0x61, 0x6e, 0x74, 0x34, 0x00, 0x01, 0x00, 0x00, 0x00, 0x0f, 0x00, 0x00, 0x00, 0x5e, 0xfe, 0xff, 0xff, 0x00, 0x00, 0x00, 0x01, 0x10, 0x00, 0x00, 0x00, 0x10, 0x00, 0x00, 0x00, 0x07, 0x00, 0x00, 0x00, 0x1c, 0x00, 0x00, 0x00, 0x48, 0xfe, 0xff, 0xff, 0x0f, 0x00, 0x00, 0x00, 0x61, 0x72, 0x69, 0x74, 0x68, 0x2e, 0x63, 0x6f, 0x6e, 0x73, 0x74, 0x61, 0x6e, 0x74, 0x33, 0x00, 0x02, 0x00, 0x00, 0x00, 0x0f, 0x00, 0x00, 0x00, 0x0f, 0x00, 0x00, 0x00, 0x9a, 0xfe, 0xff, 0xff, 0x00, 0x00, 0x00, 0x01, 0x10, 0x00, 0x00, 0x00, 0x10, 0x00, 0x00, 0x00, 0x06, 0x00, 0x00, 0x00, 0x1c, 0x00, 0x00, 0x00, 0x84, 0xfe, 0xff, 0xff, 0x0f, 0x00, 0x00, 0x00, 0x61, 0x72, 0x69, 0x74, 0x68, 0x2e, 0x63, 0x6f, 0x6e, 0x73, 0x74, 0x61, 0x6e, 0x74, 0x32, 0x00, 0x02, 0x00, 0x00, 0x00, 0x0f, 0x00, 0x00, 0x00, 0x0f, 0x00, 0x00, 0x00, 0xd6, 0xfe, 0xff, 0xff, 0x00, 0x00, 0x00, 0x01, 0x10, 0x00, 0x00, 0x00, 0x10, 0x00, 0x00, 0x00, 0x05, 0x00, 0x00, 0x00, 0x1c, 0x00, 0x00, 0x00, 0xc0, 0xfe, 0xff, 0xff, 0x0f, 0x00, 0x00, 0x00, 0x61, 0x72, 0x69, 0x74, 0x68, 0x2e, 0x63, 0x6f, 0x6e, 0x73, 0x74, 0x61, 0x6e, 0x74, 0x31, 0x00, 0x02, 0x00, 0x00, 0x00, 0x0f, 0x00, 0x00, 0x00, 0x0f, 0x00, 0x00, 0x00, 0x12, 0xff, 0xff, 0xff, 0x00, 0x00, 0x00, 0x01, 0x10, 0x00, 0x00, 0x00, 0x10, 0x00, 0x00, 0x00, 0x04, 0x00, 0x00, 0x00, 0x1c, 0x00, 0x00, 0x00, 0xfc, 0xfe, 0xff, 0xff, 0x0e, 0x00, 0x00, 0x00, 0x61, 0x72, 0x69, 0x74, 0x68, 0x2e, 0x63, 0x6f, 0x6e, 0x73, 0x74, 0x61, 0x6e, 0x74, 0x00, 0x00, 0x02, 0x00, 0x00, 0x00, 0x0f, 0x00, 0x00, 0x00, 0x0f, 0x00, 0x00, 0x00, 0x4e, 0xff, 0xff, 0xff, 0x00, 0x00, 0x00, 0x01, 0x10, 0x00, 0x00, 0x00, 0x10, 0x00, 0x00, 0x00, 0x03, 0x00, 0x00, 0x00, 0x38, 0x00, 0x00, 0x00, 0x38, 0xff, 0xff, 0xff, 0x2b, 0x00, 0x00, 0x00, 0x73, 0x65, 0x71, 0x75, 0x65, 0x6e, 0x74, 0x69, 0x61, 0x6c, 0x5f, 0x31, 0x2f, 0x64, 0x65, 0x6e, 0x73, 0x65, 0x5f, 0x31, 0x2f, 0x42, 0x69, 0x61, 0x73, 0x41, 0x64, 0x64, 0x2f, 0x52, 0x65, 0x61, 0x64, 0x56, 0x61, 0x72, 0x69, 0x61, 0x62, 0x6c, 0x65, 0x4f, 0x70, 0x00, 0x01, 0x00, 0x00, 0x00, 0x01, 0x00, 0x00, 0x00, 0x00, 0x00, 0x16, 0x00, 0x14, 0x00, 0x10, 0x00, 0x00, 0x00, 0x00, 0x00, 0x0c, 0x00, 0x08, 0x00, 0x07, 0x00, 0x00, 0x00, 0x00, 0x00, 0x06, 0x00, 0x16, 0x00, 0x00, 0x00, 0x00, 0x00, 0x01, 0x01, 0x0c, 0x00, 0x00, 0x00, 0x0c, 0x00, 0x00, 0x00, 0x28, 0x00, 0x00, 0x00, 0xa0, 0xff, 0xff, 0xff, 0x19, 0x00, 0x00, 0x00, 0x73, 0x65, 0x71, 0x75, 0x65, 0x6e, 0x74, 0x69, 0x61, 0x6c, 0x5f, 0x31, 0x2f, 0x6c, 0x73, 0x74, 0x6d, 0x5f, 0x31, 0x2f, 0x7a, 0x65, 0x72, 0x6f, 0x73, 0x00, 0x00, 0x00, 0x02, 0x00, 0x00, 0x00, 0x04, 0x00, 0x00, 0x00, 0x0f, 0x00, 0x00, 0x00, 0x00, 0x00, 0x16, 0x00, 0x18, 0x00, 0x14, 0x00, 0x00, 0x00, 0x10, 0x00, 0x0c, 0x00, 0x08, 0x00, 0x00, 0x00, 0x00, 0x00, 0x00, 0x00, 0x07, 0x00, 0x16, 0x00, 0x00, 0x00, 0x00, 0x00, 0x00, 0x01, 0x14, 0x00, 0x00, 0x00, 0x14, 0x00, 0x00, 0x00, 0x01, 0x00, 0x00, 0x00, 0x24, 0x00, 0x00, 0x00, 0x04, 0x00, 0x04, 0x00, 0x04, 0x00, 0x00, 0x00, 0x13, 0x00, 0x00, 0x00, 0x73, 0x65, 0x72, 0x76, 0x69, 0x6e, 0x67, 0x5f, 0x64, 0x65, 0x66, 0x61, 0x75, 0x6c, 0x74, 0x5f, 0x78, 0x3a, 0x30, 0x00, 0x03, 0x00, 0x00, 0x00, 0x04, 0x00, 0x00, 0x00, 0x05, 0x00, 0x00, 0x00, 0x01, 0x00, 0x00, 0x00, 0x03, 0x00, 0x00, 0x00, 0x30, 0x00, 0x00, 0x00, 0x14, 0x00, 0x00, 0x00, 0x04, 0x00, 0x00, 0x00, 0xe8, 0xff, 0xff, 0xff, 0x09, 0x00, 0x00, 0x00, 0x00, 0x00, 0x00, 0x09, 0xf4, 0xff, 0xff, 0xff, 0x2d, 0x00, 0x00, 0x00, 0x00, 0x00, 0x00, 0x2d, 0x0c, 0x00, 0x0c, 0x00, 0x0b, 0x00, 0x00, 0x00, 0x00, 0x00, 0x04, 0x00, 0x0c, 0x00, 0x00, 0x00, 0x2c, 0x00, 0x00, 0x00, 0x00, 0x00, 0x00, 0x2c};
const int model_data_len = 7592;
float x[5] = {0.2715297121634169, 0.32079851439182916, 0.2946262766945218, 0.2924791086350975, 0.26978876508820804};
const int input_size = 5;
const int output_size = 1;