
    // if having troubles with min/max, uncomment the following
    // #undef min    
    // #undef max
    #ifdef __has_attribute
    #define HAVE_ATTRIBUTE(x) __has_attribute(x)
    #else
    #define HAVE_ATTRIBUTE(x) 0
    #endif
    #if HAVE_ATTRIBUTE(aligned) || (defined(__GNUC__) && !defined(__clang__))
    #define DATA_ALIGN_ATTRIBUTE __attribute__((aligned(4)))
    #else
    #define DATA_ALIGN_ATTRIBUTE
    #endif
    const unsigned char model_data[] DATA_ALIGN_ATTRIBUTE = {0x1c, 0x00, 0x00, 0x00, 0x54, 0x46, 0x4c, 0x33, 0x14, 0x00, 0x20, 0x00, 0x1c, 0x00, 0x18, 0x00, 0x14, 0x00, 0x10, 0x00, 0x0c, 0x00, 0x00, 0x00, 0x08, 0x00, 0x04, 0x00, 0x14, 0x00, 0x00, 0x00, 0x1c, 0x00, 0x00, 0x00, 0x8c, 0x00, 0x00, 0x00, 0xe4, 0x00, 0x00, 0x00, 0x5c, 0x27, 0x00, 0x00, 0x6c, 0x27, 0x00, 0x00, 0x28, 0x34, 0x00, 0x00, 0x03, 0x00, 0x00, 0x00, 0x01, 0x00, 0x00, 0x00, 0x10, 0x00, 0x00, 0x00, 0x00, 0x00, 0x0a, 0x00, 0x10, 0x00, 0x0c, 0x00, 0x08, 0x00, 0x04, 0x00, 0x0a, 0x00, 0x00, 0x00, 0x0c, 0x00, 0x00, 0x00, 0x1c, 0x00, 0x00, 0x00, 0x3c, 0x00, 0x00, 0x00, 0x0f, 0x00, 0x00, 0x00, 0x73, 0x65, 0x72, 0x76, 0x69, 0x6e, 0x67, 0x5f, 0x64, 0x65, 0x66, 0x61, 0x75, 0x6c, 0x74, 0x00, 0x01, 0x00, 0x00, 0x00, 0x04, 0x00, 0x00, 0x00, 0x9c, 0xff, 0xff, 0xff, 0x25, 0x00, 0x00, 0x00, 0x04, 0x00, 0x00, 0x00, 0x08, 0x00, 0x00, 0x00, 0x6f, 0x75, 0x74, 0x70, 0x75, 0x74, 0x5f, 0x30, 0x00, 0x00, 0x00, 0x00, 0x01, 0x00, 0x00, 0x00, 0x04, 0x00, 0x00, 0x00, 0xd2, 0xd9, 0xff, 0xff, 0x04, 0x00, 0x00, 0x00, 0x01, 0x00, 0x00, 0x00, 0x78, 0x00, 0x00, 0x00, 0x02, 0x00, 0x00, 0x00, 0x34, 0x00, 0x00, 0x00, 0x04, 0x00, 0x00, 0x00, 0xdc, 0xff, 0xff, 0xff, 0x28, 0x00, 0x00, 0x00, 0x04, 0x00, 0x00, 0x00, 0x13, 0x00, 0x00, 0x00, 0x43, 0x4f, 0x4e, 0x56, 0x45, 0x52, 0x53, 0x49, 0x4f, 0x4e, 0x5f, 0x4d, 0x45, 0x54, 0x41, 0x44, 0x41, 0x54, 0x41, 0x00, 0x08, 0x00, 0x0c, 0x00, 0x08, 0x00, 0x04, 0x00, 0x08, 0x00, 0x00, 0x00, 0x27, 0x00, 0x00, 0x00, 0x04, 0x00, 0x00, 0x00, 0x13, 0x00, 0x00, 0x00, 0x6d, 0x69, 0x6e, 0x5f, 0x72, 0x75, 0x6e, 0x74, 0x69, 0x6d, 0x65, 0x5f, 0x76, 0x65, 0x72, 0x73, 0x69, 0x6f, 0x6e, 0x00, 0x29, 0x00, 0x00, 0x00, 0x74, 0x26, 0x00, 0x00, 0x6c, 0x26, 0x00, 0x00, 0xbc, 0x25, 0x00, 0x00, 0xb4, 0x24, 0x00, 0x00, 0xa0, 0x24, 0x00, 0x00, 0x0c, 0x21, 0x00, 0x00, 0x78, 0x1d, 0x00, 0x00, 0xe4, 0x19, 0x00, 0x00, 0x50, 0x16, 0x00, 0x00, 0x04, 0x16, 0x00, 0x00, 0xb8, 0x15, 0x00, 0x00, 0x6c, 0x15, 0x00, 0x00, 0x20, 0x15, 0x00, 0x00, 0xd4, 0x14, 0x00, 0x00, 0x88, 0x14, 0x00, 0x00, 0x3c, 0x14, 0x00, 0x00, 0xf0, 0x13, 0x00, 0x00, 0x50, 0x12, 0x00, 0x00, 0xb0, 0x10, 0x00, 0x00, 0x10, 0x0f, 0x00, 0x00, 0x70, 0x0d, 0x00, 0x00, 0x38, 0x0d, 0x00, 0x00, 0x00, 0x0d, 0x00, 0x00, 0xc8, 0x0c, 0x00, 0x00, 0x90, 0x0c, 0x00, 0x00, 0x28, 0x0a, 0x00, 0x00, 0xc0, 0x07, 0x00, 0x00, 0x58, 0x05, 0x00, 0x00, 0xf0, 0x02, 0x00, 0x00, 0xb8, 0x02, 0x00, 0x00, 0x9c, 0x02, 0x00, 0x00, 0x80, 0x02, 0x00, 0x00, 0x64, 0x02, 0x00, 0x00, 0x64, 0x01, 0x00, 0x00, 0x5c, 0x01, 0x00, 0x00, 0xac, 0x00, 0x00, 0x00, 0xa4, 0x00, 0x00, 0x00, 0x9c, 0x00, 0x00, 0x00, 0x94, 0x00, 0x00, 0x00, 0x74, 0x00, 0x00, 0x00, 0x04, 0x00, 0x00, 0x00, 0xe6, 0xda, 0xff, 0xff, 0x04, 0x00, 0x00, 0x00, 0x60, 0x00, 0x00, 0x00, 0x0c, 0x00, 0x00, 0x00, 0x08, 0x00, 0x0e, 0x00, 0x08, 0x00, 0x04, 0x00, 0x08, 0x00, 0x00, 0x00, 0x10, 0x00, 0x00, 0x00, 0x24, 0x00, 0x00, 0x00, 0x00, 0x00, 0x06, 0x00, 0x08, 0x00, 0x04, 0x00, 0x06, 0x00, 0x00, 0x00, 0x04, 0x00, 0x00, 0x00, 0x00, 0x00, 0x00, 0x00, 0x00, 0x00, 0x0a, 0x00, 0x10, 0x00, 0x0c, 0x00, 0x08, 0x00, 0x04, 0x00, 0x0a, 0x00, 0x00, 0x00, 0x01, 0x00, 0x00, 0x00, 0x02, 0x00, 0x00, 0x00, 0x04, 0x00, 0x00, 0x00, 0x12, 0x00, 0x00, 0x00, 0x32, 0x2e, 0x31, 0x34, 0x2e, 0x30, 0x2d, 0x64, 0x65, 0x76, 0x32, 0x30, 0x32, 0x33, 0x30, 0x35, 0x32, 0x35, 0x00, 0x00, 0x52, 0xdb, 0xff, 0xff, 0x04, 0x00, 0x00, 0x00, 0x10, 0x00, 0x00, 0x00, 0x31, 0x2e, 0x31, 0x33, 0x2e, 0x31, 0x00, 0x00, 0x00, 0x00, 0x00, 0x00, 0x00, 0x00, 0x00, 0x00, 0x10, 0xce, 0xff, 0xff, 0x14, 0xce, 0xff, 0xff, 0x18, 0xce, 0xff, 0xff, 0x7a, 0xdb, 0xff, 0xff, 0x04, 0x00, 0x00, 0x00, 0xa0, 0x00, 0x00, 0x00, 0x00, 0x00, 0x00, 0x00, 0x00, 0x00, 0x00, 0x00, 0x00, 0x00, 0x00, 0x00, 0x00, 0x00, 0x00, 0x00, 0x00, 0x00, 0x00, 0x00, 0x00, 0x00, 0x00, 0x00, 0x00, 0x00, 0x00, 0x00, 0x00, 0x00, 0x00, 0x00, 0x00, 0x00, 0x00, 0x00, 0x00, 0x00, 0x00, 0x00, 0x00, 0x00, 0x00, 0x00, 0x00, 0x00, 0x00, 0x00, 0x00, 0x00, 0x00, 0x00, 0x00, 0x00, 0x00, 0x00, 0x00, 0x00, 0x00, 0x00, 0x00, 0x00, 0x00, 0x00, 0x00, 0x00, 0x00, 0x00, 0x00, 0x00, 0x00, 0x00, 0x00, 0x00, 0x00, 0x00, 0x00, 0x00, 0x00, 0x00, 0x00, 0x00, 0x00, 0x00, 0x00, 0x00, 0x00, 0x00, 0x00, 0x00, 0x00, 0x00, 0x00, 0x00, 0x00, 0x00, 0x00, 0x00, 0x00, 0x00, 0x00, 0x00, 0x00, 0x00, 0x00, 0x00, 0x00, 0x00, 0x00, 0x00, 0x00, 0x00, 0x00, 0x00, 0x00, 0x00, 0x00, 0x00, 0x00, 0x00, 0x00, 0x00, 0x00, 0x00, 0x00, 0x00, 0x00, 0x00, 0x00, 0x00, 0x00, 0x00, 0x00, 0x00, 0x00, 0x00, 0x00, 0x00, 0x00, 0x00, 0x00, 0x00, 0x00, 0x00, 0x00, 0x00, 0x00, 0x00, 0x00, 0x00, 0x00, 0x00, 0x00, 0x00, 0x00, 0x00, 0x00, 0x00, 0x00, 0x00, 0xc8, 0xce, 0xff, 0xff, 0x2a, 0xdc, 0xff, 0xff, 0x04, 0x00, 0x00, 0x00, 0xf0, 0x00, 0x00, 0x00, 0x00, 0x00, 0x00, 0x00, 0x00, 0x00, 0x00, 0x00, 0x00, 0x00, 0x00, 0x00, 0x00, 0x00, 0x00, 0x00, 0x00, 0x00, 0x00, 0x00, 0x00, 0x00, 0x00, 0x00, 0x00, 0x00, 0x00, 0x00, 0x00, 0x00, 0x00, 0x00, 0x00, 0x00, 0x00, 0x00, 0x00, 0x00, 0x00, 0x00, 0x00, 0x00, 0x00, 0x00, 0x00, 0x00, 0x00, 0x00, 0x00, 0x00, 0x00, 0x00, 0x00, 0x00, 0x00, 0x00, 0x00, 0x00, 0x00, 0x00, 0x00, 0x00, 0x00, 0x00, 0x00, 0x00, 0x00, 0x00, 0x00, 0x00, 0x00, 0x00, 0x00, 0x00, 0x00, 0x00, 0x00, 0x00, 0x00, 0x00, 0x00, 0x00, 0x00, 0x00, 0x00, 0x00, 0x00, 0x00, 0x00, 0x00, 0x00, 0x00, 0x00, 0x00, 0x00, 0x00, 0x00, 0x00, 0x00, 0x00, 0x00, 0x00, 0x00, 0x00, 0x00, 0x00, 0x00, 0x00, 0x00, 0x00, 0x00, 0x00, 0x00, 0x00, 0x00, 0x00, 0x00, 0x00, 0x00, 0x00, 0x00, 0x00, 0x00, 0x00, 0x00, 0x00, 0x00, 0x00, 0x00, 0x00, 0x00, 0x00, 0x00, 0x00, 0x00, 0x00, 0x00, 0x00, 0x00, 0x00, 0x00, 0x00, 0x00, 0x00, 0x00, 0x00, 0x00, 0x00, 0x00, 0x00, 0x00, 0x00, 0x00, 0x00, 0x00, 0x00, 0x00, 0x00, 0x00, 0x00, 0x00, 0x00, 0x00, 0x00, 0x00, 0x00, 0x00, 0x00, 0x00, 0x00, 0x00, 0x00, 0x00, 0x00, 0x00, 0x00, 0x00, 0x00, 0x00, 0x00, 0x00, 0x00, 0x00, 0x00, 0x00, 0x00, 0x00, 0x00, 0x00, 0x00, 0x00, 0x00, 0x00, 0x00, 0x00, 0x00, 0x00, 0x00, 0x00, 0x00, 0x00, 0x00, 0x00, 0x00, 0x00, 0x00, 0x00, 0x00, 0x00, 0x00, 0x00, 0x00, 0x00, 0x00, 0x00, 0x00, 0x00, 0x00, 0x00, 0x00, 0x00, 0x00, 0x00, 0x00, 0x00, 0x00, 0x00, 0x00, 0x00, 0x00, 0x00, 0x00, 0x00, 0x00, 0x00, 0x00, 0x00, 0x00, 0x00, 0x00, 0x26, 0xdd, 0xff, 0xff, 0x04, 0x00, 0x00, 0x00, 0x0c, 0x00, 0x00, 0x00, 0x01, 0x00, 0x00, 0x00, 0x01, 0x00, 0x00, 0x00, 0x01, 0x00, 0x00, 0x00, 0x3e, 0xdd, 0xff, 0xff, 0x04, 0x00, 0x00, 0x00, 0x0c, 0x00, 0x00, 0x00, 0x00, 0x00, 0x00, 0x00, 0x00, 0x00, 0x00, 0x00, 0x00, 0x00, 0x00, 0x00, 0x56, 0xdd, 0xff, 0xff, 0x04, 0x00, 0x00, 0x00, 0x0c, 0x00, 0x00, 0x00, 0x00, 0x00, 0x00, 0x00, 0xff, 0xff, 0xff, 0xff, 0x00, 0x00, 0x00, 0x00, 0x6e, 0xdd, 0xff, 0xff, 0x04, 0x00, 0x00, 0x00, 0x28, 0x00, 0x00, 0x00, 0x39, 0xd8, 0x0e, 0xbf, 0x5e, 0xb6, 0x07, 0xbf, 0x77, 0xa7, 0x33, 0x3f, 0x2d, 0xcf, 0x3a, 0xbe, 0x15, 0xf4, 0x04, 0xbe, 0x0f, 0xdf, 0xc1, 0x3e, 0x4a, 0x52, 0x2f, 0xbe, 0x7c, 0xfb, 0x98, 0xbe, 0x5d, 0x87, 0x88, 0x3e, 0x95, 0x70, 0x3b, 0xbf, 0xa2, 0xdd, 0xff, 0xff, 0x04, 0x00, 0x00, 0x00, 0x58, 0x02, 0x00, 0x00, 0xc2, 0x8d, 0x50, 0xbc, 0x19, 0x91, 0x44, 0xbe, 0xd6, 0xad, 0xc1, 0xbe, 0x1f, 0x6b, 0x01, 0xbd, 0xac, 0x89, 0x7a, 0x3d, 0x90, 0x38, 0x7b, 0xbe, 0x7d, 0x15, 0x58, 0xbd, 0x03, 0xc3, 0x98, 0x3d, 0xd0, 0x53, 0x98, 0xbc, 0xd5, 0x79, 0x68, 0x3f, 0x47, 0xbd, 0x31, 0xbd, 0x94, 0xa7, 0x39, 0x3c, 0x2d, 0x75, 0x08, 0x3d, 0x8a, 0x23, 0xa3, 0xbe, 0x0f, 0x83, 0x61, 0xbe, 0x84, 0x18, 0x11, 0xbd, 0x76, 0x3d, 0x5e, 0xbd, 0x30, 0x60, 0x4c, 0xbe, 0x59, 0x03, 0xcd, 0x3e, 0xc9, 0xea, 0xc2, 0x3e, 0xb6, 0x6d, 0xc7, 0xbe, 0x54, 0x97, 0x5c, 0x3d, 0xea, 0x09, 0xec, 0xbd, 0xff, 0x6f, 0x15, 0xbe, 0x1b, 0x43, 0xae, 0x3f, 0x28, 0x42, 0x8b, 0xbe, 0x4d, 0xcc, 0xae, 0x3e, 0x48, 0xc3, 0xd7, 0x3e, 0x50, 0x37, 0x3d, 0xbf, 0x38, 0x8a, 0x68, 0x3d, 0xa4, 0xe5, 0x70, 0x3e, 0xf8, 0x14, 0x2e, 0x3d, 0xbd, 0x15, 0x06, 0xbf, 0x8a, 0x12, 0x33, 0x3d, 0x77, 0x09, 0xb9, 0x3e, 0xfe, 0xb5, 0x3f, 0xbe, 0xc0, 0xf1, 0xbe, 0xbd, 0x0b, 0x73, 0xb7, 0xbe, 0x7b, 0x35, 0x58, 0xbe, 0xee, 0x63, 0x21, 0x3f, 0x71, 0xec, 0x60, 0xbe, 0x84, 0x32, 0x01, 0xbe, 0xdb, 0x40, 0x66, 0x3e, 0x18, 0xb5, 0xc6, 0xbe, 0x08, 0x58, 0x48, 0x3e, 0x4e, 0x98, 0x5b, 0x3d, 0x99, 0x67, 0x5e, 0xbe, 0x52, 0x56, 0x3c, 0xbe, 0xb5, 0x75, 0xcf, 0x3d, 0x38, 0x26, 0x55, 0x3e, 0x95, 0x3e, 0xbc, 0xbc, 0x66, 0x9c, 0xa3, 0x3d, 0xf8, 0xb9, 0xae, 0x3e, 0x03, 0x84, 0x14, 0xbd, 0xbc, 0xcc, 0xe6, 0xbe, 0x09, 0xd4, 0x07, 0xbe, 0xdd, 0x81, 0x6a, 0x3d, 0xe1, 0x0e, 0xd9, 0x3d, 0xd1, 0x6a, 0x97, 0x3e, 0x03, 0x20, 0x12, 0xbc, 0xbf, 0x54, 0xed, 0x3c, 0xe7, 0xb5, 0xf8, 0x3d, 0x4e, 0x22, 0x6d, 0xbe, 0xf1, 0xb0, 0x06, 0x3d, 0x82, 0xa2, 0xc7, 0xbd, 0xf2, 0xfb, 0xf3, 0x3e, 0xc1, 0x87, 0xa3, 0xbe, 0xb2, 0x5b, 0x3a, 0xbe, 0x55, 0xfe, 0x84, 0x3e, 0xbb, 0x62, 0x8c, 0xbe, 0x27, 0xd3, 0x32, 0xbe, 0xda, 0x4b, 0x41, 0x3d, 0xe4, 0xff, 0x0d, 0xbe, 0xd5, 0x9f, 0x38, 0xbe, 0xc9, 0x8d, 0x9a, 0x3c, 0x90, 0x7f, 0xa6, 0x3d, 0x14, 0xee, 0x96, 0xbe, 0xd4, 0x9f, 0xff, 0xbe, 0x1d, 0x88, 0xaf, 0x3d, 0x9d, 0xd4, 0xc1, 0x3e, 0xd5, 0x42, 0xe0, 0xbe, 0xa2, 0x10, 0xd1, 0x3e, 0x15, 0x87, 0xe5, 0xbe, 0x3f, 0xb3, 0x2e, 0x3d, 0x04, 0x65, 0x8b, 0x3f, 0x0b, 0x52, 0xf2, 0xbd, 0xb6, 0x88, 0xc3, 0x3e, 0x81, 0x38, 0x7d, 0xbd, 0x5e, 0x40, 0x52, 0xbe, 0x77, 0xbe, 0x19, 0x3e, 0xe6, 0x60, 0x09, 0xbd, 0x86, 0xdf, 0x92, 0xbe, 0xb0, 0x43, 0xdf, 0xbe, 0x6d, 0x5f, 0x4d, 0xbe, 0x37, 0xf4, 0xb4, 0xbc, 0x61, 0x9b, 0x01, 0xbf, 0xce, 0x26, 0xb3, 0xbd, 0xcb, 0xe8, 0x5d, 0xbd, 0x10, 0xaf, 0xf6, 0xbd, 0xfb, 0x96, 0xa0, 0x3e, 0xf3, 0x6c, 0x81, 0xbe, 0x27, 0x10, 0x94, 0x3e, 0xf8, 0x8b, 0x51, 0x3d, 0xc1, 0xcd, 0xac, 0xbd, 0xbc, 0xa7, 0xb9, 0xbe, 0xc6, 0x1a, 0xb3, 0x3e, 0x0b, 0x49, 0x4a, 0x3d, 0x1d, 0x98, 0x71, 0xbe, 0xa4, 0xba, 0x03, 0xbe, 0xbd, 0x1b, 0x19, 0x3e, 0x50, 0xda, 0x33, 0xbf, 0x32, 0x17, 0xee, 0xbd, 0x9c, 0x7d, 0xa5, 0xbd, 0x28, 0x19, 0xaf, 0x3e, 0xec, 0xa5, 0x6f, 0x3f, 0x2d, 0x08, 0x5a, 0x3e, 0x77, 0xf7, 0x10, 0xbe, 0x55, 0x5f, 0x68, 0x3e, 0xf2, 0x54, 0x35, 0xbe, 0xa7, 0x6f, 0x4e, 0xbe, 0xfb, 0xad, 0xb5, 0x3e, 0x93, 0xc3, 0xa1, 0x3e, 0x8a, 0xb4, 0xa2, 0xbc, 0x1e, 0x9c, 0xb1, 0x3d, 0xac, 0x54, 0x00, 0xbe, 0x03, 0x08, 0x1f, 0xbf, 0x98, 0xc7, 0xc8, 0xbd, 0xaf, 0xed, 0x75, 0x3d, 0x79, 0x88, 0x78, 0xbe, 0xa3, 0x30, 0x91, 0x3f, 0xb2, 0xdf, 0xf5, 0x3d, 0x19, 0x47, 0x6a, 0x3d, 0xb1, 0x89, 0x6b, 0x3e, 0x57, 0x3d, 0x14, 0xbf, 0xc8, 0x88, 0x00, 0x3e, 0xbc, 0x7b, 0xf5, 0x3e, 0x1c, 0x13, 0x39, 0xbe, 0x5b, 0xf6, 0x32, 0xbf, 0x0d, 0x62, 0xc0, 0xbb, 0xe6, 0xa8, 0x08, 0xbe, 0x53, 0x29, 0x09, 0xbf, 0xd3, 0x25, 0x69, 0x3e, 0x26, 0x41, 0xcc, 0x3c, 0x52, 0x3b, 0xc8, 0x3d, 0x60, 0x6f, 0x25, 0x3f, 0x44, 0x71, 0xd2, 0x3d, 0x50, 0xfc, 0x21, 0x3e, 0xd7, 0xea, 0x09, 0xbd, 0xc4, 0x37, 0xe9, 0xbe, 0xe5, 0xd2, 0x9f, 0xbe, 0x06, 0xe0, 0xff, 0xff, 0x04, 0x00, 0x00, 0x00, 0x58, 0x02, 0x00, 0x00, 0xac, 0x71, 0x80, 0x3d, 0xc9, 0x3c, 0x89, 0xbe, 0x37, 0xa8, 0x75, 0x3e, 0xf3, 0xe7, 0x48, 0xbe, 0x49, 0xd6, 0x1a, 0x3d, 0x12, 0x1b, 0x09, 0x3e, 0x3c, 0xe4, 0xfa, 0x3d, 0xc5, 0x87, 0x8b, 0x3d, 0xc6, 0x2b, 0x32, 0x39, 0xe7, 0xa2, 0x1d, 0xbe, 0xe0, 0xe2, 0x21, 0x3e, 0x62, 0xae, 0x27, 0xbe, 0xd1, 0x85, 0x85, 0x3d, 0xcd, 0x21, 0x21, 0x3f, 0x0d, 0x5a, 0x93, 0x3e, 0xcb, 0xd2, 0x32, 0x3e, 0x49, 0x27, 0x10, 0xbe, 0x65, 0x1b, 0xb8, 0x3d, 0x77, 0x32, 0xdb, 0xbc, 0x33, 0x04, 0xc0, 0xbe, 0x6f, 0x14, 0xe6, 0x3e, 0xf2, 0x73, 0x83, 0xbe, 0x9f, 0xac, 0xde, 0xbd, 0xe8, 0xb4, 0x30, 0xbe, 0x10, 0x20, 0x15, 0xbf, 0x34, 0x45, 0x9d, 0x3e, 0xd9, 0xeb, 0xa6, 0xbe, 0xde, 0x23, 0x9f, 0x3c, 0x3a, 0x07, 0x27, 0x3e, 0xa4, 0xd0, 0x56, 0xbe, 0x5a, 0x33, 0xbc, 0x3e, 0x08, 0x53, 0x97, 0xbc, 0x06, 0x23, 0x91, 0xbb, 0xd0, 0x65, 0x91, 0x3e, 0x6e, 0x89, 0x83, 0x3e, 0x98, 0x40, 0xdf, 0x3d, 0x3c, 0xcc, 0xca, 0x3e, 0xd4, 0x0f, 0x32, 0x3e, 0x1c, 0x24, 0x46, 0xbd, 0xe1, 0x64, 0x02, 0x3e, 0x7d, 0xa5, 0x36, 0xbe, 0xe1, 0xeb, 0xc1, 0x3e, 0x02, 0xfd, 0xb7, 0x3e, 0x97, 0x60, 0x69, 0xbe, 0x1b, 0x6d, 0xe4, 0xbd, 0x79, 0x69, 0xcb, 0x3d, 0x47, 0xbf, 0xd8, 0xbd, 0x99, 0x8f, 0x95, 0x3e, 0x0b, 0x26, 0x32, 0xbd, 0x11, 0x9d, 0x9f, 0xbe, 0xf5, 0x70, 0x3c, 0x3c, 0xd0, 0x0e, 0x8e, 0xbd, 0xe3, 0xd0, 0x16, 0xbe, 0x74, 0xcb, 0xbd, 0xbe, 0xee, 0x02, 0xdc, 0xbe, 0x56, 0xab, 0x37, 0xbe, 0xf9, 0x38, 0xcb, 0xbe, 0xf2, 0xee, 0xbc, 0x3d, 0xfc, 0xcf, 0xba, 0x3d, 0x87, 0x8a, 0xec, 0x3e, 0xa5, 0x25, 0x85, 0xbe, 0xe8, 0x8e, 0x05, 0x3e, 0x63, 0x83, 0x95, 0x3e, 0x3b, 0x8c, 0x04, 0xbe, 0x9e, 0xa7, 0xd4, 0x3c, 0x28, 0x6b, 0x9e, 0x3e, 0x57, 0xf1, 0x32, 0x3e, 0xd3, 0xbb, 0xac, 0x3e, 0x46, 0x31, 0x0a, 0xbe, 0xf1, 0xa6, 0x5f, 0xbe, 0x46, 0x48, 0xa2, 0xbd, 0x02, 0x70, 0x15, 0x3e, 0xcc, 0x18, 0xa1, 0xbd, 0x9d, 0xcd, 0x28, 0x3d, 0x06, 0xff, 0x86, 0xbe, 0x0a, 0xd5, 0x85, 0x3e, 0x80, 0xf6, 0x41, 0x3e, 0x32, 0xf4, 0x36, 0xbd, 0x3f, 0x31, 0xcd, 0x3e, 0xe2, 0x02, 0xcc, 0xbd, 0x80, 0xbf, 0x11, 0x3e, 0x81, 0xfe, 0xd0, 0x3d, 0xd8, 0x15, 0xcc, 0xbe, 0xe0, 0x18, 0xb7, 0x3d, 0xf5, 0x69, 0xc7, 0x3e, 0x9e, 0x48, 0xc5, 0xbe, 0x9c, 0xf6, 0x86, 0x3d, 0x9c, 0xae, 0x63, 0x3e, 0xb0, 0xd3, 0x24, 0xbd, 0x8a, 0xa8, 0x60, 0xbe, 0x4f, 0x5c, 0x87, 0xbd, 0x01, 0xb8, 0xa3, 0x3e, 0xee, 0xb6, 0x33, 0x3d, 0x95, 0x4c, 0x54, 0x3e, 0x15, 0xf2, 0x50, 0xbe, 0x4b, 0xa7, 0xaf, 0x3e, 0xc1, 0x7e, 0xa8, 0xbe, 0xe3, 0xf9, 0x5a, 0xbd, 0x1a, 0x02, 0x2c, 0x3e, 0xf3, 0xbd, 0x0b, 0xbf, 0xef, 0xd2, 0xb5, 0x3e, 0x37, 0xbe, 0xbe, 0xbe, 0x91, 0xf5, 0x71, 0xbc, 0x1d, 0x42, 0xed, 0x3e, 0x46, 0x96, 0xaa, 0x3e, 0xf7, 0x66, 0xae, 0xbc, 0xc3, 0xa8, 0x55, 0xbe, 0xdc, 0x07, 0x2b, 0xbe, 0xcc, 0x98, 0xc9, 0xbd, 0xd4, 0xfc, 0x54, 0xbe, 0x7e, 0x0d, 0x6f, 0xbd, 0x8f, 0xfc, 0x5e, 0xbe, 0x8e, 0xf8, 0x03, 0x3c, 0xa3, 0x9b, 0x72, 0xbe, 0x87, 0x11, 0x02, 0xbf, 0x3b, 0x0e, 0x60, 0x3d, 0x1d, 0xfe, 0xa7, 0x3d, 0x05, 0x2f, 0xab, 0xbd, 0x5d, 0x41, 0xa9, 0x3e, 0x22, 0x56, 0xb2, 0x3d, 0xc2, 0x63, 0xe6, 0xbd, 0xca, 0xd4, 0x2c, 0xbd, 0xb5, 0xf2, 0xdf, 0xbd, 0xe6, 0x17, 0x81, 0x3e, 0xeb, 0xf9, 0xa4, 0x3e, 0xee, 0x1d, 0xaa, 0xbe, 0xb3, 0x95, 0x93, 0xbd, 0xa0, 0x17, 0x1c, 0xbd, 0xd6, 0x95, 0x30, 0xbd, 0xe1, 0x32, 0xd9, 0x3e, 0x8e, 0xae, 0xbc, 0xbe, 0x9a, 0x8e, 0x8a, 0x3e, 0x80, 0x06, 0x9a, 0x3d, 0xea, 0x36, 0x5f, 0xbd, 0x2c, 0xd0, 0x35, 0xbe, 0x65, 0x62, 0x57, 0xbd, 0xc8, 0x49, 0x09, 0x3e, 0x40, 0x49, 0x06, 0x3f, 0x48, 0x3b, 0xf3, 0xbd, 0x73, 0xca, 0x4f, 0x3e, 0x82, 0xc3, 0xe0, 0x3e, 0x84, 0x82, 0xbf, 0xbe, 0x50, 0xdb, 0x67, 0x3e, 0x0e, 0xc4, 0xaf, 0xbe, 0x16, 0x58, 0xd0, 0xbe, 0x7a, 0x55, 0x80, 0x3e, 0x67, 0xb2, 0xbe, 0x3b, 0xa6, 0xb6, 0x83, 0xbc, 0xa3, 0x7c, 0xcf, 0x3d, 0x4b, 0xc8, 0x36, 0xbe, 0x6a, 0xe2, 0xff, 0xff, 0x04, 0x00, 0x00, 0x00, 0x58, 0x02, 0x00, 0x00, 0xca, 0xd1, 0x21, 0xbe, 0x2c, 0x17, 0xc5, 0xbe, 0x01, 0xf9, 0xa8, 0xbe, 0x12, 0xb5, 0x81, 0xbe, 0x7a, 0xff, 0x0f, 0x3e, 0x5a, 0xde, 0xc1, 0xbe, 0x0d, 0x07, 0x12, 0xbe, 0x8b, 0x7f, 0xb0, 0x3d, 0xad, 0x02, 0x27, 0xbe, 0x1d, 0xff, 0x22, 0x3f, 0xfd, 0x97, 0xf7, 0x3d, 0x48, 0x0f, 0x62, 0xbe, 0x7a, 0x7c, 0x8b, 0xbe, 0xe0, 0x0d, 0x22, 0xbf, 0xe2, 0x67, 0x82, 0xbe, 0x2a, 0x7f, 0x8a, 0x3e, 0xc2, 0x61, 0x68, 0xbe, 0x40, 0xf6, 0x1d, 0x3c, 0xb3, 0xfc, 0x4d, 0x3e, 0x44, 0xd8, 0x2b, 0xbe, 0x0b, 0xe1, 0xe9, 0xbe, 0x4c, 0x10, 0xa5, 0x3e, 0x16, 0x44, 0xc5, 0xbe, 0x11, 0xce, 0x2b, 0xbe, 0x03, 0xf1, 0x8a, 0x3f, 0x3b, 0xa2, 0x98, 0x3d, 0x09, 0x14, 0xe2, 0x3d, 0x43, 0xd1, 0x56, 0xbe, 0x23, 0x46, 0x24, 0xbf, 0x28, 0x52, 0x59, 0xbe, 0x33, 0xf6, 0x6a, 0x3d, 0x51, 0xdc, 0x41, 0xbe, 0x66, 0x4a, 0xcd, 0xbd, 0x15, 0x86, 0x2d, 0x3e, 0x3a, 0xb7, 0xa0, 0x3d, 0xc9, 0x77, 0xd2, 0xbe, 0xb3, 0xe7, 0x87, 0x3c, 0xbd, 0x4a, 0xb3, 0x3d, 0x99, 0xa7, 0x42, 0x3d, 0xcc, 0x96, 0x7f, 0x3f, 0x5c, 0xe4, 0xc3, 0x3d, 0xd3, 0xd8, 0x3c, 0x3e, 0x41, 0x65, 0xa4, 0x3d, 0x34, 0xf1, 0x42, 0xbf, 0x06, 0x8c, 0x96, 0xbe, 0x47, 0xc8, 0xc0, 0xbd, 0xfe, 0x46, 0xa4, 0xbe, 0xb0, 0x6c, 0x17, 0x3e, 0x5d, 0xbe, 0xa0, 0xbe, 0xab, 0xc7, 0xc1, 0xbe, 0x2b, 0xa2, 0x39, 0x3e, 0x61, 0xb7, 0x36, 0xbe, 0x11, 0xa3, 0x50, 0x3e, 0x90, 0x86, 0xaa, 0xbe, 0xfe, 0x12, 0xbb, 0xbd, 0x59, 0xe9, 0x7b, 0x3e, 0x2c, 0x53, 0xb1, 0xbe, 0xb3, 0x15, 0x5f, 0xbe, 0xcd, 0x7f, 0x99, 0xbe, 0x03, 0x24, 0x5f, 0x3d, 0x2b, 0x6f, 0xb0, 0x3d, 0x9d, 0xe4, 0x9d, 0xbe, 0xa1, 0x39, 0x70, 0xbe, 0xe3, 0xc0, 0x10, 0x3e, 0xc6, 0x7e, 0xd8, 0x3d, 0x9e, 0xe0, 0x64, 0xbe, 0x92, 0x99, 0x02, 0xbd, 0x4e, 0xa6, 0xd4, 0xbb, 0xca, 0xaa, 0x1e, 0x3e, 0xa2, 0x15, 0x97, 0xbe, 0x8f, 0x67, 0x9e, 0x3d, 0x73, 0xb3, 0xe3, 0x3b, 0xa6, 0xd3, 0xd5, 0x3d, 0x32, 0x82, 0x4d, 0x3b, 0xd0, 0xcd, 0x16, 0xbe, 0xbd, 0xae, 0xa7, 0x3d, 0x53, 0x7e, 0x5f, 0xbe, 0x12, 0x1d, 0xd8, 0x3d, 0x07, 0xc7, 0x51, 0x3e, 0x78, 0xc3, 0x86, 0xbe, 0x8c, 0xc0, 0x09, 0xbf, 0xcf, 0x3e, 0x52, 0x3e, 0x68, 0x14, 0x7e, 0xbe, 0x36, 0x8f, 0xa9, 0x3e, 0xf0, 0xda, 0xe9, 0x3e, 0xd6, 0x51, 0x30, 0xbe, 0xda, 0x05, 0x8d, 0x3c, 0x7e, 0x7f, 0x3d, 0xbe, 0x60, 0xd3, 0x3a, 0xbf, 0x0d, 0xd8, 0x4a, 0xbc, 0xf9, 0x8e, 0xb7, 0x3e, 0x93, 0x22, 0xc2, 0xbe, 0xa4, 0x81, 0x4c, 0xbe, 0x9d, 0x96, 0xb3, 0x3e, 0xb1, 0x09, 0x3c, 0xbe, 0x99, 0xf9, 0x2a, 0xbe, 0x62, 0x7b, 0xd3, 0xbd, 0xfb, 0x96, 0x9e, 0xbe, 0x33, 0xf3, 0x8b, 0xbe, 0x57, 0x1a, 0xc7, 0x3e, 0xce, 0xe6, 0x3b, 0x3e, 0x91, 0xfc, 0xa0, 0x3d, 0xe6, 0xa8, 0xb7, 0x3d, 0x5d, 0xc1, 0xe6, 0xbe, 0xc7, 0x97, 0x0a, 0x3e, 0x73, 0x36, 0x55, 0xbe, 0x47, 0x4a, 0x02, 0xbe, 0x22, 0xed, 0xae, 0xbe, 0x31, 0x04, 0x7f, 0xbe, 0xa0, 0xa8, 0x1e, 0x3c, 0x15, 0xb1, 0x97, 0xbd, 0x68, 0xcc, 0x8d, 0x3e, 0x6c, 0xcf, 0x25, 0xbc, 0xa4, 0x7e, 0x8d, 0xbc, 0xff, 0x3e, 0x4c, 0x3f, 0x73, 0x3f, 0x2a, 0xbe, 0xd6, 0xc6, 0x8f, 0x3e, 0x57, 0x86, 0x26, 0xbd, 0x6a, 0x8b, 0xbc, 0xbd, 0xf2, 0x86, 0xc7, 0x3d, 0x24, 0x83, 0x9b, 0x3c, 0x39, 0x75, 0x92, 0xbe, 0xb7, 0x58, 0xe3, 0xbd, 0x4a, 0xfa, 0xcc, 0x3d, 0xdd, 0x58, 0x5d, 0xbe, 0xac, 0xa0, 0x57, 0xbf, 0xa7, 0x16, 0x37, 0xbd, 0x9f, 0x01, 0xce, 0xbe, 0xec, 0x81, 0xb1, 0xbd, 0x11, 0xaa, 0x84, 0x3f, 0x3f, 0x68, 0xae, 0xbe, 0xf0, 0x6d, 0x4b, 0x3e, 0x6c, 0x75, 0xbc, 0x3d, 0xb5, 0x26, 0x4b, 0xbf, 0x33, 0xc1, 0xdf, 0x3d, 0x4e, 0x10, 0x8e, 0x3e, 0x75, 0x12, 0x43, 0xbc, 0x08, 0x52, 0xba, 0xbe, 0x4c, 0x25, 0x0c, 0x3e, 0xa3, 0xaa, 0x8e, 0xbe, 0x16, 0x84, 0x8b, 0xbe, 0xc5, 0xed, 0x8e, 0x3e, 0x8d, 0xf1, 0xcb, 0xbd, 0xef, 0x12, 0xbb, 0xbd, 0x0e, 0xe8, 0x20, 0x3f, 0xe5, 0x64, 0x58, 0x3e, 0x17, 0xb9, 0x97, 0xbd, 0x1b, 0xd7, 0x09, 0x3e, 0xa4, 0xaa, 0xfc, 0xbe, 0x7c, 0xc5, 0x10, 0x3e, 0xce, 0xe4, 0xff, 0xff, 0x04, 0x00, 0x00, 0x00, 0x58, 0x02, 0x00, 0x00, 0x94, 0x77, 0x8c, 0xbe, 0x02, 0x19, 0x02, 0x3e, 0x80, 0x88, 0xe5, 0xbb, 0xee, 0xe8, 0x6e, 0xbe, 0xe1, 0xc7, 0x82, 0x3e, 0x8b, 0x9d, 0xb6, 0xbe, 0x03, 0xdc, 0xb1, 0x3e, 0xb4, 0x13, 0x40, 0x3d, 0x5a, 0xd7, 0x83, 0x3e, 0x78, 0x09, 0xcd, 0x3e, 0xeb, 0xf4, 0x20, 0xbd, 0x3c, 0x7a, 0xbc, 0x3d, 0x48, 0x9d, 0x69, 0xbe, 0x2f, 0x6c, 0x76, 0xbe, 0x41, 0xdf, 0xf3, 0xbc, 0x6f, 0x28, 0x8f, 0x3e, 0xa8, 0x84, 0x33, 0x3d, 0x89, 0x3e, 0x00, 0xbf, 0xdf, 0x5c, 0x3c, 0x3d, 0xe9, 0x1f, 0x86, 0xbd, 0xde, 0xfa, 0x3f, 0xbc, 0x5c, 0x8c, 0x25, 0x3e, 0x44, 0x1a, 0xe5, 0xbc, 0x6a, 0x5b, 0x4b, 0xbe, 0x69, 0xf8, 0xf5, 0x3e, 0x16, 0xca, 0x92, 0xbe, 0x7e, 0x52, 0x11, 0xbe, 0x69, 0x1e, 0x17, 0xbe, 0xc2, 0x9f, 0xa5, 0xbe, 0x74, 0x00, 0xc8, 0xbe, 0x8e, 0x17, 0x3f, 0xbc, 0x66, 0x54, 0x15, 0x3e, 0xf9, 0x49, 0x4b, 0x3e, 0xf4, 0x5d, 0x1e, 0xbe, 0xfc, 0x98, 0xd5, 0x3d, 0x7e, 0xfc, 0xf2, 0xbe, 0x8a, 0xbe, 0xdd, 0x3e, 0x57, 0x4b, 0xb3, 0xbe, 0xa2, 0xa0, 0x2c, 0xbe, 0x5b, 0x62, 0x80, 0x3e, 0xd9, 0x67, 0xc1, 0x3d, 0x50, 0x8c, 0x4a, 0x3e, 0x34, 0x29, 0xd8, 0x3e, 0xe2, 0xaf, 0x0b, 0xbf, 0x36, 0xc2, 0x34, 0xbe, 0x0c, 0xfb, 0x78, 0x3e, 0xcc, 0x70, 0x2c, 0x3d, 0x2e, 0x47, 0xee, 0x3d, 0xd8, 0x1d, 0xa2, 0x3e, 0x72, 0x9b, 0xe3, 0xbd, 0x80, 0xbd, 0x1d, 0x3e, 0xe9, 0x41, 0x17, 0xbe, 0x24, 0xb9, 0x03, 0xbe, 0xde, 0x3e, 0x31, 0x3e, 0xb7, 0x6e, 0xdd, 0xbe, 0x36, 0xf0, 0xa3, 0xbe, 0x3e, 0x0e, 0x6b, 0x3e, 0xf1, 0x4f, 0x0a, 0xbd, 0x67, 0xc3, 0x0f, 0x3f, 0xde, 0x6b, 0x59, 0xbe, 0x1d, 0xd2, 0x30, 0xbb, 0x3a, 0xae, 0xa9, 0xbe, 0x4b, 0xdf, 0x1b, 0xbc, 0xf7, 0x47, 0x5c, 0xbe, 0xf5, 0xdd, 0x5a, 0x3e, 0x70, 0x69, 0x94, 0x3e, 0x3e, 0x7e, 0x18, 0x3c, 0xb7, 0xa4, 0x5b, 0xbe, 0x6e, 0xf7, 0x85, 0xbd, 0x96, 0xcd, 0x01, 0xbe, 0x8c, 0x2e, 0x3a, 0x3e, 0x3d, 0x37, 0xa2, 0xbe, 0x57, 0xdb, 0x46, 0xbe, 0xf8, 0x25, 0xbc, 0x3c, 0x03, 0xc0, 0x83, 0x3d, 0xd3, 0x49, 0xc7, 0x3e, 0x07, 0x70, 0x7d, 0x3e, 0x32, 0x26, 0x85, 0xbe, 0x7d, 0x8d, 0xab, 0xbc, 0x30, 0xfa, 0x21, 0x3e, 0xeb, 0x99, 0xe9, 0x3d, 0x12, 0xb0, 0x0b, 0xbe, 0xdc, 0x80, 0xd8, 0xbd, 0x0c, 0x28, 0x26, 0x3e, 0x8b, 0xa8, 0x54, 0x3d, 0x5e, 0x5c, 0x13, 0xbd, 0xdd, 0x33, 0x9d, 0xbb, 0xa7, 0xfa, 0xa6, 0x3e, 0x55, 0xfe, 0xeb, 0xbe, 0xb7, 0x56, 0x27, 0xbe, 0xbc, 0x4f, 0x9c, 0x3e, 0x8e, 0x91, 0x72, 0xbe, 0x86, 0x25, 0x0c, 0x3d, 0xc4, 0xac, 0x71, 0xbd, 0xfa, 0x5b, 0x8c, 0x3e, 0xcb, 0x68, 0xa1, 0x3d, 0x60, 0x66, 0x1f, 0xbe, 0x41, 0xc4, 0x03, 0xbe, 0x6a, 0x2c, 0xb1, 0x3d, 0xe6, 0xed, 0x11, 0x3d, 0x5c, 0x24, 0x59, 0xbd, 0x70, 0x8a, 0xe6, 0xba, 0x5d, 0xd8, 0x3c, 0xbe, 0x46, 0xee, 0xba, 0xbd, 0x9f, 0xc6, 0xa8, 0xbe, 0xa3, 0x38, 0x3b, 0xbe, 0xf2, 0xdb, 0xa0, 0x3e, 0xa0, 0x5e, 0xe4, 0xba, 0x2a, 0xcc, 0xe4, 0x3d, 0x8d, 0x37, 0xb9, 0x3d, 0x3c, 0x65, 0x23, 0x3e, 0x6c, 0x6f, 0x94, 0x3e, 0x5f, 0x04, 0x3d, 0xbe, 0x25, 0x36, 0x69, 0xbd, 0xaf, 0x0c, 0xf5, 0x3c, 0xde, 0x7f, 0x4e, 0xbe, 0xee, 0x96, 0x2a, 0x3e, 0xc2, 0xa3, 0xc2, 0x3e, 0xab, 0x2c, 0xbe, 0xbe, 0x1a, 0x06, 0x2f, 0x3e, 0xa1, 0x95, 0xf1, 0x3d, 0xe4, 0xfd, 0xef, 0xbd, 0x13, 0xfb, 0x58, 0xbd, 0x4b, 0x5f, 0x14, 0xbe, 0xc7, 0x5c, 0x65, 0xbe, 0x14, 0x24, 0xc3, 0xbe, 0x9d, 0x8b, 0xa1, 0xbd, 0xeb, 0xc5, 0xb6, 0xbe, 0x26, 0xd3, 0x28, 0xbe, 0x76, 0xbf, 0x5a, 0x3f, 0x34, 0x07, 0xba, 0xbe, 0xba, 0x91, 0x9e, 0x3e, 0x25, 0x0b, 0x28, 0x3d, 0xf8, 0x35, 0xb0, 0xbe, 0xf8, 0xac, 0xca, 0xbe, 0x58, 0x8b, 0xbc, 0x3e, 0x25, 0xf8, 0x71, 0x3e, 0x4c, 0x22, 0xb2, 0x3d, 0x51, 0x21, 0xf4, 0x3e, 0x22, 0x8b, 0xb0, 0xbd, 0x47, 0x58, 0x99, 0x3d, 0xf9, 0x88, 0x13, 0x3e, 0xa8, 0x58, 0x81, 0xbd, 0xe0, 0x30, 0xef, 0x3d, 0x7b, 0xf8, 0x09, 0x3e, 0xd0, 0x4b, 0x38, 0xbe, 0x93, 0x5e, 0xea, 0x3e, 0xec, 0x69, 0xce, 0xbd, 0xa0, 0x44, 0x95, 0xbe, 0x65, 0xf6, 0xc2, 0xbe, 0x32, 0xe7, 0xff, 0xff, 0x04, 0x00, 0x00, 0x00, 0x28, 0x00, 0x00, 0x00, 0x17, 0xe2, 0x16, 0xbd, 0x0c, 0x09, 0x8b, 0x3d, 0x42, 0x1a, 0x80, 0x3d, 0xe4, 0xc5, 0x68, 0x3d, 0x8b, 0x22, 0x52, 0x3d, 0x62, 0x8f, 0x4a, 0x3d, 0x0c, 0xe2, 0x69, 0x3d, 0xc8, 0x45, 0xf5, 0x3c, 0x02, 0x12, 0x55, 0x3d, 0x7a, 0x95, 0x55, 0x3e, 0x66, 0xe7, 0xff, 0xff, 0x04, 0x00, 0x00, 0x00, 0x28, 0x00, 0x00, 0x00, 0xf5, 0xba, 0x83, 0xbc, 0xa4, 0xd2, 0x0e, 0xbd, 0x9b, 0x88, 0xba, 0x3c, 0x51, 0x52, 0xb2, 0x3c, 0xdb, 0x31, 0xa0, 0xbc, 0x4b, 0x47, 0xc8, 0x3c, 0xc6, 0x06, 0x97, 0xbb, 0x39, 0xbc, 0xc3, 0xbc, 0x56, 0x32, 0x01, 0x3c, 0x9e, 0xab, 0x93, 0xbc, 0x9a, 0xe7, 0xff, 0xff, 0x04, 0x00, 0x00, 0x00, 0x28, 0x00, 0x00, 0x00, 0x84, 0x89, 0x60, 0x3f, 0xa6, 0xff, 0x7d, 0x3f, 0x84, 0x46, 0x7f, 0x3f, 0xc3, 0x36, 0x6f, 0x3f, 0x9f, 0x80, 0x6d, 0x3f, 0x27, 0x4a, 0x80, 0x3f, 0x44, 0xd9, 0x79, 0x3f, 0x69, 0xd1, 0x7a, 0x3f, 0x72, 0x26, 0x72, 0x3f, 0xab, 0x83, 0x5a, 0x3f, 0xce, 0xe7, 0xff, 0xff, 0x04, 0x00, 0x00, 0x00, 0x28, 0x00, 0x00, 0x00, 0x3a, 0xdb, 0xc4, 0xbc, 0x36, 0x9e, 0xc1, 0x3d, 0xbb, 0x98, 0x8a, 0x3d, 0xa1, 0x0a, 0x63, 0x3d, 0x7f, 0x0f, 0x46, 0x3d, 0x86, 0x40, 0x83, 0x3d, 0xce, 0x05, 0x81, 0x3d, 0xd6, 0x4f, 0x07, 0x3d, 0xe2, 0x8b, 0x87, 0x3d, 0x86, 0x09, 0x91, 0x3e, 0x02, 0xe8, 0xff, 0xff, 0x04, 0x00, 0x00, 0x00, 0x90, 0x01, 0x00, 0x00, 0x4b, 0x81, 0x63, 0xbd, 0x9c, 0x8a, 0x96, 0x3d, 0xbf, 0x1a, 0x1c, 0x3e, 0x99, 0x81, 0x08, 0xbd, 0xf6, 0xb8, 0x62, 0xbb, 0xbe, 0x2f, 0x24, 0xbe, 0x37, 0x1c, 0xa8, 0x3d, 0xf5, 0x2f, 0x44, 0x3e, 0xd1, 0x3b, 0x8b, 0xbe, 0x3c, 0xc2, 0xc9, 0x3d, 0x66, 0x16, 0x98, 0x3e, 0x58, 0xac, 0x6d, 0xbe, 0x56, 0x7f, 0x61, 0xbb, 0x6b, 0xab, 0x90, 0x3c, 0x54, 0x07, 0x04, 0xbe, 0xc8, 0xb1, 0xb2, 0xbe, 0x26, 0x43, 0xcd, 0xbd, 0x01, 0x53, 0x00, 0xbe, 0x95, 0xf1, 0x00, 0x3d, 0x6d, 0x92, 0xf2, 0x3d, 0xe0, 0x57, 0xbf, 0x3c, 0xba, 0xfd, 0x1f, 0x3d, 0xf1, 0x19, 0x25, 0x3e, 0xc5, 0xc3, 0x70, 0xbe, 0xea, 0xe9, 0x8a, 0x3e, 0x01, 0x65, 0x34, 0x3e, 0x42, 0x7c, 0xbc, 0xbc, 0x32, 0x69, 0x9a, 0xbd, 0xb0, 0xb5, 0xd8, 0x3d, 0x28, 0xe0, 0x54, 0x3d, 0xe4, 0x94, 0x28, 0xbe, 0x5c, 0x9c, 0x3c, 0xbe, 0x91, 0xaa, 0x37, 0x3e, 0x28, 0x72, 0x37, 0xbc, 0x66, 0x50, 0x5b, 0xbe, 0xc5, 0xd9, 0x90, 0x3e, 0x98, 0x0c, 0x81, 0xbd, 0x2f, 0x1e, 0xe7, 0xbc, 0x55, 0x93, 0xab, 0xbd, 0x6e, 0xaa, 0x3e, 0xbe, 0x33, 0x21, 0x0c, 0x3e, 0xf2, 0x01, 0x64, 0x3d, 0xe3, 0x19, 0xfd, 0x3d, 0x5b, 0x7d, 0x26, 0xbd, 0x5e, 0xbe, 0xbf, 0x3d, 0x9a, 0xf3, 0x92, 0xbc, 0x76, 0xe7, 0x93, 0xbc, 0xc8, 0x48, 0x0f, 0x3c, 0x33, 0xe5, 0x81, 0x3d, 0xce, 0x1f, 0x02, 0x3d, 0xb3, 0x08, 0xbf, 0x3d, 0x68, 0xc2, 0x8c, 0xbd, 0x41, 0xb5, 0xb0, 0x3c, 0x48, 0xee, 0xb3, 0x3d, 0x79, 0x40, 0x67, 0xbd, 0x99, 0x05, 0xa4, 0xbd, 0x96, 0xc4, 0xf2, 0x3b, 0xfb, 0xc8, 0x5e, 0x3e, 0x24, 0x0d, 0x64, 0x3e, 0x91, 0x9f, 0xcd, 0x3e, 0xf8, 0x1a, 0x16, 0x3e, 0xeb, 0x40, 0xcf, 0xbc, 0x9c, 0x76, 0xcd, 0x3c, 0xc6, 0xab, 0xa8, 0x3d, 0x9a, 0xeb, 0x1b, 0x3e, 0xcc, 0x13, 0xac, 0xbc, 0xbb, 0xb3, 0x23, 0xbe, 0xf9, 0xe3, 0xa1, 0x3e, 0xe5, 0x74, 0xa8, 0xbe, 0x17, 0xd7, 0xe9, 0x3d, 0xf7, 0x4e, 0x81, 0x3e, 0x78, 0x12, 0x37, 0x3e, 0x2e, 0x48, 0xef, 0x3c, 0x9e, 0x38, 0x89, 0xbd, 0x91, 0x90, 0x0a, 0x3e, 0xb1, 0xa6, 0xdb, 0x3d, 0x8c, 0xf3, 0x63, 0xbe, 0x50, 0xc3, 0x50, 0x3e, 0x74, 0x86, 0xf7, 0x3c, 0x7c, 0x79, 0x52, 0x3e, 0x56, 0x4c, 0x9b, 0x3e, 0x94, 0x4d, 0x94, 0x3c, 0xb0, 0x7b, 0x1d, 0xbe, 0x0b, 0x58, 0x88, 0x3e, 0x47, 0x60, 0x16, 0xbd, 0xe5, 0xaa, 0xd4, 0x3d, 0x1f, 0x9a, 0x06, 0x3e, 0xa7, 0xcc, 0x8d, 0x3d, 0x57, 0xfc, 0xa8, 0xbd, 0x6f, 0xce, 0xc7, 0x3e, 0x16, 0x51, 0xe5, 0x3d, 0x7e, 0x57, 0x65, 0xbc, 0x01, 0x2e, 0x50, 0xbe, 0x61, 0xed, 0x86, 0x3d, 0x27, 0xc1, 0x76, 0x3e, 0x64, 0x7b, 0xbb, 0xbe, 0x4d, 0xd9, 0x2d, 0x3d, 0x9a, 0x71, 0x92, 0x3c, 0xe6, 0x46, 0xd0, 0xbd, 0x05, 0x44, 0xea, 0x3d, 0x9e, 0xe9, 0xff, 0xff, 0x04, 0x00, 0x00, 0x00, 0x90, 0x01, 0x00, 0x00, 0x9d, 0xc2, 0xb9, 0xbb, 0x2e, 0x33, 0x78, 0x3e, 0x5d, 0x83, 0xe3, 0x3d, 0x5f, 0xae, 0x6f, 0xbd, 0xb0, 0x7d, 0x1f, 0x3e, 0xa8, 0x66, 0xea, 0xbe, 0x65, 0x99, 0xba, 0xbd, 0x3b, 0xa2, 0xe8, 0x3d, 0xf9, 0xd4, 0x80, 0xbd, 0xe7, 0x83, 0xc1, 0xbe, 0xda, 0x7f, 0x27, 0x3d, 0x1b, 0xb3, 0x8e, 0xbe, 0x31, 0xbb, 0x35, 0xbd, 0x02, 0xc5, 0x99, 0xbe, 0x9a, 0x90, 0x6c, 0xbe, 0xa1, 0xe6, 0x2e, 0xbd, 0x77, 0x60, 0x39, 0x3e, 0xeb, 0x13, 0x80, 0x3e, 0x3d, 0x71, 0x40, 0x3e, 0x4b, 0x49, 0xa6, 0xbe, 0xaf, 0xf3, 0xc2, 0x3e, 0x81, 0xc0, 0x50, 0x3b, 0x7d, 0x2a, 0x70, 0x3d, 0x24, 0xf7, 0xd4, 0x3c, 0xe4, 0x77, 0x60, 0x3e, 0x22, 0x72, 0x08, 0x3e, 0x25, 0xbc, 0x2f, 0xbc, 0x07, 0xec, 0x5a, 0xbe, 0x2d, 0x54, 0xa4, 0xbe, 0x45, 0x7e, 0x0b, 0x3e, 0x39, 0x3e, 0x12, 0xbe, 0x00, 0x6f, 0x0c, 0xbe, 0xf8, 0xde, 0xc6, 0x3e, 0x99, 0x90, 0x13, 0xbe, 0x78, 0xc6, 0x2a, 0x3e, 0x94, 0x9b, 0x47, 0x3d, 0x23, 0xc5, 0x0e, 0x3e, 0xbb, 0x80, 0xb8, 0x3d, 0x76, 0x5e, 0x31, 0x3e, 0x99, 0x53, 0x8f, 0xbe, 0xb2, 0xff, 0x3c, 0xbe, 0x62, 0x7b, 0xfb, 0xbc, 0xaf, 0x61, 0x2d, 0xbe, 0xe5, 0xa8, 0x2b, 0xbe, 0xb0, 0x96, 0x83, 0xbd, 0x6c, 0x7e, 0x30, 0x3d, 0x34, 0x06, 0x2a, 0xbe, 0x28, 0xa3, 0x56, 0xbd, 0x59, 0x9c, 0x54, 0x3e, 0xc4, 0x5f, 0x87, 0xbe, 0xbb, 0x03, 0x10, 0x3c, 0x5c, 0x51, 0x0b, 0x3e, 0x7b, 0x6c, 0xa9, 0x3d, 0xc1, 0x90, 0x2f, 0x3e, 0xe7, 0x5d, 0xb3, 0xbd, 0x45, 0xd3, 0x33, 0xbe, 0x21, 0x1c, 0xf5, 0x3d, 0x61, 0x0a, 0xa1, 0xbd, 0x36, 0x27, 0xdd, 0x3d, 0xbd, 0x3a, 0xf2, 0x3e, 0x38, 0x21, 0x1c, 0xbe, 0x3f, 0x03, 0x1f, 0xbe, 0x4f, 0x40, 0xae, 0x3d, 0x1e, 0xfc, 0xa6, 0xbd, 0x33, 0xe7, 0xb2, 0xbd, 0x4a, 0xd3, 0xcd, 0xbd, 0x7e, 0xbe, 0xdf, 0x3d, 0x4a, 0x8a, 0x1f, 0xbe, 0x00, 0xdb, 0x66, 0xbe, 0x34, 0xab, 0x0c, 0xbe, 0xdd, 0x01, 0x17, 0xbe, 0xe3, 0x49, 0xf0, 0x3c, 0x2c, 0x00, 0x6f, 0xbe, 0xd5, 0x2f, 0xfa, 0x3d, 0x34, 0xbb, 0xfe, 0x3d, 0x3e, 0x3f, 0xa0, 0xbd, 0x9a, 0xce, 0x36, 0xbd, 0x75, 0x7f, 0x0b, 0x3e, 0x11, 0xe9, 0x5f, 0x3e, 0x43, 0xb2, 0xc2, 0xbe, 0x28, 0x5e, 0xf8, 0x3e, 0xce, 0x30, 0x17, 0x3e, 0x35, 0x55, 0xb9, 0xbd, 0x63, 0x90, 0x53, 0x3e, 0x62, 0x4b, 0xd8, 0x3c, 0x60, 0x8e, 0x94, 0x3e, 0x95, 0xd4, 0x3d, 0xbe, 0x8b, 0x7d, 0x9e, 0xbd, 0xfc, 0x62, 0xf3, 0x3d, 0x0a, 0x12, 0x4f, 0x3e, 0x67, 0xf7, 0x31, 0x3d, 0xd0, 0x0c, 0x6a, 0xbe, 0xc4, 0xd6, 0x1f, 0xbe, 0x41, 0x8f, 0x3d, 0xbe, 0x96, 0xed, 0xe5, 0x3d, 0x5e, 0x55, 0x03, 0x3e, 0xc6, 0x0f, 0xd2, 0xbd, 0xce, 0xb8, 0x77, 0xbc, 0xf2, 0x54, 0x94, 0x3c, 0xc4, 0x88, 0xd5, 0xbd, 0x3a, 0xeb, 0xff, 0xff, 0x04, 0x00, 0x00, 0x00, 0x90, 0x01, 0x00, 0x00, 0x47, 0x14, 0xf6, 0x3e, 0xbc, 0x2f, 0x5c, 0x3e, 0xd0, 0x58, 0xe4, 0xbe, 0xd9, 0x34, 0x71, 0x3e, 0x21, 0xe6, 0x2f, 0x3e, 0xcd, 0xff, 0x1a, 0xbe, 0x03, 0x9d, 0xad, 0x3d, 0x88, 0x92, 0x95, 0xbd, 0x29, 0x5e, 0x69, 0xbe, 0x95, 0x9a, 0x06, 0xbe, 0x29, 0x08, 0xd4, 0x3e, 0x2c, 0x05, 0x9c, 0x3e, 0x2c, 0xaf, 0xb0, 0x3e, 0x92, 0xdb, 0x3a, 0x3e, 0x88, 0x3e, 0x14, 0x3d, 0x2b, 0x0c, 0x32, 0xbe, 0x08, 0x20, 0x42, 0x3e, 0xd4, 0xbb, 0x1f, 0x3c, 0xed, 0xe5, 0xd6, 0x3d, 0x39, 0x54, 0xe2, 0x3c, 0xc0, 0x34, 0xf6, 0xbc, 0x37, 0xef, 0xb9, 0x3e, 0x63, 0x13, 0x05, 0xbd, 0x43, 0x4f, 0x50, 0x3e, 0x38, 0x6d, 0x8a, 0x3e, 0xfe, 0x4f, 0xa4, 0xbc, 0xd8, 0xe9, 0xd0, 0xbd, 0x76, 0x9e, 0x9e, 0x3e, 0x38, 0x7f, 0xb8, 0xbd, 0x1f, 0xd4, 0x2c, 0x3e, 0xf5, 0xda, 0xcd, 0x3d, 0x1e, 0x8e, 0xc2, 0x3e, 0xe6, 0xe0, 0x3f, 0xbe, 0xa9, 0x2f, 0x19, 0xbe, 0x49, 0xbf, 0xa5, 0x3e, 0x10, 0x69, 0xa1, 0xbe, 0xa8, 0x07, 0x77, 0x3e, 0x1a, 0x64, 0x44, 0x3e, 0x18, 0x77, 0x16, 0xbf, 0x48, 0x71, 0x5e, 0x3e, 0x0f, 0x66, 0x7a, 0x3e, 0x02, 0xa1, 0x39, 0x3d, 0xbb, 0x0e, 0x44, 0xbe, 0xa4, 0x64, 0x05, 0x3e, 0x96, 0x7e, 0x4a, 0xbd, 0x4a, 0x4b, 0x86, 0xbe, 0x48, 0x34, 0x17, 0xbe, 0x6a, 0x15, 0x58, 0x3e, 0x81, 0xe4, 0xe1, 0xbd, 0xef, 0x0f, 0x7b, 0x3d, 0x67, 0x3b, 0xc2, 0x3e, 0xa9, 0x09, 0xe0, 0x3c, 0x82, 0x8a, 0x62, 0xbd, 0xf9, 0x9a, 0x11, 0xbe, 0xe7, 0x54, 0x7a, 0x3e, 0x09, 0xf9, 0x43, 0x3d, 0x44, 0xb2, 0x8f, 0xbd, 0xeb, 0xcc, 0x68, 0x3e, 0x19, 0x21, 0xdd, 0xbd, 0xeb, 0x22, 0xdf, 0x3e, 0x9e, 0x38, 0x63, 0x3e, 0x13, 0xa2, 0x26, 0x3d, 0xe3, 0x0f, 0x02, 0x3e, 0xcb, 0x92, 0x88, 0x3e, 0x2b, 0xba, 0x22, 0xbe, 0x51, 0xc6, 0x80, 0x3b, 0x37, 0xa3, 0x9f, 0xbe, 0xfe, 0xd1, 0x5c, 0x3e, 0x98, 0x9f, 0xb6, 0xbe, 0x06, 0x6f, 0xb2, 0x3e, 0x32, 0x7e, 0x92, 0x3d, 0x18, 0x20, 0xea, 0xbd, 0xa3, 0xe6, 0xf8, 0x3c, 0x7e, 0xe6, 0xe0, 0x3d, 0x2e, 0x5e, 0xda, 0x3e, 0x2a, 0xd7, 0xc0, 0x3d, 0x88, 0x6a, 0x2a, 0x3d, 0x41, 0xbf, 0x59, 0xbe, 0x3f, 0x51, 0xcb, 0xbd, 0x38, 0x7e, 0x65, 0x3e, 0xb1, 0x25, 0x8a, 0xbd, 0x25, 0x83, 0xa2, 0xbe, 0x02, 0x6a, 0x9d, 0xbd, 0x52, 0xfd, 0xe6, 0x3e, 0xb4, 0xcd, 0xc8, 0x3e, 0x6e, 0xc8, 0x87, 0xbd, 0x10, 0x54, 0x51, 0xbc, 0xcd, 0x05, 0x8b, 0x3e, 0x60, 0xd7, 0x0f, 0xbe, 0x17, 0x63, 0xbb, 0x3d, 0x3f, 0x77, 0x85, 0x3e, 0x44, 0x4b, 0x5b, 0x3e, 0xd8, 0xcc, 0x9b, 0xbd, 0x82, 0x1a, 0x9f, 0x3e, 0xb4, 0x06, 0x0f, 0x3f, 0x5e, 0xc1, 0xc3, 0xbd, 0xc4, 0x7c, 0xb2, 0x3e, 0xc9, 0xcc, 0x83, 0x3e, 0xdf, 0xd3, 0x45, 0xbe, 0x85, 0x23, 0x02, 0x3f, 0xd6, 0xec, 0xff, 0xff, 0x04, 0x00, 0x00, 0x00, 0x90, 0x01, 0x00, 0x00, 0x5c, 0x85, 0x7c, 0x3b, 0x07, 0xcb, 0xc4, 0xbd, 0xf5, 0x4d, 0x84, 0x3e, 0xfa, 0x56, 0xa6, 0x3e, 0xc3, 0x91, 0xaf, 0x3d, 0x2c, 0x1d, 0x2b, 0xbc, 0x20, 0xb7, 0xa3, 0xbe, 0xc1, 0x77, 0x04, 0xbe, 0x84, 0xa3, 0xba, 0x3d, 0xed, 0xe8, 0x68, 0x3d, 0xe8, 0x1b, 0x13, 0x3d, 0x57, 0x5a, 0x29, 0x3d, 0xb7, 0x47, 0xc8, 0x3d, 0x05, 0xd6, 0x6e, 0xbd, 0x42, 0x7f, 0x34, 0x3e, 0xa5, 0x93, 0x40, 0x3e, 0x9a, 0x2a, 0x23, 0x3e, 0xf8, 0x66, 0x7e, 0xbe, 0x51, 0x6e, 0xeb, 0x3c, 0x19, 0x9d, 0xc0, 0xbd, 0xe1, 0xc8, 0xb9, 0x3d, 0x59, 0x9b, 0xa2, 0xbd, 0xea, 0xaf, 0x0c, 0x3e, 0x1e, 0x4f, 0x84, 0xbe, 0x1a, 0x43, 0x05, 0x3c, 0xf7, 0x65, 0xd8, 0x3b, 0x56, 0x72, 0x22, 0xbe, 0x05, 0x37, 0x24, 0xbe, 0x59, 0xb5, 0x9b, 0xbd, 0x49, 0xa0, 0x33, 0x3e, 0x34, 0xfd, 0x2e, 0x3d, 0x2e, 0x8b, 0x3e, 0xbe, 0xd7, 0xdd, 0x51, 0x3e, 0xed, 0x1f, 0x2d, 0xbe, 0x3e, 0x8c, 0x12, 0x3e, 0xb7, 0xf0, 0xcb, 0xbd, 0xfc, 0x7b, 0x30, 0xbe, 0xb2, 0x75, 0x27, 0xbe, 0x7f, 0xca, 0x0d, 0x3d, 0xc1, 0x9a, 0xc5, 0x3d, 0x44, 0x38, 0x64, 0x3e, 0x0c, 0xa3, 0xda, 0xbd, 0xa6, 0x7b, 0x8f, 0x3e, 0x51, 0x4c, 0xcc, 0x3e, 0x94, 0x00, 0x98, 0xbc, 0x9b, 0xae, 0x6a, 0x3e, 0x77, 0x86, 0xa7, 0xbc, 0x05, 0x7f, 0x38, 0xbd, 0x15, 0xf0, 0x30, 0xbe, 0x06, 0x90, 0xc6, 0xbd, 0xfa, 0xbc, 0x80, 0xbe, 0x73, 0x9b, 0x89, 0x3e, 0x62, 0x41, 0xb4, 0xbd, 0x6a, 0x72, 0x8a, 0x3d, 0x6c, 0x2d, 0xb7, 0xbd, 0x21, 0x2c, 0x8b, 0x3d, 0x2a, 0x8f, 0xec, 0xbd, 0xe6, 0x93, 0x8c, 0xbe, 0xec, 0xc9, 0x34, 0xbe, 0xde, 0xd2, 0xb5, 0x3d, 0x9d, 0xbf, 0x98, 0x3c, 0x32, 0x8f, 0x8b, 0x3d, 0x79, 0x74, 0xfa, 0x3d, 0x42, 0xa6, 0x04, 0x3e, 0xc7, 0x2a, 0xce, 0x3e, 0x92, 0x79, 0x1a, 0xbd, 0xa9, 0x77, 0xe5, 0xbe, 0xc4, 0xb1, 0x66, 0xbe, 0x72, 0xdb, 0x78, 0x3e, 0x14, 0x43, 0xa0, 0x3e, 0x53, 0xd0, 0xc9, 0x3d, 0x2d, 0xd7, 0x03, 0xbe, 0xd2, 0x91, 0xd5, 0xbd, 0x17, 0xf7, 0x44, 0x3e, 0xd5, 0x54, 0x86, 0x3e, 0x4f, 0x25, 0xb7, 0xbd, 0x82, 0x18, 0x29, 0x3e, 0xe3, 0xee, 0xc1, 0xbb, 0x30, 0xd4, 0x69, 0x3d, 0x99, 0xf1, 0x35, 0x3e, 0x39, 0xe3, 0xa6, 0x3c, 0x05, 0x7c, 0x87, 0xbe, 0xf2, 0x76, 0x25, 0x3d, 0x57, 0x7f, 0x02, 0x3e, 0xe7, 0x13, 0x10, 0x3d, 0x74, 0x76, 0x43, 0xbe, 0x2c, 0xfd, 0x6d, 0xbd, 0xc9, 0x0c, 0x96, 0xbe, 0x4b, 0xfa, 0x9f, 0xbc, 0x1a, 0xb8, 0x0c, 0x3e, 0x49, 0xbc, 0x77, 0xbe, 0xd6, 0xf2, 0xe5, 0xbd, 0x25, 0x51, 0x3b, 0xbe, 0x7e, 0x59, 0x70, 0xbe, 0x7d, 0x01, 0x95, 0x3e, 0xa0, 0x8a, 0x04, 0x3e, 0xd9, 0xd2, 0x01, 0xbe, 0x3b, 0x33, 0x4c, 0x3d, 0xfb, 0xec, 0x5d, 0xbd, 0xb3, 0x16, 0xe5, 0xbd, 0x72, 0xee, 0xff, 0xff, 0x04, 0x00, 0x00, 0x00, 0x3c, 0x00, 0x00, 0x00, 0xd9, 0xdd, 0x6e, 0x3c, 0xae, 0x5b, 0x65, 0x3d, 0x09, 0xec, 0x95, 0x3e, 0x5b, 0x11, 0x90, 0x3e, 0x5f, 0x56, 0xfa, 0x3d, 0x4b, 0x05, 0x74, 0xbd, 0x32, 0xb8, 0x60, 0x3e, 0x9b, 0x84, 0xe4, 0x3d, 0xa9, 0x61, 0xec, 0xbd, 0x53, 0xc7, 0x83, 0x3e, 0x8c, 0x56, 0x9e, 0x3e, 0xc6, 0xcc, 0x42, 0x3e, 0xf6, 0x93, 0x17, 0x3e, 0xd6, 0x98, 0x0b, 0xbe, 0x29, 0x52, 0xb4, 0x3d, 0xba, 0xee, 0xff, 0xff, 0x04, 0x00, 0x00, 0x00, 0x3c, 0x00, 0x00, 0x00, 0x62, 0xa0, 0xaf, 0x3e, 0x90, 0x87, 0x24, 0x3d, 0x95, 0x64, 0xbd, 0xbe, 0xd2, 0xfd, 0xae, 0x3e, 0x92, 0xa9, 0xb7, 0x3e, 0x3b, 0x64, 0x89, 0xbe, 0x2f, 0x6f, 0xa7, 0x3e, 0x2b, 0xdb, 0x49, 0xbe, 0x9b, 0x47, 0xd9, 0x3d, 0x68, 0x01, 0xb4, 0x3e, 0x8f, 0x7c, 0x93, 0xbe, 0x8d, 0xd2, 0xb9, 0x3e, 0x2a, 0xa2, 0xcd, 0x3e, 0x5d, 0xc8, 0xaf, 0xbe, 0x9a, 0x81, 0xc3, 0xbd, 0x02, 0xef, 0xff, 0xff, 0x04, 0x00, 0x00, 0x00, 0x3c, 0x00, 0x00, 0x00, 0x81, 0x89, 0x2d, 0xbe, 0x18, 0xd7, 0xa7, 0x3e, 0xe8, 0x6a, 0x22, 0xbd, 0xe6, 0x8c, 0x53, 0xbd, 0x84, 0xcc, 0x97, 0xbd, 0xfb, 0xdc, 0x05, 0x3d, 0xd2, 0xe1, 0xe6, 0x3e, 0x3b, 0x5c, 0x03, 0x3e, 0x12, 0x04, 0x28, 0xbd, 0x69, 0x99, 0x5e, 0x3d, 0x9c, 0x09, 0xba, 0x3d, 0xb6, 0x58, 0x25, 0xbe, 0xd3, 0x1d, 0xfa, 0xbd, 0x42, 0x89, 0xef, 0xbe, 0x68, 0xbd, 0xdc, 0x3d, 0x4a, 0xef, 0xff, 0xff, 0x04, 0x00, 0x00, 0x00, 0x3c, 0x00, 0x00, 0x00, 0xab, 0x0f, 0xa5, 0x3e, 0xa3, 0x1a, 0xa6, 0x3e, 0x31, 0x88, 0x58, 0xbe, 0x8a, 0xe4, 0x3b, 0xbe, 0x8e, 0x06, 0x1a, 0xbe, 0xcf, 0x20, 0x69, 0x3e, 0x36, 0x6f, 0x95, 0x3e, 0xd7, 0xa6, 0x31, 0xbe, 0x53, 0x47, 0xdf, 0x3c, 0x1b, 0xee, 0x80, 0x3d, 0xb8, 0x8d, 0x90, 0x39, 0xfb, 0xfd, 0x5c, 0x3e, 0x30, 0x20, 0x6a, 0xbd, 0x72, 0x2b, 0x55, 0xbe, 0xf6, 0xe0, 0x4e, 0x3d, 0x92, 0xef, 0xff, 0xff, 0x04, 0x00, 0x00, 0x00, 0x3c, 0x00, 0x00, 0x00, 0x0c, 0x0e, 0x54, 0x3d, 0x70, 0x33, 0x34, 0x3d, 0x18, 0x9f, 0x54, 0x3e, 0xd0, 0xd7, 0xa4, 0x3d, 0x7e, 0xae, 0x8a, 0x3d, 0x10, 0xa8, 0x46, 0x3e, 0x90, 0xe8, 0xe1, 0x3d, 0x28, 0x92, 0xe2, 0xbb, 0xac, 0xf3, 0xa1, 0x3c, 0x49, 0x50, 0xf7, 0x3e, 0x91, 0xca, 0xbf, 0x3d, 0x2d, 0xfd, 0xda, 0x3d, 0x3d, 0xf2, 0xa3, 0x3d, 0x28, 0xb9, 0xb7, 0x3e, 0x8a, 0xa5, 0x36, 0x3c, 0xda, 0xef, 0xff, 0xff, 0x04, 0x00, 0x00, 0x00, 0x3c, 0x00, 0x00, 0x00, 0xb1, 0xe9, 0x27, 0xbc, 0x7b, 0x5f, 0x46, 0x3d, 0xbe, 0xb3, 0x8d, 0x3d, 0x43, 0xc4, 0x5c, 0xbb, 0x48, 0xde, 0x57, 0xbc, 0x87, 0xaa, 0xaa, 0x3d, 0x3c, 0x21, 0x83, 0x3c, 0xd0, 0x42, 0x06, 0x3d, 0xba, 0x4a, 0x03, 0xbc, 0xcf, 0xe7, 0x39, 0xbd, 0x51, 0x5a, 0x96, 0xbc, 0xdc, 0x52, 0xe2, 0xba, 0x86, 0xa1, 0x2d, 0xbc, 0x83, 0x23, 0x95, 0x3d, 0x22, 0x4d, 0x1a, 0xbc, 0x22, 0xf0, 0xff, 0xff, 0x04, 0x00, 0x00, 0x00, 0x3c, 0x00, 0x00, 0x00, 0xbd, 0xa8, 0x77, 0x3f, 0x82, 0xe2, 0x7e, 0x3f, 0xdd, 0x44, 0x77, 0x3f, 0xd6, 0x1f, 0x83, 0x3f, 0x5d, 0xeb, 0x82, 0x3f, 0xb3, 0xcb, 0x61, 0x3f, 0x27, 0x82, 0x80, 0x3f, 0xc1, 0xdd, 0x67, 0x3f, 0x0a, 0xaf, 0x76, 0x3f, 0xa6, 0xea, 0x6e, 0x3f, 0x26, 0xe3, 0x82, 0x3f, 0x9f, 0x7d, 0x81, 0x3f, 0xec, 0x76, 0x82, 0x3f, 0x8c, 0x29, 0x5d, 0x3f, 0x6c, 0x9e, 0x77, 0x3f, 0x6a, 0xf0, 0xff, 0xff, 0x04, 0x00, 0x00, 0x00, 0x3c, 0x00, 0x00, 0x00, 0xfe, 0x7a, 0x46, 0x3d, 0xec, 0x20, 0x38, 0x3d, 0xff, 0x7a, 0x45, 0x3e, 0x7a, 0xe6, 0xb5, 0x3d, 0x05, 0x84, 0x8d, 0x3d, 0xcb, 0x01, 0x55, 0x3e, 0x9c, 0x73, 0xdc, 0x3d, 0x27, 0xd0, 0xc4, 0xbb, 0x55, 0xb7, 0x53, 0x3c, 0x7a, 0x1f, 0x98, 0x3e, 0x7f, 0xa8, 0xcc, 0x3d, 0xfb, 0x09, 0xd8, 0x3d, 0x36, 0x8c, 0xa6, 0x3d, 0x3a, 0xc4, 0xa8, 0x3e, 0xa1, 0x36, 0x43, 0x3c, 0xb2, 0xf0, 0xff, 0xff, 0x04, 0x00, 0x00, 0x00, 0x84, 0x03, 0x00, 0x00, 0xcf, 0xb7, 0xcd, 0x3d, 0xe8, 0xa6, 0xb4, 0xbd, 0x9e, 0x57, 0x3f, 0xbd, 0x1b, 0x25, 0x90, 0xbd, 0xe1, 0x96, 0x60, 0x3e, 0x38, 0x12, 0x61, 0x3e, 0x22, 0x30, 0x90, 0xbd, 0xc7, 0x28, 0xc0, 0xbd, 0xf0, 0x6e, 0x50, 0xbd, 0xd0, 0x1e, 0x3c, 0x3d, 0x14, 0x6f, 0xee, 0x3b, 0xec, 0x4c, 0x07, 0x3d, 0x1c, 0xbe, 0x53, 0xbe, 0xe5, 0x71, 0x72, 0x3d, 0x52, 0xe5, 0x66, 0x3c, 0xd6, 0x71, 0x83, 0x3e, 0x99, 0x59, 0x83, 0xbe, 0x7f, 0x4c, 0xe1, 0xbd, 0x9c, 0x9a, 0x94, 0x3d, 0x66, 0x96, 0xa8, 0x3b, 0x7d, 0x45, 0x59, 0xbd, 0x06, 0x42, 0x93, 0x3e, 0xde, 0xa2, 0x75, 0xbe, 0x82, 0x30, 0xc9, 0x3d, 0x3d, 0xb5, 0x1a, 0x3e, 0xb3, 0x4e, 0x00, 0x3e, 0x84, 0x51, 0xcb, 0x3d, 0xad, 0xf5, 0xd2, 0x3d, 0x26, 0x02, 0x4c, 0x3e, 0x05, 0x32, 0xff, 0xb9, 0x93, 0xb9, 0x2b, 0xbb, 0xee, 0x08, 0x3c, 0x3e, 0x20, 0xc7, 0x2a, 0xbe, 0xdd, 0x15, 0x73, 0x3e, 0xcc, 0xec, 0x6c, 0x3e, 0xb1, 0xe4, 0x06, 0x3f, 0x88, 0x49, 0xa8, 0x3d, 0xb8, 0x5e, 0x7f, 0xbd, 0xb5, 0x92, 0x53, 0x3e, 0x18, 0xee, 0x90, 0x3d, 0xc5, 0x3c, 0x85, 0xbe, 0xae, 0x53, 0x3d, 0x3e, 0xe8, 0x2e, 0xb2, 0x3d, 0xaa, 0xe4, 0x56, 0x3e, 0x61, 0x54, 0x7c, 0xbe, 0x89, 0x37, 0xca, 0xb8, 0x3b, 0xa7, 0x04, 0x3e, 0x69, 0x7c, 0x23, 0xbe, 0xf6, 0xfc, 0xb8, 0x3d, 0xc9, 0x10, 0x19, 0xbd, 0x83, 0xa1, 0xa5, 0x3d, 0x1e, 0x1c, 0xad, 0x3d, 0xf9, 0xd0, 0x43, 0x3e, 0x9f, 0x8c, 0xa7, 0x3d, 0x35, 0xe0, 0x01, 0xbe, 0x67, 0x07, 0x9e, 0x3d, 0x19, 0x39, 0x79, 0xbd, 0xb4, 0x3c, 0x92, 0x3c, 0x08, 0x91, 0x11, 0xbd, 0x8f, 0x2a, 0x98, 0xbc, 0xf1, 0x52, 0xe9, 0x3d, 0x55, 0xf3, 0x40, 0xbc, 0x98, 0x93, 0x11, 0xbe, 0xf2, 0xaf, 0x8a, 0x3e, 0xc3, 0x23, 0x8e, 0x3c, 0xb0, 0x00, 0xcc, 0x3d, 0xaa, 0x4e, 0x01, 0xbe, 0x21, 0x06, 0xf8, 0xbd, 0x88, 0xfc, 0x97, 0x3d, 0x06, 0xc8, 0x95, 0x3d, 0xfd, 0xb0, 0x35, 0xbb, 0xb8, 0x57, 0x5a, 0x3c, 0xda, 0x88, 0xf2, 0x3c, 0xa6, 0xd7, 0x81, 0xbe, 0xa9, 0x6b, 0xa9, 0xbd, 0x13, 0x3f, 0xf4, 0x3e, 0x7d, 0x84, 0x5d, 0x3f, 0x2a, 0xb8, 0xc6, 0x3d, 0x32, 0xb8, 0x09, 0x3f, 0x36, 0xcb, 0x4f, 0x3e, 0xf9, 0xfe, 0xa0, 0x3e, 0x34, 0x68, 0xb1, 0x3e, 0xb4, 0x30, 0x67, 0x3e, 0x8f, 0x61, 0xbd, 0x3e, 0x6d, 0x32, 0xdb, 0xbd, 0xae, 0x1f, 0xaf, 0xbe, 0x66, 0x2f, 0x33, 0x3e, 0x66, 0x17, 0x2b, 0x3d, 0x32, 0x23, 0x92, 0x3e, 0x7f, 0x89, 0xef, 0xbe, 0x94, 0xac, 0xce, 0x3d, 0x6f, 0x3e, 0xd3, 0x3d, 0x1d, 0x3b, 0x43, 0x3e, 0x85, 0x3a, 0xaf, 0xbc, 0x89, 0x48, 0x26, 0x3e, 0x8c, 0x6c, 0x5f, 0x3e, 0xf8, 0x7b, 0x4b, 0x3e, 0xfe, 0x16, 0x7a, 0xbe, 0xf7, 0x21, 0xcd, 0x3d, 0xc5, 0x69, 0x9e, 0x3c, 0x54, 0x17, 0xb0, 0xbd, 0x8f, 0x4a, 0x1b, 0x3e, 0x99, 0x1c, 0xaa, 0x3d, 0x11, 0xeb, 0x97, 0xbd, 0x2d, 0x5a, 0x73, 0xbe, 0xe1, 0x8b, 0xe0, 0xbd, 0xa4, 0x17, 0xc0, 0x3d, 0x7b, 0x08, 0x5f, 0x3d, 0x79, 0xaf, 0x0c, 0x3d, 0x17, 0x11, 0x33, 0x3c, 0x10, 0x77, 0xfd, 0xbd, 0x5b, 0xad, 0x49, 0xbe, 0x60, 0x0d, 0x28, 0x3e, 0x9f, 0xac, 0x92, 0xbe, 0xcc, 0x35, 0x1d, 0xbd, 0xff, 0x4f, 0x92, 0xbc, 0x33, 0x18, 0xbc, 0xbc, 0x33, 0x68, 0x57, 0xbe, 0xe5, 0xdc, 0x0c, 0x3d, 0x8d, 0xc2, 0x12, 0xbb, 0x6b, 0x4f, 0x68, 0xbd, 0xb9, 0x2f, 0xab, 0x3d, 0x63, 0x55, 0x13, 0xbe, 0x47, 0xc6, 0x89, 0x3e, 0xf8, 0xa4, 0x34, 0x3d, 0x9e, 0x92, 0x6d, 0xbd, 0xee, 0x8e, 0xca, 0xbc, 0x80, 0x00, 0x6c, 0x3e, 0x2c, 0xe7, 0xaf, 0x3d, 0x3b, 0x76, 0xc5, 0x3c, 0xea, 0xf6, 0x52, 0x3b, 0x52, 0xe9, 0x69, 0xbd, 0xe1, 0xe1, 0xf8, 0x3d, 0x6a, 0xbd, 0xc7, 0x3d, 0x67, 0xd1, 0x02, 0xbe, 0x3b, 0x58, 0x06, 0x3f, 0x9c, 0x58, 0xaa, 0x3f, 0x6e, 0xe2, 0xf3, 0xbe, 0x83, 0x21, 0x2e, 0x3f, 0x58, 0x7f, 0x22, 0x3f, 0x45, 0x10, 0x30, 0x3f, 0x9b, 0x75, 0x11, 0x3f, 0x9a, 0x25, 0x8c, 0xbe, 0x37, 0x51, 0xf5, 0x3e, 0xfc, 0x69, 0x87, 0xbe, 0x70, 0x2a, 0x1e, 0xbf, 0x06, 0x01, 0x0c, 0x3f, 0x4d, 0x86, 0xe2, 0x3e, 0x62, 0x19, 0xd2, 0x3e, 0x40, 0xfb, 0xd6, 0xbe, 0xb1, 0xf4, 0x87, 0x3d, 0x1b, 0x00, 0x0d, 0xbd, 0xa7, 0xbf, 0x91, 0xbe, 0x0b, 0xa2, 0x76, 0x3d, 0x41, 0x01, 0xb3, 0x3d, 0xb1, 0x41, 0x27, 0x3e, 0x0e, 0x8e, 0x4f, 0x3e, 0x5d, 0x1c, 0x84, 0xbd, 0xe9, 0x4d, 0x94, 0x3d, 0xe7, 0xcd, 0x05, 0xbd, 0x6e, 0x27, 0x32, 0x3c, 0x7b, 0xcd, 0x98, 0x3e, 0x94, 0x7b, 0xd4, 0x3d, 0x39, 0x9f, 0x89, 0xbd, 0xaf, 0x63, 0x50, 0xbe, 0xe6, 0x87, 0x3e, 0x3e, 0x90, 0x68, 0x67, 0x3e, 0x38, 0x3f, 0xbe, 0xbd, 0x41, 0x5f, 0x2d, 0xbd, 0xa2, 0xa9, 0x54, 0x3d, 0x92, 0x6f, 0x91, 0xbd, 0xf5, 0x29, 0xab, 0x3d, 0xe7, 0xe8, 0xb8, 0xbd, 0x3d, 0x68, 0x66, 0x3e, 0x6c, 0x0b, 0x38, 0x3e, 0x6d, 0xb8, 0x14, 0x3e, 0x13, 0xf5, 0xbe, 0x3e, 0xec, 0x23, 0x64, 0xbd, 0x59, 0x2d, 0xbf, 0xbc, 0xbb, 0xa2, 0x39, 0xbe, 0x78, 0xca, 0xe5, 0xbd, 0x5f, 0xfe, 0x5b, 0xbd, 0xa6, 0x7d, 0xae, 0x3d, 0x68, 0xd6, 0x13, 0x3e, 0xed, 0x8f, 0x01, 0xbe, 0x64, 0x03, 0x36, 0x3e, 0x15, 0xa1, 0x28, 0xbc, 0xba, 0xe0, 0xdc, 0xbd, 0x78, 0x80, 0x88, 0xbe, 0xf1, 0x6b, 0xed, 0xbd, 0xc3, 0x6f, 0x4a, 0xbd, 0xcc, 0xed, 0xcc, 0x3d, 0x15, 0xc5, 0x0a, 0xbe, 0x4a, 0x46, 0x9b, 0x3d, 0x04, 0xa8, 0xed, 0xbe, 0x66, 0x40, 0x6e, 0x3e, 0xf5, 0xdb, 0x2a, 0x3f, 0xf0, 0xa8, 0x83, 0xbe, 0x4e, 0x5c, 0xc9, 0x3e, 0x33, 0xac, 0xa0, 0x3e, 0xbf, 0x88, 0x7e, 0xbd, 0x28, 0xfb, 0xcb, 0x3e, 0x7f, 0xbc, 0x28, 0xbe, 0x22, 0xf8, 0x81, 0x3e, 0xb3, 0x9c, 0x90, 0xbe, 0x54, 0x71, 0x01, 0xbf, 0x8c, 0x89, 0x96, 0x3e, 0xf3, 0xca, 0xd8, 0x3e, 0x7a, 0x93, 0xb3, 0x3e, 0x0e, 0xc5, 0xcc, 0xbe, 0x4a, 0x5d, 0xa3, 0x3e, 0x93, 0xc9, 0x73, 0xbd, 0xb4, 0x46, 0x0e, 0x3e, 0x6a, 0xd1, 0x2e, 0xbd, 0x4f, 0x65, 0x6b, 0x3d, 0x65, 0x7b, 0xdf, 0x3b, 0xca, 0x8d, 0x1f, 0xbc, 0xdb, 0x72, 0x32, 0xbe, 0xd4, 0x35, 0x74, 0xbd, 0xe8, 0xaa, 0x50, 0xbe, 0xda, 0x54, 0x6b, 0x3d, 0xfb, 0x55, 0x64, 0xbd, 0x46, 0x1f, 0xaf, 0x3b, 0x90, 0x54, 0xd0, 0xbc, 0x14, 0x70, 0x57, 0xbe, 0x42, 0xf4, 0xff, 0xff, 0x04, 0x00, 0x00, 0x00, 0x84, 0x03, 0x00, 0x00, 0xef, 0xd3, 0xa5, 0x3d, 0x07, 0x67, 0x55, 0xbe, 0x78, 0x4f, 0x4e, 0x3e, 0xf9, 0x04, 0x0c, 0x3d, 0xb3, 0xed, 0x11, 0x3e, 0xc3, 0x4a, 0x7f, 0xbd, 0x52, 0x45, 0x73, 0x3e, 0xd4, 0x11, 0x20, 0x3e, 0x4c, 0xd5, 0xb0, 0x3d, 0x32, 0x74, 0x1e, 0xbe, 0xee, 0x4d, 0x4b, 0x3d, 0x32, 0x11, 0x0d, 0xbe, 0x09, 0xa4, 0xfe, 0xbd, 0xb8, 0xe5, 0x43, 0xbd, 0x21, 0x79, 0x83, 0x3d, 0xdc, 0xe4, 0x26, 0x3e, 0x22, 0x67, 0x3f, 0x3d, 0x38, 0xfd, 0xb2, 0xbd, 0x7b, 0xf9, 0x36, 0x3e, 0x85, 0x54, 0x4a, 0x3e, 0x08, 0xd3, 0xa3, 0xbe, 0xc5, 0xc6, 0x86, 0x3d, 0x5e, 0xb0, 0x4c, 0xbe, 0xb7, 0x64, 0x3c, 0x3e, 0xe3, 0x94, 0x66, 0x3d, 0xdc, 0x68, 0xcc, 0xbe, 0x7c, 0xba, 0x14, 0x3e, 0xaf, 0x98, 0xb9, 0x3d, 0x2a, 0xc2, 0x3d, 0xbe, 0x0e, 0x8e, 0x1d, 0xbe, 0x06, 0x31, 0xbb, 0x3d, 0xfd, 0x1b, 0x44, 0x3e, 0xbf, 0x63, 0x50, 0x3d, 0xd5, 0xda, 0x10, 0xbd, 0xb8, 0xb1, 0x48, 0xbb, 0x23, 0xba, 0x43, 0xbe, 0x12, 0x83, 0x3a, 0x3c, 0xa8, 0xe6, 0x2d, 0xbe, 0x22, 0xe3, 0x64, 0xbc, 0xad, 0x77, 0x9f, 0xbc, 0xc5, 0xac, 0x28, 0x3c, 0x21, 0x9a, 0x52, 0x3d, 0x54, 0x13, 0x94, 0x3e, 0x3a, 0x3b, 0x06, 0x3e, 0xd6, 0xe6, 0x14, 0xbe, 0x2f, 0x71, 0x89, 0x3e, 0x98, 0xfd, 0xc7, 0xbd, 0x1f, 0x42, 0x09, 0xbe, 0xd4, 0xff, 0xda, 0xbd, 0xb1, 0x03, 0x35, 0x3e, 0xcd, 0x6f, 0xda, 0x3d, 0x6b, 0x35, 0x38, 0xbd, 0x2d, 0x2f, 0x1f, 0x3d, 0xf7, 0x5b, 0xe5, 0x3d, 0x64, 0x8e, 0x83, 0x3d, 0x0a, 0xf3, 0x5d, 0x3d, 0xd8, 0x8e, 0xbe, 0xbd, 0xaf, 0xdf, 0xa4, 0xbc, 0xbf, 0x61, 0xc5, 0x3d, 0xc9, 0xe5, 0x1c, 0x3d, 0x86, 0x85, 0x2d, 0x3e, 0x13, 0x76, 0x7e, 0xbe, 0xe5, 0x81, 0xba, 0xbd, 0x6e, 0xcb, 0x80, 0x3b, 0xd6, 0xd8, 0x64, 0x3e, 0x05, 0x3c, 0x6e, 0xbd, 0x8c, 0x01, 0x86, 0xbc, 0x7e, 0x25, 0x29, 0xbe, 0xe5, 0x5e, 0xc9, 0x3d, 0xd0, 0xec, 0x4e, 0xbd, 0xe9, 0x50, 0xa3, 0x3c, 0x41, 0xd4, 0x1e, 0x3d, 0xeb, 0xef, 0xb6, 0x3c, 0xcc, 0x99, 0x07, 0xbd, 0xf7, 0x14, 0x08, 0xbd, 0x55, 0x94, 0x9f, 0x3e, 0x20, 0x49, 0x82, 0x38, 0x62, 0xdc, 0x7b, 0xbe, 0x3e, 0xe8, 0xd9, 0xbd, 0x8a, 0x80, 0xe8, 0x3d, 0x76, 0xab, 0x18, 0x3d, 0x65, 0xdb, 0xc3, 0x3d, 0x62, 0x5b, 0x89, 0xbd, 0x41, 0xdb, 0x17, 0x3e, 0x8b, 0x4b, 0xe8, 0xbb, 0xb2, 0xf8, 0x20, 0xbe, 0xa9, 0x35, 0xb2, 0xbd, 0xa0, 0x7e, 0xdc, 0xbd, 0x75, 0x4a, 0x36, 0xbe, 0xce, 0x62, 0x35, 0xbe, 0xf5, 0xc5, 0x7c, 0x3c, 0x17, 0x89, 0xaa, 0xbd, 0x67, 0x44, 0x05, 0xbe, 0xbc, 0x19, 0x23, 0x3d, 0x2a, 0xbf, 0x65, 0xbe, 0x3a, 0x23, 0xe3, 0x3d, 0x3e, 0x21, 0x10, 0xbe, 0xcf, 0xec, 0x41, 0xbe, 0xab, 0x98, 0x06, 0x3e, 0xd2, 0x97, 0x18, 0xbd, 0xf0, 0x7a, 0xa8, 0x3d, 0x05, 0xf6, 0xf5, 0x3d, 0x0e, 0x1c, 0x49, 0xbd, 0xcd, 0x23, 0x25, 0x3e, 0xa5, 0x60, 0x4a, 0x3e, 0x83, 0xc0, 0xe8, 0xbd, 0x41, 0xdf, 0x04, 0xbd, 0x6d, 0xc6, 0x4f, 0x3e, 0xbd, 0x06, 0xa3, 0xbc, 0x5d, 0x32, 0xfa, 0x3c, 0xe4, 0xb4, 0xf0, 0xbd, 0xf7, 0x75, 0x63, 0x3e, 0xb4, 0x06, 0xf7, 0x3c, 0xae, 0x8b, 0x92, 0x3e, 0xc8, 0x62, 0x58, 0xbc, 0xb0, 0x59, 0xb2, 0x3c, 0xa5, 0x8d, 0x2a, 0x3d, 0xab, 0x31, 0x31, 0x3e, 0x0f, 0x42, 0x9e, 0xbe, 0x39, 0xd6, 0xe1, 0xbd, 0xd3, 0xba, 0xe1, 0x3d, 0x5a, 0x20, 0x35, 0xbe, 0x74, 0x19, 0x53, 0x3d, 0x5d, 0xa8, 0x0b, 0xbe, 0x9f, 0x7f, 0xdd, 0x3c, 0x5c, 0xd6, 0x04, 0x3d, 0x22, 0x31, 0x0c, 0xbe, 0xc1, 0x71, 0x81, 0x3e, 0xf1, 0x09, 0x5a, 0x3d, 0x9a, 0x64, 0x8f, 0xbe, 0x80, 0x72, 0x4e, 0xbc, 0x40, 0xd6, 0xbe, 0x3e, 0xf2, 0xd4, 0x0e, 0xbd, 0x7a, 0x39, 0x49, 0x3e, 0x8e, 0xdd, 0x28, 0x3e, 0x14, 0x55, 0xef, 0x3c, 0x3f, 0xc4, 0x02, 0x3d, 0x7c, 0xd5, 0x89, 0x3e, 0x7f, 0xba, 0x1f, 0xbd, 0x84, 0x7a, 0xdf, 0xbd, 0x44, 0xd6, 0x89, 0x3e, 0x38, 0xba, 0x63, 0xbe, 0x2c, 0x62, 0x15, 0x3b, 0xa1, 0xc0, 0xb8, 0xbd, 0x80, 0x73, 0xc2, 0xbc, 0x97, 0xb0, 0xb6, 0x3e, 0x34, 0xaa, 0x74, 0xbe, 0x54, 0x05, 0x46, 0xbe, 0xa5, 0xf8, 0x9c, 0x3e, 0x89, 0xaa, 0xd8, 0x3d, 0x45, 0x1e, 0x01, 0xbe, 0xb2, 0xbf, 0xe9, 0xbd, 0xff, 0x75, 0x10, 0x3e, 0x4f, 0xf5, 0x40, 0x3e, 0x1e, 0x06, 0x9d, 0x3d, 0x82, 0x2c, 0xeb, 0x3d, 0x06, 0x38, 0x2f, 0x3e, 0x1c, 0xe4, 0xaf, 0xbd, 0x1e, 0xe7, 0xdc, 0xbd, 0x32, 0x20, 0x80, 0xbd, 0x0c, 0x51, 0x36, 0x3e, 0xc7, 0x1f, 0xbb, 0xbd, 0x51, 0xbc, 0x05, 0xbe, 0x27, 0x91, 0xfa, 0x3b, 0x17, 0x48, 0x5a, 0x3e, 0x0d, 0x45, 0xe7, 0x3d, 0xd8, 0x23, 0x3d, 0xbe, 0xa9, 0x7c, 0xba, 0x3d, 0x68, 0x88, 0x63, 0xbe, 0xb2, 0xb9, 0x52, 0xbe, 0x79, 0xa0, 0xc6, 0x3c, 0x28, 0x3e, 0x20, 0x3d, 0x0c, 0xa9, 0xb5, 0x3d, 0x03, 0x17, 0x10, 0xbd, 0x9b, 0x14, 0xa6, 0x3e, 0x40, 0xc2, 0x1f, 0xbc, 0xef, 0x0c, 0xc5, 0x3c, 0x70, 0x26, 0xb5, 0xb9, 0xff, 0x60, 0x5c, 0xbd, 0x35, 0x59, 0x80, 0x3d, 0xeb, 0x68, 0xe7, 0xbd, 0xde, 0xe9, 0xe8, 0xbd, 0x55, 0xb5, 0x80, 0x3d, 0xde, 0x36, 0x8c, 0x3d, 0x74, 0x4e, 0xc1, 0x3d, 0x3d, 0x0c, 0x16, 0xbc, 0x1d, 0x31, 0x9a, 0x3e, 0x42, 0x7e, 0x3b, 0xbe, 0xe4, 0x6f, 0x84, 0xbd, 0x46, 0x4c, 0x55, 0x3e, 0x4e, 0x41, 0x2f, 0x3e, 0x35, 0xad, 0x29, 0x3d, 0x13, 0x9a, 0x55, 0xbd, 0xc3, 0xe0, 0x58, 0x3d, 0x09, 0xc7, 0x87, 0xbc, 0xcc, 0x06, 0x90, 0x3e, 0xdc, 0x45, 0x5b, 0x3e, 0x01, 0x93, 0x16, 0xbc, 0x55, 0x6e, 0x6a, 0x3e, 0x12, 0x36, 0xca, 0xbd, 0xaf, 0xcd, 0x19, 0xbe, 0x64, 0x5e, 0x8c, 0x3e, 0x67, 0x46, 0x67, 0xbe, 0x2e, 0x35, 0xce, 0x3d, 0xde, 0x91, 0x38, 0x3e, 0x7a, 0x8f, 0x4f, 0xbe, 0x7f, 0x8e, 0x78, 0x3e, 0xc1, 0x8c, 0x2a, 0xbd, 0x92, 0x8a, 0x39, 0xbe, 0x19, 0xb0, 0x9b, 0x3c, 0x10, 0x8f, 0x06, 0xbe, 0xc0, 0x0e, 0x41, 0x3e, 0xaa, 0x17, 0x6e, 0x3e, 0x25, 0xe0, 0xfa, 0xbd, 0x9a, 0x0c, 0xd6, 0xbb, 0x7b, 0x76, 0xb6, 0x3d, 0x1c, 0xed, 0x88, 0xbd, 0x0b, 0x70, 0xd6, 0xbc, 0x70, 0x82, 0xdc, 0x3d, 0x0e, 0xc4, 0x33, 0xbd, 0x98, 0xd6, 0x20, 0xbe, 0xbd, 0xb0, 0xa8, 0x3e, 0x44, 0x84, 0x13, 0xbe, 0x5d, 0xe3, 0x73, 0xbd, 0x2a, 0x90, 0x2c, 0x3e, 0xd2, 0xf7, 0xff, 0xff, 0x04, 0x00, 0x00, 0x00, 0x84, 0x03, 0x00, 0x00, 0x70, 0x7f, 0xea, 0xbd, 0xb1, 0xd0, 0x11, 0xbe, 0xbd, 0x78, 0x36, 0xbe, 0x66, 0xa2, 0x4e, 0xbe, 0x64, 0x27, 0x6d, 0x37, 0x18, 0x9e, 0x88, 0x3e, 0xe7, 0xc0, 0x8c, 0x3b, 0x22, 0xa6, 0xb9, 0x3d, 0xa9, 0x99, 0xd1, 0xbd, 0xcf, 0xf9, 0x31, 0xbe, 0xa8, 0x59, 0x84, 0x3e, 0x00, 0x8a, 0xb6, 0xbc, 0xf3, 0x30, 0x6c, 0xbe, 0x4e, 0x12, 0xfd, 0xbc, 0x11, 0x7a, 0x83, 0x3e, 0x77, 0xb4, 0x21, 0xbe, 0x39, 0x36, 0x49, 0xbe, 0x99, 0xff, 0x49, 0x3d, 0xdf, 0x0a, 0x9d, 0xbc, 0xd4, 0xee, 0x0d, 0xbe, 0x14, 0xe3, 0x1e, 0xbe, 0x4d, 0x8f, 0x5c, 0xbd, 0x36, 0x16, 0xa2, 0x3d, 0x0b, 0x18, 0x71, 0x3d, 0xe6, 0x89, 0x22, 0x3d, 0xa5, 0x5a, 0x4d, 0x3e, 0x14, 0x20, 0x17, 0xbe, 0xee, 0x9b, 0x67, 0x3d, 0xf2, 0x33, 0x31, 0xbd, 0x9e, 0x25, 0x42, 0x3e, 0x68, 0x7d, 0x36, 0xbd, 0x53, 0x11, 0x9f, 0x3b, 0xa9, 0x42, 0xb5, 0xbd, 0x8e, 0xf6, 0x02, 0xbe, 0x78, 0xc5, 0x25, 0xbd, 0x0b, 0x42, 0xa4, 0x3d, 0x09, 0xb7, 0xe6, 0x3d, 0xfb, 0xc0, 0xc9, 0xbd, 0x7d, 0xb2, 0xf7, 0x3d, 0x5e, 0x20, 0x04, 0xbf, 0xa7, 0x7d, 0x2c, 0xbe, 0x4e, 0xd2, 0xa6, 0xbd, 0xf9, 0x7e, 0xb0, 0xbd, 0xba, 0x06, 0x88, 0x3e, 0xbd, 0xf3, 0xed, 0xbd, 0x2d, 0x5f, 0x0c, 0x3e, 0x53, 0x24, 0x9d, 0xbd, 0x73, 0xd0, 0x7b, 0xbd, 0x1a, 0x6e, 0x02, 0xbc, 0x7f, 0x21, 0xc7, 0xbd, 0x7b, 0x1b, 0x31, 0x3d, 0xba, 0xcb, 0xd0, 0x3e, 0x7e, 0x24, 0x23, 0x3e, 0xd2, 0xf7, 0x85, 0xbe, 0x65, 0xe8, 0x39, 0x3d, 0xb4, 0xcc, 0x25, 0x3e, 0xb3, 0x6c, 0x71, 0x3c, 0x96, 0x39, 0x92, 0x3e, 0xe3, 0x5d, 0x06, 0x3d, 0xc3, 0x1d, 0xde, 0x3c, 0x9c, 0xe1, 0xe8, 0x3d, 0x20, 0xc7, 0x19, 0xbd, 0xe0, 0xe6, 0x33, 0xbd, 0xf7, 0x33, 0xc4, 0x3d, 0x57, 0xc6, 0x3d, 0x3d, 0x58, 0x5e, 0x57, 0x3d, 0x27, 0xc0, 0xf2, 0x3d, 0x8b, 0x9f, 0xd4, 0xbd, 0x1f, 0xe8, 0xce, 0x3d, 0x4e, 0x70, 0x65, 0x3e, 0xe6, 0x54, 0x13, 0x3d, 0x76, 0x2a, 0xb5, 0xbc, 0x43, 0xab, 0x34, 0x3e, 0x98, 0x72, 0xee, 0xbd, 0x2f, 0xdc, 0xab, 0x3c, 0x7c, 0x34, 0x5b, 0x3d, 0x06, 0x42, 0x87, 0x3e, 0xce, 0x4f, 0xfd, 0x3d, 0x44, 0x1e, 0xb1, 0x3c, 0xa8, 0x1e, 0xd4, 0xbd, 0x91, 0x92, 0x35, 0xbe, 0x66, 0x11, 0xb4, 0x3d, 0x6c, 0x5a, 0x24, 0x3e, 0x6e, 0x6a, 0xd3, 0xbd, 0x7e, 0x7f, 0xa4, 0xbe, 0xb2, 0xdb, 0x9c, 0x3c, 0x04, 0xf4, 0x76, 0xbd, 0x9b, 0xdf, 0xb0, 0xbe, 0x75, 0x57, 0x12, 0x3e, 0x05, 0xa3, 0x4a, 0x3e, 0xb3, 0x98, 0xf6, 0x3d, 0x1c, 0x0f, 0x78, 0x3d, 0xf1, 0x8d, 0xee, 0x3c, 0xb0, 0x27, 0xd6, 0xbc, 0xf8, 0x49, 0xca, 0xbc, 0xc4, 0xc8, 0xd8, 0x3d, 0x64, 0x4f, 0x8a, 0xbd, 0x7a, 0x8e, 0xe5, 0xbc, 0x85, 0x8a, 0x46, 0xbe, 0xa4, 0x44, 0x16, 0xbe, 0xe8, 0xbf, 0x9f, 0x3d, 0x1b, 0xd7, 0x05, 0x3e, 0x79, 0x53, 0xb0, 0xbd, 0x00, 0x41, 0x91, 0xbd, 0xb0, 0xf0, 0x54, 0x3e, 0x25, 0xac, 0xff, 0xbd, 0x7e, 0x51, 0x19, 0xbe, 0x07, 0xae, 0x11, 0x3d, 0xe3, 0x21, 0x80, 0x3d, 0xf0, 0x3b, 0x3f, 0xbe, 0x41, 0xde, 0x6f, 0xbd, 0xc6, 0xa4, 0x1f, 0xbe, 0x2b, 0x8c, 0xc0, 0x3d, 0x8d, 0x85, 0x16, 0xbb, 0x8c, 0x04, 0x5b, 0xbe, 0x0a, 0xd0, 0x84, 0x3d, 0xaf, 0x2c, 0xa1, 0xbe, 0xd0, 0x2f, 0x80, 0xbe, 0xd0, 0xfc, 0x90, 0xbc, 0x39, 0xeb, 0x91, 0xbd, 0xd2, 0x7f, 0x65, 0xbd, 0x21, 0x7b, 0x40, 0x3e, 0x62, 0xe8, 0xe1, 0x3d, 0x2d, 0x9e, 0xad, 0x3d, 0xe4, 0x8a, 0x4b, 0xbc, 0x7c, 0x87, 0x12, 0x3e, 0xa2, 0xf2, 0xb3, 0x3c, 0xee, 0x4e, 0x77, 0x3e, 0x0b, 0x76, 0x9f, 0xbd, 0x19, 0xf0, 0x27, 0xbe, 0x19, 0xdc, 0xb6, 0xbb, 0xea, 0x26, 0xf7, 0x3d, 0xf9, 0xd3, 0xc4, 0xbd, 0xb3, 0x76, 0x81, 0x3e, 0x74, 0xf2, 0xc6, 0xbb, 0x41, 0x9a, 0x73, 0x3d, 0xe9, 0x83, 0x4f, 0x3d, 0x97, 0x12, 0x96, 0x3e, 0xa0, 0x82, 0xc3, 0xbc, 0x28, 0xda, 0x51, 0x3e, 0x22, 0xde, 0x8a, 0x3e, 0x1b, 0xe5, 0x4d, 0xbe, 0x40, 0x2c, 0xaf, 0x3e, 0x8a, 0x2a, 0x93, 0xbe, 0xac, 0xa3, 0xa4, 0xbe, 0xe0, 0x11, 0x81, 0x3d, 0xe2, 0xdf, 0x09, 0xbe, 0x74, 0x25, 0x6c, 0x3d, 0x7e, 0x5d, 0x9d, 0x3e, 0xf5, 0x5d, 0x0a, 0x3e, 0x79, 0x0f, 0x50, 0xbd, 0xd1, 0xc5, 0x12, 0xbe, 0x89, 0x9d, 0x27, 0x3d, 0x1d, 0x7f, 0x56, 0x3e, 0x27, 0x91, 0xa8, 0xbd, 0x4c, 0x9d, 0x0e, 0x3e, 0xbd, 0xd6, 0x4d, 0x3e, 0x57, 0x0c, 0x1f, 0x3e, 0xf3, 0xfc, 0x02, 0x3e, 0x8a, 0x0a, 0xa8, 0xbc, 0x38, 0x3f, 0x44, 0xbe, 0x1b, 0x2d, 0x61, 0x3d, 0x2e, 0xf4, 0x45, 0x3d, 0x91, 0x9b, 0x93, 0x3a, 0x3f, 0x7e, 0x23, 0x3e, 0xbf, 0x01, 0x18, 0xbe, 0x8b, 0x68, 0x7d, 0x3e, 0x97, 0x60, 0xde, 0x3d, 0x82, 0x42, 0x57, 0xbd, 0x7d, 0x34, 0x27, 0x3e, 0x5c, 0x8b, 0x4d, 0x3d, 0xda, 0x96, 0x80, 0xbd, 0x2b, 0x81, 0xfb, 0xbd, 0x12, 0x3b, 0x8d, 0x3d, 0xa9, 0x04, 0x97, 0xbe, 0xc4, 0xbc, 0x69, 0x3e, 0xe5, 0x14, 0x54, 0xbe, 0x2f, 0x6e, 0x25, 0x3e, 0x0b, 0x63, 0x8c, 0xbc, 0x8d, 0x8e, 0x83, 0x3e, 0x7a, 0x23, 0x32, 0x3d, 0xa9, 0xbc, 0xfc, 0xbd, 0x85, 0x2f, 0x96, 0x3b, 0x07, 0x4d, 0xdd, 0xbc, 0x62, 0xf6, 0x82, 0x3d, 0x8b, 0x55, 0x62, 0x3e, 0xfe, 0x29, 0x73, 0xbd, 0xdd, 0xcd, 0x88, 0x3e, 0x75, 0xf8, 0x8d, 0xbd, 0x2d, 0x06, 0xd2, 0x3d, 0x1d, 0x93, 0xf5, 0x3d, 0x8b, 0x5f, 0xb3, 0x3d, 0x2f, 0xc5, 0xcd, 0xbd, 0xa1, 0xbe, 0x04, 0xbe, 0x15, 0x63, 0xef, 0xbd, 0x0a, 0x2e, 0xfe, 0xbc, 0xb4, 0x43, 0x20, 0x3d, 0xc5, 0x34, 0x81, 0x3d, 0x96, 0xb8, 0xa5, 0xbd, 0xee, 0x04, 0x8a, 0xbd, 0xe1, 0xc3, 0xeb, 0x3e, 0xf8, 0x40, 0xc7, 0xbd, 0xc0, 0x0b, 0x24, 0x3e, 0x4d, 0x90, 0x13, 0xbe, 0xed, 0xb6, 0x9a, 0xbe, 0x59, 0x9f, 0x04, 0x3e, 0x0d, 0x90, 0xa4, 0xbe, 0x37, 0x7d, 0xd5, 0xbd, 0x7f, 0x52, 0x29, 0x3e, 0x6c, 0xde, 0x26, 0x3e, 0x1d, 0xd6, 0xb5, 0xbc, 0x69, 0xd9, 0x4c, 0x3e, 0xaf, 0x2d, 0xe4, 0x3d, 0x9a, 0xc1, 0x5a, 0xbe, 0xfe, 0xba, 0x52, 0x3c, 0x2a, 0x1a, 0x96, 0x3e, 0xf9, 0x67, 0xc7, 0x3d, 0x15, 0x51, 0x85, 0x3d, 0x57, 0xca, 0xdd, 0xbc, 0x2f, 0x16, 0xc1, 0x3b, 0x5d, 0x0a, 0xb4, 0xbd, 0x5f, 0xfa, 0x6f, 0xbe, 0xfb, 0xd4, 0x00, 0xbe, 0xf5, 0xf2, 0x8b, 0x3c, 0x57, 0x53, 0x14, 0xbd, 0x62, 0xfb, 0xff, 0xff, 0x04, 0x00, 0x00, 0x00, 0x84, 0x03, 0x00, 0x00, 0xe7, 0x8e, 0x3d, 0xbc, 0x1b, 0x93, 0xf2, 0x3d, 0x95, 0x93, 0xdd, 0xbd, 0xc3, 0xc7, 0x21, 0xbe, 0x21, 0x4f, 0x2f, 0xbe, 0xd3, 0x2e, 0xda, 0x3e, 0xa8, 0x6d, 0x90, 0x3a, 0x91, 0x58, 0x9a, 0x3d, 0x6c, 0x59, 0x06, 0xbd, 0x09, 0x92, 0xbd, 0xbd, 0x53, 0xd9, 0x0e, 0xbd, 0xde, 0x0f, 0xe9, 0xbd, 0x34, 0x76, 0xe3, 0x3d, 0x3f, 0x8b, 0x46, 0xbb, 0xd9, 0x07, 0xcd, 0xbd, 0x7b, 0xeb, 0xeb, 0x3c, 0x8d, 0xf6, 0x19, 0xbe, 0x90, 0x2e, 0x75, 0xbd, 0x1c, 0x37, 0x51, 0x3d, 0xff, 0xce, 0xd3, 0x3d, 0xa7, 0xb8, 0x8b, 0xbd, 0xaf, 0x17, 0xde, 0x3d, 0x53, 0xfe, 0x4c, 0x3e, 0x10, 0xd3, 0x53, 0x3e, 0xa3, 0xb2, 0xa7, 0xbd, 0x3b, 0x02, 0x55, 0x3d, 0x03, 0x09, 0xe8, 0x3c, 0xcb, 0x3a, 0xf1, 0xbd, 0xf3, 0x1f, 0x47, 0xbe, 0xfa, 0xa4, 0x81, 0x3d, 0x0c, 0x96, 0x9f, 0x3e, 0x0b, 0x83, 0x12, 0x3f, 0x16, 0xba, 0x5b, 0x3d, 0xb3, 0x6f, 0x61, 0x3e, 0x5a, 0xf6, 0x8f, 0x3e, 0xbc, 0x9b, 0xf7, 0x3e, 0x18, 0xea, 0xa6, 0x3e, 0xe5, 0xea, 0xf5, 0xbd, 0xfc, 0xb6, 0x27, 0x3d, 0x21, 0x4d, 0x7d, 0xbe, 0x9d, 0x6d, 0x8b, 0xbe, 0xa2, 0x34, 0xd8, 0x3e, 0x78, 0xbd, 0xb0, 0x3e, 0x9d, 0xce, 0x5e, 0x3d, 0x9d, 0x02, 0x2f, 0xbe, 0xe1, 0xb0, 0xdd, 0x3d, 0xc1, 0xab, 0xfe, 0x3d, 0x0e, 0xa6, 0xde, 0xbd, 0xa3, 0xdb, 0xba, 0x3e, 0xac, 0x1e, 0x17, 0x3e, 0xa0, 0x30, 0xa0, 0x3e, 0x7b, 0x05, 0x32, 0x3e, 0x1d, 0xab, 0x5a, 0xbe, 0xda, 0xea, 0x16, 0xbe, 0x28, 0xf6, 0x12, 0xbe, 0x74, 0xe8, 0xa9, 0xbe, 0x90, 0xad, 0x86, 0x3d, 0x60, 0xdb, 0x39, 0x3d, 0x43, 0x72, 0x1a, 0x3e, 0x06, 0x96, 0x1e, 0x3d, 0x70, 0xc9, 0x9b, 0x3d, 0x35, 0x03, 0x84, 0x3c, 0x58, 0xd2, 0xb5, 0xbd, 0xd4, 0x45, 0xbd, 0x3e, 0x3f, 0x36, 0x87, 0x3e, 0x09, 0xb3, 0x7e, 0x3e, 0x9f, 0x2a, 0x09, 0xbd, 0x6a, 0x8d, 0xb2, 0xbc, 0x5f, 0xc0, 0x91, 0x3d, 0xd0, 0x4c, 0x1e, 0xbd, 0xde, 0xd8, 0x63, 0x3e, 0x19, 0x15, 0xc5, 0x3e, 0x11, 0xad, 0x8b, 0x3e, 0x24, 0xff, 0xc8, 0xbd, 0x35, 0xca, 0x85, 0xbe, 0x83, 0x3a, 0xed, 0x3e, 0xe1, 0x07, 0xde, 0x3e, 0xf4, 0x70, 0xa9, 0xbd, 0xf0, 0x63, 0xf5, 0x3e, 0x61, 0x35, 0xc5, 0x3e, 0xc7, 0x4c, 0x0a, 0x3e, 0x7d, 0xb0, 0xd9, 0x3e, 0x77, 0x37, 0x1e, 0xbe, 0xb5, 0x95, 0x9e, 0x3e, 0x6f, 0x46, 0x9d, 0xbd, 0x89, 0xc0, 0x15, 0xbf, 0xda, 0x34, 0xc7, 0x3e, 0x5a, 0x97, 0xac, 0x3e, 0xd3, 0x5f, 0xbf, 0x3e, 0x58, 0xc1, 0x00, 0xbf, 0xf6, 0x14, 0x32, 0x3e, 0x3a, 0xc1, 0xaf, 0xbc, 0xfb, 0x1d, 0xde, 0x3c, 0xf2, 0xa6, 0x82, 0x3d, 0xd7, 0xe1, 0xb4, 0x3e, 0xd8, 0x6e, 0xa6, 0x3d, 0x17, 0xb2, 0x4d, 0x3c, 0xfa, 0xbe, 0xab, 0x3d, 0x72, 0x51, 0x83, 0xbd, 0xda, 0x1a, 0x35, 0x3d, 0x97, 0xa7, 0xaa, 0xbe, 0xf0, 0x29, 0x72, 0x3d, 0x4e, 0xb7, 0x52, 0x3e, 0x9c, 0x50, 0x1f, 0x3e, 0x5d, 0x41, 0x4b, 0xbc, 0xfc, 0x5d, 0x0e, 0x3e, 0xb4, 0x4c, 0xab, 0x3e, 0x23, 0x17, 0xca, 0xba, 0x2f, 0x3c, 0x4f, 0x3e, 0xa0, 0xe7, 0x8c, 0xbe, 0x1c, 0x74, 0xd8, 0xbc, 0x46, 0x7e, 0x43, 0xbe, 0x77, 0xea, 0x37, 0x3d, 0x9a, 0x2e, 0x19, 0xbc, 0xcb, 0x27, 0xb5, 0xbd, 0x73, 0x04, 0xac, 0x3d, 0xbc, 0x4f, 0x21, 0xbd, 0x06, 0x33, 0x0b, 0x3e, 0x53, 0x70, 0x56, 0x3e, 0x00, 0x31, 0x40, 0x3d, 0x61, 0xbd, 0xa3, 0x3d, 0x8d, 0xdc, 0xe8, 0xbd, 0x61, 0x8d, 0xdb, 0x3c, 0xa2, 0x40, 0x5c, 0x3e, 0x80, 0x81, 0x88, 0xbe, 0x8a, 0xc4, 0x59, 0x3e, 0x3b, 0x1d, 0x1e, 0x3e, 0xf3, 0x4d, 0x32, 0xbd, 0xe5, 0x96, 0xc6, 0x3d, 0x71, 0x9c, 0x89, 0xbe, 0x7d, 0x98, 0xe3, 0xbd, 0x5d, 0xbf, 0x7e, 0x3d, 0xe5, 0xda, 0xc3, 0x3c, 0xae, 0xb8, 0x63, 0x39, 0x94, 0x15, 0xd4, 0xbc, 0x2b, 0xeb, 0x6c, 0x3f, 0x97, 0xa0, 0xa2, 0x3f, 0xf3, 0x7f, 0x12, 0xbf, 0x19, 0xd5, 0x46, 0x3f, 0x55, 0xe9, 0x74, 0x3f, 0x75, 0x25, 0x0b, 0x3f, 0x7c, 0x53, 0x81, 0x3f, 0x49, 0xf9, 0xd6, 0xbe, 0xbe, 0xba, 0x46, 0x3f, 0xac, 0x1e, 0xaa, 0xbd, 0x48, 0x1a, 0x83, 0xbf, 0xcf, 0x66, 0x4f, 0x3f, 0xa4, 0x34, 0x74, 0x3f, 0x1f, 0x69, 0x26, 0x3f, 0x95, 0x4a, 0x90, 0xbf, 0x30, 0xef, 0xc2, 0x3a, 0x83, 0x93, 0x25, 0x3e, 0x13, 0x90, 0xd6, 0xbb, 0xe7, 0xf6, 0xa5, 0x3d, 0xe2, 0xe6, 0x5c, 0x3e, 0x51, 0x98, 0x53, 0x3d, 0x51, 0x63, 0x3f, 0x3e, 0xa0, 0x22, 0xb5, 0xbd, 0x48, 0x41, 0x93, 0x3d, 0x69, 0x70, 0xa7, 0xbb, 0x1d, 0x57, 0xd5, 0x3d, 0x63, 0xa2, 0x07, 0xbd, 0xce, 0x97, 0x43, 0xbe, 0xa4, 0x06, 0x9b, 0x3e, 0x92, 0x9f, 0xed, 0xbd, 0xe3, 0x98, 0xf4, 0x3e, 0xae, 0xea, 0xec, 0x3d, 0xe6, 0x5f, 0xed, 0x3d, 0x8f, 0xba, 0x41, 0x3e, 0x34, 0xfd, 0x02, 0x3d, 0x2f, 0x91, 0x89, 0x3e, 0xe5, 0x60, 0xa1, 0xbd, 0x2c, 0xb8, 0x9e, 0xbd, 0x26, 0xd0, 0x8d, 0x3e, 0xf4, 0x67, 0x67, 0xbd, 0xb5, 0x5a, 0x50, 0xbe, 0xe7, 0xfa, 0xdc, 0x3c, 0x71, 0xce, 0x92, 0x3e, 0x1c, 0xd5, 0xf2, 0x3d, 0xcb, 0x90, 0x2e, 0xbd, 0xe1, 0xb7, 0x34, 0x3e, 0x30, 0x8b, 0x9e, 0x3d, 0x4d, 0xc5, 0x18, 0xbe, 0xee, 0x9d, 0x21, 0xbe, 0x28, 0x35, 0x13, 0xbe, 0xfa, 0xcc, 0x9e, 0x3e, 0xda, 0x43, 0x0a, 0x3e, 0x2b, 0xf4, 0xa8, 0x3c, 0xd3, 0x85, 0x18, 0xbe, 0xf4, 0x00, 0x6a, 0xbe, 0xbb, 0x66, 0xda, 0x3c, 0x19, 0x24, 0xe3, 0x3d, 0x48, 0x61, 0xea, 0x3d, 0xc1, 0xb4, 0xd2, 0xbd, 0x59, 0xd8, 0x08, 0xbe, 0x8b, 0xd8, 0xdb, 0x3e, 0x6d, 0xc3, 0x39, 0x3f, 0x5b, 0x48, 0xf1, 0xbe, 0x7b, 0x0f, 0xe6, 0x3e, 0x84, 0x55, 0x08, 0x3f, 0xf2, 0x46, 0xa1, 0x3e, 0x37, 0xae, 0x18, 0x3f, 0xc6, 0x91, 0x45, 0xbe, 0x15, 0xa5, 0x36, 0x3f, 0x97, 0x0a, 0x3c, 0x3e, 0xe7, 0x0c, 0x35, 0xbf, 0x0a, 0x06, 0x0e, 0x3f, 0xb3, 0x09, 0x13, 0x3f, 0xb3, 0xbb, 0x0d, 0x3f, 0x1d, 0xd6, 0x13, 0xbf, 0x30, 0x85, 0xdb, 0x3c, 0x4f, 0x7d, 0x7c, 0x3d, 0xbf, 0x8f, 0x4d, 0x3c, 0xda, 0x0c, 0x46, 0xbb, 0x36, 0xe4, 0xa2, 0xbc, 0x19, 0xf3, 0xa9, 0x3e, 0x3c, 0x23, 0x24, 0x3c, 0x61, 0x03, 0xbf, 0xbd, 0x10, 0x1c, 0xf5, 0x3d, 0xe7, 0x48, 0x0c, 0xbd, 0x3c, 0xf5, 0xca, 0xbd, 0x2a, 0x8a, 0x80, 0xbb, 0xbf, 0x9f, 0xe8, 0x3d, 0xcb, 0xc0, 0xc2, 0x3d, 0xb3, 0x06, 0x04, 0xbe, 0xf2, 0xfe, 0xff, 0xff, 0x04, 0x00, 0x00, 0x00, 0x04, 0x00, 0x00, 0x00, 0x98, 0x7a, 0xa3, 0x3c, 0x02, 0xff, 0xff, 0xff, 0x04, 0x00, 0x00, 0x00, 0xf0, 0x00, 0x00, 0x00, 0x00, 0x00, 0x00, 0x00, 0x00, 0x00, 0x00, 0x00, 0x00, 0x00, 0x00, 0x00, 0x00, 0x00, 0x00, 0x00, 0x00, 0x00, 0x00, 0x00, 0x00, 0x00, 0x00, 0x00, 0x00, 0x00, 0x00, 0x00, 0x00, 0x00, 0x00, 0x00, 0x00, 0x00, 0x00, 0x00, 0x00, 0x00, 0x00, 0x00, 0x00, 0x00, 0x00, 0x00, 0x00, 0x00, 0x00, 0x00, 0x00, 0x00, 0x00, 0x00, 0x00, 0x00, 0x00, 0x00, 0x00, 0x00, 0x00, 0x00, 0x00, 0x00, 0x00, 0x00, 0x00, 0x00, 0x00, 0x00, 0x00, 0x00, 0x00, 0x00, 0x00, 0x00, 0x00, 0x00, 0x00, 0x00, 0x00, 0x00, 0x00, 0x00, 0x00, 0x00, 0x00, 0x00, 0x00, 0x00, 0x00, 0x00, 0x00, 0x00, 0x00, 0x00, 0x00, 0x00, 0x00, 0x00, 0x00, 0x00, 0x00, 0x00, 0x00, 0x00, 0x00, 0x00, 0x00, 0x00, 0x00, 0x00, 0x00, 0x00, 0x00, 0x00, 0x00, 0x00, 0x00, 0x00, 0x00, 0x00, 0x00, 0x00, 0x00, 0x00, 0x00, 0x00, 0x00, 0x00, 0x00, 0x00, 0x00, 0x00, 0x00, 0x00, 0x00, 0x00, 0x00, 0x00, 0x00, 0x00, 0x00, 0x00, 0x00, 0x00, 0x00, 0x00, 0x00, 0x00, 0x00, 0x00, 0x00, 0x00, 0x00, 0x00, 0x00, 0x00, 0x00, 0x00, 0x00, 0x00, 0x00, 0x00, 0x00, 0x00, 0x00, 0x00, 0x00, 0x00, 0x00, 0x00, 0x00, 0x00, 0x00, 0x00, 0x00, 0x00, 0x00, 0x00, 0x00, 0x00, 0x00, 0x00, 0x00, 0x00, 0x00, 0x00, 0x00, 0x00, 0x00, 0x00, 0x00, 0x00, 0x00, 0x00, 0x00, 0x00, 0x00, 0x00, 0x00, 0x00, 0x00, 0x00, 0x00, 0x00, 0x00, 0x00, 0x00, 0x00, 0x00, 0x00, 0x00, 0x00, 0x00, 0x00, 0x00, 0x00, 0x00, 0x00, 0x00, 0x00, 0x00, 0x00, 0x00, 0x00, 0x00, 0x00, 0x00, 0x00, 0x00, 0x00, 0x00, 0x00, 0x00, 0x00, 0x00, 0x00, 0x00, 0x00, 0x00, 0x00, 0x00, 0x00, 0x06, 0x00, 0x08, 0x00, 0x04, 0x00, 0x06, 0x00, 0x00, 0x00, 0x04, 0x00, 0x00, 0x00, 0xa0, 0x00, 0x00, 0x00, 0x00, 0x00, 0x00, 0x00, 0x00, 0x00, 0x00, 0x00, 0x00, 0x00, 0x00, 0x00, 0x00, 0x00, 0x00, 0x00, 0x00, 0x00, 0x00, 0x00, 0x00, 0x00, 0x00, 0x00, 0x00, 0x00, 0x00, 0x00, 0x00, 0x00, 0x00, 0x00, 0x00, 0x00, 0x00, 0x00, 0x00, 0x00, 0x00, 0x00, 0x00, 0x00, 0x00, 0x00, 0x00, 0x00, 0x00, 0x00, 0x00, 0x00, 0x00, 0x00, 0x00, 0x00, 0x00, 0x00, 0x00, 0x00, 0x00, 0x00, 0x00, 0x00, 0x00, 0x00, 0x00, 0x00, 0x00, 0x00, 0x00, 0x00, 0x00, 0x00, 0x00, 0x00, 0x00, 0x00, 0x00, 0x00, 0x00, 0x00, 0x00, 0x00, 0x00, 0x00, 0x00, 0x00, 0x00, 0x00, 0x00, 0x00, 0x00, 0x00, 0x00, 0x00, 0x00, 0x00, 0x00, 0x00, 0x00, 0x00, 0x00, 0x00, 0x00, 0x00, 0x00, 0x00, 0x00, 0x00, 0x00, 0x00, 0x00, 0x00, 0x00, 0x00, 0x00, 0x00, 0x00, 0x00, 0x00, 0x00, 0x00, 0x00, 0x00, 0x00, 0x00, 0x00, 0x00, 0x00, 0x00, 0x00, 0x00, 0x00, 0x00, 0x00, 0x00, 0x00, 0x00, 0x00, 0x00, 0x00, 0x00, 0x00, 0x00, 0x00, 0x00, 0x00, 0x00, 0x00, 0x00, 0x00, 0x00, 0x00, 0x00, 0x00, 0x00, 0x00, 0x00, 0x00, 0x00, 0x00, 0x54, 0xf3, 0xff, 0xff, 0x58, 0xf3, 0xff, 0xff, 0x0f, 0x00, 0x00, 0x00, 0x4d, 0x4c, 0x49, 0x52, 0x20, 0x43, 0x6f, 0x6e, 0x76, 0x65, 0x72, 0x74, 0x65, 0x64, 0x2e, 0x00, 0x01, 0x00, 0x00, 0x00, 0x14, 0x00, 0x00, 0x00, 0x00, 0x00, 0x0e, 0x00, 0x18, 0x00, 0x14, 0x00, 0x10, 0x00, 0x0c, 0x00, 0x08, 0x00, 0x04, 0x00, 0x0e, 0x00, 0x00, 0x00, 0x14, 0x00, 0x00, 0x00, 0x1c, 0x00, 0x00, 0x00, 0x0c, 0x02, 0x00, 0x00, 0x10, 0x02, 0x00, 0x00, 0x14, 0x02, 0x00, 0x00, 0x04, 0x00, 0x00, 0x00, 0x6d, 0x61, 0x69, 0x6e, 0x00, 0x00, 0x00, 0x00, 0x04, 0x00, 0x00, 0x00, 0x54, 0x01, 0x00, 0x00, 0xa4, 0x00, 0x00, 0x00, 0x4c, 0x00, 0x00, 0x00, 0x04, 0x00, 0x00, 0x00, 0xca, 0xff, 0xff, 0xff, 0x14, 0x00, 0x00, 0x00, 0x00, 0x00, 0x00, 0x08, 0x10, 0x00, 0x00, 0x00, 0x14, 0x00, 0x00, 0x00, 0x02, 0x00, 0x00, 0x00, 0xd8, 0xf3, 0xff, 0xff, 0x01, 0x00, 0x00, 0x00, 0x25, 0x00, 0x00, 0x00, 0x03, 0x00, 0x00, 0x00, 0x24, 0x00, 0x00, 0x00, 0x1c, 0x00, 0x00, 0x00, 0x03, 0x00, 0x00, 0x00, 0x00, 0x00, 0x0e, 0x00, 0x1a, 0x00, 0x14, 0x00, 0x10, 0x00, 0x0c, 0x00, 0x0b, 0x00, 0x04, 0x00, 0x0e, 0x00, 0x00, 0x00, 0x24, 0x00, 0x00, 0x00, 0x00, 0x00, 0x00, 0x20, 0x2c, 0x00, 0x00, 0x00, 0x30, 0x00, 0x00, 0x00, 0x01, 0x00, 0x00, 0x00, 0x00, 0x00, 0x0e, 0x00, 0x10, 0x00, 0x0c, 0x00, 0x08, 0x00, 0x00, 0x00, 0x00, 0x00, 0x04, 0x00, 0x0e, 0x00, 0x00, 0x00, 0x02, 0x00, 0x00, 0x00, 0x05, 0x00, 0x00, 0x00, 0x05, 0x00, 0x00, 0x00, 0x01, 0x00, 0x00, 0x00, 0x24, 0x00, 0x00, 0x00, 0x04, 0x00, 0x00, 0x00, 0x23, 0x00, 0x00, 0x00, 0x1d, 0x00, 0x00, 0x00, 0x1e, 0x00, 0x00, 0x00, 0x1f, 0x00, 0x00, 0x00, 0x6a, 0xff, 0xff, 0xff, 0x14, 0x00, 0x00, 0x00, 0x14, 0x00, 0x00, 0x00, 0x00, 0x00, 0x00, 0x47, 0x18, 0x00, 0x00, 0x00, 0x1c, 0x00, 0x00, 0x00, 0x00, 0x00, 0x00, 0x00, 0x54, 0xff, 0xff, 0xff, 0x00, 0x00, 0x20, 0x41, 0x00, 0x00, 0x00, 0x04, 0x01, 0x00, 0x00, 0x00, 0x23, 0x00, 0x00, 0x00, 0x18, 0x00, 0x00, 0x00, 0x21, 0x00, 0x00, 0x00, 0x18, 0x00, 0x00, 0x00, 0x19, 0x00, 0x00, 0x00, 0x1a, 0x00, 0x00, 0x00, 0x1b, 0x00, 0x00, 0x00, 0x10, 0x00, 0x00, 0x00, 0x11, 0x00, 0x00, 0x00, 0x12, 0x00, 0x00, 0x00, 0x13, 0x00, 0x00, 0x00, 0xff, 0xff, 0xff, 0xff, 0xff, 0xff, 0xff, 0xff, 0xff, 0xff, 0xff, 0xff, 0x14, 0x00, 0x00, 0x00, 0x15, 0x00, 0x00, 0x00, 0x16, 0x00, 0x00, 0x00, 0x17, 0x00, 0x00, 0x00, 0xff, 0xff, 0xff, 0xff, 0xff, 0xff, 0xff, 0xff, 0x01, 0x00, 0x00, 0x00, 0x22, 0x00, 0x00, 0x00, 0xff, 0xff, 0xff, 0xff, 0xff, 0xff, 0xff, 0xff, 0xff, 0xff, 0xff, 0xff, 0xff, 0xff, 0xff, 0xff, 0x00, 0x00, 0x16, 0x00, 0x18, 0x00, 0x00, 0x00, 0x14, 0x00, 0x10, 0x00, 0x0f, 0x00, 0x08, 0x00, 0x00, 0x00, 0x00, 0x00, 0x00, 0x00, 0x04, 0x00, 0x16, 0x00, 0x00, 0x00, 0x14, 0x00, 0x00, 0x00, 0x1c, 0x00, 0x00, 0x00, 0x00, 0x00, 0x00, 0x47, 0x20, 0x00, 0x00, 0x00, 0x24, 0x00, 0x00, 0x00, 0x00, 0x00, 0x00, 0x00, 0x08, 0x00, 0x0c, 0x00, 0x0b, 0x00, 0x04, 0x00, 0x08, 0x00, 0x00, 0x00, 0x00, 0x00, 0x20, 0x41, 0x00, 0x00, 0x00, 0x04, 0x01, 0x00, 0x00, 0x00, 0x21, 0x00, 0x00, 0x00, 0x18, 0x00, 0x00, 0x00, 0x00, 0x00, 0x00, 0x00, 0x0c, 0x00, 0x00, 0x00, 0x0d, 0x00, 0x00, 0x00, 0x0e, 0x00, 0x00, 0x00, 0x0f, 0x00, 0x00, 0x00, 0x04, 0x00, 0x00, 0x00, 0x05, 0x00, 0x00, 0x00, 0x06, 0x00, 0x00, 0x00, 0x07, 0x00, 0x00, 0x00, 0xff, 0xff, 0xff, 0xff, 0xff, 0xff, 0xff, 0xff, 0xff, 0xff, 0xff, 0xff, 0x08, 0x00, 0x00, 0x00, 0x09, 0x00, 0x00, 0x00, 0x0a, 0x00, 0x00, 0x00, 0x0b, 0x00, 0x00, 0x00, 0xff, 0xff, 0xff, 0xff, 0xff, 0xff, 0xff, 0xff, 0x02, 0x00, 0x00, 0x00, 0x20, 0x00, 0x00, 0x00, 0xff, 0xff, 0xff, 0xff, 0xff, 0xff, 0xff, 0xff, 0xff, 0xff, 0xff, 0xff, 0xff, 0xff, 0xff, 0xff, 0x01, 0x00, 0x00, 0x00, 0x25, 0x00, 0x00, 0x00, 0x01, 0x00, 0x00, 0x00, 0x00, 0x00, 0x00, 0x00, 0x26, 0x00, 0x00, 0x00, 0x34, 0x0a, 0x00, 0x00, 0xd4, 0x09, 0x00, 0x00, 0x74, 0x09, 0x00, 0x00, 0x1c, 0x09, 0x00, 0x00, 0xdc, 0x08, 0x00, 0x00, 0x9c, 0x08, 0x00, 0x00, 0x5c, 0x08, 0x00, 0x00, 0x1c, 0x08, 0x00, 0x00, 0xe0, 0x07, 0x00, 0x00, 0xa4, 0x07, 0x00, 0x00, 0x68, 0x07, 0x00, 0x00, 0x2c, 0x07, 0x00, 0x00, 0xec, 0x06, 0x00, 0x00, 0xac, 0x06, 0x00, 0x00, 0x68, 0x06, 0x00, 0x00, 0x24, 0x06, 0x00, 0x00, 0xe0, 0x05, 0x00, 0x00, 0x9c, 0x05, 0x00, 0x00, 0x58, 0x05, 0x00, 0x00, 0x14, 0x05, 0x00, 0x00, 0xd4, 0x04, 0x00, 0x00, 0x94, 0x04, 0x00, 0x00, 0x54, 0x04, 0x00, 0x00, 0x14, 0x04, 0x00, 0x00, 0xd0, 0x03, 0x00, 0x00, 0x8c, 0x03, 0x00, 0x00, 0x48, 0x03, 0x00, 0x00, 0x04, 0x03, 0x00, 0x00, 0xb8, 0x02, 0x00, 0x00, 0x74, 0x02, 0x00, 0x00, 0x18, 0x02, 0x00, 0x00, 0xd4, 0x01, 0x00, 0x00, 0x8c, 0x01, 0x00, 0x00, 0x34, 0x01, 0x00, 0x00, 0xec, 0x00, 0x00, 0x00, 0x94, 0x00, 0x00, 0x00, 0x50, 0x00, 0x00, 0x00, 0x04, 0x00, 0x00, 0x00, 0x7a, 0xf6, 0xff, 0xff, 0x00, 0x00, 0x00, 0x01, 0x10, 0x00, 0x00, 0x00, 0x10, 0x00, 0x00, 0x00, 0x26, 0x00, 0x00, 0x00, 0x28, 0x00, 0x00, 0x00, 0x64, 0xf6, 0xff, 0xff, 0x19, 0x00, 0x00, 0x00, 0x53, 0x74, 0x61, 0x74, 0x65, 0x66, 0x75, 0x6c, 0x50, 0x61, 0x72, 0x74, 0x69, 0x74, 0x69, 0x6f, 0x6e, 0x65, 0x64, 0x43, 0x61, 0x6c, 0x6c, 0x3a, 0x30, 0x00, 0x00, 0x00, 0x02, 0x00, 0x00, 0x00, 0x04, 0x00, 0x00, 0x00, 0x01, 0x00, 0x00, 0x00, 0xc2, 0xf6, 0xff, 0xff, 0x00, 0x00, 0x00, 0x01, 0x10, 0x00, 0x00, 0x00, 0x10, 0x00, 0x00, 0x00, 0x25, 0x00, 0x00, 0x00, 0x20, 0x00, 0x00, 0x00, 0xac, 0xf6, 0xff, 0xff, 0x11, 0x00, 0x00, 0x00, 0x74, 0x66, 0x6c, 0x2e, 0x73, 0x74, 0x72, 0x69, 0x64, 0x65, 0x64, 0x5f, 0x73, 0x6c, 0x69, 0x63, 0x65, 0x00, 0x00, 0x00, 0x02, 0x00, 0x00, 0x00, 0x04, 0x00, 0x00, 0x00, 0x0a, 0x00, 0x00, 0x00, 0x02, 0xf7, 0xff, 0xff, 0x00, 0x00, 0x00, 0x01, 0x10, 0x00, 0x00, 0x00, 0x10, 0x00, 0x00, 0x00, 0x24, 0x00, 0x00, 0x00, 0x30, 0x00, 0x00, 0x00, 0xec, 0xf6, 0xff, 0xff, 0x21, 0x00, 0x00, 0x00, 0x74, 0x66, 0x6c, 0x2e, 0x75, 0x6e, 0x69, 0x64, 0x69, 0x72, 0x65, 0x63, 0x74, 0x69, 0x6f, 0x6e, 0x61, 0x6c, 0x5f, 0x73, 0x65, 0x71, 0x75, 0x65, 0x6e, 0x63, 0x65, 0x5f, 0x6c, 0x73, 0x74, 0x6d, 0x31, 0x00, 0x00, 0x00, 0x03, 0x00, 0x00, 0x00, 0x04, 0x00, 0x00, 0x00, 0x05, 0x00, 0x00, 0x00, 0x0a, 0x00, 0x00, 0x00, 0xb2, 0xf7, 0xff, 0xff, 0x00, 0x00, 0x01, 0x01, 0x0c, 0x00, 0x00, 0x00, 0x0c, 0x00, 0x00, 0x00, 0x28, 0x00, 0x00, 0x00, 0x3c, 0xf7, 0xff, 0xff, 0x1a, 0x00, 0x00, 0x00, 0x73, 0x65, 0x71, 0x75, 0x65, 0x6e, 0x74, 0x69, 0x61, 0x6c, 0x5f, 0x32, 0x2f, 0x6c, 0x73, 0x74, 0x6d, 0x5f, 0x33, 0x2f, 0x7a, 0x65, 0x72, 0x6f, 0x73, 0x31, 0x00, 0x00, 0x02, 0x00, 0x00, 0x00, 0x04, 0x00, 0x00, 0x00, 0x0a, 0x00, 0x00, 0x00, 0x9a, 0xf7, 0xff, 0xff, 0x00, 0x00, 0x00, 0x01, 0x10, 0x00, 0x00, 0x00, 0x10, 0x00, 0x00, 0x00, 0x22, 0x00, 0x00, 0x00, 0x30, 0x00, 0x00, 0x00, 0x84, 0xf7, 0xff, 0xff, 0x20, 0x00, 0x00, 0x00, 0x74, 0x66, 0x6c, 0x2e, 0x75, 0x6e, 0x69, 0x64, 0x69, 0x72, 0x65, 0x63, 0x74, 0x69, 0x6f, 0x6e, 0x61, 0x6c, 0x5f, 0x73, 0x65, 0x71, 0x75, 0x65, 0x6e, 0x63, 0x65, 0x5f, 0x6c, 0x73, 0x74, 0x6d, 0x00, 0x00, 0x00, 0x00, 0x03, 0x00, 0x00, 0x00, 0x04, 0x00, 0x00, 0x00, 0x05, 0x00, 0x00, 0x00, 0x0f, 0x00, 0x00, 0x00, 0x4a, 0xf8, 0xff, 0xff, 0x00, 0x00, 0x01, 0x01, 0x0c, 0x00, 0x00, 0x00, 0x0c, 0x00, 0x00, 0x00, 0x28, 0x00, 0x00, 0x00, 0xd4, 0xf7, 0xff, 0xff, 0x1a, 0x00, 0x00, 0x00, 0x73, 0x65, 0x71, 0x75, 0x65, 0x6e, 0x74, 0x69, 0x61, 0x6c, 0x5f, 0x32, 0x2f, 0x6c, 0x73, 0x74, 0x6d, 0x5f, 0x32, 0x2f, 0x7a, 0x65, 0x72, 0x6f, 0x73, 0x31, 0x00, 0x00, 0x02, 0x00, 0x00, 0x00, 0x04, 0x00, 0x00, 0x00, 0x0f, 0x00, 0x00, 0x00, 0x7e, 0xff, 0xff, 0xff, 0x00, 0x00, 0x00, 0x01, 0x14, 0x00, 0x00, 0x00, 0x14, 0x00, 0x00, 0x00, 0x20, 0x00, 0x00, 0x00, 0x00, 0x00, 0x00, 0x02, 0x20, 0x00, 0x00, 0x00, 0x20, 0xf8, 0xff, 0xff, 0x10, 0x00, 0x00, 0x00, 0x61, 0x72, 0x69, 0x74, 0x68, 0x2e, 0x63, 0x6f, 0x6e, 0x73, 0x74, 0x61, 0x6e, 0x74, 0x32, 0x36, 0x00, 0x00, 0x00, 0x00, 0x01, 0x00, 0x00, 0x00, 0x03, 0x00, 0x00, 0x00, 0xbe, 0xff, 0xff, 0xff, 0x00, 0x00, 0x00, 0x01, 0x14, 0x00, 0x00, 0x00, 0x14, 0x00, 0x00, 0x00, 0x1f, 0x00, 0x00, 0x00, 0x00, 0x00, 0x00, 0x02, 0x20, 0x00, 0x00, 0x00, 0x60, 0xf8, 0xff, 0xff, 0x10, 0x00, 0x00, 0x00, 0x61, 0x72, 0x69, 0x74, 0x68, 0x2e, 0x63, 0x6f, 0x6e, 0x73, 0x74, 0x61, 0x6e, 0x74, 0x32, 0x35, 0x00, 0x00, 0x00, 0x00, 0x01, 0x00, 0x00, 0x00, 0x03, 0x00, 0x00, 0x00, 0x00, 0x00, 0x16, 0x00, 0x1c, 0x00, 0x18, 0x00, 0x17, 0x00, 0x10, 0x00, 0x0c, 0x00, 0x08, 0x00, 0x00, 0x00, 0x00, 0x00, 0x00, 0x00, 0x07, 0x00, 0x16, 0x00, 0x00, 0x00, 0x00, 0x00, 0x00, 0x01, 0x14, 0x00, 0x00, 0x00, 0x14, 0x00, 0x00, 0x00, 0x1e, 0x00, 0x00, 0x00, 0x00, 0x00, 0x00, 0x02, 0x20, 0x00, 0x00, 0x00, 0xb8, 0xf8, 0xff, 0xff, 0x10, 0x00, 0x00, 0x00, 0x61, 0x72, 0x69, 0x74, 0x68, 0x2e, 0x63, 0x6f, 0x6e, 0x73, 0x74, 0x61, 0x6e, 0x74, 0x32, 0x34, 0x00, 0x00, 0x00, 0x00, 0x01, 0x00, 0x00, 0x00, 0x03, 0x00, 0x00, 0x00, 0x0a, 0xf9, 0xff, 0xff, 0x00, 0x00, 0x00, 0x01, 0x10, 0x00, 0x00, 0x00, 0x10, 0x00, 0x00, 0x00, 0x1d, 0x00, 0x00, 0x00, 0x28, 0x00, 0x00, 0x00, 0xf4, 0xf8, 0xff, 0xff, 0x1b, 0x00, 0x00, 0x00, 0x73, 0x65, 0x71, 0x75, 0x65, 0x6e, 0x74, 0x69, 0x61, 0x6c, 0x5f, 0x32, 0x2f, 0x64, 0x65, 0x6e, 0x73, 0x65, 0x5f, 0x32, 0x2f, 0x4d, 0x61, 0x74, 0x4d, 0x75, 0x6c, 0x00, 0x02, 0x00, 0x00, 0x00, 0x01, 0x00, 0x00, 0x00, 0x0a, 0x00, 0x00, 0x00, 0x52, 0xf9, 0xff, 0xff, 0x00, 0x00, 0x00, 0x01, 0x10, 0x00, 0x00, 0x00, 0x10, 0x00, 0x00, 0x00, 0x1c, 0x00, 0x00, 0x00, 0x20, 0x00, 0x00, 0x00, 0x3c, 0xf9, 0xff, 0xff, 0x10, 0x00, 0x00, 0x00, 0x61, 0x72, 0x69, 0x74, 0x68, 0x2e, 0x63, 0x6f, 0x6e, 0x73, 0x74, 0x61, 0x6e, 0x74, 0x32, 0x33, 0x00, 0x00, 0x00, 0x00, 0x02, 0x00, 0x00, 0x00, 0x0a, 0x00, 0x00, 0x00, 0x0f, 0x00, 0x00, 0x00, 0x92, 0xf9, 0xff, 0xff, 0x00, 0x00, 0x00, 0x01, 0x10, 0x00, 0x00, 0x00, 0x10, 0x00, 0x00, 0x00, 0x1b, 0x00, 0x00, 0x00, 0x20, 0x00, 0x00, 0x00, 0x7c, 0xf9, 0xff, 0xff, 0x10, 0x00, 0x00, 0x00, 0x61, 0x72, 0x69, 0x74, 0x68, 0x2e, 0x63, 0x6f, 0x6e, 0x73, 0x74, 0x61, 0x6e, 0x74, 0x32, 0x32, 0x00, 0x00, 0x00, 0x00, 0x02, 0x00, 0x00, 0x00, 0x0a, 0x00, 0x00, 0x00, 0x0f, 0x00, 0x00, 0x00, 0xd2, 0xf9, 0xff, 0xff, 0x00, 0x00, 0x00, 0x01, 0x10, 0x00, 0x00, 0x00, 0x10, 0x00, 0x00, 0x00, 0x1a, 0x00, 0x00, 0x00, 0x20, 0x00, 0x00, 0x00, 0xbc, 0xf9, 0xff, 0xff, 0x10, 0x00, 0x00, 0x00, 0x61, 0x72, 0x69, 0x74, 0x68, 0x2e, 0x63, 0x6f, 0x6e, 0x73, 0x74, 0x61, 0x6e, 0x74, 0x32, 0x31, 0x00, 0x00, 0x00, 0x00, 0x02, 0x00, 0x00, 0x00, 0x0a, 0x00, 0x00, 0x00, 0x0f, 0x00, 0x00, 0x00, 0x12, 0xfa, 0xff, 0xff, 0x00, 0x00, 0x00, 0x01, 0x10, 0x00, 0x00, 0x00, 0x10, 0x00, 0x00, 0x00, 0x19, 0x00, 0x00, 0x00, 0x20, 0x00, 0x00, 0x00, 0xfc, 0xf9, 0xff, 0xff, 0x10, 0x00, 0x00, 0x00, 0x61, 0x72, 0x69, 0x74, 0x68, 0x2e, 0x63, 0x6f, 0x6e, 0x73, 0x74, 0x61, 0x6e, 0x74, 0x32, 0x30, 0x00, 0x00, 0x00, 0x00, 0x02, 0x00, 0x00, 0x00, 0x0a, 0x00, 0x00, 0x00, 0x0f, 0x00, 0x00, 0x00, 0x52, 0xfa, 0xff, 0xff, 0x00, 0x00, 0x00, 0x01, 0x10, 0x00, 0x00, 0x00, 0x10, 0x00, 0x00, 0x00, 0x18, 0x00, 0x00, 0x00, 0x20, 0x00, 0x00, 0x00, 0x3c, 0xfa, 0xff, 0xff, 0x10, 0x00, 0x00, 0x00, 0x61, 0x72, 0x69, 0x74, 0x68, 0x2e, 0x63, 0x6f, 0x6e, 0x73, 0x74, 0x61, 0x6e, 0x74, 0x31, 0x39, 0x00, 0x00, 0x00, 0x00, 0x01, 0x00, 0x00, 0x00, 0x0a, 0x00, 0x00, 0x00, 0x8e, 0xfa, 0xff, 0xff, 0x00, 0x00, 0x00, 0x01, 0x10, 0x00, 0x00, 0x00, 0x10, 0x00, 0x00, 0x00, 0x17, 0x00, 0x00, 0x00, 0x20, 0x00, 0x00, 0x00, 0x78, 0xfa, 0xff, 0xff, 0x10, 0x00, 0x00, 0x00, 0x61, 0x72, 0x69, 0x74, 0x68, 0x2e, 0x63, 0x6f, 0x6e, 0x73, 0x74, 0x61, 0x6e, 0x74, 0x31, 0x38, 0x00, 0x00, 0x00, 0x00, 0x01, 0x00, 0x00, 0x00, 0x0a, 0x00, 0x00, 0x00, 0xca, 0xfa, 0xff, 0xff, 0x00, 0x00, 0x00, 0x01, 0x10, 0x00, 0x00, 0x00, 0x10, 0x00, 0x00, 0x00, 0x16, 0x00, 0x00, 0x00, 0x20, 0x00, 0x00, 0x00, 0xb4, 0xfa, 0xff, 0xff, 0x10, 0x00, 0x00, 0x00, 0x61, 0x72, 0x69, 0x74, 0x68, 0x2e, 0x63, 0x6f, 0x6e, 0x73, 0x74, 0x61, 0x6e, 0x74, 0x31, 0x37, 0x00, 0x00, 0x00, 0x00, 0x01, 0x00, 0x00, 0x00, 0x0a, 0x00, 0x00, 0x00, 0x06, 0xfb, 0xff, 0xff, 0x00, 0x00, 0x00, 0x01, 0x10, 0x00, 0x00, 0x00, 0x10, 0x00, 0x00, 0x00, 0x15, 0x00, 0x00, 0x00, 0x20, 0x00, 0x00, 0x00, 0xf0, 0xfa, 0xff, 0xff, 0x10, 0x00, 0x00, 0x00, 0x61, 0x72, 0x69, 0x74, 0x68, 0x2e, 0x63, 0x6f, 0x6e, 0x73, 0x74, 0x61, 0x6e, 0x74, 0x31, 0x36, 0x00, 0x00, 0x00, 0x00, 0x01, 0x00, 0x00, 0x00, 0x0a, 0x00, 0x00, 0x00, 0x42, 0xfb, 0xff, 0xff, 0x00, 0x00, 0x00, 0x01, 0x10, 0x00, 0x00, 0x00, 0x10, 0x00, 0x00, 0x00, 0x14, 0x00, 0x00, 0x00, 0x20, 0x00, 0x00, 0x00, 0x2c, 0xfb, 0xff, 0xff, 0x10, 0x00, 0x00, 0x00, 0x61, 0x72, 0x69, 0x74, 0x68, 0x2e, 0x63, 0x6f, 0x6e, 0x73, 0x74, 0x61, 0x6e, 0x74, 0x31, 0x35, 0x00, 0x00, 0x00, 0x00, 0x02, 0x00, 0x00, 0x00, 0x0a, 0x00, 0x00, 0x00, 0x0a, 0x00, 0x00, 0x00, 0x82, 0xfb, 0xff, 0xff, 0x00, 0x00, 0x00, 0x01, 0x10, 0x00, 0x00, 0x00, 0x10, 0x00, 0x00, 0x00, 0x13, 0x00, 0x00, 0x00, 0x20, 0x00, 0x00, 0x00, 0x6c, 0xfb, 0xff, 0xff, 0x10, 0x00, 0x00, 0x00, 0x61, 0x72, 0x69, 0x74, 0x68, 0x2e, 0x63, 0x6f, 0x6e, 0x73, 0x74, 0x61, 0x6e, 0x74, 0x31, 0x34, 0x00, 0x00, 0x00, 0x00, 0x02, 0x00, 0x00, 0x00, 0x0a, 0x00, 0x00, 0x00, 0x0a, 0x00, 0x00, 0x00, 0xc2, 0xfb, 0xff, 0xff, 0x00, 0x00, 0x00, 0x01, 0x10, 0x00, 0x00, 0x00, 0x10, 0x00, 0x00, 0x00, 0x12, 0x00, 0x00, 0x00, 0x20, 0x00, 0x00, 0x00, 0xac, 0xfb, 0xff, 0xff, 0x10, 0x00, 0x00, 0x00, 0x61, 0x72, 0x69, 0x74, 0x68, 0x2e, 0x63, 0x6f, 0x6e, 0x73, 0x74, 0x61, 0x6e, 0x74, 0x31, 0x33, 0x00, 0x00, 0x00, 0x00, 0x02, 0x00, 0x00, 0x00, 0x0a, 0x00, 0x00, 0x00, 0x0a, 0x00, 0x00, 0x00, 0x02, 0xfc, 0xff, 0xff, 0x00, 0x00, 0x00, 0x01, 0x10, 0x00, 0x00, 0x00, 0x10, 0x00, 0x00, 0x00, 0x11, 0x00, 0x00, 0x00, 0x20, 0x00, 0x00, 0x00, 0xec, 0xfb, 0xff, 0xff, 0x10, 0x00, 0x00, 0x00, 0x61, 0x72, 0x69, 0x74, 0x68, 0x2e, 0x63, 0x6f, 0x6e, 0x73, 0x74, 0x61, 0x6e, 0x74, 0x31, 0x32, 0x00, 0x00, 0x00, 0x00, 0x02, 0x00, 0x00, 0x00, 0x0a, 0x00, 0x00, 0x00, 0x0a, 0x00, 0x00, 0x00, 0x42, 0xfc, 0xff, 0xff, 0x00, 0x00, 0x00, 0x01, 0x10, 0x00, 0x00, 0x00, 0x10, 0x00, 0x00, 0x00, 0x10, 0x00, 0x00, 0x00, 0x20, 0x00, 0x00, 0x00, 0x2c, 0xfc, 0xff, 0xff, 0x10, 0x00, 0x00, 0x00, 0x61, 0x72, 0x69, 0x74, 0x68, 0x2e, 0x63, 0x6f, 0x6e, 0x73, 0x74, 0x61, 0x6e, 0x74, 0x31, 0x31, 0x00, 0x00, 0x00, 0x00, 0x02, 0x00, 0x00, 0x00, 0x0f, 0x00, 0x00, 0x00, 0x01, 0x00, 0x00, 0x00, 0x82, 0xfc, 0xff, 0xff, 0x00, 0x00, 0x00, 0x01, 0x10, 0x00, 0x00, 0x00, 0x10, 0x00, 0x00, 0x00, 0x0f, 0x00, 0x00, 0x00, 0x20, 0x00, 0x00, 0x00, 0x6c, 0xfc, 0xff, 0xff, 0x10, 0x00, 0x00, 0x00, 0x61, 0x72, 0x69, 0x74, 0x68, 0x2e, 0x63, 0x6f, 0x6e, 0x73, 0x74, 0x61, 0x6e, 0x74, 0x31, 0x30, 0x00, 0x00, 0x00, 0x00, 0x02, 0x00, 0x00, 0x00, 0x0f, 0x00, 0x00, 0x00, 0x01, 0x00, 0x00, 0x00, 0xc2, 0xfc, 0xff, 0xff, 0x00, 0x00, 0x00, 0x01, 0x10, 0x00, 0x00, 0x00, 0x10, 0x00, 0x00, 0x00, 0x0e, 0x00, 0x00, 0x00, 0x1c, 0x00, 0x00, 0x00, 0xac, 0xfc, 0xff, 0xff, 0x0f, 0x00, 0x00, 0x00, 0x61, 0x72, 0x69, 0x74, 0x68, 0x2e, 0x63, 0x6f, 0x6e, 0x73, 0x74, 0x61, 0x6e, 0x74, 0x39, 0x00, 0x02, 0x00, 0x00, 0x00, 0x0f, 0x00, 0x00, 0x00, 0x01, 0x00, 0x00, 0x00, 0xfe, 0xfc, 0xff, 0xff, 0x00, 0x00, 0x00, 0x01, 0x10, 0x00, 0x00, 0x00, 0x10, 0x00, 0x00, 0x00, 0x0d, 0x00, 0x00, 0x00, 0x1c, 0x00, 0x00, 0x00, 0xe8, 0xfc, 0xff, 0xff, 0x0f, 0x00, 0x00, 0x00, 0x61, 0x72, 0x69, 0x74, 0x68, 0x2e, 0x63, 0x6f, 0x6e, 0x73, 0x74, 0x61, 0x6e, 0x74, 0x38, 0x00, 0x02, 0x00, 0x00, 0x00, 0x0f, 0x00, 0x00, 0x00, 0x01, 0x00, 0x00, 0x00, 0x3a, 0xfd, 0xff, 0xff, 0x00, 0x00, 0x00, 0x01, 0x10, 0x00, 0x00, 0x00, 0x10, 0x00, 0x00, 0x00, 0x0c, 0x00, 0x00, 0x00, 0x1c, 0x00, 0x00, 0x00, 0x24, 0xfd, 0xff, 0xff, 0x0f, 0x00, 0x00, 0x00, 0x61, 0x72, 0x69, 0x74, 0x68, 0x2e, 0x63, 0x6f, 0x6e, 0x73, 0x74, 0x61, 0x6e, 0x74, 0x37, 0x00, 0x01, 0x00, 0x00, 0x00, 0x0f, 0x00, 0x00, 0x00, 0x72, 0xfd, 0xff, 0xff, 0x00, 0x00, 0x00, 0x01, 0x10, 0x00, 0x00, 0x00, 0x10, 0x00, 0x00, 0x00, 0x0b, 0x00, 0x00, 0x00, 0x1c, 0x00, 0x00, 0x00, 0x5c, 0xfd, 0xff, 0xff, 0x0f, 0x00, 0x00, 0x00, 0x61, 0x72, 0x69, 0x74, 0x68, 0x2e, 0x63, 0x6f, 0x6e, 0x73, 0x74, 0x61, 0x6e, 0x74, 0x36, 0x00, 0x01, 0x00, 0x00, 0x00, 0x0f, 0x00, 0x00, 0x00, 0xaa, 0xfd, 0xff, 0xff, 0x00, 0x00, 0x00, 0x01, 0x10, 0x00, 0x00, 0x00, 0x10, 0x00, 0x00, 0x00, 0x0a, 0x00, 0x00, 0x00, 0x1c, 0x00, 0x00, 0x00, 0x94, 0xfd, 0xff, 0xff, 0x0f, 0x00, 0x00, 0x00, 0x61, 0x72, 0x69, 0x74, 0x68, 0x2e, 0x63, 0x6f, 0x6e, 0x73, 0x74, 0x61, 0x6e, 0x74, 0x35, 0x00, 0x01, 0x00, 0x00, 0x00, 0x0f, 0x00, 0x00, 0x00, 0xe2, 0xfd, 0xff, 0xff, 0x00, 0x00, 0x00, 0x01, 0x10, 0x00, 0x00, 0x00, 0x10, 0x00, 0x00, 0x00, 0x09, 0x00, 0x00, 0x00, 0x1c, 0x00, 0x00, 0x00, 0xcc, 0xfd, 0xff, 0xff, 0x0f, 0x00, 0x00, 0x00, 0x61, 0x72, 0x69, 0x74, 0x68, 0x2e, 0x63, 0x6f, 0x6e, 0x73, 0x74, 0x61, 0x6e, 0x74, 0x34, 0x00, 0x01, 0x00, 0x00, 0x00, 0x0f, 0x00, 0x00, 0x00, 0x1a, 0xfe, 0xff, 0xff, 0x00, 0x00, 0x00, 0x01, 0x10, 0x00, 0x00, 0x00, 0x10, 0x00, 0x00, 0x00, 0x08, 0x00, 0x00, 0x00, 0x1c, 0x00, 0x00, 0x00, 0x04, 0xfe, 0xff, 0xff, 0x0f, 0x00, 0x00, 0x00, 0x61, 0x72, 0x69, 0x74, 0x68, 0x2e, 0x63, 0x6f, 0x6e, 0x73, 0x74, 0x61, 0x6e, 0x74, 0x33, 0x00, 0x02, 0x00, 0x00, 0x00, 0x0f, 0x00, 0x00, 0x00, 0x0f, 0x00, 0x00, 0x00, 0x56, 0xfe, 0xff, 0xff, 0x00, 0x00, 0x00, 0x01, 0x10, 0x00, 0x00, 0x00, 0x10, 0x00, 0x00, 0x00, 0x07, 0x00, 0x00, 0x00, 0x1c, 0x00, 0x00, 0x00, 0x40, 0xfe, 0xff, 0xff, 0x0f, 0x00, 0x00, 0x00, 0x61, 0x72, 0x69, 0x74, 0x68, 0x2e, 0x63, 0x6f, 0x6e, 0x73, 0x74, 0x61, 0x6e, 0x74, 0x32, 0x00, 0x02, 0x00, 0x00, 0x00, 0x0f, 0x00, 0x00, 0x00, 0x0f, 0x00, 0x00, 0x00, 0x92, 0xfe, 0xff, 0xff, 0x00, 0x00, 0x00, 0x01, 0x10, 0x00, 0x00, 0x00, 0x10, 0x00, 0x00, 0x00, 0x06, 0x00, 0x00, 0x00, 0x1c, 0x00, 0x00, 0x00, 0x7c, 0xfe, 0xff, 0xff, 0x0f, 0x00, 0x00, 0x00, 0x61, 0x72, 0x69, 0x74, 0x68, 0x2e, 0x63, 0x6f, 0x6e, 0x73, 0x74, 0x61, 0x6e, 0x74, 0x31, 0x00, 0x02, 0x00, 0x00, 0x00, 0x0f, 0x00, 0x00, 0x00, 0x0f, 0x00, 0x00, 0x00, 0xce, 0xfe, 0xff, 0xff, 0x00, 0x00, 0x00, 0x01, 0x10, 0x00, 0x00, 0x00, 0x10, 0x00, 0x00, 0x00, 0x05, 0x00, 0x00, 0x00, 0x1c, 0x00, 0x00, 0x00, 0xb8, 0xfe, 0xff, 0xff, 0x0e, 0x00, 0x00, 0x00, 0x61, 0x72, 0x69, 0x74, 0x68, 0x2e, 0x63, 0x6f, 0x6e, 0x73, 0x74, 0x61, 0x6e, 0x74, 0x00, 0x00, 0x02, 0x00, 0x00, 0x00, 0x0f, 0x00, 0x00, 0x00, 0x0f, 0x00, 0x00, 0x00, 0x0a, 0xff, 0xff, 0xff, 0x00, 0x00, 0x00, 0x01, 0x10, 0x00, 0x00, 0x00, 0x10, 0x00, 0x00, 0x00, 0x04, 0x00, 0x00, 0x00, 0x38, 0x00, 0x00, 0x00, 0xf4, 0xfe, 0xff, 0xff, 0x2b, 0x00, 0x00, 0x00, 0x73, 0x65, 0x71, 0x75, 0x65, 0x6e, 0x74, 0x69, 0x61, 0x6c, 0x5f, 0x32, 0x2f, 0x64, 0x65, 0x6e, 0x73, 0x65, 0x5f, 0x32, 0x2f, 0x42, 0x69, 0x61, 0x73, 0x41, 0x64, 0x64, 0x2f, 0x52, 0x65, 0x61, 0x64, 0x56, 0x61, 0x72, 0x69, 0x61, 0x62, 0x6c, 0x65, 0x4f, 0x70, 0x00, 0x01, 0x00, 0x00, 0x00, 0x01, 0x00, 0x00, 0x00, 0xba, 0xff, 0xff, 0xff, 0x00, 0x00, 0x01, 0x01, 0x0c, 0x00, 0x00, 0x00, 0x0c, 0x00, 0x00, 0x00, 0x28, 0x00, 0x00, 0x00, 0x44, 0xff, 0xff, 0xff, 0x19, 0x00, 0x00, 0x00, 0x73, 0x65, 0x71, 0x75, 0x65, 0x6e, 0x74, 0x69, 0x61, 0x6c, 0x5f, 0x32, 0x2f, 0x6c, 0x73, 0x74, 0x6d, 0x5f, 0x32, 0x2f, 0x7a, 0x65, 0x72, 0x6f, 0x73, 0x00, 0x00, 0x00, 0x02, 0x00, 0x00, 0x00, 0x04, 0x00, 0x00, 0x00, 0x0f, 0x00, 0x00, 0x00, 0x00, 0x00, 0x16, 0x00, 0x14, 0x00, 0x10, 0x00, 0x00, 0x00, 0x00, 0x00, 0x0c, 0x00, 0x08, 0x00, 0x07, 0x00, 0x00, 0x00, 0x00, 0x00, 0x06, 0x00, 0x16, 0x00, 0x00, 0x00, 0x00, 0x00, 0x01, 0x01, 0x0c, 0x00, 0x00, 0x00, 0x0c, 0x00, 0x00, 0x00, 0x28, 0x00, 0x00, 0x00, 0xa0, 0xff, 0xff, 0xff, 0x19, 0x00, 0x00, 0x00, 0x73, 0x65, 0x71, 0x75, 0x65, 0x6e, 0x74, 0x69, 0x61, 0x6c, 0x5f, 0x32, 0x2f, 0x6c, 0x73, 0x74, 0x6d, 0x5f, 0x33, 0x2f, 0x7a, 0x65, 0x72, 0x6f, 0x73, 0x00, 0x00, 0x00, 0x02, 0x00, 0x00, 0x00, 0x04, 0x00, 0x00, 0x00, 0x0a, 0x00, 0x00, 0x00, 0x00, 0x00, 0x16, 0x00, 0x18, 0x00, 0x14, 0x00, 0x00, 0x00, 0x10, 0x00, 0x0c, 0x00, 0x08, 0x00, 0x00, 0x00, 0x00, 0x00, 0x00, 0x00, 0x07, 0x00, 0x16, 0x00, 0x00, 0x00, 0x00, 0x00, 0x00, 0x01, 0x14, 0x00, 0x00, 0x00, 0x14, 0x00, 0x00, 0x00, 0x01, 0x00, 0x00, 0x00, 0x24, 0x00, 0x00, 0x00, 0x04, 0x00, 0x04, 0x00, 0x04, 0x00, 0x00, 0x00, 0x13, 0x00, 0x00, 0x00, 0x73, 0x65, 0x72, 0x76, 0x69, 0x6e, 0x67, 0x5f, 0x64, 0x65, 0x66, 0x61, 0x75, 0x6c, 0x74, 0x5f, 0x78, 0x3a, 0x30, 0x00, 0x03, 0x00, 0x00, 0x00, 0x04, 0x00, 0x00, 0x00, 0x05, 0x00, 0x00, 0x00, 0x01, 0x00, 0x00, 0x00, 0x03, 0x00, 0x00, 0x00, 0x30, 0x00, 0x00, 0x00, 0x14, 0x00, 0x00, 0x00, 0x04, 0x00, 0x00, 0x00, 0xe8, 0xff, 0xff, 0xff, 0x09, 0x00, 0x00, 0x00, 0x00, 0x00, 0x00, 0x09, 0xf4, 0xff, 0xff, 0xff, 0x2d, 0x00, 0x00, 0x00, 0x00, 0x00, 0x00, 0x2d, 0x0c, 0x00, 0x0c, 0x00, 0x0b, 0x00, 0x00, 0x00, 0x00, 0x00, 0x04, 0x00, 0x0c, 0x00, 0x00, 0x00, 0x2c, 0x00, 0x00, 0x00, 0x00, 0x00, 0x00, 0x2c};
const int model_data_len = 13468;
float x[5] = {0.2715297121634169, 0.32079851439182916, 0.2946262766945218, 0.2924791086350975, 0.26978876508820804};
const int input_size = 5;
const int output_size = 1;