
    // if having troubles with min/max, uncomment the following
    // #undef min    
    // #undef max
    #ifdef __has_attribute
    #define HAVE_ATTRIBUTE(x) __has_attribute(x)
    #else
    #define HAVE_ATTRIBUTE(x) 0
    #endif
    #if HAVE_ATTRIBUTE(aligned) || (defined(__GNUC__) && !defined(__clang__))
    #define DATA_ALIGN_ATTRIBUTE __attribute__((aligned(4)))
    #else
    #define DATA_ALIGN_ATTRIBUTE
    #endif
    const unsigned char model_data[] DATA_ALIGN_ATTRIBUTE = {0x1c, 0x00, 0x00, 0x00, 0x54, 0x46, 0x4c, 0x33, 0x14, 0x00, 0x20, 0x00, 0x1c, 0x00, 0x18, 0x00, 0x14, 0x00, 0x10, 0x00, 0x0c, 0x00, 0x00, 0x00, 0x08, 0x00, 0x04, 0x00, 0x14, 0x00, 0x00, 0x00, 0x1c, 0x00, 0x00, 0x00, 0x8c, 0x00, 0x00, 0x00, 0xe4, 0x00, 0x00, 0x00, 0xd0, 0x18, 0x00, 0x00, 0xe0, 0x18, 0x00, 0x00, 0x2c, 0x22, 0x00, 0x00, 0x03, 0x00, 0x00, 0x00, 0x01, 0x00, 0x00, 0x00, 0x04, 0x00, 0x00, 0x00, 0xde, 0xe6, 0xff, 0xff, 0x0c, 0x00, 0x00, 0x00, 0x1c, 0x00, 0x00, 0x00, 0x3c, 0x00, 0x00, 0x00, 0x0f, 0x00, 0x00, 0x00, 0x73, 0x65, 0x72, 0x76, 0x69, 0x6e, 0x67, 0x5f, 0x64, 0x65, 0x66, 0x61, 0x75, 0x6c, 0x74, 0x00, 0x01, 0x00, 0x00, 0x00, 0x04, 0x00, 0x00, 0x00, 0x90, 0xff, 0xff, 0xff, 0x0d, 0x00, 0x00, 0x00, 0x04, 0x00, 0x00, 0x00, 0x08, 0x00, 0x00, 0x00, 0x64, 0x65, 0x6e, 0x73, 0x65, 0x5f, 0x32, 0x36, 0x00, 0x00, 0x00, 0x00, 0x01, 0x00, 0x00, 0x00, 0x04, 0x00, 0x00, 0x00, 0xb6, 0xe7, 0xff, 0xff, 0x04, 0x00, 0x00, 0x00, 0x0e, 0x00, 0x00, 0x00, 0x64, 0x65, 0x6e, 0x73, 0x65, 0x5f, 0x32, 0x33, 0x5f, 0x69, 0x6e, 0x70, 0x75, 0x74, 0x00, 0x00, 0x02, 0x00, 0x00, 0x00, 0x34, 0x00, 0x00, 0x00, 0x04, 0x00, 0x00, 0x00, 0xdc, 0xff, 0xff, 0xff, 0x10, 0x00, 0x00, 0x00, 0x04, 0x00, 0x00, 0x00, 0x13, 0x00, 0x00, 0x00, 0x43, 0x4f, 0x4e, 0x56, 0x45, 0x52, 0x53, 0x49, 0x4f, 0x4e, 0x5f, 0x4d, 0x45, 0x54, 0x41, 0x44, 0x41, 0x54, 0x41, 0x00, 0x08, 0x00, 0x0c, 0x00, 0x08, 0x00, 0x04, 0x00, 0x08, 0x00, 0x00, 0x00, 0x0f, 0x00, 0x00, 0x00, 0x04, 0x00, 0x00, 0x00, 0x13, 0x00, 0x00, 0x00, 0x6d, 0x69, 0x6e, 0x5f, 0x72, 0x75, 0x6e, 0x74, 0x69, 0x6d, 0x65, 0x5f, 0x76, 0x65, 0x72, 0x73, 0x69, 0x6f, 0x6e, 0x00, 0x11, 0x00, 0x00, 0x00, 0xe8, 0x17, 0x00, 0x00, 0xe0, 0x17, 0x00, 0x00, 0xcc, 0x17, 0x00, 0x00, 0x64, 0x17, 0x00, 0x00, 0x14, 0x16, 0x00, 0x00, 0x64, 0x06, 0x00, 0x00, 0x8c, 0x05, 0x00, 0x00, 0x94, 0x01, 0x00, 0x00, 0x34, 0x01, 0x00, 0x00, 0xc0, 0x00, 0x00, 0x00, 0xb8, 0x00, 0x00, 0x00, 0xb0, 0x00, 0x00, 0x00, 0xa8, 0x00, 0x00, 0x00, 0xa0, 0x00, 0x00, 0x00, 0x98, 0x00, 0x00, 0x00, 0x78, 0x00, 0x00, 0x00, 0x04, 0x00, 0x00, 0x00, 0x76, 0xe8, 0xff, 0xff, 0x04, 0x00, 0x00, 0x00, 0x64, 0x00, 0x00, 0x00, 0x0c, 0x00, 0x00, 0x00, 0x08, 0x00, 0x0e, 0x00, 0x08, 0x00, 0x04, 0x00, 0x08, 0x00, 0x00, 0x00, 0x10, 0x00, 0x00, 0x00, 0x28, 0x00, 0x00, 0x00, 0x00, 0x00, 0x06, 0x00, 0x08, 0x00, 0x04, 0x00, 0x06, 0x00, 0x00, 0x00, 0x04, 0x00, 0x00, 0x00, 0x01, 0x00, 0x00, 0x00, 0xeb, 0x03, 0x00, 0x00, 0x00, 0x00, 0x0a, 0x00, 0x10, 0x00, 0x0c, 0x00, 0x08, 0x00, 0x04, 0x00, 0x0a, 0x00, 0x00, 0x00, 0x02, 0x00, 0x00, 0x00, 0x02, 0x00, 0x00, 0x00, 0x04, 0x00, 0x00, 0x00, 0x12, 0x00, 0x00, 0x00, 0x32, 0x2e, 0x31, 0x34, 0x2e, 0x30, 0x2d, 0x64, 0x65, 0x76, 0x32, 0x30, 0x32, 0x33, 0x30, 0x35, 0x32, 0x35, 0x00, 0x00, 0xe6, 0xe8, 0xff, 0xff, 0x04, 0x00, 0x00, 0x00, 0x10, 0x00, 0x00, 0x00, 0x31, 0x2e, 0x31, 0x34, 0x2e, 0x30, 0x00, 0x00, 0x00, 0x00, 0x00, 0x00, 0x00, 0x00, 0x00, 0x00, 0x3c, 0xe8, 0xff, 0xff, 0x40, 0xe8, 0xff, 0xff, 0x44, 0xe8, 0xff, 0xff, 0x48, 0xe8, 0xff, 0xff, 0x4c, 0xe8, 0xff, 0xff, 0x16, 0xe9, 0xff, 0xff, 0x04, 0x00, 0x00, 0x00, 0x64, 0x00, 0x00, 0x00, 0x11, 0xf8, 0xf3, 0xff, 0x04, 0x04, 0x0a, 0xfe, 0xf8, 0x02, 0xf9, 0x01, 0xfc, 0xfb, 0x00, 0x19, 0xfa, 0xf6, 0xfe, 0x09, 0xfd, 0x00, 0x00, 0xfc, 0xfb, 0x28, 0x09, 0xfc, 0xfe, 0xfd, 0x02, 0xf4, 0xff, 0xf8, 0xfc, 0x81, 0x03, 0x08, 0x01, 0xe1, 0x00, 0x04, 0x03, 0xf1, 0xf5, 0xfb, 0xfa, 0x0a, 0xf1, 0xfd, 0xd8, 0xef, 0x00, 0xfd, 0xe5, 0xe8, 0xfb, 0xff, 0xfe, 0xf0, 0x04, 0xfc, 0xf2, 0xfe, 0xfe, 0x03, 0xed, 0x01, 0xfd, 0xef, 0x01, 0xf4, 0xfc, 0xf7, 0xfb, 0xf4, 0x09, 0xf5, 0xfb, 0xf7, 0xee, 0xfc, 0xf9, 0x00, 0xf8, 0x01, 0xfc, 0x05, 0xef, 0xf5, 0xef, 0xfd, 0x05, 0xee, 0x00, 0x0f, 0x0d, 0xf4, 0x02, 0x08, 0x86, 0xe9, 0xff, 0xff, 0x04, 0x00, 0x00, 0x00, 0x50, 0x00, 0x00, 0x00, 0x01, 0x00, 0x00, 0x00, 0x00, 0x00, 0x00, 0x00, 0x00, 0x00, 0x00, 0x00, 0x02, 0x00, 0x00, 0x00, 0x00, 0x00, 0x00, 0x00, 0x03, 0x00, 0x00, 0x00, 0x00, 0x00, 0x00, 0x00, 0xf4, 0xff, 0xff, 0xff, 0xff, 0xff, 0xff, 0xff, 0xff, 0xff, 0xff, 0xff, 0xfc, 0xff, 0xff, 0xff, 0xfe, 0xff, 0xff, 0xff, 0x00, 0x00, 0x00, 0x00, 0x00, 0x00, 0x00, 0x00, 0x00, 0x00, 0x00, 0x00, 0x00, 0x00, 0x00, 0x00, 0xff, 0xff, 0xff, 0xff, 0x00, 0x00, 0x00, 0x00, 0xff, 0xff, 0xff, 0xff, 0x02, 0x00, 0x00, 0x00, 0xe2, 0xe9, 0xff, 0xff, 0x04, 0x00, 0x00, 0x00, 0xe8, 0x03, 0x00, 0x00, 0xf9, 0xf0, 0xec, 0x12, 0xf0, 0x0c, 0x0e, 0xe3, 0x14, 0x1e, 0xe1, 0xf5, 0xfe, 0x01, 0x14, 0xfa, 0xfc, 0x0a, 0x12, 0xf2, 0xf9, 0x04, 0x15, 0xff, 0xfb, 0x06, 0xf0, 0xf8, 0xf3, 0x0d, 0xe3, 0xfb, 0x01, 0xfe, 0xf1, 0xfd, 0xf8, 0x02, 0xf7, 0xe3, 0xf3, 0xf3, 0xff, 0xe9, 0xf7, 0xe7, 0x16, 0xe3, 0xfb, 0x0c, 0x04, 0xe5, 0x11, 0xe3, 0x06, 0x12, 0xfe, 0x0c, 0xfd, 0xf0, 0xfb, 0x15, 0xe8, 0xff, 0x0f, 0xf0, 0x12, 0xd9, 0x13, 0x13, 0x06, 0x05, 0xe9, 0xff, 0x15, 0xf9, 0x0b, 0xfe, 0x07, 0xd0, 0xfb, 0xee, 0x17, 0xff, 0x0e, 0xee, 0xfb, 0xfa, 0xee, 0xf8, 0xea, 0xe4, 0x01, 0xfb, 0xf0, 0xf4, 0x02, 0xf0, 0xec, 0xdd, 0xe9, 0xff, 0x02, 0xf6, 0xf6, 0xf3, 0x0c, 0xfa, 0x06, 0xe0, 0xef, 0xf6, 0xf0, 0xfa, 0xff, 0xf4, 0x0d, 0xff, 0xf3, 0xd5, 0x00, 0xf5, 0xec, 0xfb, 0x0c, 0x0b, 0x00, 0xff, 0xf7, 0x7f, 0xf6, 0xe8, 0xfe, 0xeb, 0x13, 0xeb, 0x0b, 0x03, 0xf3, 0xe5, 0x10, 0x14, 0xfd, 0xfa, 0xf7, 0xdf, 0x17, 0xff, 0x01, 0xeb, 0xf6, 0xf8, 0xff, 0xfb, 0xf4, 0xf8, 0xe6, 0x11, 0x0d, 0xf4, 0xf6, 0xf2, 0x03, 0xec, 0xe4, 0xdb, 0x06, 0xef, 0x09, 0xea, 0xfd, 0xe8, 0x05, 0xe7, 0x05, 0xfd, 0x07, 0xf8, 0x09, 0xff, 0xed, 0x0c, 0xf1, 0x0c, 0x17, 0x10, 0x05, 0xfc, 0x02, 0x06, 0x0b, 0xee, 0x12, 0x0d, 0x00, 0xe9, 0x16, 0xfe, 0xfc, 0xdb, 0xf8, 0x03, 0xec, 0xf1, 0x04, 0x0f, 0xee, 0x00, 0xe8, 0xfe, 0xdf, 0x13, 0x00, 0xe7, 0x15, 0xee, 0x01, 0x08, 0xe5, 0xec, 0xe6, 0x0c, 0x02, 0x1c, 0xe7, 0xe4, 0xf3, 0xfe, 0xee, 0x07, 0xee, 0xf9, 0x08, 0x08, 0x14, 0x0d, 0xe9, 0xf1, 0xe7, 0xef, 0x02, 0xf4, 0xf9, 0xf7, 0xfc, 0xec, 0x09, 0xfb, 0xf6, 0xea, 0xf6, 0xf4, 0xf6, 0xf7, 0x12, 0x08, 0xf2, 0xf9, 0xfa, 0xdc, 0xd3, 0x0a, 0xe9, 0xf0, 0x0f, 0x04, 0xf6, 0xd1, 0x03, 0xff, 0x06, 0xf1, 0x01, 0xe6, 0xf0, 0xec, 0x0c, 0xfc, 0x26, 0xfb, 0xe1, 0x12, 0x05, 0xf2, 0xff, 0x00, 0xf2, 0xdf, 0xff, 0xf6, 0xf3, 0xf6, 0x06, 0xec, 0x03, 0xe9, 0xf3, 0xf9, 0x05, 0xf5, 0x01, 0xf2, 0xff, 0xfc, 0x0c, 0xf7, 0x0f, 0xfc, 0xeb, 0xe8, 0xff, 0xf3, 0xfc, 0xe4, 0x10, 0x07, 0x14, 0xfd, 0x00, 0xd3, 0x01, 0xf1, 0xfa, 0xf7, 0x08, 0x11, 0xef, 0xfc, 0x04, 0x05, 0x0c, 0xed, 0x01, 0xe4, 0xf9, 0x0f, 0xf2, 0x08, 0xee, 0xe2, 0xde, 0x13, 0xf4, 0xd1, 0xea, 0xdd, 0xf2, 0xe4, 0xfc, 0xf8, 0xdb, 0x00, 0x00, 0x06, 0x07, 0xff, 0xf5, 0xf6, 0xfb, 0xdb, 0x02, 0x0c, 0x03, 0x04, 0xef, 0x0b, 0x0d, 0xe7, 0xf0, 0x09, 0x01, 0x11, 0xd5, 0xf0, 0xec, 0x15, 0xe5, 0xee, 0x15, 0xe1, 0xfd, 0x16, 0xf8, 0xe9, 0x03, 0xf7, 0xf6, 0xf1, 0x11, 0xfd, 0x0e, 0xf5, 0x03, 0x07, 0xf8, 0x0d, 0xf6, 0x0a, 0xf4, 0xee, 0x0a, 0xf4, 0xf7, 0xf4, 0xf7, 0xed, 0xf6, 0xf5, 0xe6, 0x08, 0x05, 0x0a, 0xf4, 0xee, 0x03, 0x08, 0xf5, 0x08, 0xf4, 0xd4, 0xdb, 0x14, 0x10, 0x07, 0x1c, 0xfa, 0x18, 0xd6, 0x17, 0xf7, 0x09, 0xe4, 0x0c, 0xfc, 0xec, 0x07, 0x02, 0x13, 0xfd, 0xf9, 0x06, 0xe9, 0xf2, 0x06, 0xff, 0xee, 0xec, 0xea, 0x0d, 0xf4, 0x01, 0xf1, 0x04, 0xf0, 0xf1, 0xf0, 0xe9, 0xed, 0x14, 0xeb, 0x09, 0xe9, 0x0f, 0xfc, 0xfc, 0xf0, 0x11, 0xfb, 0xec, 0x12, 0xf1, 0x0c, 0x00, 0xef, 0x05, 0xfd, 0xfb, 0x11, 0xed, 0xdd, 0xec, 0x05, 0x12, 0xf4, 0x0a, 0xe6, 0xfa, 0x1a, 0x01, 0xd5, 0x1d, 0x0d, 0xe8, 0xff, 0x01, 0xf9, 0x13, 0xe3, 0xf2, 0xf8, 0xf8, 0x0c, 0xf6, 0xfb, 0x14, 0x0b, 0x10, 0xfe, 0xe9, 0xe3, 0xfe, 0xee, 0x08, 0xf9, 0xec, 0x12, 0x0b, 0x16, 0x08, 0xf0, 0xfb, 0x03, 0x09, 0xec, 0x0e, 0x06, 0x15, 0xe8, 0xff, 0xff, 0x01, 0x0b, 0xff, 0xf9, 0xfc, 0x0d, 0x00, 0xfd, 0xe5, 0xf3, 0xed, 0xed, 0x0a, 0xf9, 0x05, 0xed, 0x17, 0xed, 0xfb, 0xee, 0xea, 0x06, 0x12, 0xf7, 0x13, 0x02, 0xf1, 0xee, 0x02, 0xf7, 0xe9, 0xfe, 0x00, 0xfe, 0x1b, 0x14, 0xf9, 0xfb, 0xf9, 0x0c, 0xee, 0x04, 0xfb, 0xf1, 0xf7, 0xf4, 0x07, 0x0e, 0xf4, 0xd9, 0xf9, 0x09, 0x0f, 0xf5, 0x00, 0x03, 0xfe, 0xf8, 0x0c, 0x26, 0x04, 0xf9, 0xf8, 0xf3, 0xf8, 0x0a, 0x0e, 0xfc, 0x07, 0xf9, 0x00, 0xfc, 0x16, 0xf2, 0x00, 0x07, 0xfd, 0x00, 0x0d, 0xa2, 0xeb, 0xf3, 0x03, 0xee, 0x16, 0xfc, 0x06, 0xf9, 0x0d, 0xe2, 0xef, 0x10, 0xe9, 0xeb, 0x09, 0xe2, 0xe8, 0xf1, 0x0a, 0xec, 0xee, 0xf7, 0xfb, 0xf5, 0xf7, 0xf0, 0xf4, 0x09, 0xf5, 0xfc, 0x00, 0xf2, 0x0b, 0xfc, 0x0c, 0x08, 0x02, 0xef, 0x13, 0x01, 0x03, 0xfd, 0x09, 0xef, 0x10, 0x12, 0x0d, 0xf4, 0xeb, 0xeb, 0xea, 0xeb, 0x08, 0x1c, 0x0a, 0x07, 0x0f, 0x00, 0xda, 0x02, 0x01, 0x12, 0x12, 0xfe, 0xf4, 0x0a, 0xed, 0x0c, 0xf1, 0xdd, 0xd8, 0xf2, 0xf6, 0xf6, 0x17, 0xed, 0xfd, 0xe6, 0xfd, 0xfa, 0xff, 0xe2, 0xef, 0xd4, 0xf0, 0xeb, 0x07, 0xef, 0xf0, 0xfd, 0xf5, 0x12, 0x0d, 0x0a, 0x01, 0x06, 0xf4, 0xe8, 0xf4, 0xe2, 0xf7, 0x01, 0xf7, 0xfa, 0xf1, 0x0d, 0x13, 0xe2, 0xfb, 0xf6, 0x2a, 0xea, 0x12, 0x22, 0x0d, 0xee, 0xf4, 0xdc, 0x22, 0x13, 0xf3, 0xe3, 0x02, 0xed, 0x08, 0xec, 0xfd, 0x18, 0x13, 0xeb, 0xf5, 0xf0, 0xee, 0x0a, 0x1a, 0x0f, 0xf4, 0xf2, 0xfc, 0xf4, 0xfc, 0x0f, 0xe7, 0xe8, 0xf7, 0x02, 0xe9, 0xeb, 0xf0, 0xfa, 0xf2, 0xee, 0xed, 0xe9, 0x11, 0xea, 0xe9, 0xef, 0x13, 0xf2, 0x05, 0xd8, 0xfb, 0xec, 0x12, 0xfb, 0x05, 0xef, 0xee, 0xf9, 0x02, 0xf9, 0xfd, 0xe7, 0xf3, 0xfd, 0xea, 0xfb, 0xeb, 0xe8, 0xf1, 0xf4, 0xd5, 0xfa, 0xef, 0x10, 0x04, 0xe8, 0x0e, 0xe2, 0x04, 0xf0, 0x08, 0xf3, 0xf5, 0xf0, 0xf0, 0xff, 0x15, 0xf3, 0xed, 0x0b, 0x09, 0xe1, 0xf1, 0xfb, 0x02, 0xec, 0x00, 0xda, 0xed, 0x12, 0x01, 0xf1, 0xf7, 0x0f, 0x03, 0xfe, 0xec, 0x7b, 0xdd, 0xfd, 0x18, 0xee, 0xee, 0xf8, 0x0b, 0xf7, 0xea, 0xef, 0x13, 0xea, 0x13, 0x00, 0x0a, 0x10, 0x07, 0xff, 0xfa, 0x0d, 0xe8, 0x0e, 0xed, 0xf8, 0xf1, 0x0b, 0xfd, 0xf8, 0x05, 0xee, 0xf7, 0x12, 0xf6, 0xe8, 0x0c, 0x02, 0xec, 0xfe, 0xfb, 0x03, 0xfc, 0xe6, 0xf4, 0xfd, 0x07, 0xff, 0xea, 0xee, 0x02, 0xd8, 0xe2, 0x04, 0x10, 0xd2, 0x01, 0xe8, 0xee, 0xe6, 0x00, 0x03, 0xdf, 0xee, 0xf6, 0xf1, 0xff, 0xed, 0x02, 0xee, 0x0d, 0xea, 0xfb, 0xef, 0xff, 0xec, 0x09, 0x04, 0xea, 0xea, 0x0b, 0x04, 0xe3, 0xf6, 0xfd, 0xfe, 0x15, 0xf1, 0xe9, 0x04, 0x0a, 0xed, 0xf5, 0x04, 0xfa, 0xf1, 0xf9, 0xdd, 0x0f, 0xcb, 0x11, 0x14, 0xea, 0xf0, 0xeb, 0xf5, 0x05, 0xfa, 0xea, 0xfd, 0x19, 0xfb, 0xef, 0x12, 0x01, 0xe9, 0xf4, 0xea, 0x15, 0xeb, 0xf0, 0x21, 0xfe, 0xee, 0x24, 0xf6, 0xe9, 0xf6, 0x03, 0xe7, 0x06, 0xf9, 0xed, 0xf5, 0xf9, 0xed, 0x01, 0x05, 0x05, 0xe0, 0xfc, 0xfa, 0xf5, 0xfd, 0x08, 0x02, 0xf5, 0x0e, 0x13, 0xf2, 0x03, 0xff, 0xf0, 0xed, 0xfe, 0xe8, 0x03, 0xfc, 0x0e, 0xe3, 0xfa, 0xe4, 0xe6, 0xff, 0xf3, 0xfc, 0xee, 0x11, 0x05, 0xe9, 0x07, 0xec, 0xd6, 0xed, 0xff, 0xff, 0x04, 0x00, 0x00, 0x00, 0xc8, 0x00, 0x00, 0x00, 0xa0, 0x00, 0x00, 0x00, 0xff, 0xff, 0xff, 0xff, 0xff, 0xff, 0xff, 0xff, 0xd1, 0xff, 0xff, 0xff, 0xf8, 0xff, 0xff, 0xff, 0xd0, 0xff, 0xff, 0xff, 0xed, 0xff, 0xff, 0xff, 0xd0, 0xff, 0xff, 0xff, 0xee, 0xff, 0xff, 0xff, 0xe4, 0xff, 0xff, 0xff, 0xe3, 0xff, 0xff, 0xff, 0xf2, 0xff, 0xff, 0xff, 0xcc, 0xff, 0xff, 0xff, 0xf6, 0xff, 0xff, 0xff, 0xd6, 0xff, 0xff, 0xff, 0xf0, 0xff, 0xff, 0xff, 0xf5, 0xff, 0xff, 0xff, 0xf2, 0xff, 0xff, 0xff, 0xdf, 0xff, 0xff, 0xff, 0xe6, 0xff, 0xff, 0xff, 0xa1, 0xff, 0xff, 0xff, 0xf1, 0xff, 0xff, 0xff, 0xf5, 0xff, 0xff, 0xff, 0xef, 0xff, 0xff, 0xff, 0xe6, 0xfe, 0xff, 0xff, 0xed, 0xff, 0xff, 0xff, 0xca, 0xff, 0xff, 0xff, 0xe0, 0xff, 0xff, 0xff, 0xd1, 0xff, 0xff, 0xff, 0xdc, 0xff, 0xff, 0xff, 0xd2, 0xfe, 0xff, 0xff, 0xf7, 0xff, 0xff, 0xff, 0xf8, 0xff, 0xff, 0xff, 0xdb, 0xff, 0xff, 0xff, 0xf0, 0xff, 0xff, 0xff, 0x2f, 0x00, 0x00, 0x00, 0xb6, 0xff, 0xff, 0xff, 0xea, 0xff, 0xff, 0xff, 0xed, 0xff, 0xff, 0xff, 0xa1, 0xff, 0xff, 0xff, 0xd9, 0xff, 0xff, 0xff, 0xe1, 0xff, 0xff, 0xff, 0xe2, 0xff, 0xff, 0xff, 0x9f, 0xff, 0xff, 0xff, 0xd3, 0xff, 0xff, 0xff, 0xfa, 0xff, 0xff, 0xff, 0xee, 0xff, 0xff, 0xff, 0xd5, 0xff, 0xff, 0xff, 0xf7, 0xff, 0xff, 0xff, 0xe0, 0xff, 0xff, 0xff, 0xaa, 0xee, 0xff, 0xff, 0x04, 0x00, 0x00, 0x00, 0xa0, 0x0f, 0x00, 0x00, 0x0e, 0xfa, 0x03, 0x08, 0xfe, 0x01, 0x03, 0x00, 0xf9, 0x08, 0x05, 0xfc, 0x06, 0x09, 0x0d, 0xfe, 0xfb, 0xfe, 0xf7, 0xf4, 0x0b, 0x08, 0x12, 0x06, 0x0b, 0x00, 0x03, 0x06, 0x02, 0xfb, 0xf7, 0x07, 0xff, 0xfc, 0xf8, 0x00, 0xf2, 0x09, 0x09, 0x08, 0xfc, 0x0a, 0x02, 0xfb, 0xfd, 0xfb, 0x0c, 0x09, 0x0a, 0xfc, 0x0a, 0xfc, 0xfd, 0xfc, 0x15, 0xff, 0x00, 0xfa, 0xfc, 0xff, 0xf5, 0x0b, 0xf2, 0x0a, 0x02, 0xf4, 0x03, 0xfb, 0x08, 0x01, 0xfa, 0xfe, 0xfb, 0xfa, 0xfc, 0x10, 0xfb, 0xee, 0xfc, 0xf3, 0x03, 0xf8, 0xf3, 0xf9, 0xff, 0xff, 0xf1, 0xfa, 0xfe, 0xfc, 0x06, 0x00, 0xfd, 0x06, 0xfd, 0x00, 0xc3, 0xf4, 0x13, 0x05, 0xe2, 0x00, 0xfb, 0xfc, 0x09, 0x05, 0x03, 0xfa, 0x03, 0x05, 0x02, 0x02, 0x00, 0xf7, 0xff, 0x02, 0xfb, 0x10, 0x09, 0x02, 0xfb, 0x03, 0x00, 0xff, 0xf1, 0x06, 0x00, 0x00, 0xfb, 0x09, 0xfa, 0x00, 0x04, 0x05, 0x07, 0xff, 0x07, 0x08, 0x02, 0xfa, 0xff, 0x04, 0x06, 0x04, 0xfc, 0xf8, 0xf9, 0xff, 0xfa, 0xfd, 0xea, 0xf9, 0x03, 0x00, 0x01, 0x03, 0xff, 0xfa, 0x09, 0x00, 0xf6, 0x05, 0xfc, 0xf9, 0xfc, 0xf6, 0xfb, 0xf9, 0x02, 0x02, 0xfc, 0xfa, 0x00, 0xfa, 0xff, 0xf2, 0xf4, 0xf7, 0xfd, 0x03, 0xf7, 0x08, 0x01, 0x01, 0x05, 0xff, 0xf8, 0x04, 0x03, 0xfa, 0xfb, 0x00, 0x00, 0x05, 0xf9, 0x00, 0x02, 0x00, 0xf6, 0x04, 0xfe, 0x02, 0x04, 0xfb, 0xff, 0xff, 0x00, 0xfc, 0xff, 0xfe, 0x08, 0xfb, 0x05, 0xf8, 0xf2, 0xfc, 0x06, 0x0b, 0xf5, 0x04, 0xf9, 0xfd, 0xef, 0x06, 0xf5, 0x08, 0xfe, 0x02, 0x01, 0x0b, 0xfa, 0x09, 0x08, 0xfa, 0x09, 0xf8, 0x0f, 0x03, 0x00, 0x02, 0x06, 0xfe, 0x06, 0xfc, 0x09, 0xfe, 0xff, 0xff, 0xfa, 0x03, 0xf9, 0x02, 0xff, 0x00, 0x08, 0xf7, 0xf7, 0xf6, 0xfd, 0xfc, 0x00, 0x03, 0xf8, 0xfc, 0xf8, 0xfc, 0x07, 0xf6, 0x07, 0x02, 0xfc, 0xf9, 0xfc, 0xfe, 0xf8, 0x01, 0x05, 0xfd, 0xf6, 0xfe, 0xfe, 0xff, 0x03, 0xf6, 0xfb, 0x04, 0xfe, 0xf8, 0x00, 0x02, 0xfc, 0xff, 0xf9, 0xf9, 0x04, 0xfa, 0xec, 0xea, 0xf5, 0xed, 0xfb, 0x04, 0xf9, 0xfb, 0x00, 0x00, 0xfc, 0x02, 0x08, 0x09, 0xff, 0xfa, 0xfe, 0xfc, 0xfe, 0xf3, 0x1c, 0x0e, 0x07, 0xfc, 0xff, 0xfb, 0xfb, 0xf6, 0xf4, 0xfb, 0x07, 0x08, 0x09, 0x09, 0x03, 0xfa, 0xf8, 0x08, 0x04, 0xfb, 0x01, 0xff, 0xfe, 0x02, 0xf3, 0xf9, 0xfa, 0xde, 0xff, 0x01, 0xfa, 0x00, 0xf7, 0xff, 0xf7, 0x09, 0x06, 0xf8, 0xf9, 0x00, 0xf9, 0x02, 0xfc, 0x06, 0xfe, 0xfe, 0x04, 0xfb, 0xfa, 0xf8, 0xf8, 0xf9, 0xfa, 0xf9, 0x06, 0xfb, 0xfe, 0x07, 0xfa, 0xfc, 0xfb, 0xfa, 0x05, 0xff, 0x04, 0x05, 0xfc, 0x02, 0x03, 0xfb, 0xd2, 0x05, 0xfe, 0x09, 0x00, 0x02, 0x05, 0x00, 0x01, 0xfe, 0x0a, 0xf9, 0xfa, 0xfd, 0xf8, 0xfa, 0x01, 0xf8, 0xff, 0x08, 0x04, 0xfd, 0xfa, 0x02, 0x08, 0x00, 0x01, 0xfd, 0xff, 0xf7, 0xfa, 0xf7, 0xfe, 0x04, 0xf9, 0xf9, 0xfa, 0x03, 0xff, 0xf8, 0x05, 0xf5, 0xf9, 0xfc, 0xf9, 0x05, 0x09, 0xfe, 0xff, 0xfe, 0xd5, 0xfe, 0x02, 0xff, 0xfe, 0x04, 0x03, 0xfb, 0xfd, 0xf6, 0x05, 0xf9, 0xfe, 0x0a, 0x02, 0xff, 0x03, 0xf8, 0x04, 0xfe, 0xff, 0x09, 0x07, 0x08, 0x00, 0x07, 0xfb, 0xf7, 0x0b, 0xfe, 0x07, 0xf7, 0xf8, 0x08, 0xfc, 0x09, 0x00, 0x05, 0xfb, 0x02, 0xf7, 0xf8, 0x02, 0xfa, 0xfa, 0x02, 0x00, 0x08, 0x09, 0x00, 0xb7, 0xfe, 0xff, 0x06, 0x00, 0xf9, 0x07, 0x08, 0x00, 0xf9, 0x00, 0xf8, 0xf6, 0x09, 0xff, 0x04, 0x03, 0xfc, 0xf9, 0x02, 0xf9, 0x00, 0xfb, 0x09, 0x01, 0xfb, 0x08, 0xfa, 0x0b, 0xf8, 0xf9, 0xff, 0x00, 0xf7, 0x07, 0x02, 0x0c, 0x03, 0x00, 0xf8, 0x07, 0x06, 0x07, 0x04, 0xee, 0xfc, 0x05, 0x01, 0xfe, 0xfa, 0xf7, 0x00, 0x06, 0xfb, 0xfa, 0x05, 0x05, 0x08, 0xf2, 0x03, 0x03, 0x09, 0xfc, 0xff, 0xed, 0xf8, 0xf8, 0xfa, 0xe0, 0x21, 0x02, 0xfa, 0xfc, 0x00, 0x01, 0x03, 0x04, 0x04, 0xf0, 0x1f, 0x0c, 0xff, 0xef, 0x05, 0xfe, 0xfc, 0x06, 0x02, 0xf6, 0xff, 0xf9, 0x04, 0x03, 0x05, 0xdd, 0x01, 0x0a, 0xf9, 0xf8, 0x01, 0xf8, 0xfc, 0x0c, 0xfa, 0xfb, 0xec, 0x01, 0xf1, 0x0a, 0x02, 0x05, 0x03, 0x00, 0x01, 0xfc, 0x07, 0xf7, 0xfd, 0xfc, 0x01, 0xfe, 0xfe, 0xfa, 0xf8, 0xf9, 0x05, 0xff, 0xf9, 0x04, 0x04, 0xf9, 0xfd, 0x06, 0x07, 0xf7, 0xfa, 0x0a, 0xf8, 0xff, 0xfc, 0x01, 0x03, 0x05, 0xf8, 0xf8, 0x02, 0xf6, 0xf8, 0x01, 0x07, 0x05, 0x03, 0x0c, 0x05, 0xf8, 0x09, 0x07, 0xfb, 0xf7, 0xfd, 0x05, 0xfe, 0xf8, 0xf9, 0x07, 0xf5, 0xfd, 0x09, 0xf3, 0x03, 0x01, 0x04, 0x00, 0x01, 0x03, 0xfc, 0x01, 0xf9, 0x08, 0xfb, 0xf8, 0xe7, 0xfb, 0xfb, 0xf9, 0x00, 0x01, 0xf7, 0xef, 0x00, 0x02, 0xfa, 0xf3, 0x02, 0xf4, 0xfe, 0xff, 0x05, 0x06, 0xfc, 0x01, 0x09, 0xfb, 0x01, 0x01, 0xff, 0x01, 0xf4, 0x06, 0x04, 0xfe, 0xfb, 0xf8, 0xfd, 0xfd, 0x04, 0x03, 0x08, 0xfb, 0xf9, 0x09, 0x04, 0xfd, 0xf9, 0xfd, 0xf8, 0x03, 0x02, 0x0a, 0xfb, 0xf8, 0xf9, 0xfc, 0x00, 0x09, 0xfe, 0x0a, 0xfc, 0x00, 0x03, 0xfb, 0x00, 0xfa, 0x02, 0xe2, 0x02, 0xf9, 0x00, 0x06, 0x04, 0xfd, 0xfc, 0x0a, 0xfe, 0xfe, 0x03, 0x07, 0xff, 0x00, 0x02, 0x11, 0x0a, 0xfc, 0x01, 0xd9, 0x04, 0x09, 0x01, 0xf8, 0xf8, 0xf6, 0x02, 0x02, 0x02, 0x05, 0xfa, 0xfb, 0xfd, 0x01, 0x02, 0xfe, 0xf6, 0xf8, 0xfa, 0xfc, 0x16, 0x08, 0xfb, 0x00, 0x03, 0xf6, 0xf8, 0xfd, 0x01, 0xf9, 0x03, 0xf8, 0xf8, 0xfd, 0xf8, 0xf9, 0xfe, 0x02, 0x05, 0x02, 0xf7, 0xfc, 0x06, 0xff, 0xf1, 0xfe, 0xf3, 0xf2, 0x00, 0xeb, 0xf9, 0xfa, 0xf8, 0xfa, 0xf5, 0xff, 0xf4, 0xf9, 0x05, 0xf8, 0xf4, 0x08, 0x06, 0xf9, 0x22, 0x1a, 0xf7, 0xff, 0xf9, 0x06, 0xff, 0x01, 0x19, 0xf9, 0xfe, 0x06, 0x0d, 0x04, 0xfa, 0x01, 0x07, 0xfc, 0xf8, 0xf9, 0x00, 0xf4, 0xff, 0xfb, 0xf9, 0x25, 0x01, 0x01, 0xf7, 0xf8, 0xfd, 0x22, 0x01, 0x04, 0xfc, 0x02, 0xff, 0x0a, 0x02, 0x02, 0x08, 0xfd, 0x02, 0xfd, 0x06, 0x04, 0x10, 0x04, 0xf7, 0x04, 0xfd, 0x04, 0xee, 0x00, 0xf8, 0x06, 0xf7, 0x02, 0xff, 0xfd, 0x08, 0x00, 0x01, 0xfa, 0xfe, 0xfc, 0x07, 0xfa, 0x05, 0x06, 0x07, 0xf0, 0x08, 0xfe, 0xff, 0x06, 0xfb, 0xfc, 0x08, 0x08, 0x04, 0xf4, 0xf9, 0x00, 0xfc, 0xfd, 0x00, 0x01, 0xf9, 0xff, 0x08, 0xfc, 0x08, 0xf8, 0x04, 0x05, 0x01, 0x04, 0xf6, 0xfc, 0x04, 0xf5, 0xfe, 0xff, 0x07, 0x01, 0x1a, 0xfe, 0xff, 0x00, 0xfe, 0xfe, 0x02, 0xff, 0xfe, 0xfb, 0x0b, 0xf4, 0xf9, 0xf9, 0xfc, 0xf6, 0x03, 0xfd, 0xfe, 0xf5, 0xf7, 0xfb, 0x0a, 0x01, 0xfa, 0x07, 0xf4, 0xed, 0x04, 0x00, 0xff, 0x04, 0xfe, 0xff, 0x02, 0xfc, 0x04, 0x09, 0xf8, 0xf9, 0xf9, 0x07, 0xff, 0x06, 0xfc, 0xf9, 0xfd, 0x05, 0x02, 0xfb, 0x02, 0xfe, 0x03, 0xf8, 0x04, 0xfc, 0xf8, 0xf8, 0x02, 0x03, 0xfe, 0xfd, 0x00, 0xf8, 0xfb, 0xf6, 0x02, 0xfa, 0xfd, 0x02, 0xf9, 0xf8, 0xf9, 0xf8, 0xf8, 0x01, 0xfa, 0xf9, 0xf9, 0xf5, 0x0a, 0x01, 0xff, 0xf5, 0x0a, 0x03, 0x09, 0xf2, 0x08, 0x08, 0xfe, 0x02, 0x01, 0x03, 0xfd, 0xf7, 0xf3, 0x06, 0xf9, 0x05, 0xf8, 0xf6, 0x04, 0xfa, 0x02, 0x07, 0xff, 0x02, 0xf6, 0x04, 0x00, 0x01, 0xf9, 0xfa, 0x01, 0x00, 0x04, 0x01, 0xf7, 0x01, 0xfa, 0xf9, 0xfa, 0xfa, 0x01, 0xfc, 0xfb, 0xf9, 0x01, 0xfc, 0xfe, 0x09, 0xfe, 0xf6, 0xfe, 0x02, 0xff, 0xf8, 0xfb, 0x05, 0xfd, 0x03, 0x09, 0x00, 0xf6, 0xf6, 0xf7, 0xfa, 0x06, 0xfd, 0xf9, 0x05, 0x07, 0xfd, 0x05, 0xfd, 0x05, 0x07, 0x04, 0x01, 0x0c, 0x03, 0xfd, 0x00, 0xfc, 0xfd, 0xfd, 0x00, 0x06, 0x03, 0xff, 0x00, 0xff, 0xfd, 0x08, 0x10, 0x03, 0x09, 0xfc, 0xef, 0x08, 0xf9, 0x09, 0xf3, 0x06, 0xf6, 0xfa, 0x05, 0xf9, 0x05, 0x1c, 0xfb, 0x0f, 0xfd, 0xe2, 0x04, 0x14, 0x05, 0x08, 0xf3, 0xf3, 0xed, 0xea, 0xdc, 0xf9, 0x01, 0xfa, 0x29, 0xf9, 0xee, 0x00, 0xf0, 0x08, 0x0b, 0xe8, 0x0c, 0x0e, 0x05, 0x03, 0xd8, 0x0a, 0x01, 0x05, 0xf9, 0x09, 0x48, 0x00, 0x0a, 0xf7, 0xfb, 0x03, 0xff, 0x01, 0x09, 0x04, 0x00, 0x01, 0x07, 0x03, 0x00, 0x04, 0x01, 0xfb, 0xfc, 0x04, 0x00, 0x0c, 0xff, 0xfe, 0xf9, 0xdd, 0xfe, 0xfb, 0xf6, 0xfa, 0xfe, 0xbe, 0x05, 0xfa, 0x00, 0x01, 0xfa, 0x03, 0x01, 0xfc, 0x0b, 0xfc, 0x05, 0x06, 0x0a, 0xfc, 0xff, 0xf7, 0xfb, 0xfb, 0xfd, 0x04, 0x1a, 0x01, 0xf6, 0xfd, 0x05, 0x02, 0xf5, 0xfa, 0x06, 0xf6, 0x03, 0x05, 0xf8, 0xed, 0xf5, 0x0f, 0x01, 0xfd, 0xfa, 0x01, 0xf9, 0x02, 0xfc, 0xf7, 0x09, 0xfb, 0xf6, 0xfd, 0xfc, 0xee, 0xf8, 0xfa, 0xf5, 0x05, 0xfd, 0xfa, 0xfb, 0xf8, 0xfb, 0xf8, 0x01, 0x00, 0x02, 0xfc, 0xfc, 0xfb, 0x04, 0xf2, 0xf9, 0xee, 0xfa, 0xf8, 0xfd, 0x01, 0xfc, 0xfc, 0xfa, 0xfb, 0xff, 0xfd, 0xfc, 0xfe, 0x05, 0xfc, 0x01, 0x06, 0x05, 0xf7, 0x07, 0xf9, 0xff, 0xfc, 0xf5, 0xfe, 0x05, 0xfa, 0xff, 0xf5, 0x07, 0xf6, 0x00, 0xff, 0xfe, 0x04, 0xfd, 0x01, 0xf9, 0xf9, 0xfe, 0xff, 0x10, 0x02, 0x03, 0xfc, 0x00, 0xfd, 0x03, 0x03, 0x03, 0xfd, 0x05, 0x07, 0xdb, 0x01, 0x04, 0x1d, 0xfc, 0xfe, 0x17, 0xe7, 0x01, 0x04, 0x07, 0xfe, 0xf7, 0x47, 0xfd, 0x02, 0x04, 0x0b, 0x09, 0x01, 0xe8, 0x23, 0x02, 0x02, 0xea, 0x06, 0xf5, 0x00, 0x11, 0xfa, 0x01, 0x06, 0x02, 0xfa, 0xfc, 0x21, 0x1b, 0xf4, 0xff, 0xf3, 0xf6, 0x00, 0xd8, 0x05, 0xfe, 0x14, 0x35, 0xfc, 0x23, 0x09, 0x00, 0x07, 0x00, 0x05, 0xfe, 0x02, 0xf2, 0xf0, 0xfc, 0xef, 0xff, 0xfc, 0xec, 0x3c, 0x02, 0x10, 0x0a, 0x11, 0xfa, 0x04, 0xf3, 0x12, 0xfb, 0xf3, 0xed, 0xf1, 0xf5, 0x0f, 0xfd, 0xf2, 0x0c, 0xfc, 0x04, 0xe0, 0xfc, 0x00, 0x04, 0x12, 0x04, 0xf6, 0xe6, 0x04, 0xe5, 0xfc, 0x01, 0x04, 0x08, 0xfd, 0xf9, 0x13, 0xf1, 0xf8, 0x07, 0xff, 0xf5, 0x05, 0x02, 0x14, 0x0d, 0x08, 0x07, 0x03, 0xf8, 0x07, 0x00, 0xf8, 0x03, 0xfc, 0x04, 0xfe, 0x01, 0xf8, 0xf9, 0xfb, 0xfb, 0x02, 0xfc, 0xfb, 0xfc, 0x04, 0xf4, 0x00, 0x06, 0xfe, 0xfd, 0xf8, 0x00, 0xf4, 0x09, 0xf7, 0xf5, 0x02, 0xfa, 0xdf, 0x05, 0x03, 0x00, 0x02, 0xe6, 0xf8, 0xff, 0xfc, 0x06, 0x04, 0xee, 0x08, 0xfe, 0xf2, 0xfc, 0x05, 0x12, 0xf2, 0x02, 0xe8, 0x09, 0xf6, 0x01, 0xea, 0xe6, 0x00, 0xdf, 0xf0, 0x07, 0xf7, 0xf0, 0x02, 0xfb, 0xfa, 0xf5, 0xef, 0xf7, 0x04, 0x09, 0x00, 0x09, 0xf2, 0xf3, 0x2a, 0xf7, 0xee, 0xf9, 0xfc, 0xf3, 0x24, 0x00, 0x01, 0xcb, 0x00, 0x0c, 0xf9, 0xfb, 0xf7, 0xfc, 0x02, 0x09, 0xfe, 0x05, 0x03, 0x0f, 0xfc, 0x06, 0xf7, 0x06, 0xfa, 0x06, 0x06, 0xff, 0x03, 0x04, 0x09, 0xfb, 0x04, 0xf5, 0x07, 0xfb, 0xfd, 0xfb, 0xfc, 0xfa, 0x09, 0xfd, 0xfd, 0x08, 0xf6, 0x00, 0xfb, 0xfc, 0x04, 0xf9, 0x03, 0x02, 0xf9, 0x06, 0xfd, 0xf8, 0x01, 0xf2, 0x00, 0xfd, 0x05, 0xfb, 0xff, 0x01, 0xf1, 0xf7, 0xfe, 0xeb, 0xff, 0x01, 0xf7, 0xf8, 0x07, 0xf5, 0xfc, 0xf8, 0xf8, 0x07, 0xff, 0xf8, 0x03, 0xf9, 0xfa, 0x13, 0xf8, 0xf0, 0xfe, 0x02, 0xf6, 0x1b, 0xeb, 0xf9, 0xfa, 0xf9, 0xf5, 0x02, 0xfe, 0xf7, 0x07, 0xf7, 0xef, 0xfd, 0xed, 0xef, 0xff, 0x00, 0x01, 0xf8, 0xe4, 0xff, 0x03, 0x02, 0x0b, 0xfe, 0x03, 0xfb, 0x01, 0x07, 0xfe, 0xf8, 0xf8, 0xf8, 0x0a, 0x08, 0xfb, 0x10, 0xf6, 0xfc, 0xf8, 0x04, 0xfd, 0x03, 0xfc, 0x07, 0xff, 0x01, 0xfd, 0x01, 0x05, 0xfb, 0xfa, 0xfd, 0x0c, 0x06, 0x06, 0xf9, 0x07, 0xee, 0x02, 0x0b, 0xff, 0x07, 0x04, 0x07, 0x03, 0xfb, 0x08, 0x0a, 0x06, 0xf8, 0xfe, 0xec, 0xff, 0x01, 0x0f, 0x14, 0x00, 0xfc, 0xeb, 0xfb, 0x00, 0xfa, 0x10, 0x04, 0x1e, 0xfb, 0x00, 0x09, 0xf3, 0x7f, 0x02, 0xdb, 0x18, 0xe3, 0x01, 0xde, 0xfd, 0x33, 0xfa, 0x08, 0xfa, 0x04, 0x00, 0x0b, 0x0f, 0x01, 0xee, 0x03, 0x11, 0x05, 0xfd, 0xfc, 0xfe, 0xf1, 0x07, 0x00, 0xfa, 0x38, 0x06, 0x0c, 0xec, 0xfb, 0x05, 0xfd, 0xf9, 0x01, 0x08, 0xf9, 0xfe, 0x04, 0xfc, 0x05, 0x03, 0xf5, 0xf1, 0x0b, 0xfe, 0x01, 0xe9, 0xff, 0x08, 0xf9, 0xfa, 0x05, 0x06, 0xfe, 0xf5, 0xfa, 0x05, 0x05, 0xf7, 0xf8, 0xf9, 0x03, 0xfc, 0xff, 0xfd, 0xde, 0xf8, 0xfd, 0x01, 0xf6, 0xf9, 0x03, 0x0a, 0x04, 0xfa, 0x01, 0xff, 0xf0, 0x07, 0xd7, 0xfb, 0xfe, 0xf4, 0xff, 0xf6, 0xf8, 0xfc, 0xf8, 0xfe, 0xf8, 0x04, 0x01, 0x3f, 0x01, 0xf8, 0xff, 0x15, 0xf4, 0xff, 0x01, 0x25, 0xfb, 0xf9, 0xe4, 0xfb, 0xfb, 0xfb, 0xf3, 0xf3, 0x03, 0xfd, 0xfc, 0x03, 0x04, 0xfb, 0xfb, 0xf5, 0xf8, 0xf8, 0xff, 0xff, 0x01, 0xfa, 0xff, 0x01, 0x2f, 0xfb, 0x06, 0x05, 0xfb, 0x00, 0x09, 0x07, 0x03, 0x09, 0xfd, 0xfe, 0xfa, 0x01, 0xf7, 0x0b, 0xfe, 0xfb, 0x00, 0xfa, 0x08, 0xfa, 0x0a, 0xfb, 0x01, 0x11, 0xf3, 0xfc, 0xfd, 0x05, 0xf9, 0xfd, 0x04, 0xf9, 0x03, 0xf7, 0x04, 0x00, 0xfc, 0xfa, 0xd3, 0xff, 0xf7, 0x02, 0xfb, 0x0a, 0x02, 0xfb, 0x03, 0xf8, 0x13, 0xe4, 0xdb, 0x01, 0xfa, 0xfb, 0x03, 0xf6, 0x04, 0xfc, 0xf9, 0xff, 0xff, 0xfc, 0xf8, 0xfb, 0xfa, 0xfd, 0xfc, 0x01, 0x07, 0xf5, 0xff, 0x00, 0xfd, 0xfb, 0x08, 0x06, 0xf8, 0xf9, 0x06, 0xfa, 0xfd, 0x06, 0xf7, 0xfd, 0xfe, 0xf8, 0x02, 0xfc, 0x05, 0xfd, 0xff, 0x06, 0xf9, 0x01, 0x08, 0xfd, 0x03, 0x06, 0xfd, 0x01, 0x03, 0xfa, 0xf4, 0x08, 0xfd, 0x00, 0x13, 0x11, 0xfc, 0xf5, 0xf8, 0xf9, 0xfc, 0x0b, 0xfd, 0x0a, 0x04, 0x08, 0x08, 0x01, 0xec, 0xf7, 0x02, 0xee, 0x13, 0x05, 0xf1, 0x0b, 0xfc, 0x02, 0x06, 0xfc, 0x01, 0xfd, 0x07, 0x0d, 0x06, 0xfc, 0xf8, 0xf9, 0xfa, 0xf8, 0x0c, 0xf9, 0xfc, 0xf7, 0xfe, 0xf8, 0xff, 0xef, 0x02, 0xf3, 0xfe, 0xff, 0xf9, 0xfa, 0x05, 0x04, 0xfd, 0xf6, 0xf9, 0xf3, 0x00, 0xfd, 0xfb, 0xfe, 0xff, 0x07, 0xfe, 0xf9, 0x06, 0x09, 0xfe, 0xff, 0xfd, 0x02, 0xec, 0x04, 0xff, 0xfc, 0xf8, 0xfe, 0xfb, 0xfb, 0xff, 0x0a, 0xf9, 0xfa, 0xf8, 0xf6, 0x07, 0xf4, 0xfa, 0x07, 0xf6, 0x06, 0x05, 0xfa, 0x29, 0xfb, 0xfe, 0x03, 0xfd, 0x06, 0x07, 0x00, 0x01, 0xf7, 0xf3, 0xf7, 0x00, 0xfb, 0xf1, 0x00, 0xf7, 0x1f, 0x04, 0x02, 0x08, 0xf7, 0x02, 0x09, 0xee, 0x05, 0xf9, 0xf8, 0xe9, 0xfa, 0xe7, 0xfb, 0x03, 0xed, 0x06, 0xff, 0x04, 0x01, 0xf7, 0x0d, 0x03, 0x0e, 0x05, 0xf2, 0xf7, 0xfb, 0xdf, 0x09, 0x06, 0xf6, 0xf9, 0xf6, 0xec, 0xf8, 0xf9, 0x05, 0x04, 0x04, 0xfa, 0x01, 0x00, 0xfb, 0x03, 0xfb, 0xfb, 0x02, 0xf9, 0x3c, 0x07, 0xfe, 0xff, 0xff, 0x02, 0xf9, 0xf6, 0x26, 0xf9, 0xfb, 0xf0, 0xff, 0xf8, 0xfb, 0x0a, 0xe6, 0xfe, 0xfe, 0x00, 0xfa, 0x08, 0x1e, 0x01, 0x01, 0xfe, 0xea, 0x04, 0xfd, 0xe7, 0xfb, 0x02, 0xf7, 0xff, 0xe6, 0xfd, 0x02, 0xf7, 0x09, 0x01, 0x07, 0x01, 0x07, 0xf9, 0xf9, 0xff, 0x00, 0xef, 0x04, 0xfa, 0x00, 0xff, 0xf8, 0x00, 0xff, 0xfc, 0x07, 0xf4, 0xfa, 0x03, 0x06, 0xf4, 0xfe, 0x00, 0xf2, 0xf0, 0xe9, 0xfb, 0xfe, 0xf7, 0xfb, 0xfc, 0xf5, 0x06, 0xf8, 0x03, 0xf4, 0x06, 0x08, 0xe5, 0x03, 0xfe, 0xe5, 0xfe, 0xea, 0xf4, 0xf0, 0x02, 0x0a, 0x07, 0xfe, 0xf9, 0xfe, 0x00, 0xf7, 0x06, 0x00, 0xfc, 0xfd, 0x05, 0x00, 0x01, 0xf9, 0xf5, 0xf6, 0xfe, 0x08, 0x01, 0x04, 0x04, 0x03, 0xfc, 0xf9, 0xf7, 0xef, 0x00, 0xf8, 0xff, 0x03, 0xfb, 0xff, 0xfb, 0x07, 0xc7, 0xfb, 0xfe, 0x04, 0xf8, 0x06, 0x06, 0x03, 0x01, 0x02, 0x0b, 0xf4, 0xf6, 0xfb, 0x2f, 0x06, 0xfc, 0xfe, 0xf7, 0xff, 0xfc, 0x10, 0x07, 0xee, 0xea, 0xed, 0xf9, 0x55, 0xfb, 0x0c, 0x05, 0xfa, 0xfe, 0x04, 0x02, 0x20, 0xfc, 0xfb, 0xf4, 0x06, 0x53, 0xfa, 0xee, 0x09, 0x0b, 0x07, 0x07, 0xed, 0xfb, 0xd5, 0xfd, 0xe2, 0x08, 0x06, 0xf6, 0xe9, 0x11, 0x10, 0xfa, 0x10, 0x31, 0xee, 0x0d, 0x05, 0xf3, 0x00, 0xfa, 0xfd, 0x05, 0x06, 0x08, 0x02, 0xfd, 0xfd, 0x02, 0xfd, 0xfa, 0x06, 0x09, 0xf9, 0x02, 0xfa, 0xfe, 0xf9, 0xff, 0x0d, 0x09, 0xfa, 0xff, 0xfd, 0xfb, 0x04, 0xfd, 0x05, 0xf9, 0x06, 0x03, 0xfe, 0x07, 0xfa, 0xf6, 0xfd, 0x04, 0x06, 0xf6, 0x0a, 0x07, 0xf7, 0xf8, 0x08, 0x12, 0x08, 0x0b, 0x07, 0x07, 0x03, 0x01, 0x00, 0x07, 0x00, 0xfb, 0xf9, 0x03, 0x06, 0x01, 0x01, 0x09, 0xf9, 0xfb, 0x0a, 0x01, 0xe4, 0xfa, 0xf9, 0x00, 0x08, 0xfe, 0x00, 0xf7, 0x00, 0xfb, 0x05, 0x03, 0x00, 0x02, 0xfe, 0xfe, 0xfd, 0x08, 0x01, 0x0d, 0xfc, 0xf4, 0xfe, 0x03, 0xef, 0x06, 0xf8, 0x03, 0x03, 0xf4, 0xfa, 0xff, 0x02, 0xfb, 0x02, 0xfc, 0x00, 0x02, 0xfc, 0x03, 0xfb, 0xfd, 0xfa, 0xff, 0xff, 0x02, 0xf9, 0xf8, 0xfa, 0xf6, 0xf2, 0xeb, 0xfc, 0x05, 0xfa, 0xfa, 0x00, 0xf3, 0x13, 0x0c, 0xed, 0x06, 0x01, 0x00, 0xfa, 0xf5, 0x07, 0x02, 0xfa, 0xff, 0x06, 0x02, 0x02, 0x05, 0xfa, 0xf7, 0xff, 0x01, 0x08, 0xeb, 0xfb, 0x05, 0x03, 0xe9, 0xfa, 0x05, 0x05, 0x04, 0x01, 0x02, 0xf9, 0xff, 0xf5, 0x04, 0x00, 0xff, 0x02, 0xf8, 0x03, 0x01, 0x15, 0x0a, 0x02, 0x04, 0xfe, 0xf7, 0xf7, 0xf4, 0x00, 0x04, 0xf6, 0x03, 0xfa, 0xfb, 0xf8, 0x08, 0x02, 0x06, 0x00, 0x25, 0xff, 0xf9, 0x07, 0x07, 0x02, 0x01, 0x04, 0xf7, 0x01, 0x08, 0x02, 0x02, 0xfe, 0xdd, 0xfe, 0x04, 0x05, 0x04, 0x00, 0xf7, 0x04, 0xff, 0xfe, 0x06, 0xf8, 0x04, 0x01, 0xfa, 0x09, 0x08, 0x13, 0x05, 0xfe, 0x09, 0x05, 0xfc, 0xff, 0xef, 0x05, 0x05, 0x04, 0xf3, 0xf9, 0xfd, 0x04, 0xfd, 0x00, 0xff, 0xef, 0x09, 0xfb, 0xfa, 0x03, 0x05, 0xfa, 0x02, 0xfe, 0xfe, 0xfe, 0xff, 0x06, 0xfc, 0xff, 0x00, 0x01, 0x05, 0x07, 0xfa, 0x00, 0xf9, 0x15, 0xf7, 0xf3, 0xfc, 0xfe, 0x09, 0x33, 0x06, 0x06, 0xfb, 0x0f, 0xfc, 0xfd, 0xfb, 0x14, 0xfa, 0x00, 0xef, 0x08, 0xee, 0x06, 0xfe, 0x0a, 0xfc, 0xfc, 0xfb, 0x04, 0xfd, 0xf1, 0xf8, 0xfd, 0xfa, 0xef, 0xfa, 0xfa, 0xeb, 0xfe, 0xfd, 0xf8, 0xfe, 0x0b, 0xf5, 0x0a, 0x13, 0xf9, 0xf8, 0xfe, 0x02, 0x01, 0x02, 0x03, 0xff, 0xf6, 0xff, 0xf4, 0x00, 0xf0, 0xf9, 0x04, 0xfb, 0xf9, 0x01, 0x04, 0xfe, 0x00, 0xf7, 0xfc, 0xf4, 0xf5, 0xe6, 0x06, 0xf8, 0xfc, 0xff, 0x06, 0xf9, 0xf1, 0xff, 0xfa, 0xf9, 0x04, 0x03, 0xf7, 0x05, 0xfe, 0xf8, 0xfb, 0xfa, 0xfc, 0xff, 0x03, 0x9b, 0x08, 0xcb, 0xfa, 0xf9, 0x07, 0x13, 0xef, 0xf8, 0xf7, 0xfa, 0xfa, 0xff, 0x09, 0x14, 0x05, 0xf2, 0x08, 0x21, 0x11, 0xfa, 0x07, 0xfa, 0x00, 0x04, 0xf2, 0xf3, 0x11, 0xfe, 0x01, 0x05, 0xfd, 0x04, 0xfe, 0xfe, 0xfb, 0x03, 0xfc, 0xfe, 0xf4, 0xfd, 0xf9, 0x04, 0xf2, 0xf5, 0xf6, 0x07, 0x02, 0x29, 0xfd, 0x02, 0x02, 0x09, 0xfa, 0x06, 0xf8, 0xfc, 0x03, 0xf2, 0x06, 0x0c, 0xfb, 0xfe, 0x10, 0xf6, 0x07, 0x02, 0xf6, 0x08, 0x0e, 0x0c, 0xfc, 0xf6, 0xf1, 0x03, 0xfb, 0xf0, 0xed, 0xfb, 0x01, 0xee, 0x0c, 0xe7, 0x04, 0x08, 0x08, 0x02, 0xff, 0x04, 0xfd, 0x08, 0xf9, 0xf2, 0x0f, 0x02, 0x07, 0x00, 0x04, 0xfd, 0xfc, 0xfa, 0x0a, 0x00, 0xfc, 0x04, 0xfc, 0xfe, 0x02, 0x01, 0x06, 0x0d, 0x01, 0x05, 0xfa, 0x08, 0xff, 0x05, 0xfa, 0x04, 0x0e, 0x09, 0xff, 0xfe, 0x05, 0xf2, 0x03, 0xf4, 0x01, 0xfb, 0xff, 0x00, 0x00, 0x05, 0xfc, 0x08, 0xff, 0x0f, 0x03, 0x02, 0x05, 0xef, 0x03, 0x01, 0xfd, 0x04, 0x00, 0xfa, 0x02, 0xfd, 0xfb, 0xfe, 0xfc, 0xf9, 0xfd, 0xfb, 0xfb, 0xff, 0xfa, 0xfd, 0xf9, 0x07, 0xf7, 0xfc, 0x00, 0x02, 0xff, 0xf7, 0xf8, 0xfe, 0xf2, 0x06, 0xfe, 0xfe, 0x04, 0x04, 0x01, 0xf8, 0x05, 0x04, 0xfd, 0xf9, 0xf5, 0x06, 0xfd, 0x02, 0xfd, 0x02, 0x06, 0xfa, 0xff, 0xf9, 0xff, 0x03, 0xfe, 0xf8, 0xfc, 0xfc, 0x03, 0xfa, 0x00, 0xf8, 0xf6, 0xd6, 0xfe, 0x07, 0xf7, 0x05, 0xfd, 0xf4, 0x06, 0xfe, 0xf7, 0xfb, 0x0b, 0xfa, 0xf4, 0x05, 0x04, 0xf6, 0x0a, 0xf1, 0x03, 0xff, 0x10, 0xfd, 0xf3, 0xf4, 0xfd, 0xf7, 0x10, 0xef, 0xfe, 0xfe, 0x08, 0xfc, 0xf9, 0x08, 0xe4, 0xf3, 0xf8, 0xf8, 0x04, 0x00, 0xfc, 0x01, 0x04, 0x05, 0xf7, 0x2a, 0x04, 0x00, 0x01, 0xff, 0xfa, 0x05, 0x06, 0x06, 0x08, 0xfa, 0x05, 0xfb, 0xfc, 0x01, 0x00, 0xfc, 0xfc, 0x02, 0xf7, 0xf9, 0xf8, 0x05, 0x09, 0x08, 0xf8, 0xfb, 0xfe, 0xfd, 0x00, 0xfb, 0xfe, 0x07, 0x02, 0x00, 0xf7, 0x07, 0x06, 0xff, 0x00, 0x10, 0xfd, 0xfb, 0x07, 0xfb, 0x06, 0xfc, 0xfe, 0xf7, 0xf5, 0x00, 0xfe, 0x05, 0x02, 0xfc, 0x01, 0x11, 0xf8, 0x02, 0xf5, 0x02, 0xfe, 0x03, 0xf4, 0xfd, 0x02, 0x0a, 0x4d, 0x01, 0x0b, 0xfe, 0x0f, 0xfe, 0xfc, 0xff, 0x1d, 0xf7, 0xfb, 0xf8, 0xf7, 0xfa, 0x18, 0xff, 0xfb, 0x01, 0xf8, 0x07, 0x01, 0x02, 0xfd, 0x18, 0x00, 0x02, 0xfc, 0xfd, 0x04, 0xfd, 0x01, 0x02, 0x04, 0x35, 0x05, 0x03, 0x06, 0xde, 0x07, 0x03, 0x07, 0x07, 0x15, 0xf5, 0xfb, 0x08, 0xff, 0xfe, 0x01, 0xf8, 0xf9, 0xf8, 0xfd, 0x05, 0x06, 0x02, 0xfa, 0xf5, 0x00, 0x04, 0xf9, 0xea, 0xf9, 0xfd, 0x09, 0xf7, 0xfe, 0x01, 0x02, 0x05, 0x01, 0xf9, 0xfd, 0xfc, 0x06, 0x08, 0xff, 0xf7, 0xfd, 0xfc, 0xff, 0xf8, 0xfb, 0x28, 0x0e, 0x33, 0xfc, 0xf4, 0x04, 0x00, 0xf9, 0xfc, 0x03, 0x05, 0xf9, 0x05, 0xfb, 0xf8, 0x07, 0x03, 0x03, 0x00, 0x05, 0x00, 0xff, 0x04, 0x03, 0x04, 0x08, 0xf3, 0x07, 0xfb, 0xfa, 0x04, 0xfa, 0x06, 0x01, 0x05, 0x06, 0xfd, 0xfa, 0x01, 0xfa, 0xc5, 0xf9, 0xfa, 0x04, 0x00, 0xf9, 0x05, 0x06, 0x02, 0xfe, 0x00, 0x00, 0x09, 0xfa, 0xf9, 0x07, 0x08, 0xf9, 0x0a, 0x02, 0x05, 0xf8, 0x05, 0xf2, 0xf7, 0xf9, 0x00, 0x07, 0xff, 0x0a, 0xf9, 0x0c, 0xf7, 0xfb, 0xfd, 0x10, 0x02, 0xfe, 0xfc, 0x08, 0xf7, 0x04, 0xf6, 0x02, 0x04, 0x00, 0xf7, 0xfe, 0x06, 0x00, 0xf5, 0xfc, 0xfe, 0x02, 0x04, 0xf9, 0xfc, 0x00, 0xff, 0xfb, 0x06, 0xed, 0xf8, 0xff, 0xfb, 0xfd, 0x05, 0xf7, 0x06, 0x00, 0xff, 0xf3, 0xfa, 0xff, 0x05, 0xfc, 0xfc, 0x06, 0xf8, 0xfb, 0xfd, 0xf6, 0xf8, 0xf7, 0xfe, 0x12, 0xf6, 0xfc, 0xf5, 0xff, 0xf7, 0xf9, 0xf6, 0x04, 0xfb, 0xfe, 0xf8, 0x00, 0x03, 0x06, 0xfe, 0xfc, 0x01, 0x02, 0x06, 0xf6, 0xff, 0xff, 0xfc, 0xf3, 0xf3, 0xfe, 0xf5, 0xfd, 0xfd, 0xff, 0x02, 0xf6, 0x03, 0xfc, 0x00, 0xfe, 0xfb, 0x0a, 0x04, 0x0c, 0x05, 0xf6, 0x02, 0x05, 0xfb, 0xfb, 0xff, 0xfb, 0xfa, 0x15, 0x02, 0xf4, 0x00, 0x1f, 0xf9, 0xf7, 0x06, 0x00, 0xf4, 0x06, 0x03, 0x00, 0x05, 0xf6, 0xf7, 0x08, 0x03, 0x02, 0xf9, 0xfa, 0xfa, 0x02, 0x06, 0xf8, 0x0f, 0xfc, 0xf4, 0xff, 0x1a, 0xfb, 0x04, 0x32, 0x0b, 0xfb, 0x11, 0x0e, 0x06, 0xe5, 0xf1, 0xf8, 0x04, 0xfa, 0xfa, 0x25, 0x21, 0x0a, 0x1b, 0xf9, 0xf1, 0xfa, 0x2a, 0x38, 0xe4, 0xfe, 0xf7, 0x00, 0xf2, 0xf3, 0xf8, 0x01, 0x25, 0xf7, 0xfb, 0xf3, 0xfa, 0xf1, 0xfc, 0xe5, 0x09, 0xf7, 0xdc, 0xfe, 0x02, 0xfa, 0x07, 0xf7, 0xfa, 0xf3, 0xe6, 0xfb, 0x0a, 0xfb, 0xfe, 0x06, 0xfc, 0xf8, 0x00, 0xf4, 0x00, 0x01, 0xfb, 0x3a, 0xf0, 0x08, 0x01, 0x0e, 0xfd, 0x05, 0xfe, 0x30, 0xfc, 0x02, 0xf2, 0x02, 0xf2, 0x0d, 0xfc, 0x07, 0x05, 0x03, 0x06, 0xf5, 0x03, 0xff, 0x1f, 0xf8, 0x03, 0xfb, 0x07, 0x01, 0x04, 0xf9, 0x06, 0xf5, 0x31, 0xf8, 0xfc, 0xfd, 0xf7, 0xfe, 0x04, 0x01, 0xfa, 0xf9, 0x00, 0x03, 0xfa, 0xfe, 0x07, 0x01, 0xf7, 0xf6, 0x04, 0x01, 0xfb, 0xed, 0x02, 0x06, 0xfd, 0x0e, 0x00, 0xfa, 0xf7, 0xfd, 0xf9, 0xfc, 0xff, 0xf8, 0xfb, 0x07, 0xf5, 0x07, 0xf9, 0x01, 0xf8, 0xef, 0xfb, 0xff, 0xff, 0xfd, 0xf8, 0xfe, 0xfb, 0x05, 0x02, 0x0a, 0xf5, 0xfc, 0xe2, 0x05, 0x04, 0x06, 0xfc, 0x03, 0xff, 0x06, 0xfc, 0xfe, 0x00, 0xfb, 0x07, 0xfd, 0xfa, 0xfb, 0x07, 0x11, 0x01, 0x07, 0x04, 0x04, 0xfe, 0xf9, 0xf3, 0x04, 0xfb, 0xfc, 0x07, 0xfa, 0xfb, 0x06, 0xfb, 0xf6, 0xfe, 0xf1, 0x19, 0xfb, 0xf9, 0xf8, 0x00, 0xfe, 0x08, 0xfe, 0x0e, 0xfd, 0xed, 0xf7, 0x02, 0xfb, 0xf5, 0x05, 0xfc, 0xfe, 0x06, 0xfb, 0xf8, 0x01, 0xf2, 0x05, 0xff, 0x06, 0xf8, 0x02, 0x00, 0x04, 0x00, 0xee, 0x02, 0x06, 0x05, 0xfb, 0xf9, 0x00, 0xfc, 0xfb, 0x01, 0xf4, 0xfc, 0xff, 0x04, 0xfe, 0xff, 0xfb, 0xfd, 0x04, 0xfc, 0xfe, 0x03, 0x06, 0xfe, 0xff, 0x07, 0x01, 0xfd, 0x02, 0x0e, 0xf7, 0x05, 0xfc, 0x02, 0xfe, 0xfd, 0xfa, 0xfa, 0x03, 0xf4, 0x04, 0xf9, 0xfe, 0xf8, 0x05, 0x04, 0x11, 0x06, 0xf9, 0xf2, 0x0e, 0x42, 0x02, 0xf5, 0x0b, 0x02, 0xe1, 0xf9, 0x06, 0x02, 0x02, 0xff, 0x07, 0x01, 0x00, 0x06, 0x06, 0x0d, 0xf2, 0x1b, 0xf8, 0x07, 0x04, 0xfd, 0xf7, 0xf9, 0x01, 0xfc, 0xf8, 0x34, 0x03, 0xff, 0x01, 0x06, 0xf8, 0x03, 0xfb, 0x09, 0x02, 0x06, 0x06, 0x03, 0xf4, 0xfa, 0xfa, 0x04, 0x1f, 0xf5, 0xfc, 0x08, 0x0f, 0xf9, 0xfd, 0xfa, 0x19, 0x03, 0x05, 0xfb, 0xf6, 0x00, 0x05, 0xfb, 0xf8, 0x04, 0x08, 0xfa, 0xf9, 0x03, 0xfe, 0x0c, 0xfa, 0xf8, 0x06, 0xff, 0xf9, 0xf7, 0xf9, 0x04, 0xf7, 0xfd, 0x00, 0xf2, 0x02, 0x0e, 0xfc, 0xf8, 0x08, 0xfd, 0xfe, 0x2e, 0x08, 0x09, 0xf3, 0x02, 0xf0, 0x0e, 0x36, 0xfb, 0x23, 0x0f, 0x14, 0x05, 0x04, 0xf0, 0x19, 0x26, 0x28, 0xe2, 0x13, 0x03, 0x07, 0xf0, 0x08, 0xff, 0x05, 0x14, 0xdf, 0xfb, 0xfc, 0xf5, 0xf8, 0xf7, 0x0b, 0x13, 0x04, 0xea, 0xf9, 0x00, 0x03, 0x08, 0x0c, 0x04, 0x04, 0x00, 0xfa, 0x00, 0x06, 0x04, 0x02, 0xf8, 0x00, 0x05, 0xf2, 0xf8, 0x00, 0x01, 0xfe, 0x09, 0x07, 0xfd, 0xfc, 0x01, 0x01, 0xf3, 0x02, 0x07, 0x00, 0xf7, 0xfd, 0xea, 0xf6, 0xf8, 0xf8, 0x09, 0x01, 0xf9, 0xfd, 0xf8, 0xfc, 0xf8, 0xfb, 0x06, 0xf1, 0xfc, 0xf9, 0xeb, 0x05, 0x04, 0xee, 0x00, 0x0c, 0xfd, 0x00, 0xfd, 0x08, 0xfc, 0x07, 0x02, 0x00, 0x05, 0xfd, 0xfa, 0x01, 0x04, 0xf9, 0xf9, 0xf6, 0x09, 0x05, 0xf9, 0x0b, 0xfe, 0xfe, 0x03, 0x06, 0x0b, 0x06, 0xfe, 0xf7, 0x04, 0x00, 0xfb, 0xfa, 0xfd, 0x0a, 0xf7, 0x04, 0x01, 0x07, 0xff, 0xf6, 0xf7, 0x04, 0x06, 0x0e, 0xfa, 0xfb, 0xf9, 0xff, 0xfd, 0xff, 0xf2, 0x09, 0xe8, 0x07, 0x05, 0xf7, 0xfc, 0x02, 0xf9, 0xfd, 0x06, 0xf6, 0xfc, 0xfb, 0xf5, 0x0d, 0xfc, 0xfb, 0x03, 0x02, 0x02, 0x07, 0xfe, 0x18, 0xfb, 0xf7, 0xfe, 0xfe, 0x02, 0xe7, 0xff, 0x00, 0xff, 0x02, 0xf8, 0xf5, 0x04, 0xfa, 0xf5, 0x04, 0x02, 0x00, 0xff, 0xfc, 0xfc, 0x00, 0x04, 0xee, 0xfe, 0xf2, 0xfb, 0xf7, 0x04, 0x02, 0xfe, 0xf9, 0xff, 0xfa, 0xf7, 0x04, 0x00, 0x00, 0xfc, 0xf7, 0x02, 0x01, 0xf8, 0x06, 0x06, 0xf8, 0xff, 0xfd, 0xf6, 0x01, 0x07, 0x03, 0xf9, 0xf9, 0xf8, 0xeb, 0xfb, 0xfd, 0xfe, 0xfd, 0xf7, 0x05, 0x04, 0xfc, 0xf7, 0xff, 0x04, 0x05, 0xfb, 0x03, 0xf8, 0xf8, 0xfd, 0xf4, 0x16, 0xfb, 0x32, 0x04, 0x15, 0x02, 0x08, 0x02, 0xff, 0xf0, 0xf7, 0xf6, 0x02, 0xf8, 0xf7, 0x07, 0xee, 0x5b, 0xff, 0x78, 0xf7, 0x10, 0x01, 0x04, 0x27, 0x28, 0xf8, 0x35, 0xda, 0xec, 0xfd, 0xfb, 0x10, 0xff, 0x0c, 0xf7, 0xfe, 0x01, 0x02, 0x14, 0x2b, 0xfb, 0x05, 0xf7, 0x20, 0x0a, 0x06, 0xff, 0x03, 0xf9, 0x34, 0x04, 0x02, 0xfb, 0xff, 0x00, 0x02, 0x05, 0xfa, 0xfb, 0xfc, 0xf8, 0xf8, 0xfe, 0xf8, 0xf8, 0x02, 0xf8, 0x01, 0xf1, 0xf6, 0xf7, 0xfe, 0xff, 0xfa, 0xf0, 0x01, 0x06, 0xf1, 0xf9, 0xfa, 0xf7, 0x08, 0xf0, 0x03, 0xfb, 0x02, 0xfb, 0xff, 0x04, 0xfc, 0xf4, 0x02, 0xfb, 0xfe, 0x02, 0xfb, 0x01, 0x00, 0xff, 0xf7, 0xf0, 0xf1, 0xeb, 0xec, 0xfa, 0xf8, 0xfd, 0xfe, 0x03, 0xfc, 0xf0, 0x08, 0x03, 0xfd, 0xee, 0xed, 0x05, 0xfa, 0x09, 0x12, 0xf5, 0x08, 0x00, 0xfa, 0x10, 0x04, 0xf3, 0xf3, 0xf9, 0xfe, 0xfa, 0xfc, 0x04, 0x0a, 0xf7, 0xfe, 0x02, 0x01, 0x01, 0xf3, 0xff, 0x00, 0xf4, 0x06, 0xfd, 0xfb, 0x03, 0x07, 0xfd, 0x03, 0x05, 0xff, 0xf8, 0xfe, 0x00, 0x07, 0x07, 0x09, 0xfb, 0x02, 0x02, 0x07, 0x00, 0x01, 0xfe, 0xfe, 0xfc, 0x03, 0xfc, 0x0a, 0x0f, 0xfc, 0x0c, 0xfd, 0xfe, 0xf8, 0xfd, 0xf1, 0xfe, 0x01, 0x07, 0xfb, 0x02, 0xfb, 0xff, 0x04, 0xfd, 0x00, 0x09, 0x08, 0xf9, 0xfe, 0xfa, 0x09, 0xf3, 0x09, 0xfe, 0xf4, 0x02, 0xfd, 0x00, 0x03, 0xfc, 0x56, 0xfe, 0xff, 0xff, 0x04, 0x00, 0x00, 0x00, 0x40, 0x01, 0x00, 0x00, 0x75, 0x00, 0x00, 0x00, 0xb7, 0xff, 0xff, 0xff, 0x2c, 0x03, 0x00, 0x00, 0xd1, 0xff, 0xff, 0xff, 0x36, 0x02, 0x00, 0x00, 0xad, 0xff, 0xff, 0xff, 0xfa, 0xff, 0xff, 0xff, 0x84, 0xff, 0xff, 0xff, 0xa2, 0xff, 0xff, 0xff, 0x6d, 0xff, 0xff, 0xff, 0x72, 0xff, 0xff, 0xff, 0x5c, 0xff, 0xff, 0xff, 0x70, 0xff, 0xff, 0xff, 0x12, 0x02, 0x00, 0x00, 0x80, 0xff, 0xff, 0xff, 0x70, 0xff, 0xff, 0xff, 0x33, 0x00, 0x00, 0x00, 0xd6, 0xff, 0xff, 0xff, 0x7f, 0xff, 0xff, 0xff, 0xee, 0xff, 0xff, 0xff, 0x98, 0xff, 0xff, 0xff, 0x8e, 0xff, 0xff, 0xff, 0x15, 0x01, 0x00, 0x00, 0xfc, 0xff, 0xff, 0xff, 0xae, 0xff, 0xff, 0xff, 0x7e, 0xff, 0xff, 0xff, 0x56, 0x00, 0x00, 0x00, 0x87, 0xff, 0xff, 0xff, 0xac, 0xff, 0xff, 0xff, 0xe2, 0xff, 0xff, 0xff, 0xe6, 0xff, 0xff, 0xff, 0x9a, 0xff, 0xff, 0xff, 0x11, 0xff, 0xff, 0xff, 0xc1, 0xff, 0xff, 0xff, 0x8d, 0xff, 0xff, 0xff, 0xaf, 0x00, 0x00, 0x00, 0x7a, 0xff, 0xff, 0xff, 0x8e, 0x01, 0x00, 0x00, 0xae, 0xff, 0xff, 0xff, 0xd4, 0xff, 0xff, 0xff, 0x60, 0xff, 0xff, 0xff, 0xc1, 0xff, 0xff, 0xff, 0xc6, 0xff, 0xff, 0xff, 0x88, 0xff, 0xff, 0xff, 0xfa, 0xff, 0xff, 0xff, 0x52, 0xff, 0xff, 0xff, 0x44, 0x00, 0x00, 0x00, 0xe4, 0xff, 0xff, 0xff, 0xf7, 0x02, 0x00, 0x00, 0x9e, 0x03, 0x00, 0x00, 0xad, 0xff, 0xff, 0xff, 0xef, 0xff, 0xff, 0xff, 0xc6, 0xff, 0xff, 0xff, 0x24, 0x00, 0x00, 0x00, 0x59, 0x00, 0x00, 0x00, 0xee, 0xff, 0xff, 0xff, 0x74, 0x02, 0x00, 0x00, 0x6e, 0xff, 0xff, 0xff, 0xf8, 0xff, 0xff, 0xff, 0xbc, 0xff, 0xff, 0xff, 0x8a, 0xff, 0xff, 0xff, 0xb2, 0xff, 0xff, 0xff, 0xf5, 0xff, 0xff, 0xff, 0x78, 0xff, 0xff, 0xff, 0x51, 0xff, 0xff, 0xff, 0x5a, 0x00, 0x00, 0x00, 0xe1, 0xff, 0xff, 0xff, 0x27, 0x03, 0x00, 0x00, 0x87, 0xff, 0xff, 0xff, 0xb8, 0xff, 0xff, 0xff, 0xcf, 0xff, 0xff, 0xff, 0xc2, 0xff, 0xff, 0xff, 0xc2, 0xff, 0xff, 0xff, 0xba, 0xff, 0xff, 0xff, 0xc7, 0xff, 0xff, 0xff, 0xb2, 0xff, 0xff, 0xff, 0x1e, 0x01, 0x00, 0x00, 0xf4, 0xff, 0xff, 0xff, 0xca, 0xff, 0xff, 0xff, 0x75, 0x00, 0x00, 0x00, 0xa2, 0xff, 0xff, 0xff, 0x04, 0x00, 0x00, 0x00, 0x50, 0x00, 0x00, 0x00, 0x36, 0x23, 0x81, 0x00, 0xd2, 0x30, 0xf8, 0x06, 0x25, 0x0e, 0x00, 0x33, 0xf9, 0x21, 0x12, 0x03, 0xf9, 0x14, 0xfb, 0x00, 0x06, 0xfa, 0xc7, 0x10, 0xdf, 0xed, 0xd8, 0x16, 0x29, 0x06, 0xfd, 0xe7, 0xfd, 0x04, 0x07, 0xc9, 0xf9, 0xe7, 0x41, 0x30, 0xe3, 0x16, 0xda, 0x04, 0x0f, 0x13, 0xf4, 0x02, 0xaa, 0xa2, 0x15, 0x21, 0xed, 0x03, 0xe5, 0x28, 0xd9, 0xf4, 0xcb, 0x0e, 0xfb, 0x01, 0xe3, 0xf8, 0x2c, 0xe4, 0x18, 0x91, 0x14, 0xd6, 0xf7, 0x03, 0x12, 0xef, 0xf3, 0x0c, 0xe4, 0xf8, 0xea, 0xe4, 0x00, 0x00, 0x06, 0x00, 0x08, 0x00, 0x04, 0x00, 0x06, 0x00, 0x00, 0x00, 0x04, 0x00, 0x00, 0x00, 0x04, 0x00, 0x00, 0x00, 0x24, 0x17, 0x00, 0x00, 0x50, 0xff, 0xff, 0xff, 0x54, 0xff, 0xff, 0xff, 0x0f, 0x00, 0x00, 0x00, 0x4d, 0x4c, 0x49, 0x52, 0x20, 0x43, 0x6f, 0x6e, 0x76, 0x65, 0x72, 0x74, 0x65, 0x64, 0x2e, 0x00, 0x01, 0x00, 0x00, 0x00, 0x14, 0x00, 0x00, 0x00, 0x00, 0x00, 0x0e, 0x00, 0x18, 0x00, 0x14, 0x00, 0x10, 0x00, 0x0c, 0x00, 0x08, 0x00, 0x04, 0x00, 0x0e, 0x00, 0x00, 0x00, 0x14, 0x00, 0x00, 0x00, 0x1c, 0x00, 0x00, 0x00, 0x44, 0x01, 0x00, 0x00, 0x48, 0x01, 0x00, 0x00, 0x4c, 0x01, 0x00, 0x00, 0x04, 0x00, 0x00, 0x00, 0x6d, 0x61, 0x69, 0x6e, 0x00, 0x00, 0x00, 0x00, 0x05, 0x00, 0x00, 0x00, 0xec, 0x00, 0x00, 0x00, 0xa4, 0x00, 0x00, 0x00, 0x6c, 0x00, 0x00, 0x00, 0x34, 0x00, 0x00, 0x00, 0x10, 0x00, 0x00, 0x00, 0x00, 0x00, 0x0a, 0x00, 0x10, 0x00, 0x0c, 0x00, 0x08, 0x00, 0x04, 0x00, 0x0a, 0x00, 0x00, 0x00, 0x0c, 0x00, 0x00, 0x00, 0x10, 0x00, 0x00, 0x00, 0x01, 0x00, 0x00, 0x00, 0x01, 0x00, 0x00, 0x00, 0x0d, 0x00, 0x00, 0x00, 0x01, 0x00, 0x00, 0x00, 0x0c, 0x00, 0x00, 0x00, 0x62, 0xff, 0xff, 0xff, 0x14, 0x00, 0x00, 0x00, 0x00, 0x00, 0x00, 0x08, 0x10, 0x00, 0x00, 0x00, 0x14, 0x00, 0x00, 0x00, 0x04, 0x00, 0x04, 0x00, 0x04, 0x00, 0x00, 0x00, 0x01, 0x00, 0x00, 0x00, 0x0c, 0x00, 0x00, 0x00, 0x03, 0x00, 0x00, 0x00, 0x0b, 0x00, 0x00, 0x00, 0x02, 0x00, 0x00, 0x00, 0x01, 0x00, 0x00, 0x00, 0x96, 0xff, 0xff, 0xff, 0x10, 0x00, 0x00, 0x00, 0x00, 0x00, 0x00, 0x08, 0x10, 0x00, 0x00, 0x00, 0x14, 0x00, 0x00, 0x00, 0x86, 0xff, 0xff, 0xff, 0x00, 0x00, 0x00, 0x01, 0x01, 0x00, 0x00, 0x00, 0x0b, 0x00, 0x00, 0x00, 0x03, 0x00, 0x00, 0x00, 0x0a, 0x00, 0x00, 0x00, 0x04, 0x00, 0x00, 0x00, 0x03, 0x00, 0x00, 0x00, 0xca, 0xff, 0xff, 0xff, 0x10, 0x00, 0x00, 0x00, 0x00, 0x00, 0x00, 0x08, 0x10, 0x00, 0x00, 0x00, 0x14, 0x00, 0x00, 0x00, 0xba, 0xff, 0xff, 0xff, 0x00, 0x00, 0x00, 0x01, 0x01, 0x00, 0x00, 0x00, 0x0a, 0x00, 0x00, 0x00, 0x03, 0x00, 0x00, 0x00, 0x09, 0x00, 0x00, 0x00, 0x06, 0x00, 0x00, 0x00, 0x05, 0x00, 0x00, 0x00, 0x00, 0x00, 0x0e, 0x00, 0x16, 0x00, 0x00, 0x00, 0x10, 0x00, 0x0c, 0x00, 0x0b, 0x00, 0x04, 0x00, 0x0e, 0x00, 0x00, 0x00, 0x18, 0x00, 0x00, 0x00, 0x00, 0x00, 0x00, 0x08, 0x18, 0x00, 0x00, 0x00, 0x1c, 0x00, 0x00, 0x00, 0x00, 0x00, 0x06, 0x00, 0x08, 0x00, 0x07, 0x00, 0x06, 0x00, 0x00, 0x00, 0x00, 0x00, 0x00, 0x01, 0x01, 0x00, 0x00, 0x00, 0x09, 0x00, 0x00, 0x00, 0x03, 0x00, 0x00, 0x00, 0x00, 0x00, 0x00, 0x00, 0x08, 0x00, 0x00, 0x00, 0x07, 0x00, 0x00, 0x00, 0x01, 0x00, 0x00, 0x00, 0x0d, 0x00, 0x00, 0x00, 0x01, 0x00, 0x00, 0x00, 0x00, 0x00, 0x00, 0x00, 0x0e, 0x00, 0x00, 0x00, 0x44, 0x07, 0x00, 0x00, 0xac, 0x06, 0x00, 0x00, 0x20, 0x06, 0x00, 0x00, 0xa4, 0x05, 0x00, 0x00, 0x30, 0x05, 0x00, 0x00, 0xb4, 0x04, 0x00, 0x00, 0x40, 0x04, 0x00, 0x00, 0xc4, 0x03, 0x00, 0x00, 0x50, 0x03, 0x00, 0x00, 0x94, 0x02, 0x00, 0x00, 0xd8, 0x01, 0x00, 0x00, 0x1c, 0x01, 0x00, 0x00, 0x80, 0x00, 0x00, 0x00, 0x04, 0x00, 0x00, 0x00, 0x0a, 0xf9, 0xff, 0xff, 0x00, 0x00, 0x00, 0x01, 0x18, 0x00, 0x00, 0x00, 0x20, 0x00, 0x00, 0x00, 0x3c, 0x00, 0x00, 0x00, 0x0e, 0x00, 0x00, 0x00, 0x00, 0x00, 0x00, 0x09, 0x50, 0x00, 0x00, 0x00, 0x02, 0x00, 0x00, 0x00, 0xff, 0xff, 0xff, 0xff, 0x01, 0x00, 0x00, 0x00, 0xf4, 0xf8, 0xff, 0xff, 0x08, 0x00, 0x00, 0x00, 0x10, 0x00, 0x00, 0x00, 0x01, 0x00, 0x00, 0x00, 0x80, 0xff, 0xff, 0xff, 0xff, 0xff, 0xff, 0xff, 0x01, 0x00, 0x00, 0x00, 0x00, 0x00, 0x80, 0x3b, 0x19, 0x00, 0x00, 0x00, 0x53, 0x74, 0x61, 0x74, 0x65, 0x66, 0x75, 0x6c, 0x50, 0x61, 0x72, 0x74, 0x69, 0x74, 0x69, 0x6f, 0x6e, 0x65, 0x64, 0x43, 0x61, 0x6c, 0x6c, 0x3a, 0x30, 0x00, 0x00, 0x00, 0x02, 0x00, 0x00, 0x00, 0x01, 0x00, 0x00, 0x00, 0x01, 0x00, 0x00, 0x00, 0x82, 0xf9, 0xff, 0xff, 0x00, 0x00, 0x00, 0x01, 0x18, 0x00, 0x00, 0x00, 0x20, 0x00, 0x00, 0x00, 0x3c, 0x00, 0x00, 0x00, 0x0d, 0x00, 0x00, 0x00, 0x00, 0x00, 0x00, 0x09, 0x70, 0x00, 0x00, 0x00, 0x02, 0x00, 0x00, 0x00, 0xff, 0xff, 0xff, 0xff, 0x01, 0x00, 0x00, 0x00, 0x6c, 0xf9, 0xff, 0xff, 0x08, 0x00, 0x00, 0x00, 0x10, 0x00, 0x00, 0x00, 0x01, 0x00, 0x00, 0x00, 0x1a, 0x00, 0x00, 0x00, 0x00, 0x00, 0x00, 0x00, 0x01, 0x00, 0x00, 0x00, 0x02, 0x2f, 0x52, 0x3d, 0x3a, 0x00, 0x00, 0x00, 0x73, 0x65, 0x71, 0x75, 0x65, 0x6e, 0x74, 0x69, 0x61, 0x6c, 0x5f, 0x39, 0x2f, 0x64, 0x65, 0x6e, 0x73, 0x65, 0x5f, 0x32, 0x36, 0x2f, 0x4d, 0x61, 0x74, 0x4d, 0x75, 0x6c, 0x3b, 0x73, 0x65, 0x71, 0x75, 0x65, 0x6e, 0x74, 0x69, 0x61, 0x6c, 0x5f, 0x39, 0x2f, 0x64, 0x65, 0x6e, 0x73, 0x65, 0x5f, 0x32, 0x36, 0x2f, 0x42, 0x69, 0x61, 0x73, 0x41, 0x64, 0x64, 0x00, 0x00, 0x02, 0x00, 0x00, 0x00, 0x01, 0x00, 0x00, 0x00, 0x01, 0x00, 0x00, 0x00, 0x1a, 0xfa, 0xff, 0xff, 0x00, 0x00, 0x00, 0x01, 0x18, 0x00, 0x00, 0x00, 0x20, 0x00, 0x00, 0x00, 0x40, 0x00, 0x00, 0x00, 0x0c, 0x00, 0x00, 0x00, 0x00, 0x00, 0x00, 0x09, 0x90, 0x00, 0x00, 0x00, 0x02, 0x00, 0x00, 0x00, 0xff, 0xff, 0xff, 0xff, 0x50, 0x00, 0x00, 0x00, 0x04, 0xfa, 0xff, 0xff, 0x08, 0x00, 0x00, 0x00, 0x14, 0x00, 0x00, 0x00, 0x01, 0x00, 0x00, 0x00, 0x80, 0xff, 0xff, 0xff, 0xff, 0xff, 0xff, 0xff, 0x00, 0x00, 0x00, 0x00, 0x01, 0x00, 0x00, 0x00, 0x4b, 0x75, 0x8a, 0x3d, 0x55, 0x00, 0x00, 0x00, 0x73, 0x65, 0x71, 0x75, 0x65, 0x6e, 0x74, 0x69, 0x61, 0x6c, 0x5f, 0x39, 0x2f, 0x64, 0x65, 0x6e, 0x73, 0x65, 0x5f, 0x32, 0x35, 0x2f, 0x4d, 0x61, 0x74, 0x4d, 0x75, 0x6c, 0x3b, 0x73, 0x65, 0x71, 0x75, 0x65, 0x6e, 0x74, 0x69, 0x61, 0x6c, 0x5f, 0x39, 0x2f, 0x64, 0x65, 0x6e, 0x73, 0x65, 0x5f, 0x32, 0x35, 0x2f, 0x52, 0x65, 0x6c, 0x75, 0x3b, 0x73, 0x65, 0x71, 0x75, 0x65, 0x6e, 0x74, 0x69, 0x61, 0x6c, 0x5f, 0x39, 0x2f, 0x64, 0x65, 0x6e, 0x73, 0x65, 0x5f, 0x32, 0x35, 0x2f, 0x42, 0x69, 0x61, 0x73, 0x41, 0x64, 0x64, 0x00, 0x00, 0x00, 0x02, 0x00, 0x00, 0x00, 0x01, 0x00, 0x00, 0x00, 0x50, 0x00, 0x00, 0x00, 0xd2, 0xfa, 0xff, 0xff, 0x00, 0x00, 0x00, 0x01, 0x18, 0x00, 0x00, 0x00, 0x20, 0x00, 0x00, 0x00, 0x40, 0x00, 0x00, 0x00, 0x0b, 0x00, 0x00, 0x00, 0x00, 0x00, 0x00, 0x09, 0x90, 0x00, 0x00, 0x00, 0x02, 0x00, 0x00, 0x00, 0xff, 0xff, 0xff, 0xff, 0x32, 0x00, 0x00, 0x00, 0xbc, 0xfa, 0xff, 0xff, 0x08, 0x00, 0x00, 0x00, 0x14, 0x00, 0x00, 0x00, 0x01, 0x00, 0x00, 0x00, 0x80, 0xff, 0xff, 0xff, 0xff, 0xff, 0xff, 0xff, 0x00, 0x00, 0x00, 0x00, 0x01, 0x00, 0x00, 0x00, 0xda, 0x27, 0x79, 0x3e, 0x55, 0x00, 0x00, 0x00, 0x73, 0x65, 0x71, 0x75, 0x65, 0x6e, 0x74, 0x69, 0x61, 0x6c, 0x5f, 0x39, 0x2f, 0x64, 0x65, 0x6e, 0x73, 0x65, 0x5f, 0x32, 0x34, 0x2f, 0x4d, 0x61, 0x74, 0x4d, 0x75, 0x6c, 0x3b, 0x73, 0x65, 0x71, 0x75, 0x65, 0x6e, 0x74, 0x69, 0x61, 0x6c, 0x5f, 0x39, 0x2f, 0x64, 0x65, 0x6e, 0x73, 0x65, 0x5f, 0x32, 0x34, 0x2f, 0x52, 0x65, 0x6c, 0x75, 0x3b, 0x73, 0x65, 0x71, 0x75, 0x65, 0x6e, 0x74, 0x69, 0x61, 0x6c, 0x5f, 0x39, 0x2f, 0x64, 0x65, 0x6e, 0x73, 0x65, 0x5f, 0x32, 0x34, 0x2f, 0x42, 0x69, 0x61, 0x73, 0x41, 0x64, 0x64, 0x00, 0x00, 0x00, 0x02, 0x00, 0x00, 0x00, 0x01, 0x00, 0x00, 0x00, 0x32, 0x00, 0x00, 0x00, 0x8a, 0xfb, 0xff, 0xff, 0x00, 0x00, 0x00, 0x01, 0x18, 0x00, 0x00, 0x00, 0x20, 0x00, 0x00, 0x00, 0x40, 0x00, 0x00, 0x00, 0x0a, 0x00, 0x00, 0x00, 0x00, 0x00, 0x00, 0x09, 0x90, 0x00, 0x00, 0x00, 0x02, 0x00, 0x00, 0x00, 0xff, 0xff, 0xff, 0xff, 0x14, 0x00, 0x00, 0x00, 0x74, 0xfb, 0xff, 0xff, 0x08, 0x00, 0x00, 0x00, 0x14, 0x00, 0x00, 0x00, 0x01, 0x00, 0x00, 0x00, 0x80, 0xff, 0xff, 0xff, 0xff, 0xff, 0xff, 0xff, 0x00, 0x00, 0x00, 0x00, 0x01, 0x00, 0x00, 0x00, 0xe9, 0x56, 0x49, 0x3f, 0x55, 0x00, 0x00, 0x00, 0x73, 0x65, 0x71, 0x75, 0x65, 0x6e, 0x74, 0x69, 0x61, 0x6c, 0x5f, 0x39, 0x2f, 0x64, 0x65, 0x6e, 0x73, 0x65, 0x5f, 0x32, 0x33, 0x2f, 0x4d, 0x61, 0x74, 0x4d, 0x75, 0x6c, 0x3b, 0x73, 0x65, 0x71, 0x75, 0x65, 0x6e, 0x74, 0x69, 0x61, 0x6c, 0x5f, 0x39, 0x2f, 0x64, 0x65, 0x6e, 0x73, 0x65, 0x5f, 0x32, 0x33, 0x2f, 0x52, 0x65, 0x6c, 0x75, 0x3b, 0x73, 0x65, 0x71, 0x75, 0x65, 0x6e, 0x74, 0x69, 0x61, 0x6c, 0x5f, 0x39, 0x2f, 0x64, 0x65, 0x6e, 0x73, 0x65, 0x5f, 0x32, 0x33, 0x2f, 0x42, 0x69, 0x61, 0x73, 0x41, 0x64, 0x64, 0x00, 0x00, 0x00, 0x02, 0x00, 0x00, 0x00, 0x01, 0x00, 0x00, 0x00, 0x14, 0x00, 0x00, 0x00, 0xd6, 0xfc, 0xff, 0xff, 0x00, 0x00, 0x00, 0x01, 0x14, 0x00, 0x00, 0x00, 0x34, 0x00, 0x00, 0x00, 0x09, 0x00, 0x00, 0x00, 0x00, 0x00, 0x00, 0x09, 0x4c, 0x00, 0x00, 0x00, 0x1c, 0xfc, 0xff, 0xff, 0x08, 0x00, 0x00, 0x00, 0x14, 0x00, 0x00, 0x00, 0x01, 0x00, 0x00, 0x00, 0x00, 0x00, 0x00, 0x00, 0x00, 0x00, 0x00, 0x00, 0x00, 0x00, 0x00, 0x00, 0x01, 0x00, 0x00, 0x00, 0x93, 0x8f, 0x20, 0x3d, 0x1c, 0x00, 0x00, 0x00, 0x73, 0x65, 0x71, 0x75, 0x65, 0x6e, 0x74, 0x69, 0x61, 0x6c, 0x5f, 0x39, 0x2f, 0x64, 0x65, 0x6e, 0x73, 0x65, 0x5f, 0x32, 0x33, 0x2f, 0x4d, 0x61, 0x74, 0x4d, 0x75, 0x6c, 0x00, 0x00, 0x00, 0x00, 0x02, 0x00, 0x00, 0x00, 0x14, 0x00, 0x00, 0x00, 0x05, 0x00, 0x00, 0x00, 0x46, 0xfd, 0xff, 0xff, 0x00, 0x00, 0x00, 0x01, 0x14, 0x00, 0x00, 0x00, 0x30, 0x00, 0x00, 0x00, 0x08, 0x00, 0x00, 0x00, 0x00, 0x00, 0x00, 0x02, 0x58, 0x00, 0x00, 0x00, 0x8c, 0xfc, 0xff, 0xff, 0x08, 0x00, 0x00, 0x00, 0x10, 0x00, 0x00, 0x00, 0x01, 0x00, 0x00, 0x00, 0x00, 0x00, 0x00, 0x00, 0x00, 0x00, 0x00, 0x00, 0x01, 0x00, 0x00, 0x00, 0x6c, 0x8a, 0x9e, 0x3e, 0x2c, 0x00, 0x00, 0x00, 0x73, 0x65, 0x71, 0x75, 0x65, 0x6e, 0x74, 0x69, 0x61, 0x6c, 0x5f, 0x39, 0x2f, 0x64, 0x65, 0x6e, 0x73, 0x65, 0x5f, 0x32, 0x33, 0x2f, 0x42, 0x69, 0x61, 0x73, 0x41, 0x64, 0x64, 0x2f, 0x52, 0x65, 0x61, 0x64, 0x56, 0x61, 0x72, 0x69, 0x61, 0x62, 0x6c, 0x65, 0x4f, 0x70, 0x00, 0x00, 0x00, 0x00, 0x01, 0x00, 0x00, 0x00, 0x14, 0x00, 0x00, 0x00, 0xbe, 0xfd, 0xff, 0xff, 0x00, 0x00, 0x00, 0x01, 0x14, 0x00, 0x00, 0x00, 0x34, 0x00, 0x00, 0x00, 0x07, 0x00, 0x00, 0x00, 0x00, 0x00, 0x00, 0x09, 0x4c, 0x00, 0x00, 0x00, 0x04, 0xfd, 0xff, 0xff, 0x08, 0x00, 0x00, 0x00, 0x14, 0x00, 0x00, 0x00, 0x01, 0x00, 0x00, 0x00, 0x00, 0x00, 0x00, 0x00, 0x00, 0x00, 0x00, 0x00, 0x00, 0x00, 0x00, 0x00, 0x01, 0x00, 0x00, 0x00, 0xb9, 0x5a, 0x4a, 0x3c, 0x1c, 0x00, 0x00, 0x00, 0x73, 0x65, 0x71, 0x75, 0x65, 0x6e, 0x74, 0x69, 0x61, 0x6c, 0x5f, 0x39, 0x2f, 0x64, 0x65, 0x6e, 0x73, 0x65, 0x5f, 0x32, 0x34, 0x2f, 0x4d, 0x61, 0x74, 0x4d, 0x75, 0x6c, 0x00, 0x00, 0x00, 0x00, 0x02, 0x00, 0x00, 0x00, 0x32, 0x00, 0x00, 0x00, 0x14, 0x00, 0x00, 0x00, 0x2e, 0xfe, 0xff, 0xff, 0x00, 0x00, 0x00, 0x01, 0x14, 0x00, 0x00, 0x00, 0x30, 0x00, 0x00, 0x00, 0x06, 0x00, 0x00, 0x00, 0x00, 0x00, 0x00, 0x02, 0x58, 0x00, 0x00, 0x00, 0x74, 0xfd, 0xff, 0xff, 0x08, 0x00, 0x00, 0x00, 0x10, 0x00, 0x00, 0x00, 0x01, 0x00, 0x00, 0x00, 0x00, 0x00, 0x00, 0x00, 0x00, 0x00, 0x00, 0x00, 0x01, 0x00, 0x00, 0x00, 0xee, 0x25, 0x1f, 0x3c, 0x2c, 0x00, 0x00, 0x00, 0x73, 0x65, 0x71, 0x75, 0x65, 0x6e, 0x74, 0x69, 0x61, 0x6c, 0x5f, 0x39, 0x2f, 0x64, 0x65, 0x6e, 0x73, 0x65, 0x5f, 0x32, 0x34, 0x2f, 0x42, 0x69, 0x61, 0x73, 0x41, 0x64, 0x64, 0x2f, 0x52, 0x65, 0x61, 0x64, 0x56, 0x61, 0x72, 0x69, 0x61, 0x62, 0x6c, 0x65, 0x4f, 0x70, 0x00, 0x00, 0x00, 0x00, 0x01, 0x00, 0x00, 0x00, 0x32, 0x00, 0x00, 0x00, 0xa6, 0xfe, 0xff, 0xff, 0x00, 0x00, 0x00, 0x01, 0x14, 0x00, 0x00, 0x00, 0x34, 0x00, 0x00, 0x00, 0x05, 0x00, 0x00, 0x00, 0x00, 0x00, 0x00, 0x09, 0x4c, 0x00, 0x00, 0x00, 0xec, 0xfd, 0xff, 0xff, 0x08, 0x00, 0x00, 0x00, 0x14, 0x00, 0x00, 0x00, 0x01, 0x00, 0x00, 0x00, 0x00, 0x00, 0x00, 0x00, 0x00, 0x00, 0x00, 0x00, 0x00, 0x00, 0x00, 0x00, 0x01, 0x00, 0x00, 0x00, 0xc4, 0x4c, 0xbf, 0x3c, 0x1c, 0x00, 0x00, 0x00, 0x73, 0x65, 0x71, 0x75, 0x65, 0x6e, 0x74, 0x69, 0x61, 0x6c, 0x5f, 0x39, 0x2f, 0x64, 0x65, 0x6e, 0x73, 0x65, 0x5f, 0x32, 0x35, 0x2f, 0x4d, 0x61, 0x74, 0x4d, 0x75, 0x6c, 0x00, 0x00, 0x00, 0x00, 0x02, 0x00, 0x00, 0x00, 0x50, 0x00, 0x00, 0x00, 0x32, 0x00, 0x00, 0x00, 0x16, 0xff, 0xff, 0xff, 0x00, 0x00, 0x00, 0x01, 0x14, 0x00, 0x00, 0x00, 0x30, 0x00, 0x00, 0x00, 0x04, 0x00, 0x00, 0x00, 0x00, 0x00, 0x00, 0x02, 0x58, 0x00, 0x00, 0x00, 0x5c, 0xfe, 0xff, 0xff, 0x08, 0x00, 0x00, 0x00, 0x10, 0x00, 0x00, 0x00, 0x01, 0x00, 0x00, 0x00, 0x00, 0x00, 0x00, 0x00, 0x00, 0x00, 0x00, 0x00, 0x01, 0x00, 0x00, 0x00, 0x72, 0x2f, 0xba, 0x3b, 0x2c, 0x00, 0x00, 0x00, 0x73, 0x65, 0x71, 0x75, 0x65, 0x6e, 0x74, 0x69, 0x61, 0x6c, 0x5f, 0x39, 0x2f, 0x64, 0x65, 0x6e, 0x73, 0x65, 0x5f, 0x32, 0x35, 0x2f, 0x42, 0x69, 0x61, 0x73, 0x41, 0x64, 0x64, 0x2f, 0x52, 0x65, 0x61, 0x64, 0x56, 0x61, 0x72, 0x69, 0x61, 0x62, 0x6c, 0x65, 0x4f, 0x70, 0x00, 0x00, 0x00, 0x00, 0x01, 0x00, 0x00, 0x00, 0x50, 0x00, 0x00, 0x00, 0x8e, 0xff, 0xff, 0xff, 0x00, 0x00, 0x00, 0x01, 0x14, 0x00, 0x00, 0x00, 0x34, 0x00, 0x00, 0x00, 0x03, 0x00, 0x00, 0x00, 0x00, 0x00, 0x00, 0x09, 0x4c, 0x00, 0x00, 0x00, 0xd4, 0xfe, 0xff, 0xff, 0x08, 0x00, 0x00, 0x00, 0x14, 0x00, 0x00, 0x00, 0x01, 0x00, 0x00, 0x00, 0x00, 0x00, 0x00, 0x00, 0x00, 0x00, 0x00, 0x00, 0x00, 0x00, 0x00, 0x00, 0x01, 0x00, 0x00, 0x00, 0xfe, 0xf2, 0x7f, 0x3b, 0x1c, 0x00, 0x00, 0x00, 0x73, 0x65, 0x71, 0x75, 0x65, 0x6e, 0x74, 0x69, 0x61, 0x6c, 0x5f, 0x39, 0x2f, 0x64, 0x65, 0x6e, 0x73, 0x65, 0x5f, 0x32, 0x36, 0x2f, 0x4d, 0x61, 0x74, 0x4d, 0x75, 0x6c, 0x00, 0x00, 0x00, 0x00, 0x02, 0x00, 0x00, 0x00, 0x01, 0x00, 0x00, 0x00, 0x50, 0x00, 0x00, 0x00, 0x00, 0x00, 0x16, 0x00, 0x1c, 0x00, 0x18, 0x00, 0x17, 0x00, 0x10, 0x00, 0x0c, 0x00, 0x08, 0x00, 0x00, 0x00, 0x00, 0x00, 0x00, 0x00, 0x07, 0x00, 0x16, 0x00, 0x00, 0x00, 0x00, 0x00, 0x00, 0x01, 0x14, 0x00, 0x00, 0x00, 0x34, 0x00, 0x00, 0x00, 0x02, 0x00, 0x00, 0x00, 0x00, 0x00, 0x00, 0x02, 0x5c, 0x00, 0x00, 0x00, 0x5c, 0xff, 0xff, 0xff, 0x08, 0x00, 0x00, 0x00, 0x14, 0x00, 0x00, 0x00, 0x01, 0x00, 0x00, 0x00, 0x00, 0x00, 0x00, 0x00, 0x00, 0x00, 0x00, 0x00, 0x00, 0x00, 0x00, 0x00, 0x01, 0x00, 0x00, 0x00, 0x42, 0x6e, 0x8a, 0x39, 0x2c, 0x00, 0x00, 0x00, 0x73, 0x65, 0x71, 0x75, 0x65, 0x6e, 0x74, 0x69, 0x61, 0x6c, 0x5f, 0x39, 0x2f, 0x64, 0x65, 0x6e, 0x73, 0x65, 0x5f, 0x32, 0x36, 0x2f, 0x42, 0x69, 0x61, 0x73, 0x41, 0x64, 0x64, 0x2f, 0x52, 0x65, 0x61, 0x64, 0x56, 0x61, 0x72, 0x69, 0x61, 0x62, 0x6c, 0x65, 0x4f, 0x70, 0x00, 0x00, 0x00, 0x00, 0x01, 0x00, 0x00, 0x00, 0x01, 0x00, 0x00, 0x00, 0x00, 0x00, 0x16, 0x00, 0x20, 0x00, 0x1c, 0x00, 0x1b, 0x00, 0x14, 0x00, 0x10, 0x00, 0x0c, 0x00, 0x00, 0x00, 0x00, 0x00, 0x08, 0x00, 0x07, 0x00, 0x16, 0x00, 0x00, 0x00, 0x00, 0x00, 0x00, 0x01, 0x18, 0x00, 0x00, 0x00, 0x2c, 0x00, 0x00, 0x00, 0x4c, 0x00, 0x00, 0x00, 0x01, 0x00, 0x00, 0x00, 0x00, 0x00, 0x00, 0x09, 0x68, 0x00, 0x00, 0x00, 0x02, 0x00, 0x00, 0x00, 0xff, 0xff, 0xff, 0xff, 0x05, 0x00, 0x00, 0x00, 0x0c, 0x00, 0x0c, 0x00, 0x00, 0x00, 0x00, 0x00, 0x08, 0x00, 0x04, 0x00, 0x0c, 0x00, 0x00, 0x00, 0x08, 0x00, 0x00, 0x00, 0x14, 0x00, 0x00, 0x00, 0x01, 0x00, 0x00, 0x00, 0x80, 0xff, 0xff, 0xff, 0xff, 0xff, 0xff, 0xff, 0x00, 0x00, 0x00, 0x00, 0x01, 0x00, 0x00, 0x00, 0x72, 0xc7, 0xfc, 0x40, 0x20, 0x00, 0x00, 0x00, 0x73, 0x65, 0x72, 0x76, 0x69, 0x6e, 0x67, 0x5f, 0x64, 0x65, 0x66, 0x61, 0x75, 0x6c, 0x74, 0x5f, 0x64, 0x65, 0x6e, 0x73, 0x65, 0x5f, 0x32, 0x33, 0x5f, 0x69, 0x6e, 0x70, 0x75, 0x74, 0x3a, 0x30, 0x00, 0x00, 0x00, 0x00, 0x02, 0x00, 0x00, 0x00, 0x01, 0x00, 0x00, 0x00, 0x05, 0x00, 0x00, 0x00, 0x02, 0x00, 0x00, 0x00, 0x24, 0x00, 0x00, 0x00, 0x04, 0x00, 0x00, 0x00, 0xf0, 0xff, 0xff, 0xff, 0x0e, 0x00, 0x00, 0x00, 0x02, 0x00, 0x00, 0x00, 0x00, 0x00, 0x00, 0x0e, 0x0c, 0x00, 0x10, 0x00, 0x0f, 0x00, 0x00, 0x00, 0x08, 0x00, 0x04, 0x00, 0x0c, 0x00, 0x00, 0x00, 0x09, 0x00, 0x00, 0x00, 0x04, 0x00, 0x00, 0x00, 0x00, 0x00, 0x00, 0x09};
const int model_data_len = 8856;
float x[5] = {22.5, 27.4725, 460.75, 1062.0, 0.004632100264599, };
const int input_size = 5;
const int output_size = 1;