
    // if having troubles with min/max, uncomment the following
    // #undef min    
    // #undef max
    #ifdef __has_attribute
    #define HAVE_ATTRIBUTE(x) __has_attribute(x)
    #else
    #define HAVE_ATTRIBUTE(x) 0
    #endif
    #if HAVE_ATTRIBUTE(aligned) || (defined(__GNUC__) && !defined(__clang__))
    #define DATA_ALIGN_ATTRIBUTE __attribute__((aligned(4)))
    #else
    #define DATA_ALIGN_ATTRIBUTE
    #endif
    const unsigned char model_data[] DATA_ALIGN_ATTRIBUTE = {0x1c, 0x00, 0x00, 0x00, 0x54, 0x46, 0x4c, 0x33, 0x14, 0x00, 0x20, 0x00, 0x1c, 0x00, 0x18, 0x00, 0x14, 0x00, 0x10, 0x00, 0x0c, 0x00, 0x00, 0x00, 0x08, 0x00, 0x04, 0x00, 0x14, 0x00, 0x00, 0x00, 0x1c, 0x00, 0x00, 0x00, 0x88, 0x00, 0x00, 0x00, 0xe0, 0x00, 0x00, 0x00, 0xf4, 0x23, 0x00, 0x00, 0x04, 0x24, 0x00, 0x00, 0x10, 0x2c, 0x00, 0x00, 0x03, 0x00, 0x00, 0x00, 0x01, 0x00, 0x00, 0x00, 0x04, 0x00, 0x00, 0x00, 0x22, 0xdb, 0xff, 0xff, 0x0c, 0x00, 0x00, 0x00, 0x1c, 0x00, 0x00, 0x00, 0x38, 0x00, 0x00, 0x00, 0x0f, 0x00, 0x00, 0x00, 0x73, 0x65, 0x72, 0x76, 0x69, 0x6e, 0x67, 0x5f, 0x64, 0x65, 0x66, 0x61, 0x75, 0x6c, 0x74, 0x00, 0x01, 0x00, 0x00, 0x00, 0x04, 0x00, 0x00, 0x00, 0x94, 0xff, 0xff, 0xff, 0x0d, 0x00, 0x00, 0x00, 0x04, 0x00, 0x00, 0x00, 0x07, 0x00, 0x00, 0x00, 0x64, 0x65, 0x6e, 0x73, 0x65, 0x5f, 0x33, 0x00, 0x01, 0x00, 0x00, 0x00, 0x04, 0x00, 0x00, 0x00, 0xaa, 0xdc, 0xff, 0xff, 0x04, 0x00, 0x00, 0x00, 0x0e, 0x00, 0x00, 0x00, 0x63, 0x6f, 0x6e, 0x76, 0x32, 0x64, 0x5f, 0x31, 0x5f, 0x69, 0x6e, 0x70, 0x75, 0x74, 0x00, 0x00, 0x02, 0x00, 0x00, 0x00, 0x34, 0x00, 0x00, 0x00, 0x04, 0x00, 0x00, 0x00, 0xdc, 0xff, 0xff, 0xff, 0x10, 0x00, 0x00, 0x00, 0x04, 0x00, 0x00, 0x00, 0x13, 0x00, 0x00, 0x00, 0x43, 0x4f, 0x4e, 0x56, 0x45, 0x52, 0x53, 0x49, 0x4f, 0x4e, 0x5f, 0x4d, 0x45, 0x54, 0x41, 0x44, 0x41, 0x54, 0x41, 0x00, 0x08, 0x00, 0x0c, 0x00, 0x08, 0x00, 0x04, 0x00, 0x08, 0x00, 0x00, 0x00, 0x0f, 0x00, 0x00, 0x00, 0x04, 0x00, 0x00, 0x00, 0x13, 0x00, 0x00, 0x00, 0x6d, 0x69, 0x6e, 0x5f, 0x72, 0x75, 0x6e, 0x74, 0x69, 0x6d, 0x65, 0x5f, 0x76, 0x65, 0x72, 0x73, 0x69, 0x6f, 0x6e, 0x00, 0x11, 0x00, 0x00, 0x00, 0x10, 0x23, 0x00, 0x00, 0x08, 0x23, 0x00, 0x00, 0xd8, 0x22, 0x00, 0x00, 0xa0, 0x21, 0x00, 0x00, 0x8c, 0x21, 0x00, 0x00, 0x3c, 0x21, 0x00, 0x00, 0x24, 0x21, 0x00, 0x00, 0x14, 0x01, 0x00, 0x00, 0xc4, 0x00, 0x00, 0x00, 0xbc, 0x00, 0x00, 0x00, 0xb4, 0x00, 0x00, 0x00, 0xac, 0x00, 0x00, 0x00, 0xa4, 0x00, 0x00, 0x00, 0x9c, 0x00, 0x00, 0x00, 0x94, 0x00, 0x00, 0x00, 0x74, 0x00, 0x00, 0x00, 0x04, 0x00, 0x00, 0x00, 0x6a, 0xdd, 0xff, 0xff, 0x04, 0x00, 0x00, 0x00, 0x60, 0x00, 0x00, 0x00, 0x0c, 0x00, 0x00, 0x00, 0x08, 0x00, 0x0e, 0x00, 0x08, 0x00, 0x04, 0x00, 0x08, 0x00, 0x00, 0x00, 0x10, 0x00, 0x00, 0x00, 0x24, 0x00, 0x00, 0x00, 0x00, 0x00, 0x06, 0x00, 0x08, 0x00, 0x04, 0x00, 0x06, 0x00, 0x00, 0x00, 0x04, 0x00, 0x00, 0x00, 0x00, 0x00, 0x00, 0x00, 0x00, 0x00, 0x0a, 0x00, 0x10, 0x00, 0x0c, 0x00, 0x08, 0x00, 0x04, 0x00, 0x0a, 0x00, 0x00, 0x00, 0x02, 0x00, 0x00, 0x00, 0x02, 0x00, 0x00, 0x00, 0x04, 0x00, 0x00, 0x00, 0x12, 0x00, 0x00, 0x00, 0x32, 0x2e, 0x31, 0x34, 0x2e, 0x30, 0x2d, 0x64, 0x65, 0x76, 0x32, 0x30, 0x32, 0x33, 0x30, 0x35, 0x32, 0x35, 0x00, 0x00, 0xd6, 0xdd, 0xff, 0xff, 0x04, 0x00, 0x00, 0x00, 0x10, 0x00, 0x00, 0x00, 0x31, 0x2e, 0x31, 0x34, 0x2e, 0x30, 0x00, 0x00, 0x00, 0x00, 0x00, 0x00, 0x00, 0x00, 0x00, 0x00, 0xd8, 0xd5, 0xff, 0xff, 0xdc, 0xd5, 0xff, 0xff, 0xe0, 0xd5, 0xff, 0xff, 0xe4, 0xd5, 0xff, 0xff, 0xe8, 0xd5, 0xff, 0xff, 0xec, 0xd5, 0xff, 0xff, 0x0a, 0xde, 0xff, 0xff, 0x04, 0x00, 0x00, 0x00, 0x40, 0x00, 0x00, 0x00, 0x60, 0xbc, 0x5e, 0x40, 0x66, 0x0c, 0x67, 0xc0, 0x95, 0x9a, 0xdb, 0xbe, 0x3b, 0x96, 0x53, 0xbe, 0x33, 0x04, 0x54, 0xbe, 0x81, 0xf9, 0x05, 0x40, 0xdc, 0x98, 0x8e, 0x3e, 0xd3, 0x8e, 0x7a, 0xc0, 0x02, 0xd5, 0x60, 0xbd, 0x15, 0xc1, 0x63, 0x40, 0x27, 0x1c, 0xdb, 0x3e, 0xb0, 0x32, 0x95, 0xc0, 0xc5, 0xc8, 0x8e, 0xbe, 0x97, 0xe9, 0x76, 0xc0, 0x41, 0x37, 0x8d, 0xbe, 0x60, 0xeb, 0xf2, 0xbe, 0x56, 0xde, 0xff, 0xff, 0x04, 0x00, 0x00, 0x00, 0x00, 0x20, 0x00, 0x00, 0xb1, 0x28, 0x36, 0x3e, 0x0e, 0xe1, 0x24, 0xbe, 0x01, 0xe0, 0x06, 0xbd, 0x02, 0x2f, 0xd0, 0xbe, 0xe5, 0x9b, 0xd8, 0x3d, 0x69, 0x1e, 0x3a, 0x3d, 0xb0, 0x6d, 0x12, 0xbd, 0xcd, 0x40, 0xbc, 0x3d, 0x3b, 0x0c, 0x25, 0x3d, 0x59, 0x22, 0x3f, 0x3e, 0x09, 0x1c, 0xd3, 0x3d, 0xf9, 0xcb, 0x09, 0xbf, 0x4f, 0xe4, 0xcf, 0xbd, 0x69, 0x92, 0xc7, 0xbd, 0x16, 0x77, 0x2d, 0xbe, 0x93, 0xef, 0x86, 0xbc, 0x13, 0xf4, 0x1b, 0xbe, 0x76, 0x96, 0x28, 0x3e, 0xb3, 0xb9, 0xdc, 0x3d, 0x51, 0x36, 0x76, 0xbf, 0x78, 0x84, 0x04, 0x3e, 0x2c, 0x24, 0xb2, 0x3b, 0x93, 0xdf, 0x9b, 0xbb, 0xe0, 0xf4, 0xb4, 0x3d, 0x71, 0xb3, 0x31, 0x3e, 0xfb, 0xf5, 0x2a, 0xbe, 0x82, 0x39, 0x35, 0x3e, 0x3c, 0x45, 0x0f, 0xbf, 0x70, 0x50, 0x4b, 0x3d, 0x1c, 0xee, 0x27, 0xbd, 0x0a, 0x89, 0x39, 0x3e, 0xb2, 0x4b, 0xa4, 0xbd, 0x29, 0x11, 0x77, 0x3d, 0x97, 0x77, 0xab, 0xbd, 0x0f, 0x75, 0xb1, 0x3d, 0x44, 0x71, 0xff, 0x3e, 0x27, 0x8c, 0x40, 0xbe, 0x31, 0x03, 0x6b, 0x3d, 0xee, 0x87, 0xb6, 0xbd, 0xf3, 0x13, 0x8c, 0xbd, 0x50, 0xea, 0xd7, 0x3d, 0x81, 0x20, 0x08, 0xbe, 0xfc, 0x33, 0x45, 0xbe, 0x86, 0x62, 0xd5, 0xbf, 0x0a, 0xf6, 0x22, 0x3e, 0x52, 0x19, 0x06, 0xbd, 0x24, 0xd1, 0xd8, 0xbd, 0x60, 0x23, 0x1f, 0xbe, 0x53, 0x3e, 0x54, 0x3c, 0x2f, 0xf1, 0x37, 0x3e, 0xb7, 0xf5, 0x72, 0x3d, 0x16, 0x2c, 0xbf, 0xbf, 0xe0, 0x62, 0xc5, 0xbd, 0x09, 0xfd, 0xe0, 0x3d, 0x10, 0x47, 0x4d, 0x3e, 0xbb, 0x6a, 0xf8, 0xbd, 0x64, 0x83, 0x0e, 0xbe, 0x96, 0x59, 0xb7, 0xbd, 0xa1, 0x45, 0x24, 0xbe, 0x2e, 0xf8, 0xa7, 0x3f, 0xe6, 0x4a, 0xc1, 0x3d, 0x1e, 0x5d, 0x48, 0x3d, 0x32, 0xd3, 0x82, 0xbd, 0x1e, 0x51, 0xc5, 0xbc, 0x99, 0xbd, 0xd9, 0x3d, 0x41, 0xcc, 0x39, 0x3e, 0x9d, 0x6b, 0x2f, 0xbe, 0x02, 0xe1, 0x58, 0x3d, 0xad, 0xe7, 0x24, 0xbe, 0x6d, 0x06, 0xfa, 0x3d, 0x08, 0x44, 0x67, 0x3d, 0xfd, 0xee, 0xd5, 0x3d, 0x11, 0xae, 0x52, 0x3d, 0x31, 0xa1, 0x40, 0x3e, 0x64, 0xe6, 0x0a, 0xbe, 0x1e, 0x79, 0x71, 0xc0, 0x6a, 0xb5, 0x8d, 0xbd, 0x4a, 0x08, 0x13, 0xbd, 0xc8, 0x3a, 0xfd, 0xbc, 0xcd, 0x16, 0x58, 0x3d, 0x30, 0x51, 0x8b, 0x3d, 0x1c, 0x3f, 0x83, 0xbd, 0xd1, 0x1c, 0x21, 0x3e, 0x93, 0x65, 0x52, 0xc0, 0x4d, 0x21, 0x05, 0x3e, 0xcd, 0x93, 0x3b, 0x3d, 0x3a, 0x06, 0x23, 0x3e, 0xc2, 0x26, 0x40, 0xbe, 0x71, 0x60, 0x4b, 0x3e, 0xf3, 0xd6, 0xb1, 0x3d, 0xac, 0x40, 0x30, 0xbe, 0xd5, 0x3e, 0xe7, 0x3e, 0x53, 0x4d, 0xc5, 0xbc, 0x10, 0xc0, 0x12, 0xbe, 0x68, 0x76, 0x2d, 0xbe, 0xda, 0x1d, 0x26, 0x3e, 0x57, 0xf6, 0x03, 0xbe, 0xe8, 0x87, 0x4c, 0x3e, 0x6c, 0x4d, 0x09, 0xbe, 0x8d, 0x26, 0x2f, 0x40, 0xc4, 0x2c, 0x3b, 0xbe, 0x11, 0xcc, 0x2a, 0x3e, 0xd6, 0x9d, 0x06, 0x3e, 0x3c, 0x8a, 0x39, 0xbe, 0xa9, 0xea, 0x09, 0x3e, 0xc8, 0x37, 0xf0, 0xbd, 0xd8, 0x06, 0xdb, 0xbc, 0xe8, 0x60, 0x2d, 0x40, 0x0e, 0x90, 0xb2, 0x3d, 0xba, 0x2c, 0x21, 0x3e, 0x44, 0xec, 0x23, 0x3e, 0x34, 0x45, 0x17, 0x3d, 0x9c, 0x7e, 0x00, 0x3e, 0x46, 0x97, 0x10, 0xbe, 0xf6, 0xcb, 0x0e, 0x3d, 0xa2, 0x22, 0x24, 0x40, 0xb6, 0x03, 0xf1, 0xbc, 0x08, 0x9f, 0x28, 0xbe, 0x67, 0xc5, 0xad, 0x3d, 0x6b, 0x51, 0xee, 0xbd, 0xef, 0x0f, 0x24, 0x3e, 0x3d, 0xc3, 0x86, 0x3d, 0xa4, 0x6e, 0xdc, 0x3c, 0x91, 0xfa, 0x08, 0x40, 0x5d, 0x08, 0x2e, 0xbe, 0x77, 0x3b, 0x10, 0x3e, 0xc0, 0x82, 0x29, 0xbd, 0xd8, 0xea, 0x81, 0xbd, 0xc0, 0x63, 0x0f, 0x3e, 0x98, 0x28, 0x62, 0xbd, 0xb3, 0x9e, 0xd5, 0xbc, 0xb7, 0xde, 0x50, 0x3f, 0x50, 0xb6, 0x8b, 0xbc, 0x38, 0x48, 0x4d, 0xbd, 0x14, 0x33, 0x79, 0xbd, 0x26, 0x83, 0x1b, 0x3e, 0xd0, 0xf8, 0x4a, 0x3e, 0x40, 0x75, 0xc5, 0xbb, 0xe8, 0x86, 0x4b, 0x3e, 0xa7, 0xb3, 0x4e, 0x3f, 0xdc, 0x8f, 0x48, 0xbe, 0x80, 0xa2, 0xdf, 0xbc, 0x4c, 0x7e, 0x2f, 0x3d, 0xe0, 0xc1, 0x0b, 0x3c, 0xc8, 0x85, 0x54, 0x3d, 0x36, 0x64, 0x3c, 0xbe, 0x64, 0xaf, 0x2e, 0x3d, 0x25, 0x0e, 0xa4, 0x3f, 0x98, 0xad, 0x9b, 0xbc, 0xf8, 0x6d, 0x02, 0xbd, 0xe6, 0xeb, 0x07, 0x3e, 0x84, 0x22, 0x1d, 0x3e, 0x1d, 0x19, 0xab, 0xbd, 0xb4, 0xa1, 0x6b, 0xbd, 0x6f, 0x1a, 0x0d, 0x3e, 0xa8, 0xe3, 0x69, 0x3f, 0xff, 0xd9, 0x0c, 0xbe, 0x18, 0xce, 0x67, 0x3d, 0xc0, 0x7e, 0x98, 0xbb, 0xc8, 0x80, 0x76, 0xbd, 0x00, 0xda, 0x51, 0xbc, 0xd8, 0xf3, 0x9d, 0xbd, 0xdc, 0x43, 0x8a, 0xbd, 0xf5, 0x2e, 0x7e, 0xbe, 0xa7, 0xbf, 0xa3, 0xbd, 0x7a, 0x05, 0x0c, 0x3e, 0x00, 0x92, 0x96, 0x39, 0xf8, 0xd8, 0x94, 0xbc, 0x10, 0xe3, 0xdb, 0xbd, 0x86, 0xbb, 0x4e, 0xbe, 0xef, 0xb4, 0xef, 0xbd, 0x46, 0x10, 0xee, 0x3f, 0xa7, 0x72, 0x3b, 0xbe, 0xb8, 0x36, 0xa9, 0x3c, 0x02, 0xd7, 0x28, 0x3e, 0xc0, 0x17, 0x40, 0x3e, 0x96, 0x9c, 0x09, 0x3e, 0xf2, 0x32, 0x19, 0x3e, 0x67, 0x35, 0x9f, 0x3d, 0xd6, 0x8d, 0xd5, 0x3f, 0x98, 0xa3, 0x2d, 0xbe, 0x1e, 0xa5, 0x2b, 0xbe, 0x28, 0x7f, 0x43, 0x3d, 0xec, 0xd9, 0x0b, 0xbe, 0xa0, 0x25, 0x3b, 0x3e, 0x91, 0x5b, 0xec, 0x3d, 0x15, 0x98, 0x33, 0x3e, 0x18, 0x2d, 0x35, 0xbf, 0x20, 0xa8, 0x0c, 0x3c, 0x44, 0xca, 0x01, 0xbd, 0x32, 0x18, 0x0c, 0x3e, 0xd8, 0x48, 0xd6, 0xbc, 0xd6, 0xb8, 0x30, 0x3e, 0x70, 0x19, 0xa6, 0x3d, 0xe9, 0x87, 0xd0, 0xbc, 0x1f, 0x16, 0x1f, 0x3f, 0x80, 0xdf, 0x66, 0x3d, 0xf1, 0x17, 0xb4, 0xbd, 0x2f, 0x4a, 0x21, 0xbe, 0xea, 0x26, 0xb6, 0xbd, 0xe8, 0x4c, 0xc4, 0x3c, 0x08, 0xd0, 0xf4, 0xbc, 0xc2, 0x13, 0x5f, 0x3d, 0x39, 0xef, 0x6a, 0x40, 0x3a, 0xf2, 0x07, 0x3e, 0x1a, 0xdc, 0x0c, 0xbe, 0x84, 0x28, 0x45, 0x3e, 0x52, 0x22, 0x2e, 0x3e, 0x0c, 0xf2, 0x43, 0x3e, 0x58, 0x35, 0xa7, 0xbc, 0x5c, 0xf2, 0x8d, 0xbc, 0xdc, 0x1f, 0x62, 0x40, 0x68, 0x8a, 0x8d, 0x3d, 0x72, 0xd9, 0x9a, 0xbd, 0x28, 0xce, 0xdc, 0x3d, 0x48, 0x09, 0x5e, 0xbd, 0xf2, 0x07, 0x2d, 0x3e, 0x86, 0x5a, 0x9d, 0xbd, 0x9e, 0x8e, 0x2f, 0xbe, 0x47, 0xdf, 0xd4, 0xbd, 0x41, 0x3a, 0x48, 0xbe, 0x2c, 0x7b, 0xc5, 0xbd, 0x8e, 0x77, 0x30, 0x3e, 0xe8, 0xb1, 0x4e, 0xbe, 0xce, 0x6e, 0xde, 0xbd, 0x0f, 0xd7, 0x16, 0xbe, 0x78, 0xf3, 0xd7, 0xbc, 0xcd, 0x52, 0x15, 0xc0, 0x70, 0x37, 0x73, 0x3d, 0x90, 0x33, 0x46, 0xbe, 0xb0, 0x2d, 0x1f, 0x3e, 0x7c, 0xc7, 0x75, 0xbd, 0x2c, 0xec, 0xc8, 0xbd, 0x8c, 0x31, 0xc1, 0xbd, 0x0e, 0x8f, 0xfb, 0xbd, 0x11, 0x21, 0x0e, 0xc0, 0x7a, 0x49, 0x15, 0xbe, 0xe8, 0x9c, 0x31, 0x3d, 0x5e, 0xc3, 0xcb, 0xbd, 0x80, 0x5b, 0x91, 0x3d, 0x98, 0xdc, 0x0b, 0x3d, 0xfc, 0x76, 0xf4, 0x3d, 0x9b, 0xec, 0xd3, 0xbd, 0x2f, 0xba, 0x13, 0xc0, 0x68, 0x21, 0x8c, 0x3c, 0xe8, 0x9a, 0xa0, 0x3c, 0x5c, 0x24, 0x44, 0x3e, 0x2f, 0x43, 0x36, 0xbe, 0xa0, 0x0b, 0x74, 0x3d, 0x00, 0xb6, 0xda, 0x3d, 0x6b, 0x91, 0xdc, 0xbd, 0xd8, 0xf8, 0xc6, 0xbf, 0x62, 0x59, 0xec, 0xbd, 0xc7, 0xc4, 0x3a, 0xbe, 0xd4, 0x65, 0x3d, 0xbe, 0x04, 0x9e, 0x46, 0x3e, 0xb1, 0x8a, 0x3b, 0xbd, 0x6f, 0xea, 0x57, 0xbd, 0xca, 0x29, 0xd3, 0xbd, 0x44, 0x1e, 0x81, 0x3d, 0xd4, 0x13, 0xcd, 0x3c, 0x93, 0xaa, 0x0a, 0x3e, 0xa8, 0xfa, 0x02, 0xbd, 0x5e, 0xca, 0x39, 0xbe, 0x4d, 0x77, 0x6a, 0xbd, 0xe8, 0x4d, 0xf8, 0x3c, 0x48, 0xd8, 0x9e, 0x3d, 0x00, 0x75, 0x2a, 0xbe, 0xbb, 0x7a, 0x5e, 0xbd, 0x89, 0xb6, 0xfc, 0x3d, 0x78, 0x9e, 0xd9, 0xbd, 0xda, 0xa5, 0x88, 0xbd, 0x70, 0xf7, 0x15, 0x3e, 0x0f, 0x6b, 0x10, 0x3e, 0xd4, 0xdb, 0x95, 0x3c, 0x76, 0xa9, 0xf0, 0xbd, 0xc8, 0xaf, 0xc5, 0xbd, 0x55, 0x2a, 0xa3, 0xbd, 0x3a, 0xae, 0x30, 0xbe, 0xbb, 0xf4, 0xf7, 0xbd, 0xd7, 0xad, 0x51, 0xbd, 0x3d, 0xc2, 0x90, 0x3d, 0x87, 0xc6, 0x29, 0x3d, 0xe1, 0x2e, 0x43, 0xbe, 0x8e, 0x69, 0x24, 0x3e, 0xd5, 0xf3, 0x43, 0xbe, 0x66, 0x46, 0x04, 0x3e, 0xce, 0x0c, 0xa3, 0x3c, 0x5c, 0x96, 0x88, 0x3d, 0x81, 0xe7, 0x11, 0xbe, 0x0a, 0x06, 0x1b, 0x3e, 0x0e, 0x8a, 0x4d, 0xbd, 0x3c, 0x9b, 0x90, 0xbc, 0x63, 0xae, 0x0b, 0xbe, 0xdc, 0x63, 0xab, 0x3d, 0x14, 0x8c, 0x30, 0xbc, 0x90, 0x4b, 0xb8, 0x3c, 0x39, 0x94, 0x1c, 0xbd, 0xcd, 0xe7, 0xb5, 0x3d, 0x5a, 0x20, 0x97, 0x3d, 0x8b, 0xa2, 0x6a, 0x3d, 0x20, 0x29, 0x01, 0xbe, 0xdc, 0xcb, 0xe8, 0x3d, 0xdf, 0xa9, 0x8f, 0xbd, 0x49, 0x49, 0x88, 0xbd, 0x87, 0x8a, 0x40, 0xbe, 0x00, 0xeb, 0x43, 0x3e, 0x61, 0x7d, 0x36, 0x3e, 0x8d, 0x59, 0x0e, 0xbe, 0x4d, 0xc9, 0xaf, 0xbd, 0x07, 0x87, 0xf4, 0xbd, 0x1e, 0x95, 0xda, 0x3d, 0x04, 0xe3, 0x5f, 0xbc, 0xea, 0x68, 0xb6, 0xbd, 0xf9, 0xe9, 0xc9, 0x3d, 0x6a, 0x8f, 0xf9, 0x3d, 0x97, 0xd8, 0x80, 0xbc, 0xd2, 0x43, 0x16, 0x3e, 0x09, 0x44, 0x29, 0x3c, 0xde, 0xb7, 0x3b, 0x3e, 0xdd, 0xde, 0x0e, 0x3e, 0x08, 0x7f, 0xcc, 0x3d, 0x61, 0xcb, 0x00, 0xbe, 0xe8, 0x32, 0x0e, 0x3d, 0xd6, 0x77, 0xc7, 0x3d, 0x78, 0xf3, 0xd7, 0x3d, 0xc4, 0xdb, 0x12, 0x3e, 0x99, 0x08, 0xed, 0xbd, 0x71, 0x78, 0xe0, 0x3d, 0x89, 0x76, 0x19, 0xbe, 0xb0, 0x59, 0xa8, 0x3d, 0xbd, 0x55, 0x4b, 0xbe, 0x3d, 0xef, 0x2d, 0x3e, 0x61, 0xf8, 0x4f, 0x3e, 0x1e, 0x80, 0x99, 0xbd, 0xd1, 0x48, 0x7d, 0xbc, 0x13, 0x9d, 0x27, 0x3e, 0x70, 0x2b, 0x92, 0xbc, 0xf6, 0xab, 0x33, 0x3e, 0xb2, 0x12, 0x81, 0xbd, 0x77, 0xfc, 0xa4, 0xbb, 0x89, 0xe9, 0xf2, 0xbc, 0x28, 0x51, 0xc6, 0x3c, 0x96, 0x49, 0x1f, 0x3e, 0x7c, 0xd0, 0xc6, 0xbd, 0x69, 0x27, 0x1e, 0x3e, 0x33, 0xfc, 0x1f, 0xbe, 0xa8, 0x9b, 0x3e, 0xbe, 0x73, 0x26, 0xd4, 0xbd, 0xaf, 0xd3, 0x3f, 0xbe, 0xa0, 0x68, 0xc4, 0xbd, 0xcc, 0xa9, 0xcd, 0x3d, 0x16, 0x5e, 0x56, 0xbd, 0xce, 0xe0, 0xc2, 0xbd, 0x26, 0x51, 0x92, 0xbd, 0xe6, 0x8d, 0x07, 0xbe, 0x44, 0xd7, 0x4d, 0x3e, 0x70, 0xf7, 0xfb, 0xbc, 0x70, 0x24, 0x0d, 0x3c, 0x8c, 0x2b, 0x15, 0x3d, 0x86, 0x63, 0xa6, 0xbd, 0x0f, 0x26, 0xbe, 0x3d, 0xad, 0xeb, 0x97, 0x3d, 0xee, 0x08, 0x38, 0xbd, 0xec, 0xa2, 0x30, 0xbd, 0x78, 0x4f, 0xac, 0xbd, 0x5c, 0x60, 0x8c, 0x3d, 0x64, 0xa5, 0x80, 0x3d, 0x2b, 0xac, 0xce, 0x3d, 0x02, 0xa9, 0x2b, 0xbe, 0x32, 0x01, 0x35, 0xbc, 0x3e, 0x49, 0x77, 0x3c, 0x9a, 0x86, 0xcc, 0x3c, 0x87, 0xf3, 0xc6, 0x3b, 0x48, 0x78, 0x00, 0xbd, 0x90, 0x34, 0x1b, 0x3c, 0xee, 0x40, 0x95, 0x3d, 0x78, 0xde, 0x84, 0xbd, 0x29, 0xfb, 0x25, 0xbb, 0x62, 0x96, 0x74, 0xbd, 0x00, 0x91, 0x95, 0x3d, 0x59, 0x1b, 0xa7, 0x3d, 0x30, 0x91, 0x91, 0xbd, 0xaa, 0x2b, 0xab, 0xbd, 0xb3, 0x0a, 0x3e, 0x3e, 0x05, 0x08, 0xc9, 0xbc, 0x26, 0x35, 0x1b, 0xbe, 0x48, 0xb8, 0xc7, 0x3d, 0x35, 0x63, 0x83, 0xbd, 0xa5, 0x83, 0x3a, 0xbe, 0xb4, 0x64, 0x1d, 0xbe, 0x5b, 0xed, 0xcf, 0xbb, 0xff, 0xec, 0x3b, 0xbe, 0x1a, 0xb3, 0x39, 0x3e, 0xf1, 0x94, 0x9c, 0x3c, 0x8b, 0x1b, 0x0a, 0x3d, 0xd0, 0x65, 0x29, 0x3e, 0xfe, 0xff, 0x49, 0x3e, 0xa0, 0xb1, 0x8f, 0x3c, 0xd7, 0xa4, 0x14, 0x3e, 0x7f, 0x52, 0x10, 0x3e, 0x56, 0x0c, 0x1d, 0x3d, 0xe7, 0x9d, 0xc2, 0x3c, 0xc8, 0x9d, 0x0f, 0xbe, 0x18, 0xe4, 0x3b, 0x3e, 0x4e, 0x9a, 0xd4, 0xbd, 0x19, 0x97, 0x0a, 0x3e, 0x46, 0xfb, 0x2d, 0xbe, 0x6e, 0x96, 0x5f, 0x3d, 0xae, 0x55, 0x35, 0x3e, 0xa9, 0x38, 0x44, 0x3d, 0x19, 0x4b, 0x37, 0xbe, 0x8b, 0xe9, 0x14, 0x3e, 0x91, 0x4c, 0x2c, 0xbe, 0xa8, 0xcc, 0x0c, 0x3d, 0x16, 0x46, 0x2d, 0xbd, 0x3c, 0x6c, 0xbd, 0x3d, 0x1f, 0xc5, 0x4f, 0x3d, 0x56, 0xe4, 0x4c, 0x3e, 0x17, 0x0e, 0x99, 0x3c, 0xc3, 0x6d, 0x4d, 0x3e, 0x9c, 0xe9, 0x10, 0x3e, 0xcb, 0x85, 0x7c, 0x3d, 0xb8, 0x21, 0xbc, 0xbc, 0x76, 0x3e, 0x4d, 0xbd, 0xc2, 0x46, 0xa0, 0xbd, 0x32, 0x95, 0xf7, 0x3d, 0xfd, 0x0c, 0x01, 0x3e, 0xd2, 0xc7, 0x36, 0xbe, 0x11, 0x7f, 0x03, 0x3e, 0x9b, 0x70, 0x52, 0x3d, 0xdb, 0x22, 0x1c, 0x3d, 0x7d, 0xfa, 0x82, 0xbd, 0x27, 0x1a, 0x81, 0xbd, 0x33, 0x88, 0xf8, 0xbb, 0xd1, 0x3c, 0x52, 0xbe, 0x50, 0x27, 0x04, 0xbe, 0xb3, 0x76, 0x2c, 0xbe, 0x04, 0xac, 0x75, 0x3c, 0xf7, 0xcf, 0x9b, 0x3d, 0x67, 0xbf, 0x71, 0x3d, 0xcd, 0xd9, 0x2c, 0x3e, 0xde, 0x01, 0x02, 0x3e, 0xcf, 0xa5, 0x9d, 0x3d, 0x32, 0xbe, 0x15, 0x3d, 0x5e, 0x46, 0x4a, 0x3c, 0xf4, 0x9b, 0x97, 0xbd, 0xf1, 0x88, 0x1f, 0xbd, 0x0f, 0x6a, 0x95, 0xbd, 0xf2, 0x3a, 0xbd, 0xbd, 0x46, 0xa1, 0x25, 0x3e, 0xc3, 0xb8, 0x1c, 0xbd, 0x5f, 0x2d, 0xa7, 0xbd, 0x69, 0xb7, 0x2a, 0x3e, 0xb5, 0x0d, 0x1e, 0xbe, 0x3a, 0x3d, 0xfc, 0xbc, 0x6e, 0xc4, 0x27, 0x3e, 0xb7, 0xfd, 0xa0, 0x3d, 0x4c, 0xaf, 0x2a, 0x3e, 0x86, 0x8d, 0xdd, 0x3c, 0xa4, 0x50, 0x3c, 0xbe, 0x1d, 0xb1, 0x33, 0x3e, 0xd0, 0xb3, 0xaa, 0x3c, 0xa0, 0xa6, 0xf8, 0xbd, 0x0e, 0xa6, 0x00, 0x3e, 0xc4, 0x02, 0xa3, 0xbd, 0x8b, 0xeb, 0xec, 0xbd, 0x87, 0xc2, 0x90, 0xbd, 0x61, 0x66, 0x0b, 0xbd, 0xd1, 0x1e, 0xb9, 0x3c, 0xaf, 0x5d, 0xfa, 0xbd, 0x35, 0x31, 0x8e, 0x3d, 0x19, 0xfa, 0x22, 0x3d, 0x60, 0x9c, 0x10, 0x3e, 0xd5, 0x7c, 0x6a, 0xbd, 0x21, 0xe8, 0xeb, 0x3d, 0x82, 0x2d, 0x1d, 0x3d, 0xa6, 0xfe, 0xbf, 0xbd, 0x20, 0xbe, 0x06, 0xbe, 0xe3, 0xaa, 0x5c, 0x3d, 0x62, 0xea, 0x28, 0xbb, 0x54, 0x12, 0xb6, 0x3d, 0xca, 0xaa, 0x88, 0x3d, 0x47, 0xdf, 0xe9, 0xbd, 0x7d, 0x79, 0xe9, 0x3d, 0x63, 0x0a, 0xc9, 0xbd, 0x90, 0x4c, 0x09, 0x3e, 0x5c, 0x1e, 0x2d, 0xbd, 0x54, 0xdd, 0x61, 0xbd, 0x88, 0xf9, 0xe9, 0xbd, 0x83, 0x9b, 0xcf, 0xbc, 0x08, 0xcd, 0x68, 0xbd, 0xcc, 0x4a, 0xc4, 0xbd, 0xcb, 0xaa, 0x3b, 0x3e, 0x18, 0xdb, 0x03, 0x3d, 0x70, 0x3c, 0x4a, 0x3c, 0xbc, 0xaf, 0xf0, 0x3d, 0x15, 0x84, 0x41, 0x3d, 0xe7, 0xfb, 0xbb, 0xbb, 0x33, 0x06, 0x2a, 0xbd, 0xca, 0xb6, 0xdd, 0xbd, 0x5f, 0x2f, 0x28, 0x3e, 0xef, 0xdc, 0x14, 0x3e, 0x46, 0x3f, 0xf8, 0xbd, 0xe8, 0x98, 0x0e, 0x3e, 0x81, 0x9b, 0xd1, 0x3d, 0xed, 0x52, 0x1a, 0x3e, 0x3c, 0xfe, 0x04, 0x3d, 0x42, 0x47, 0x30, 0x3e, 0xab, 0x3e, 0xb0, 0xbb, 0xda, 0x2e, 0x08, 0x3e, 0x00, 0x1d, 0xc0, 0xba, 0xc0, 0x7f, 0x45, 0x3e, 0x1c, 0xb4, 0x76, 0xbd, 0x38, 0xc8, 0xe4, 0xbd, 0xa1, 0x9b, 0x05, 0xbe, 0xe0, 0x75, 0x47, 0x3e, 0x58, 0x0f, 0xd5, 0x3d, 0xa0, 0x7d, 0x83, 0x3d, 0xa4, 0x20, 0xf4, 0xbd, 0x34, 0xd9, 0xfc, 0x3d, 0xc0, 0xde, 0x07, 0xbc, 0xf7, 0xe8, 0xb3, 0xbd, 0x1c, 0x69, 0xb6, 0x3b, 0x0a, 0x31, 0x18, 0x3e, 0x00, 0xba, 0x38, 0xbd, 0x6c, 0xf9, 0xa1, 0xbd, 0xc1, 0x48, 0x4a, 0xbe, 0x6c, 0xa3, 0xef, 0xbd, 0x3d, 0xea, 0x47, 0xbe, 0xb4, 0x83, 0x1e, 0xbe, 0x8e, 0x94, 0x12, 0xbe, 0x60, 0x24, 0xe8, 0x3d, 0x60, 0xab, 0xbb, 0x3d, 0x58, 0x46, 0x59, 0x3d, 0xdf, 0x1f, 0xda, 0xbd, 0x8e, 0xb9, 0xb5, 0xbd, 0x58, 0x29, 0x01, 0x3e, 0x08, 0x53, 0x3e, 0xbe, 0x4a, 0xf4, 0x03, 0x3e, 0x74, 0x8a, 0x34, 0x3d, 0x90, 0x98, 0x07, 0xbe, 0x6c, 0x09, 0x16, 0xbd, 0x00, 0x72, 0xad, 0x3c, 0x80, 0xa8, 0x58, 0xbb, 0x5e, 0xa9, 0x35, 0x3e, 0xd0, 0xcf, 0x24, 0xbe, 0x73, 0x36, 0x45, 0xbe, 0xb4, 0xa2, 0x31, 0xbe, 0x30, 0x06, 0x22, 0xbd, 0x1c, 0x25, 0x4e, 0x3e, 0x6a, 0x00, 0x07, 0xbe, 0xb0, 0x71, 0xe0, 0x3c, 0x08, 0xf1, 0x0a, 0xbe, 0x94, 0xf8, 0xff, 0x3d, 0x46, 0xae, 0x3d, 0x3e, 0xc8, 0xb9, 0x81, 0x3d, 0xd0, 0xc9, 0x37, 0x3c, 0xd8, 0x3b, 0xda, 0x3d, 0x5c, 0xf8, 0x30, 0xbe, 0x02, 0xcd, 0xf9, 0xbd, 0xcd, 0x07, 0x39, 0xbe, 0x50, 0xbb, 0xc7, 0xbd, 0x03, 0x4d, 0xa0, 0xbd, 0x44, 0xf1, 0xea, 0x3d, 0x90, 0x76, 0xb9, 0xbc, 0x4f, 0x40, 0x4a, 0xbe, 0xe0, 0xd1, 0x9f, 0xbb, 0xb8, 0x49, 0x22, 0xbe, 0x46, 0x7d, 0x9f, 0xbd, 0x48, 0xe5, 0x61, 0x3d, 0xb5, 0x42, 0x05, 0x3e, 0xb0, 0x7d, 0xa4, 0x3d, 0x18, 0xf1, 0xe2, 0xbc, 0xd8, 0x6f, 0xcd, 0x3d, 0xd3, 0x55, 0xcc, 0xbd, 0x4c, 0x89, 0x37, 0xbe, 0x65, 0x79, 0xba, 0xbd, 0x74, 0x33, 0xf8, 0x3d, 0xda, 0x0c, 0x39, 0xbe, 0x7d, 0x16, 0xbd, 0xbd, 0x84, 0xe3, 0x13, 0x3e, 0x45, 0x28, 0xab, 0xbd, 0xe0, 0x7c, 0x24, 0xbd, 0xf0, 0xec, 0x9d, 0x3d, 0x00, 0xfa, 0x17, 0x3b, 0x5c, 0x23, 0x2e, 0x3e, 0x58, 0x90, 0x48, 0xbe, 0x80, 0x0c, 0xa3, 0xbb, 0x90, 0x83, 0x64, 0x3c, 0x7f, 0x8f, 0x45, 0xbe, 0xc0, 0xf8, 0x3a, 0x3e, 0x38, 0x51, 0x2c, 0xbd, 0x00, 0x8c, 0xa1, 0x3b, 0x00, 0x21, 0x8f, 0xbd, 0x6c, 0x4e, 0x05, 0xbd, 0x70, 0x57, 0xdc, 0x3d, 0x38, 0x56, 0x4d, 0xbe, 0x2d, 0xd7, 0x2c, 0xbe, 0x86, 0x34, 0xa9, 0xbd, 0x60, 0xdf, 0x10, 0xbd, 0x54, 0x05, 0x1e, 0x3d, 0xbf, 0x1f, 0x47, 0xbe, 0x57, 0xad, 0xe0, 0xbc, 0xc3, 0x6f, 0x35, 0xbe, 0x84, 0xa7, 0x35, 0x3e, 0x2c, 0x6b, 0x38, 0xbe, 0x54, 0x6f, 0x3b, 0x3e, 0x26, 0xc0, 0x0b, 0xbe, 0x40, 0xae, 0x19, 0xbc, 0x72, 0xac, 0x0a, 0xbe, 0x6f, 0xba, 0x11, 0x3e, 0xe8, 0x8e, 0xf8, 0x3c, 0x2f, 0xeb, 0x22, 0xbe, 0x18, 0xa7, 0x05, 0x3d, 0xd6, 0x19, 0x36, 0x3e, 0x2f, 0xc4, 0xb9, 0xbd, 0xac, 0x46, 0xb0, 0x3d, 0x14, 0xcc, 0xf5, 0xbd, 0x24, 0xb7, 0xa4, 0xbd, 0xe0, 0x41, 0x10, 0x3e, 0xe8, 0xd3, 0x80, 0xbd, 0x90, 0xdb, 0x97, 0xbc, 0xf0, 0xe1, 0x23, 0x3d, 0x4c, 0x9d, 0xdf, 0x3d, 0xd4, 0xdf, 0x3e, 0x3e, 0x65, 0x57, 0x15, 0xbe, 0x29, 0x17, 0x2e, 0xbd, 0x90, 0x8e, 0x86, 0x3d, 0x98, 0xc8, 0x3e, 0xbe, 0xd8, 0x43, 0xc0, 0x3c, 0x5e, 0x6b, 0x13, 0xbe, 0xb8, 0xb8, 0x0f, 0x3d, 0x5a, 0x3b, 0x23, 0x3e, 0x64, 0xb4, 0x31, 0x3d, 0x0d, 0xb7, 0x9a, 0xbd, 0x64, 0x31, 0xd5, 0x3d, 0xd8, 0xa3, 0xf0, 0xbc, 0x2a, 0xfa, 0x21, 0xbe, 0x0f, 0xdc, 0x4d, 0xbe, 0xdc, 0x44, 0xc3, 0xbb, 0x24, 0xae, 0x73, 0x3b, 0xf9, 0xc6, 0xfb, 0x3d, 0xea, 0x91, 0x13, 0x3f, 0x31, 0xd3, 0x38, 0xbc, 0x0c, 0xea, 0x45, 0x3e, 0xce, 0xf4, 0xd0, 0x3d, 0xda, 0x1d, 0x27, 0x3d, 0x94, 0xe9, 0xf6, 0x3d, 0x14, 0x38, 0x11, 0xbe, 0x06, 0x6a, 0x22, 0x3e, 0xc8, 0xe3, 0xfd, 0x3e, 0xe9, 0xea, 0x2b, 0xbe, 0x26, 0xca, 0xf8, 0x3c, 0xe6, 0xee, 0x27, 0xbe, 0x35, 0x44, 0x41, 0x3e, 0x30, 0x41, 0x38, 0xbc, 0x10, 0x25, 0xac, 0xbd, 0x8b, 0x63, 0xa1, 0xbc, 0xba, 0x6b, 0xde, 0x3d, 0xf4, 0x6c, 0x18, 0xbe, 0xf4, 0x8c, 0x4e, 0xbe, 0x3b, 0x72, 0x02, 0xbc, 0x86, 0x1f, 0x44, 0xbd, 0x77, 0xf1, 0xdf, 0xbb, 0x1e, 0x89, 0xef, 0x3c, 0x36, 0xa9, 0x4c, 0xbe, 0xbf, 0x52, 0x04, 0x3f, 0x98, 0x4b, 0xac, 0xbd, 0x50, 0x18, 0x4f, 0x3e, 0x38, 0xda, 0x3b, 0xbd, 0xfd, 0xa2, 0x2e, 0xbe, 0xb6, 0xa8, 0x45, 0xbd, 0x99, 0x3d, 0x45, 0xbe, 0x35, 0xd5, 0xe6, 0x3d, 0x63, 0xb8, 0x86, 0x3f, 0x0d, 0x62, 0x22, 0xbd, 0xe2, 0x59, 0x2e, 0x3e, 0xe2, 0x61, 0x47, 0xbe, 0x6a, 0x59, 0x69, 0x3c, 0xa1, 0x28, 0x0f, 0xbe, 0x1f, 0xc9, 0xb1, 0x3d, 0x3a, 0xf7, 0xf5, 0xbd, 0xa0, 0x37, 0xb6, 0xbe, 0xb0, 0x50, 0x09, 0xbe, 0x03, 0x3a, 0xd1, 0x3c, 0x4a, 0x8f, 0x06, 0xbe, 0x99, 0xbd, 0x0f, 0xbe, 0x82, 0x3f, 0x4d, 0x3e, 0x38, 0x20, 0x45, 0xbe, 0x0b, 0xb8, 0x1f, 0x3e, 0xa6, 0x83, 0xcc, 0xbe, 0xb0, 0x3f, 0x94, 0x3d, 0x07, 0xbf, 0x4c, 0x3d, 0x38, 0xdd, 0xe5, 0xbb, 0xb1, 0x31, 0xe8, 0xbd, 0x14, 0x13, 0x5e, 0xbd, 0xe0, 0x1b, 0x03, 0xbe, 0xc8, 0xa7, 0x47, 0xbe, 0x52, 0x8b, 0xc0, 0x3f, 0x59, 0xba, 0x4d, 0x3e, 0x0b, 0x91, 0x40, 0xbe, 0x28, 0x12, 0x5b, 0xbb, 0xfa, 0x60, 0x24, 0xbe, 0x14, 0x3f, 0x2b, 0x3e, 0x5b, 0xcd, 0x39, 0x3e, 0xfd, 0x5d, 0x41, 0x3d, 0x8b, 0x8b, 0x10, 0x3f, 0x5e, 0xf8, 0x21, 0x3d, 0x97, 0xed, 0x66, 0x3d, 0x9e, 0x97, 0x35, 0x3e, 0x53, 0x2c, 0x95, 0x3c, 0xdb, 0xe9, 0x28, 0x3d, 0x3c, 0x52, 0x62, 0x3d, 0xb2, 0xdd, 0x02, 0xbe, 0xa1, 0x98, 0xe7, 0xbf, 0x83, 0x41, 0x65, 0xbc, 0xb2, 0x97, 0xe3, 0x3c, 0xd8, 0x40, 0xd8, 0xbd, 0x70, 0xbd, 0x4c, 0x3e, 0xae, 0x90, 0x0e, 0x3e, 0xad, 0x9c, 0x88, 0xbc, 0x87, 0x65, 0x3c, 0x3e, 0x1a, 0xb0, 0xcb, 0xbf, 0x04, 0x4e, 0xdd, 0x3d, 0xfb, 0x0e, 0x06, 0x3d, 0x3c, 0x8a, 0x0d, 0x3e, 0x31, 0x32, 0xbf, 0xbd, 0x07, 0x90, 0xe3, 0x3c, 0x0b, 0xf8, 0x82, 0x3d, 0x24, 0xcd, 0x67, 0x3d, 0xe9, 0x08, 0x4c, 0x3f, 0xb2, 0x9c, 0x57, 0xbc, 0x9e, 0x69, 0x0d, 0x3e, 0x10, 0x56, 0x53, 0xbc, 0x57, 0x30, 0x0c, 0xbd, 0x7c, 0xe6, 0x50, 0x3e, 0x90, 0xc5, 0x84, 0x3d, 0xfd, 0x2d, 0x18, 0x3e, 0x92, 0xac, 0xc1, 0x3f, 0x96, 0x83, 0x88, 0xbc, 0xfd, 0x1d, 0x53, 0x3e, 0xb2, 0x0f, 0xd1, 0xbd, 0x16, 0x94, 0x1e, 0x3e, 0x01, 0xeb, 0x07, 0xbc, 0x7f, 0x3d, 0xbc, 0x3d, 0x10, 0xd3, 0x85, 0xbd, 0x5e, 0x60, 0xd0, 0x3f, 0x30, 0x7d, 0x3e, 0xbd, 0x44, 0x44, 0x0e, 0x3e, 0x0c, 0xe1, 0x2d, 0xbd, 0xa0, 0xaa, 0x0f, 0xbd, 0x1f, 0x42, 0x29, 0x3e, 0x64, 0xbc, 0x96, 0xbd, 0xe0, 0x8c, 0x5a, 0x3d, 0x50, 0x60, 0xcd, 0x3f, 0x2b, 0x86, 0x1c, 0x3e, 0xb4, 0x70, 0x2b, 0x3e, 0xaf, 0xc1, 0x4b, 0x3e, 0x58, 0xe2, 0xd6, 0xbc, 0x60, 0x0d, 0x44, 0x3e, 0x20, 0x91, 0xe9, 0xbd, 0x34, 0x31, 0x18, 0xbe, 0x96, 0x58, 0xb9, 0x3f, 0x5e, 0xaf, 0x42, 0x3e, 0xfd, 0x0c, 0x14, 0x3d, 0xa0, 0xa8, 0xf3, 0xbb, 0x5c, 0x3a, 0xf4, 0xbd, 0xb8, 0x73, 0xfd, 0xbc, 0xb4, 0x9a, 0x48, 0x3e, 0xc8, 0x43, 0x1b, 0x3e, 0x63, 0x4e, 0x81, 0xbd, 0x4a, 0xb3, 0x3e, 0xbe, 0x10, 0x9b, 0x7f, 0x3c, 0x7e, 0xa2, 0xa1, 0xbd, 0xa8, 0xbf, 0xae, 0xbc, 0xbb, 0x3b, 0xb7, 0xbd, 0xac, 0xcc, 0x57, 0xbd, 0x50, 0xce, 0x70, 0x3c, 0x3c, 0x68, 0x62, 0x3d, 0x14, 0x62, 0xb5, 0x3d, 0x38, 0xcc, 0xa2, 0x3c, 0x9c, 0x85, 0xd8, 0x3d, 0x68, 0xef, 0x93, 0x3d, 0x36, 0x9f, 0x02, 0xbe, 0x04, 0x51, 0x47, 0xbe, 0xb4, 0x54, 0x60, 0xbd, 0x4c, 0x7f, 0xd7, 0x3b, 0x24, 0xf8, 0x06, 0xbd, 0x5e, 0x16, 0x07, 0xbe, 0x82, 0xb8, 0x41, 0x3e, 0xae, 0x72, 0x17, 0xbe, 0xc9, 0x77, 0xde, 0xbd, 0xbf, 0xd5, 0xad, 0xbd, 0xfc, 0x03, 0x2c, 0x3e, 0x2b, 0x7e, 0x02, 0x3e, 0xd8, 0x57, 0xcb, 0xbd, 0x19, 0x81, 0xcc, 0xbd, 0x50, 0x94, 0xa1, 0x3d, 0xb6, 0xb8, 0x3d, 0x3e, 0x3a, 0xf5, 0x4a, 0xbe, 0x2b, 0xa3, 0x0a, 0xbe, 0xda, 0xe6, 0x8e, 0xbd, 0xd5, 0xbf, 0xd8, 0xbd, 0xf8, 0x4c, 0xd6, 0x3d, 0x18, 0xae, 0xe4, 0x3c, 0xda, 0x54, 0xcd, 0xbd, 0x78, 0x6b, 0x92, 0xbd, 0xb4, 0xc6, 0x16, 0xbd, 0xd4, 0x63, 0xfd, 0x3d, 0x42, 0x69, 0x1c, 0x3e, 0xd4, 0xf4, 0x69, 0xbd, 0xa8, 0x3c, 0x40, 0x3d, 0x4c, 0x26, 0xaf, 0x3d, 0x60, 0xf2, 0x25, 0xbd, 0xa0, 0x84, 0x70, 0x3d, 0x90, 0x70, 0x77, 0x3d, 0xe4, 0xda, 0x0c, 0x3d, 0xbe, 0x79, 0x2e, 0x3e, 0xa2, 0x56, 0xc8, 0xbd, 0x50, 0xaa, 0x1c, 0x3d, 0x4e, 0xb5, 0x35, 0x3e, 0xe8, 0x94, 0x37, 0x3e, 0xae, 0xa8, 0x25, 0x3e, 0x00, 0xc3, 0x53, 0x3d, 0x2e, 0x8b, 0x27, 0xbe, 0x48, 0x93, 0x2a, 0x3e, 0xb8, 0x0d, 0x2a, 0xbe, 0x90, 0x92, 0x2e, 0xbc, 0x81, 0x75, 0x15, 0xbe, 0x54, 0x5c, 0x01, 0x3e, 0x1c, 0x10, 0x1c, 0x3e, 0x44, 0xa8, 0x9e, 0xbd, 0xb0, 0xba, 0x4b, 0x3d, 0x35, 0xba, 0x06, 0xbe, 0xb0, 0x82, 0x77, 0x3d, 0x6c, 0x63, 0x4d, 0xbd, 0x2a, 0xa5, 0xd1, 0xbd, 0x20, 0x68, 0xf7, 0xbd, 0xcb, 0x3d, 0xd4, 0xbd, 0x2c, 0xb4, 0x08, 0x3d, 0xdc, 0x8e, 0xc8, 0x3d, 0xe4, 0x00, 0xca, 0x3d, 0xa4, 0x15, 0x90, 0x3d, 0xf0, 0x5b, 0x11, 0xbd, 0x10, 0xca, 0xd5, 0x3c, 0x1f, 0xff, 0xcc, 0xbd, 0x90, 0xfa, 0xb6, 0x3d, 0xc0, 0x4c, 0x58, 0x3d, 0x5c, 0x33, 0xbe, 0x3d, 0x64, 0x81, 0x01, 0xbd, 0x96, 0x1a, 0x26, 0xbe, 0x1a, 0x72, 0x2f, 0xbe, 0x40, 0xaf, 0x38, 0xbc, 0x36, 0xb2, 0x09, 0xbe, 0x55, 0xc2, 0xbe, 0xbd, 0xe0, 0xaf, 0xed, 0x3c, 0x28, 0xac, 0x50, 0x3d, 0x34, 0xa8, 0x47, 0xbe, 0xf8, 0x4b, 0x7f, 0xbd, 0x80, 0x6a, 0x2a, 0x3e, 0xb0, 0x12, 0x17, 0xbd, 0xf4, 0xd8, 0x93, 0xbd, 0x64, 0x38, 0xfe, 0x3d, 0xd0, 0xf5, 0x33, 0xbe, 0xb2, 0xe6, 0x44, 0x3e, 0x68, 0x26, 0x4b, 0xbe, 0x50, 0x5b, 0x32, 0x3c, 0x15, 0x4c, 0x34, 0xbe, 0x1c, 0x33, 0x1a, 0xbd, 0x08, 0xdc, 0x21, 0x3d, 0xa0, 0xe4, 0x11, 0x3e, 0xe2, 0x6b, 0x3b, 0x3e, 0x80, 0x96, 0x48, 0x3d, 0x5c, 0x34, 0x53, 0xbd, 0x3e, 0xc9, 0xf4, 0xbd, 0xc0, 0xb9, 0x54, 0x3b, 0x28, 0x20, 0x25, 0x3e, 0xfa, 0x21, 0x11, 0x3e, 0x68, 0xb0, 0x15, 0xbe, 0xc0, 0xcb, 0x70, 0xbb, 0x98, 0x91, 0x3d, 0xbd, 0xb1, 0x2a, 0xd1, 0xbd, 0x27, 0xa0, 0x58, 0xbe, 0x7c, 0x00, 0x43, 0x3e, 0x28, 0x0d, 0xb1, 0x3c, 0x00, 0xe7, 0x6e, 0xba, 0x68, 0x06, 0xda, 0x3d, 0xd0, 0xa3, 0x44, 0x3e, 0x0c, 0xc3, 0x1e, 0xbe, 0x79, 0xa4, 0x40, 0xbe, 0x7a, 0xfd, 0xfc, 0xbd, 0xea, 0x4f, 0x3f, 0x3e, 0xcc, 0x30, 0x38, 0x3e, 0x78, 0xa0, 0xac, 0x3d, 0x80, 0x75, 0xa2, 0xbb, 0xd0, 0x45, 0x3f, 0x3e, 0xf9, 0xd4, 0xc2, 0x3d, 0x5e, 0x85, 0x8e, 0x3c, 0x85, 0x6e, 0x18, 0x3f, 0x47, 0xee, 0xf1, 0xbc, 0x3a, 0xf2, 0x36, 0x3d, 0x83, 0xaa, 0x82, 0x3d, 0x75, 0x2a, 0x28, 0x3e, 0x99, 0x6b, 0x21, 0xbe, 0xf3, 0x79, 0x2e, 0x3e, 0x24, 0xe0, 0x01, 0xbe, 0xcd, 0xe0, 0x3e, 0x3f, 0xfd, 0x15, 0xe5, 0x39, 0x08, 0xfc, 0x43, 0x3e, 0x2d, 0xa1, 0x91, 0xbd, 0x93, 0xb5, 0x48, 0xbe, 0x0b, 0x41, 0x33, 0xbe, 0x3e, 0xf9, 0x96, 0xbc, 0xd0, 0x77, 0x4c, 0x3d, 0x2b, 0xe7, 0xa4, 0x3f, 0x20, 0x97, 0x28, 0xbe, 0x3f, 0x3a, 0x7d, 0xbd, 0x90, 0x1d, 0x26, 0x3e, 0x7c, 0x8a, 0xc3, 0x3b, 0x9a, 0x9e, 0xc9, 0x3d, 0x1f, 0xf3, 0xbf, 0x3c, 0x51, 0x18, 0x6c, 0xbd, 0x22, 0x1f, 0x13, 0x3f, 0x1f, 0xa8, 0x25, 0xbd, 0xc5, 0x45, 0xf1, 0x3c, 0x40, 0xe3, 0x4b, 0x3e, 0x87, 0x33, 0x08, 0x3e, 0x21, 0x2b, 0x79, 0xbd, 0x65, 0x25, 0x12, 0xbe, 0x06, 0xb3, 0x04, 0x3e, 0x96, 0xab, 0x40, 0xbe, 0x4c, 0xdf, 0x1a, 0xbe, 0x7a, 0x94, 0x14, 0xbe, 0x3e, 0xee, 0x04, 0xbe, 0x46, 0xd8, 0x4a, 0x3e, 0x38, 0xe9, 0x06, 0x3e, 0x5d, 0xe6, 0x16, 0x3e, 0xc0, 0x56, 0xd2, 0x3d, 0x3e, 0xcd, 0xf4, 0x3f, 0x24, 0x94, 0xb2, 0x3b, 0x5e, 0xc3, 0xdd, 0xbb, 0x7f, 0x47, 0xf9, 0xbc, 0x60, 0x49, 0x4a, 0x3e, 0x3a, 0x4b, 0xb2, 0xbc, 0xad, 0xd6, 0x5e, 0xbd, 0x0b, 0xbd, 0x02, 0xbe, 0xaf, 0x3d, 0xe1, 0x3f, 0xfa, 0xd3, 0x0c, 0x3e, 0x60, 0x84, 0x07, 0x3d, 0x34, 0xb1, 0x5a, 0x3c, 0x11, 0xde, 0x2a, 0xbe, 0x73, 0xd5, 0x45, 0x3e, 0x10, 0xd3, 0xca, 0x3d, 0xed, 0xff, 0x4b, 0x3e, 0x47, 0x21, 0x46, 0xbf, 0x96, 0x4c, 0x81, 0xbd, 0x7f, 0xb4, 0xa5, 0x3d, 0x0f, 0x11, 0x38, 0x3e, 0xd1, 0xce, 0xa0, 0x3d, 0xd1, 0x26, 0x50, 0x3c, 0xbb, 0x8f, 0xc2, 0x3d, 0x26, 0xb1, 0x91, 0x3d, 0xf0, 0x70, 0x6d, 0x3e, 0xac, 0xe4, 0x2c, 0x3d, 0x7e, 0x4f, 0xb3, 0xbd, 0xfa, 0x8a, 0x1e, 0x3e, 0x55, 0x17, 0xf9, 0x3d, 0xc7, 0x30, 0x0b, 0x3d, 0xe1, 0x6d, 0x12, 0x3e, 0xa4, 0xe4, 0x01, 0xbd, 0x5e, 0xc5, 0x6b, 0x40, 0xfa, 0x0a, 0x0b, 0x3c, 0x8b, 0x71, 0xbc, 0xbd, 0x9a, 0x09, 0xa2, 0xbd, 0x8a, 0xa5, 0x80, 0x3d, 0xec, 0x56, 0x2b, 0xbd, 0xc0, 0x06, 0xdb, 0xbc, 0xcb, 0x38, 0x27, 0xbe, 0x49, 0x15, 0x62, 0x40, 0x87, 0xbf, 0x4c, 0xbd, 0xbf, 0xac, 0x4c, 0xbd, 0x17, 0x57, 0xd0, 0xbd, 0xdd, 0x77, 0x1d, 0xbe, 0xb9, 0x47, 0xcc, 0x3d, 0x64, 0x26, 0xb7, 0xba, 0x8b, 0x49, 0x11, 0xbe, 0x37, 0xa1, 0x76, 0xbe, 0x3d, 0x9a, 0x53, 0x3e, 0x06, 0xc7, 0x16, 0x3e, 0x18, 0x1e, 0xb5, 0xbc, 0x97, 0x49, 0xfe, 0x3d, 0x11, 0x9f, 0xb0, 0x3d, 0x00, 0x71, 0x46, 0x3e, 0x93, 0xb9, 0x5d, 0x3b, 0x38, 0x1c, 0x04, 0xc0, 0x64, 0x68, 0x1c, 0x3c, 0xec, 0x18, 0x3a, 0xbe, 0x14, 0x0f, 0xaf, 0x3d, 0x5a, 0xf6, 0x49, 0x3e, 0xb8, 0x3c, 0x2a, 0x3c, 0x16, 0xd4, 0x8d, 0xbc, 0x0b, 0xea, 0xed, 0x3d, 0x12, 0xa8, 0x12, 0xc0, 0x67, 0x1d, 0x9b, 0x3d, 0xda, 0x61, 0x39, 0xbd, 0xd0, 0x1c, 0x33, 0xbd, 0x4e, 0x73, 0x16, 0x3e, 0xbe, 0x30, 0x0e, 0x3e, 0x00, 0x9e, 0x87, 0x3c, 0xa7, 0x2a, 0xbd, 0xbc, 0xc8, 0xaf, 0xf7, 0xbf, 0x9c, 0x0c, 0x3a, 0x3e, 0xbd, 0x5a, 0xac, 0x3d, 0xa9, 0xa6, 0x1c, 0x3c, 0x08, 0x13, 0xb5, 0x3d, 0xc6, 0x17, 0x28, 0xbd, 0x3e, 0xec, 0x77, 0x3c, 0x8e, 0x9b, 0x9d, 0xbd, 0xc8, 0x21, 0xcf, 0xbf, 0x33, 0xd7, 0x30, 0xbd, 0xb9, 0x64, 0x2d, 0x3e, 0xea, 0x8e, 0x2d, 0x3e, 0x00, 0xbc, 0x5a, 0xbd, 0x2d, 0xea, 0x0c, 0xbe, 0xde, 0x68, 0x34, 0x3e, 0x33, 0x05, 0x97, 0xbd, 0xaa, 0xb9, 0x1a, 0xbe, 0x8f, 0x0a, 0x35, 0x3e, 0xbb, 0xf1, 0xc2, 0xbb, 0xec, 0x48, 0x93, 0x3d, 0x6f, 0x5d, 0x24, 0x3e, 0xef, 0x4c, 0xe0, 0x3d, 0x8c, 0x2f, 0xdf, 0x3d, 0x7a, 0x67, 0xab, 0xbd, 0x9c, 0x63, 0x6b, 0xbd, 0xfd, 0x82, 0x8f, 0xbc, 0x69, 0x4e, 0x6c, 0x3d, 0xb7, 0xf5, 0x20, 0xbe, 0x05, 0x13, 0x51, 0xbc, 0x52, 0x7c, 0x66, 0xbd, 0x09, 0xcf, 0x45, 0x3e, 0x93, 0xb5, 0x28, 0x3c, 0x32, 0x40, 0x2a, 0xbe, 0xbb, 0x51, 0x1a, 0x3e, 0xcc, 0x00, 0x92, 0xbd, 0x6b, 0xbf, 0xc8, 0xbd, 0xf4, 0x05, 0x1e, 0x3e, 0xb7, 0x1e, 0xac, 0xbc, 0xa1, 0x04, 0x60, 0xbd, 0xb0, 0xd7, 0xe3, 0xbc, 0x02, 0xfe, 0x18, 0x3e, 0xa8, 0x30, 0x98, 0x3d, 0x33, 0x0e, 0xd3, 0x3d, 0x50, 0x46, 0xa3, 0xbc, 0x4c, 0x75, 0x2c, 0x3e, 0x59, 0x85, 0x8e, 0x3d, 0x7a, 0x1a, 0xb2, 0x3b, 0x82, 0x03, 0x82, 0xbd, 0x7b, 0x4a, 0x34, 0x3d, 0x80, 0x22, 0x06, 0xbe, 0x05, 0x86, 0x9a, 0x3d, 0x3b, 0xcc, 0x0b, 0xbe, 0x38, 0x8f, 0x01, 0x3d, 0xe8, 0xe1, 0xd2, 0x3d, 0xa0, 0x51, 0x10, 0xbe, 0x0c, 0x20, 0x34, 0x3e, 0x58, 0xb7, 0x2c, 0xbb, 0x40, 0x2c, 0xd9, 0xbc, 0x9d, 0xd5, 0xb8, 0x3d, 0xc3, 0x74, 0x5e, 0x3d, 0x6a, 0xe2, 0x09, 0x3e, 0x0e, 0xac, 0x49, 0xbe, 0x0b, 0x51, 0x3e, 0xbe, 0xdc, 0x14, 0xfb, 0xbd, 0x18, 0x1d, 0xc5, 0x3d, 0x78, 0xec, 0x05, 0x3e, 0x20, 0x8b, 0x08, 0x3e, 0x1c, 0x9d, 0xd2, 0x3d, 0xa2, 0x9f, 0xea, 0x3d, 0xd9, 0xae, 0x01, 0xbe, 0x2f, 0x64, 0xea, 0xbc, 0x59, 0xe8, 0xb1, 0x3c, 0x56, 0x76, 0x89, 0xbd, 0x41, 0xe0, 0x3e, 0xbe, 0xad, 0x2b, 0x1f, 0x3d, 0xb4, 0xcb, 0x3a, 0x3e, 0x46, 0x99, 0x8e, 0xbd, 0xcd, 0xbb, 0xc8, 0x3d, 0x03, 0x2d, 0x2e, 0x3e, 0x51, 0xac, 0xe6, 0x3d, 0x67, 0x2f, 0x1b, 0xbe, 0x02, 0xcb, 0x0a, 0x3e, 0xbf, 0xd5, 0x0c, 0xba, 0x18, 0x26, 0xdd, 0x3d, 0xc0, 0x54, 0x1d, 0x3e, 0x7d, 0x3d, 0xdc, 0xbd, 0x35, 0xc7, 0x31, 0xbe, 0xf8, 0xb1, 0x90, 0x3d, 0x61, 0x14, 0x24, 0xbd, 0xec, 0xed, 0xf3, 0x3d, 0xfc, 0x67, 0xf7, 0x3d, 0x29, 0x60, 0x39, 0xbe, 0x34, 0x09, 0x1b, 0xbe, 0xce, 0xb9, 0xef, 0xbc, 0x02, 0x68, 0xfb, 0x3b, 0x10, 0x42, 0xc0, 0x3d, 0x17, 0x6d, 0x5b, 0xbd, 0x08, 0xfc, 0x38, 0x3e, 0x16, 0x44, 0x6f, 0xbd, 0x70, 0xd8, 0x17, 0xbd, 0x08, 0x49, 0xce, 0x3d, 0xd9, 0x9d, 0x92, 0xbd, 0x69, 0xfe, 0x8a, 0xbc, 0x82, 0xfb, 0x37, 0x3d, 0x6f, 0xc4, 0x69, 0xbd, 0x19, 0xb2, 0xef, 0xbd, 0x25, 0x49, 0x35, 0xbe, 0x44, 0x85, 0x17, 0x3e, 0x3c, 0xbb, 0xdb, 0x3c, 0xb4, 0xa1, 0x95, 0xbd, 0x4f, 0x44, 0x26, 0x3e, 0x66, 0xb4, 0xd2, 0xbd, 0x5f, 0x5c, 0xa5, 0x3c, 0xed, 0xee, 0xa6, 0x3d, 0x0f, 0x59, 0x2e, 0x3e, 0x20, 0xad, 0xb6, 0xbd, 0xe4, 0xcb, 0x1a, 0x3d, 0x3d, 0x34, 0x14, 0xbe, 0x1a, 0xea, 0x28, 0xbe, 0x80, 0xe9, 0xea, 0xbd, 0xa3, 0x7b, 0x28, 0x3e, 0xf6, 0x74, 0x2a, 0xbe, 0xd0, 0x2b, 0x17, 0x3e, 0xa0, 0x26, 0x4a, 0xbe, 0x50, 0x70, 0x27, 0x3e, 0x26, 0x3c, 0x12, 0x3e, 0x93, 0xd2, 0x97, 0xbd, 0xcf, 0x10, 0x46, 0xbd, 0xce, 0x8f, 0xe4, 0xbd, 0x6c, 0x96, 0xc4, 0xbd, 0x81, 0x8d, 0x53, 0x3c, 0x28, 0x4c, 0xe6, 0xbc, 0x06, 0x1c, 0xaa, 0xbd, 0x98, 0x74, 0x31, 0xbe, 0x0a, 0x26, 0xbf, 0x3d, 0x45, 0xb0, 0x04, 0x3e, 0xa3, 0xa6, 0x3b, 0xbe, 0xe7, 0x55, 0x4c, 0xbe, 0xe4, 0xd9, 0x29, 0x3c, 0x30, 0x2e, 0x03, 0xbe, 0x88, 0x40, 0x96, 0x3c, 0xc6, 0x6a, 0x3e, 0xbe, 0xc8, 0x29, 0xb1, 0x3d, 0x86, 0x9b, 0x3c, 0x3e, 0xd7, 0x4a, 0x1e, 0xbf, 0xa0, 0xd1, 0xb8, 0x3c, 0x23, 0x81, 0xad, 0xbd, 0x30, 0x2d, 0x64, 0xbd, 0xb8, 0x6f, 0x3b, 0x3d, 0x76, 0x2b, 0x85, 0xbd, 0xb4, 0xb7, 0x10, 0xbe, 0x70, 0xfa, 0xbc, 0x3c, 0x94, 0x58, 0x57, 0xbf, 0x66, 0xd1, 0x3a, 0x3e, 0x48, 0x9c, 0xd0, 0x3d, 0x24, 0xe2, 0x01, 0x3e, 0x50, 0x23, 0x9a, 0x3d, 0x08, 0x29, 0xfe, 0xbd, 0x80, 0xe0, 0x00, 0xbe, 0x18, 0x7b, 0x6c, 0x3d, 0x4b, 0xdb, 0x95, 0xbf, 0x46, 0xfd, 0x11, 0x3e, 0x34, 0x84, 0x98, 0xbd, 0x10, 0x7a, 0x58, 0x3d, 0xa4, 0x49, 0x12, 0x3e, 0x00, 0xb9, 0x6d, 0x3d, 0x80, 0xe1, 0xa8, 0x3a, 0x8c, 0xbd, 0x17, 0xbd, 0xf8, 0x7d, 0x4d, 0xbf, 0x90, 0xe9, 0x42, 0x3e, 0xed, 0xb9, 0xd4, 0xbd, 0xa6, 0x5d, 0x34, 0x3e, 0x40, 0xf8, 0x1f, 0xbd, 0x50, 0x67, 0x52, 0x3d, 0xde, 0xef, 0xee, 0xbd, 0x6a, 0x07, 0x2d, 0x3e, 0x8a, 0x5d, 0x48, 0x3e, 0x7e, 0x91, 0x39, 0x3e, 0x8c, 0x5b, 0xda, 0x3d, 0x37, 0xef, 0xe2, 0xbd, 0xe0, 0x1f, 0x01, 0x3c, 0xb6, 0x84, 0x07, 0xbe, 0x57, 0x86, 0xed, 0xbd, 0x64, 0xc9, 0x09, 0x3e, 0x5d, 0x0d, 0xf6, 0xbf, 0x51, 0x81, 0xbe, 0xbd, 0x01, 0x5e, 0x47, 0xbe, 0x12, 0x41, 0x26, 0xbe, 0xa4, 0x48, 0x03, 0x3d, 0x60, 0x26, 0x20, 0xbe, 0x2c, 0x2d, 0x18, 0x3e, 0x49, 0x90, 0x4a, 0xbe, 0xa9, 0x20, 0xda, 0xbf, 0x30, 0x65, 0x80, 0xbc, 0x90, 0xcd, 0x8d, 0x3d, 0x66, 0xc0, 0x1c, 0xbe, 0x84, 0x55, 0x0d, 0xbe, 0x80, 0x51, 0x03, 0x3e, 0xd4, 0xdc, 0x30, 0x3e, 0x38, 0xf6, 0x5c, 0xbd, 0xc6, 0x43, 0x86, 0x3f, 0xa0, 0xbe, 0x5b, 0xbd, 0xe2, 0xd4, 0x06, 0xbe, 0x1a, 0x44, 0x4d, 0xbe, 0x58, 0xfc, 0x9d, 0xbd, 0xa0, 0xae, 0x1b, 0xbd, 0x90, 0x2e, 0x26, 0xbe, 0xa8, 0x9b, 0x0e, 0x3e, 0xed, 0x84, 0xfd, 0xbc, 0xe8, 0xb3, 0x46, 0x3d, 0x66, 0x8b, 0x85, 0xbd, 0x2c, 0x97, 0x15, 0x3d, 0x68, 0xea, 0x33, 0xbe, 0x2e, 0xd6, 0x09, 0xbe, 0xc0, 0x93, 0x71, 0x3d, 0x7b, 0xd7, 0xec, 0xbd, 0xdd, 0x71, 0x6e, 0xc0, 0x3e, 0xd7, 0x1d, 0xbe, 0x1a, 0x8a, 0x00, 0xbe, 0xd4, 0x67, 0x62, 0xbd, 0x90, 0xeb, 0xb7, 0x3d, 0x26, 0xf5, 0x94, 0xbd, 0x96, 0x87, 0x13, 0xbe, 0xdf, 0xc4, 0xdd, 0xbd, 0x20, 0x7b, 0x62, 0xc0, 0x90, 0xab, 0x26, 0xbd, 0x78, 0x3f, 0xe0, 0xbc, 0x14, 0x7b, 0x39, 0x3e, 0xad, 0x57, 0xa2, 0xbd, 0x30, 0x89, 0x67, 0x3c, 0x94, 0x16, 0xa3, 0x3d, 0x48, 0x97, 0x27, 0x3d, 0x60, 0xf0, 0x9f, 0x3e, 0x54, 0x9d, 0x09, 0xbe, 0xf4, 0xac, 0x19, 0x3d, 0x28, 0xce, 0x6e, 0x3d, 0x24, 0xf0, 0x7b, 0xbd, 0xb4, 0xf8, 0x49, 0xbd, 0x38, 0x10, 0xd9, 0x3c, 0xd0, 0x1b, 0x5d, 0xbc, 0x02, 0x4f, 0x28, 0x40, 0xb8, 0x32, 0x8a, 0xbd, 0xd4, 0x46, 0xb9, 0x3d, 0xf0, 0xe2, 0x03, 0x3c, 0x64, 0x25, 0x50, 0xbd, 0x3e, 0xc2, 0x2b, 0x3e, 0x38, 0xfb, 0x12, 0x3d, 0x60, 0x4f, 0x6f, 0xbd, 0xf2, 0x1b, 0x2d, 0x40, 0x90, 0x7d, 0xc2, 0xbc, 0xbe, 0x39, 0x0c, 0x3e, 0x80, 0xa4, 0x72, 0x3b, 0x60, 0x32, 0xfc, 0x3b, 0x7c, 0xb9, 0x4a, 0x3e, 0xe8, 0x91, 0x05, 0x3d, 0x16, 0x16, 0xba, 0xbd, 0xf0, 0xf3, 0x30, 0x40, 0x70, 0xd0, 0x48, 0x3c, 0x8a, 0x1b, 0x02, 0x3e, 0x46, 0x86, 0x45, 0x3e, 0x84, 0x2a, 0x27, 0x3e, 0x4e, 0xf3, 0xe8, 0xbd, 0x5e, 0x40, 0x1d, 0x3e, 0xbe, 0x3b, 0x06, 0xbe, 0x3f, 0xf8, 0xf3, 0x3f, 0xa4, 0x10, 0xf2, 0x3d, 0x3e, 0xe8, 0x04, 0xbe, 0xda, 0xa7, 0x25, 0xbe, 0x98, 0x84, 0x2c, 0xbe, 0x18, 0x56, 0x24, 0xbd, 0x2c, 0x79, 0xdc, 0xbd, 0x96, 0xe5, 0x41, 0x3e, 0x3f, 0x2b, 0x08, 0x3e, 0xa0, 0x1f, 0x28, 0x3d, 0x42, 0x5a, 0x21, 0x3e, 0x44, 0xc2, 0x3e, 0x3e, 0x5c, 0x2c, 0x2d, 0xbe, 0xec, 0xab, 0x8c, 0x3d, 0xe0, 0x83, 0x05, 0x3d, 0x19, 0xc5, 0x1f, 0xbe, 0x98, 0xaa, 0x25, 0xbd, 0xd4, 0xaf, 0x31, 0xbe, 0x78, 0xa7, 0x99, 0x3d, 0xf4, 0x83, 0x28, 0xbd, 0x8b, 0x72, 0xe2, 0xbd, 0x60, 0xb1, 0xce, 0xbc, 0x68, 0xd8, 0x2a, 0x3d, 0x18, 0x25, 0x42, 0x3e, 0x28, 0x16, 0x1a, 0x3e, 0x05, 0x30, 0x24, 0xbe, 0x18, 0x3a, 0x9f, 0x3d, 0x38, 0xd8, 0xab, 0x3c, 0x4c, 0x86, 0x74, 0xbd, 0x70, 0xa8, 0x23, 0xbd, 0x88, 0x48, 0xb0, 0xbd, 0xf4, 0x1a, 0x29, 0x3e, 0x5e, 0x90, 0x16, 0x3d, 0x9e, 0x21, 0x23, 0x3e, 0x4c, 0x62, 0x0f, 0xbe, 0xae, 0xda, 0x0d, 0xbe, 0xb8, 0x36, 0x63, 0x3d, 0x4c, 0x83, 0xad, 0x3d, 0x2c, 0x21, 0x34, 0x3d, 0x78, 0x45, 0xbc, 0x3d, 0x72, 0xaa, 0x0e, 0xbe, 0x3b, 0x4a, 0x1e, 0xbe, 0x20, 0xe4, 0xa3, 0x3b, 0xa8, 0xb5, 0xfd, 0x3d, 0x5f, 0x1d, 0x43, 0xbe, 0x70, 0x3f, 0x67, 0x3d, 0x6d, 0xa2, 0x19, 0xbe, 0xbd, 0x3e, 0x2a, 0xbe, 0xf4, 0xc8, 0x1a, 0xbe, 0x00, 0x1c, 0xb2, 0xbb, 0x20, 0x2b, 0x31, 0x3e, 0x1f, 0x5a, 0x16, 0xbe, 0x2e, 0x15, 0x43, 0xbe, 0xbc, 0x16, 0x4d, 0x3e, 0xda, 0x5e, 0xaa, 0xbd, 0x06, 0x0b, 0x93, 0xbd, 0x9a, 0xc8, 0x36, 0xbd, 0x82, 0x4b, 0x26, 0x3e, 0xa0, 0x92, 0x23, 0x3e, 0x00, 0x40, 0x24, 0xbd, 0x74, 0x16, 0x07, 0xbd, 0xaa, 0x47, 0x07, 0x3e, 0xce, 0xbe, 0xa5, 0xbd, 0xfb, 0x9b, 0x3e, 0xbe, 0x28, 0x11, 0x2d, 0xbb, 0x29, 0x77, 0x23, 0xbe, 0x4b, 0x1a, 0x49, 0xbe, 0x4c, 0xad, 0x1b, 0x3d, 0x9c, 0xb8, 0xc9, 0x3d, 0x6c, 0xc8, 0x21, 0xbe, 0xd6, 0xe9, 0xfb, 0xbd, 0x5b, 0x24, 0x45, 0xbe, 0x49, 0xd4, 0x4a, 0xbe, 0xf2, 0xd0, 0x33, 0x3e, 0xb0, 0x9e, 0x56, 0x3c, 0xd0, 0x26, 0x33, 0x3d, 0xc0, 0xde, 0x70, 0x3b, 0xb0, 0xde, 0x4d, 0x3e, 0x97, 0xb8, 0xf3, 0xbd, 0x30, 0x95, 0x54, 0x3d, 0x78, 0x37, 0x38, 0x3d, 0x20, 0xa8, 0xd1, 0xbd, 0xd8, 0x88, 0xb9, 0xbc, 0x97, 0x7b, 0x07, 0xbe, 0x15, 0x1a, 0x10, 0xbe, 0x7c, 0x1b, 0xc6, 0x3d, 0x10, 0x33, 0x4a, 0x3e, 0xc6, 0x08, 0x01, 0xbe, 0x84, 0xc2, 0x30, 0xbe, 0x87, 0x8f, 0x48, 0xbe, 0x9c, 0x00, 0x37, 0xbe, 0x1a, 0x04, 0x42, 0xbe, 0x7a, 0x46, 0x3e, 0x3e, 0x6b, 0x1a, 0x41, 0xbe, 0xde, 0xa7, 0x9b, 0xbd, 0x11, 0xda, 0x49, 0xbe, 0x77, 0xaf, 0xe5, 0x3d, 0x74, 0xb9, 0x34, 0xbe, 0x00, 0x6b, 0xf3, 0x3b, 0xf8, 0x49, 0xc0, 0xbc, 0xf6, 0x53, 0x03, 0xbe, 0x88, 0xc8, 0x94, 0xbc, 0xe0, 0x74, 0xf1, 0x3c, 0xdd, 0xbc, 0xb7, 0xbd, 0xbf, 0xfc, 0x4d, 0xbd, 0x30, 0x92, 0x1e, 0x3c, 0x0c, 0x9d, 0x2f, 0x3e, 0x18, 0xdd, 0xbb, 0xbc, 0x60, 0x45, 0xbd, 0x3b, 0xd8, 0xc0, 0x18, 0x3e, 0x99, 0xc6, 0x2a, 0xbe, 0x68, 0xdc, 0x9d, 0xbc, 0xf3, 0xb5, 0xd2, 0x3c, 0x40, 0xba, 0x79, 0x3d, 0xa8, 0xb2, 0x06, 0xbe, 0x00, 0x33, 0xd9, 0xbc, 0xa0, 0x98, 0xda, 0x3b, 0xf4, 0x4f, 0xf8, 0x3d, 0x5c, 0x1e, 0x9c, 0x3d, 0x7d, 0x35, 0xe1, 0xbd, 0x4d, 0xf7, 0x38, 0xbe, 0xd6, 0xfa, 0x43, 0x3e, 0x78, 0x50, 0x4f, 0x3d, 0x0c, 0x7d, 0x80, 0xbd, 0x58, 0x19, 0x99, 0x3d, 0x22, 0xbd, 0x09, 0x3e, 0x7e, 0xfb, 0x8f, 0xbd, 0xd0, 0x04, 0xf1, 0x3c, 0x37, 0x5e, 0x92, 0xbc, 0xbc, 0x0d, 0xa9, 0x3d, 0xc0, 0x66, 0xd6, 0xbc, 0x92, 0x8a, 0x2f, 0x3e, 0x28, 0xe6, 0xd8, 0x3d, 0x92, 0xa9, 0xe3, 0xbd, 0x78, 0xdc, 0x5b, 0x3d, 0xf6, 0x73, 0xb9, 0xbd, 0x6d, 0x3d, 0xaf, 0x3e, 0x5a, 0x08, 0x85, 0xbd, 0x5e, 0x57, 0x4e, 0x3e, 0xa1, 0x71, 0x09, 0x3d, 0x60, 0x21, 0xa0, 0x3d, 0x28, 0x3e, 0xb0, 0x3c, 0xe6, 0x06, 0xb5, 0x3d, 0x8a, 0x40, 0xea, 0x3d, 0x51, 0x33, 0x1d, 0x3e, 0x3a, 0xf4, 0x30, 0xbd, 0x4a, 0x2f, 0x9c, 0xbd, 0x2e, 0x40, 0x55, 0x3d, 0x24, 0x3c, 0x52, 0xbd, 0xcc, 0x69, 0xba, 0x3c, 0x0c, 0x98, 0x1d, 0x3e, 0x00, 0xf5, 0xc4, 0xbd, 0x21, 0xbc, 0x55, 0x3f, 0x66, 0x71, 0xc0, 0xbb, 0x5f, 0x19, 0xdd, 0xbd, 0x8a, 0xfc, 0xad, 0xbd, 0xea, 0xcb, 0x2c, 0x3b, 0x3f, 0x8b, 0x4b, 0x3e, 0xd6, 0x07, 0x21, 0x3e, 0xbe, 0x53, 0x71, 0xbd, 0x15, 0x5f, 0x86, 0x3e, 0x6b, 0x73, 0x92, 0xbd, 0x2c, 0xc4, 0x2b, 0xbe, 0xc9, 0x29, 0xf1, 0xbd, 0x25, 0x0b, 0xc8, 0x3d, 0x11, 0x03, 0x20, 0x3e, 0xcd, 0xfe, 0x4e, 0xbe, 0x65, 0x9b, 0x0e, 0x3e, 0x57, 0x05, 0xe8, 0xbe, 0x7d, 0xc3, 0xa0, 0xbd, 0x5a, 0x7b, 0x2e, 0x3e, 0x55, 0x28, 0x1e, 0x3d, 0xa7, 0x8e, 0x3b, 0x3e, 0xa5, 0x4f, 0x0b, 0x3e, 0x2d, 0x17, 0x1e, 0x3e, 0xae, 0xdb, 0x3a, 0xbe, 0x26, 0x2e, 0xd1, 0x3f, 0x58, 0xca, 0x2e, 0xbd, 0x89, 0x28, 0x77, 0xbd, 0x0d, 0xb9, 0xae, 0xbb, 0xfd, 0xae, 0x51, 0xbd, 0xc2, 0xd7, 0x44, 0xbd, 0x58, 0xea, 0x65, 0x3d, 0x38, 0xca, 0x41, 0xbd, 0x78, 0x8c, 0xc2, 0x3f, 0x85, 0xc1, 0x56, 0x3d, 0xaf, 0x05, 0x3b, 0xbc, 0x7f, 0xbe, 0x8f, 0xbd, 0xa1, 0xb7, 0xe6, 0xbd, 0xe4, 0xa8, 0x0c, 0xbe, 0xff, 0x9e, 0x18, 0x3e, 0xe9, 0x32, 0xee, 0x3d, 0xcb, 0xc5, 0x9f, 0xbf, 0xa3, 0x48, 0x7b, 0x3c, 0xb6, 0x9b, 0x1b, 0x3d, 0xa8, 0x01, 0x2c, 0x3e, 0x64, 0xbf, 0x50, 0xbe, 0x0d, 0x7c, 0xb0, 0x3d, 0x9e, 0xed, 0xa9, 0x3c, 0xf1, 0x33, 0xa9, 0x3d, 0x1d, 0xec, 0xf8, 0x3c, 0x86, 0x33, 0xf3, 0x3d, 0x29, 0x8a, 0xd2, 0xbd, 0xfc, 0xfc, 0xdc, 0x3d, 0xa4, 0xac, 0xfb, 0x3d, 0x1d, 0x09, 0x45, 0xbe, 0x9a, 0x81, 0xfe, 0x3d, 0x2f, 0xcb, 0xf5, 0xbd, 0x8b, 0x61, 0x44, 0x40, 0x38, 0x7d, 0xdc, 0xbc, 0xf5, 0xdb, 0xed, 0x3d, 0x3f, 0x97, 0xdf, 0xbd, 0x40, 0xe7, 0x0c, 0x3d, 0xa2, 0x10, 0x1e, 0x3e, 0x22, 0x55, 0xfc, 0x3b, 0xf2, 0x26, 0x05, 0x3e, 0x8a, 0xde, 0x4d, 0x40, 0xc3, 0x27, 0x38, 0x3e, 0xea, 0x25, 0xa7, 0x3d, 0xd0, 0xe8, 0x22, 0x3d, 0xa2, 0xba, 0xf0, 0x3d, 0x4f, 0x7a, 0x46, 0x3e, 0xc7, 0xf8, 0xe2, 0x3d, 0xd6, 0xc4, 0x83, 0xbd, 0x2b, 0x51, 0xea, 0xbe, 0x82, 0xe7, 0x3f, 0xbd, 0xe3, 0x34, 0x13, 0x3e, 0x25, 0x1e, 0x2e, 0xbe, 0x4e, 0xd3, 0x23, 0x3e, 0x35, 0x61, 0x89, 0x3b, 0x78, 0x62, 0xc1, 0xbd, 0x01, 0x62, 0x46, 0x3e, 0x5b, 0x67, 0x13, 0xc0, 0xb3, 0x88, 0x11, 0x3e, 0x49, 0x25, 0x13, 0x3e, 0x3f, 0x2d, 0x2b, 0xbe, 0x2a, 0xa0, 0x15, 0xbe, 0xeb, 0xe4, 0x3e, 0x3d, 0x85, 0xac, 0x28, 0x3d, 0x6a, 0xc2, 0x4a, 0xbe, 0x54, 0x63, 0x02, 0xc0, 0x6e, 0x7a, 0x2b, 0xbd, 0x9d, 0x35, 0xdc, 0x3d, 0x14, 0x5b, 0x1f, 0xbe, 0x70, 0x02, 0xd9, 0x3c, 0x3a, 0x58, 0x4d, 0xbd, 0x10, 0x67, 0xc1, 0xbd, 0xfb, 0xb0, 0xff, 0x3d, 0x56, 0x40, 0x09, 0xc0, 0xcd, 0xc8, 0x5b, 0xbd, 0xe1, 0x29, 0xbb, 0x3d, 0xd5, 0x69, 0x1e, 0x3e, 0x88, 0xb9, 0xd6, 0x3d, 0xc1, 0x82, 0x0d, 0xbd, 0x8e, 0x2a, 0x95, 0x39, 0x89, 0x8c, 0x3c, 0x3e, 0x74, 0x14, 0xe5, 0xbf, 0x99, 0xfc, 0x3f, 0x3e, 0x25, 0xe2, 0x49, 0x3e, 0xee, 0x7f, 0x3c, 0x3e, 0xd4, 0x6b, 0xd2, 0x3d, 0x19, 0xf4, 0x9f, 0xbd, 0xbf, 0xf4, 0x86, 0x3d, 0xd9, 0x89, 0xad, 0x3d, 0x41, 0xa3, 0xbd, 0xbc, 0x6c, 0x14, 0x53, 0xbe, 0x4c, 0xcb, 0x69, 0xbd, 0x84, 0xf0, 0x1a, 0x3b, 0x90, 0x80, 0xb8, 0x3d, 0x53, 0xbc, 0xce, 0x3d, 0x3e, 0x57, 0x22, 0xbe, 0xac, 0x4e, 0x4a, 0x3b, 0x8d, 0x58, 0xf3, 0xbd, 0x07, 0x6a, 0x00, 0xbe, 0x49, 0xc7, 0xa2, 0xbd, 0xcf, 0xe8, 0x43, 0xbd, 0xec, 0x01, 0xf4, 0x3d, 0x21, 0x20, 0xf0, 0x3d, 0xf8, 0x28, 0xe0, 0xbc, 0xe5, 0x0d, 0x29, 0xbd, 0x12, 0x9f, 0x0a, 0xbe, 0xce, 0x43, 0x3c, 0x3e, 0xf7, 0x62, 0x2a, 0x3e, 0xa5, 0x2d, 0x3e, 0x3d, 0x10, 0x2f, 0x01, 0x3d, 0x1e, 0x1a, 0xce, 0xbc, 0x5c, 0x78, 0x52, 0xbc, 0xa2, 0x09, 0xe6, 0xbd, 0x86, 0x85, 0x4f, 0xbc, 0x27, 0x3c, 0xce, 0xbd, 0xa6, 0x85, 0x20, 0xbd, 0xbe, 0x91, 0xae, 0xbd, 0x91, 0x0f, 0xaa, 0xbd, 0x4b, 0x24, 0xd0, 0x3d, 0xb3, 0xe0, 0x25, 0x3e, 0x06, 0x1a, 0xbe, 0x3d, 0x50, 0x56, 0x00, 0xbe, 0xb0, 0xba, 0x05, 0x3d, 0x69, 0x1f, 0x0a, 0x3e, 0x47, 0x66, 0x1d, 0x3d, 0xb6, 0x99, 0xae, 0x3d, 0x49, 0x85, 0x4d, 0x3e, 0xe6, 0xca, 0x7d, 0x3d, 0x86, 0x3b, 0x47, 0x3e, 0x47, 0x36, 0x47, 0x3e, 0xb7, 0x8e, 0xe5, 0x3b, 0xf3, 0x78, 0x21, 0xbe, 0x26, 0x58, 0x25, 0x3e, 0x95, 0x5c, 0x06, 0xbe, 0x6b, 0x49, 0xc7, 0x3d, 0x89, 0x55, 0x65, 0xbc, 0x19, 0x62, 0x07, 0xbe, 0xe8, 0xc7, 0xdc, 0xbd, 0xbc, 0xb8, 0x7b, 0xbb, 0x2b, 0x10, 0x40, 0x3e, 0x59, 0x57, 0x51, 0x3d, 0xa8, 0x01, 0x27, 0x3d, 0x9a, 0x20, 0xd2, 0xbd, 0x5c, 0xe1, 0x1f, 0x3e, 0x0b, 0xc0, 0xd9, 0xbd, 0xbc, 0x3c, 0x10, 0x3e, 0xba, 0x44, 0xa3, 0x3d, 0xaf, 0x59, 0xd6, 0xbd, 0x2b, 0x91, 0x0a, 0xbe, 0xad, 0x8d, 0xaf, 0x3d, 0x1c, 0xf7, 0x0c, 0x3c, 0x03, 0x79, 0xd4, 0x3d, 0x1d, 0x32, 0x67, 0x3a, 0xbc, 0x61, 0xfb, 0xbd, 0xb4, 0x41, 0x10, 0x3e, 0x2a, 0x36, 0xde, 0xbd, 0x16, 0x86, 0xda, 0xbd, 0x98, 0xe4, 0xc8, 0xbd, 0x0a, 0x41, 0x1e, 0x3d, 0xf9, 0xaf, 0x81, 0x3d, 0x44, 0x09, 0x64, 0x3d, 0xb7, 0xe4, 0xed, 0xbd, 0x2a, 0x0c, 0x76, 0x3c, 0x5b, 0xba, 0x6d, 0xbd, 0x21, 0x35, 0x07, 0xbe, 0x3c, 0x92, 0xdb, 0x3d, 0x3d, 0x03, 0xbc, 0x3d, 0x0f, 0xaf, 0x30, 0x3d, 0xe6, 0xe9, 0x6a, 0xbd, 0x85, 0x3d, 0x90, 0xbd, 0x40, 0x92, 0x06, 0xbe, 0x00, 0xdc, 0xb6, 0xbc, 0x16, 0x89, 0xb0, 0xbd, 0xa5, 0x28, 0x5b, 0xbd, 0x2d, 0xed, 0x3a, 0x3e, 0x3a, 0xe9, 0x72, 0xbd, 0xca, 0xb4, 0x24, 0x3e, 0x47, 0x7c, 0x14, 0xbe, 0xb1, 0xd7, 0xe4, 0xbd, 0xd1, 0x81, 0xda, 0xbd, 0xec, 0xe7, 0x1f, 0xbd, 0x30, 0x36, 0x88, 0xbd, 0xdb, 0x18, 0x55, 0xbd, 0xab, 0xee, 0x4b, 0x3e, 0xc3, 0x1a, 0x15, 0x3e, 0xba, 0x9d, 0xf8, 0xbd, 0xd8, 0x27, 0x45, 0x3e, 0x5a, 0x28, 0xcd, 0x3d, 0x0c, 0x92, 0x00, 0xbd, 0x00, 0x18, 0x5e, 0x3b, 0xae, 0x2f, 0x3a, 0xbe, 0x49, 0xb7, 0x9f, 0xbd, 0x89, 0x5e, 0x06, 0x3e, 0xa0, 0x1d, 0xc9, 0x3c, 0xba, 0xc2, 0x44, 0x3e, 0x90, 0x41, 0xa4, 0xbd, 0xde, 0xdf, 0x0a, 0xbe, 0x28, 0x4a, 0xd3, 0xbc, 0x58, 0x2d, 0x80, 0xbd, 0x04, 0x1d, 0xb0, 0xbd, 0xa4, 0x4d, 0xdc, 0xbd, 0x7f, 0x7d, 0x28, 0x3e, 0x29, 0x78, 0x15, 0x3d, 0xc8, 0x48, 0x4b, 0xbe, 0x89, 0xea, 0x93, 0x3d, 0xc8, 0x8d, 0xc6, 0xbc, 0x0a, 0x06, 0x88, 0x3d, 0x9a, 0x7b, 0x42, 0xbd, 0x0b, 0xa5, 0x9d, 0xbb, 0xcd, 0x78, 0xf0, 0x3d, 0x33, 0x76, 0x3f, 0x3e, 0x75, 0x2c, 0xb8, 0x3d, 0x0c, 0x0d, 0x21, 0x3e, 0xd0, 0x3a, 0x01, 0x3e, 0xe1, 0x0e, 0x36, 0xbe, 0x01, 0x01, 0xf4, 0xbd, 0x54, 0x0e, 0x22, 0x3e, 0x42, 0xf9, 0x12, 0x3f, 0x37, 0xe3, 0x09, 0xbe, 0xf9, 0xe8, 0x5e, 0x3d, 0x38, 0x27, 0xd0, 0x3d, 0x2f, 0x23, 0x1c, 0xbe, 0xe1, 0x7f, 0x1f, 0xbe, 0x81, 0x18, 0xff, 0x3d, 0xd5, 0x35, 0x4d, 0x3e, 0x61, 0x69, 0x51, 0x3f, 0xa5, 0xf7, 0x43, 0xbe, 0x78, 0x42, 0x21, 0xbe, 0x58, 0xd0, 0x69, 0xbd, 0xd8, 0xef, 0x4a, 0x3e, 0x55, 0x81, 0x13, 0xbd, 0xfc, 0x4b, 0x9e, 0x3b, 0xde, 0xe8, 0x51, 0x3e, 0x09, 0xf3, 0x98, 0x3f, 0xd1, 0xdc, 0xda, 0xbd, 0x08, 0x4c, 0xc4, 0x3c, 0x46, 0xe6, 0x25, 0x3e, 0x78, 0xcf, 0xa4, 0x3d, 0x07, 0x14, 0x5e, 0xbd, 0xd0, 0xb3, 0x2e, 0x3e, 0x8f, 0x73, 0xa3, 0x3d, 0x91, 0x0d, 0x0e, 0x3f, 0x50, 0x31, 0xb0, 0xbc, 0x51, 0x4c, 0x0c, 0xbe, 0x26, 0x47, 0x96, 0xbd, 0x2a, 0xad, 0x4b, 0x3e, 0x2f, 0x56, 0xae, 0x3d, 0xb2, 0x98, 0x08, 0xbe, 0x0b, 0xd5, 0xc9, 0x3c, 0xb8, 0x6e, 0xe9, 0xbd, 0xd5, 0x81, 0x14, 0xbe, 0xaa, 0xa6, 0xa2, 0xbd, 0x34, 0xf8, 0xf2, 0xbd, 0x69, 0x6c, 0x89, 0xbd, 0x47, 0xa9, 0x30, 0x3e, 0xe1, 0xb1, 0x01, 0xbe, 0x30, 0x03, 0xb1, 0xbd, 0x8d, 0x86, 0xd6, 0x3f, 0x21, 0xe3, 0x3e, 0xbe, 0xe8, 0x21, 0x8c, 0xbd, 0x58, 0x68, 0x7f, 0x3d, 0xf3, 0x80, 0x19, 0xbe, 0x53, 0xf4, 0x00, 0xbe, 0x3c, 0x05, 0x3a, 0xbe, 0x18, 0x15, 0x89, 0x3d, 0x3d, 0x3c, 0xd1, 0x3f, 0xe4, 0x54, 0x2c, 0x3d, 0xd7, 0x4d, 0x23, 0x3e, 0x45, 0x8f, 0x88, 0xbd, 0x34, 0x76, 0xfc, 0xbd, 0xea, 0x38, 0xf1, 0x3d, 0x89, 0x17, 0xb6, 0xbd, 0xb1, 0x03, 0x01, 0xbe, 0x2a, 0xdc, 0x36, 0xbf, 0x11, 0x03, 0x35, 0x3e, 0x63, 0xff, 0xe8, 0xbd, 0xaa, 0xa9, 0x37, 0x3e, 0xd6, 0xea, 0x3f, 0xbc, 0xf4, 0x49, 0x2b, 0xbd, 0x46, 0xd9, 0x91, 0x3c, 0x25, 0x6f, 0x72, 0xbd, 0xdc, 0xe2, 0xd4, 0x3e, 0x75, 0x2a, 0x13, 0xbc, 0x9d, 0x2b, 0xd7, 0x3d, 0x48, 0x9a, 0x48, 0x3e, 0x7b, 0x07, 0x3a, 0xbe, 0x6b, 0x06, 0x20, 0x3e, 0x6d, 0x93, 0x4d, 0x3e, 0xcb, 0x67, 0xc7, 0x3c, 0x81, 0xb1, 0x60, 0x40, 0x92, 0xde, 0x07, 0xbe, 0x4b, 0xa6, 0x26, 0x3e, 0x50, 0x22, 0xcc, 0x3d, 0xe6, 0xb2, 0x8d, 0x3d, 0x5c, 0x8a, 0x50, 0xbd, 0x6d, 0x5e, 0x81, 0x3c, 0x1f, 0xc8, 0x0b, 0x3e, 0x3c, 0xb3, 0x51, 0x40, 0xcd, 0xd2, 0x23, 0xbe, 0xe3, 0xb4, 0x6e, 0xbd, 0x0c, 0x80, 0xfc, 0xbd, 0xd9, 0x04, 0x3b, 0x3d, 0x30, 0x43, 0x37, 0xbe, 0x7a, 0x93, 0x06, 0x3c, 0x4a, 0xb2, 0xca, 0x3c, 0xff, 0x94, 0x36, 0x3d, 0x0b, 0x16, 0xa6, 0x3c, 0x17, 0x47, 0xba, 0x3d, 0x70, 0x91, 0xe4, 0xbd, 0x0c, 0x54, 0x36, 0x3e, 0x39, 0x90, 0x31, 0xbe, 0x65, 0xf3, 0x95, 0xbd, 0x65, 0x78, 0x08, 0xbe, 0xf3, 0xb6, 0x0e, 0xc0, 0xc8, 0x40, 0x4f, 0x3d, 0xf9, 0xb4, 0x86, 0xbd, 0xd0, 0xaf, 0x18, 0xbe, 0xf0, 0x9c, 0xb2, 0x3d, 0x15, 0xeb, 0xa0, 0x3b, 0x7c, 0xd1, 0x85, 0xbd, 0x81, 0x72, 0xf5, 0xbd, 0x7c, 0xeb, 0x0d, 0xc0, 0x52, 0x86, 0xcf, 0xbd, 0x7b, 0x10, 0xed, 0x3c, 0x40, 0x54, 0x6e, 0x3d, 0x24, 0xaa, 0x89, 0xbd, 0x62, 0x89, 0xa8, 0x3d, 0x0b, 0x96, 0xf1, 0x3d, 0x2f, 0x44, 0x04, 0x3d, 0x51, 0x45, 0xfe, 0xbf, 0x75, 0xc3, 0x3f, 0xbe, 0x54, 0x5e, 0x47, 0x3d, 0xe4, 0xad, 0xa3, 0x3d, 0x2c, 0x58, 0x07, 0xbe, 0x50, 0x58, 0x91, 0xbd, 0x26, 0x0c, 0xf6, 0x3d, 0x69, 0xf2, 0x9d, 0xbd, 0x5f, 0x18, 0xc8, 0xbf, 0x8e, 0x9f, 0x43, 0xbe, 0xf6, 0xe1, 0xe7, 0x3c, 0x08, 0x9c, 0x56, 0x3d, 0x44, 0x95, 0x1f, 0xbe, 0x83, 0x2b, 0xbf, 0x3d, 0x64, 0xea, 0x2a, 0x3d, 0xfd, 0x62, 0x4d, 0x3e, 0xea, 0x68, 0xf3, 0x3c, 0xda, 0xb7, 0x9f, 0xbd, 0x5e, 0x5c, 0x7b, 0xbd, 0x0e, 0xc9, 0xbb, 0x3d, 0xf4, 0x37, 0x51, 0xbe, 0x86, 0xcf, 0x30, 0x3e, 0x56, 0x46, 0x3e, 0x3e, 0x5a, 0x01, 0xf9, 0x3d, 0x81, 0x23, 0x93, 0x3d, 0xd1, 0x99, 0x5b, 0xbd, 0x47, 0x69, 0x29, 0x3e, 0x10, 0xb0, 0xd9, 0xbd, 0x46, 0xd1, 0xeb, 0xbd, 0x8d, 0xfa, 0xf8, 0x3d, 0xda, 0xd3, 0xd1, 0xbc, 0x22, 0xac, 0x5a, 0xbd, 0x69, 0xa0, 0x17, 0xbe, 0xbe, 0xf3, 0x49, 0xbe, 0x2d, 0x75, 0x21, 0xbe, 0xeb, 0x59, 0x19, 0xbe, 0xfb, 0xe4, 0x50, 0x3d, 0x1b, 0xbd, 0x04, 0x3e, 0xe2, 0xbb, 0x19, 0x3e, 0xc4, 0x91, 0xa7, 0x3d, 0x3b, 0xb4, 0xad, 0x3d, 0x77, 0x7b, 0x03, 0xbe, 0xf1, 0xd9, 0x4c, 0xbe, 0x60, 0xe9, 0x0d, 0xbc, 0xfe, 0xc6, 0x5c, 0x3c, 0x29, 0x16, 0x88, 0xbd, 0xd8, 0x20, 0xff, 0xbb, 0x37, 0xe8, 0xfe, 0xbd, 0x50, 0x90, 0x10, 0xbe, 0x3b, 0x21, 0x13, 0xbe, 0x0d, 0x57, 0xe6, 0xbd, 0xad, 0x74, 0xc5, 0x3d, 0xb8, 0x0d, 0x84, 0x3d, 0x27, 0xbd, 0xc1, 0x3d, 0xde, 0xaf, 0x3c, 0x3e, 0xe0, 0x8d, 0xd1, 0xbd, 0x9d, 0xd0, 0x0e, 0xbd, 0x87, 0xb0, 0x87, 0xbd, 0x9a, 0x28, 0x67, 0xbd, 0xf0, 0xfd, 0x09, 0xbc, 0x08, 0x90, 0xcc, 0xbd, 0x12, 0x14, 0xeb, 0x3b, 0xcf, 0xdc, 0x27, 0x3e, 0x18, 0xb4, 0x21, 0xbe, 0xb0, 0xc9, 0xa2, 0xbc, 0xad, 0x90, 0x57, 0xbd, 0x44, 0x0d, 0xf4, 0xbc, 0xb0, 0x8c, 0x26, 0x3e, 0x33, 0xb2, 0xa7, 0xbb, 0xa7, 0x20, 0x6d, 0xbc, 0x66, 0x81, 0xbb, 0x3d, 0x47, 0x26, 0x08, 0x3e, 0xec, 0xcd, 0xf5, 0x3d, 0x83, 0x12, 0x15, 0xbc, 0x96, 0xfd, 0x08, 0xbe, 0x59, 0x5e, 0x13, 0xbe, 0x6b, 0xa1, 0x19, 0x3e, 0x2f, 0xd4, 0x22, 0x3e, 0x5c, 0xab, 0xe8, 0xbd, 0x8c, 0xe2, 0x1c, 0x3e, 0x68, 0x78, 0xa0, 0xbc, 0x9f, 0xe0, 0x7f, 0xbc, 0xe7, 0xc4, 0x99, 0xbd, 0x7e, 0xa8, 0x17, 0xbe, 0x60, 0x9e, 0xa0, 0xbb, 0xa1, 0xa6, 0x0f, 0xbe, 0x93, 0x5c, 0x3d, 0xbe, 0x3e, 0xa6, 0x37, 0x3d, 0x90, 0x1a, 0x37, 0xbe, 0x3e, 0x97, 0x94, 0x3d, 0xe5, 0xac, 0xbf, 0x3d, 0x6e, 0x6d, 0x26, 0xbe, 0xaa, 0x9d, 0x89, 0xbd, 0x3c, 0xbe, 0x38, 0xbe, 0x4f, 0x4d, 0xc7, 0xbd, 0x7a, 0x3d, 0x24, 0xbe, 0xfc, 0x87, 0x4b, 0xbe, 0x01, 0x04, 0x36, 0xbe, 0x9a, 0xf4, 0xd6, 0xbc, 0xc8, 0x8f, 0xfd, 0x3d, 0x4c, 0x6a, 0xfe, 0xbd, 0x4a, 0x40, 0x38, 0xbe, 0x82, 0x9d, 0x11, 0x3d, 0x7a, 0xe8, 0x33, 0x3e, 0x19, 0x52, 0x37, 0xbe, 0xe0, 0xfa, 0x52, 0x3d, 0x33, 0x44, 0x22, 0x3e, 0x58, 0x64, 0xf3, 0x3d, 0x42, 0x45, 0x3f, 0x3e, 0x11, 0x9c, 0xa1, 0x3c, 0x01, 0xba, 0xc9, 0xbd, 0xde, 0x56, 0xce, 0xbd, 0x1a, 0x72, 0x25, 0xbe, 0x7b, 0xad, 0x12, 0xbe, 0xaf, 0xac, 0x25, 0xbe, 0xdb, 0x63, 0x3f, 0xbe, 0xf6, 0x94, 0x03, 0xbe, 0xc5, 0xce, 0x3c, 0xbd, 0xac, 0x40, 0x0b, 0x3e, 0x9e, 0x7f, 0x73, 0x3d, 0xc3, 0x12, 0xf3, 0x3d, 0xea, 0x8f, 0x04, 0x3e, 0xb4, 0xaa, 0xb7, 0x3d, 0x10, 0x1b, 0x7a, 0xbd, 0xd0, 0x33, 0xd2, 0x3c, 0x6c, 0x7b, 0x01, 0xbe, 0xfe, 0xdb, 0x0c, 0xbe, 0x7f, 0xc5, 0x5f, 0x3d, 0x48, 0xf6, 0xc9, 0x3d, 0x1f, 0x62, 0xf0, 0x3c, 0xe8, 0x01, 0x1f, 0xbe, 0x85, 0xfb, 0x4c, 0xbe, 0x98, 0xa8, 0x91, 0x3c, 0xc2, 0x02, 0xd2, 0x3d, 0x31, 0x1a, 0xf2, 0x3d, 0x5c, 0x53, 0x8f, 0x3d, 0x7e, 0x18, 0x47, 0x3c, 0xd0, 0x41, 0x0d, 0x3d, 0x5e, 0x88, 0x87, 0xbb, 0xa8, 0x62, 0xa8, 0xbd, 0xfe, 0x55, 0x34, 0x3e, 0xd0, 0x35, 0xf9, 0x3d, 0x2a, 0x33, 0x23, 0x3e, 0x16, 0x7e, 0xcf, 0x3d, 0x93, 0x18, 0x4c, 0xbe, 0xd8, 0x7e, 0x48, 0x3d, 0xdd, 0x69, 0xef, 0x3c, 0x8e, 0x59, 0x51, 0xbe, 0x64, 0x10, 0x44, 0x3e, 0xa1, 0xed, 0xd0, 0xbd, 0x7d, 0x57, 0xfd, 0x3c, 0x9e, 0xa3, 0x03, 0x3e, 0x47, 0x1e, 0x95, 0xbc, 0xc4, 0xad, 0x03, 0xbe, 0x03, 0x26, 0x05, 0x3e, 0x1d, 0xd5, 0xe3, 0x3d, 0x8d, 0xc2, 0xa9, 0x3d, 0xfa, 0xa4, 0x44, 0x3e, 0x7c, 0xfe, 0x2f, 0x3e, 0xaf, 0x27, 0x45, 0xbe, 0x8c, 0x69, 0x11, 0xbe, 0xdd, 0xea, 0xd0, 0xbd, 0x03, 0x21, 0x22, 0xbe, 0x61, 0x43, 0x19, 0xbd, 0xcc, 0x89, 0x05, 0xbe, 0x18, 0xa7, 0x46, 0xbd, 0x69, 0x17, 0xf0, 0xbd, 0xa3, 0xf7, 0x1c, 0xbe, 0x41, 0xb3, 0xd8, 0xbc, 0xf2, 0xa8, 0x43, 0xbe, 0xed, 0xc6, 0xbc, 0xbd, 0x94, 0x46, 0x2d, 0xbe, 0x10, 0x62, 0x89, 0xbd, 0xf4, 0x4d, 0x86, 0x3d, 0x3d, 0x97, 0x35, 0xbe, 0xbd, 0x94, 0x50, 0x3d, 0x8e, 0x82, 0xb2, 0x3d, 0x20, 0x26, 0xa0, 0xbd, 0x8c, 0x98, 0xfb, 0xbb, 0x68, 0xd4, 0x43, 0xbe, 0xec, 0x3f, 0x38, 0xbe, 0xe9, 0x2f, 0xec, 0xbc, 0x2c, 0x22, 0x2d, 0x3d, 0x39, 0x0c, 0xcb, 0x3c, 0xa7, 0xf2, 0x5e, 0xbe, 0xd1, 0xfd, 0x33, 0x3e, 0xd6, 0x1d, 0x5f, 0xbd, 0x35, 0x1b, 0x1e, 0x3e, 0xa7, 0xa0, 0x21, 0x3e, 0xce, 0xa7, 0xe8, 0x3d, 0x8a, 0x9a, 0xcc, 0xbd, 0x53, 0xd7, 0x27, 0x3e, 0xa4, 0x92, 0xfc, 0x3c, 0x99, 0xec, 0xa4, 0xbd, 0x26, 0x37, 0x09, 0x3e, 0x18, 0xd5, 0xd0, 0xbd, 0x2f, 0xd7, 0x8f, 0x3d, 0x80, 0x37, 0x47, 0xbe, 0x55, 0xb9, 0x30, 0x3e, 0xc8, 0xa0, 0x65, 0x3d, 0x21, 0xeb, 0xfa, 0x3d, 0x5a, 0xb2, 0x0a, 0xbe, 0x05, 0x7d, 0xb9, 0xbd, 0xae, 0x98, 0xd1, 0x3d, 0x91, 0x58, 0x95, 0xbd, 0xe2, 0xfd, 0xcc, 0x3d, 0x66, 0xc6, 0x3e, 0x3c, 0x2d, 0x59, 0x3f, 0x3e, 0x62, 0x93, 0x9b, 0xbd, 0xe3, 0x5c, 0x4d, 0x3e, 0xb9, 0x3e, 0x3b, 0x3e, 0xe4, 0xa9, 0x24, 0x3d, 0x05, 0xbb, 0x8b, 0xbd, 0xf3, 0xb8, 0x8e, 0xbd, 0x72, 0x98, 0x4d, 0xbd, 0xd0, 0xef, 0x4a, 0x3e, 0xe3, 0x47, 0x8f, 0x3c, 0xc9, 0xe2, 0x2f, 0x3e, 0x7a, 0x88, 0xf4, 0xbd, 0x32, 0x29, 0x05, 0xbe, 0x18, 0xf2, 0xb7, 0xbd, 0x87, 0x08, 0x23, 0xbe, 0xcf, 0x01, 0x32, 0x3d, 0xec, 0x6f, 0x1c, 0x3e, 0x0e, 0x03, 0x09, 0x3e, 0x4f, 0xbb, 0x7f, 0x3d, 0xe9, 0xd5, 0x2d, 0x3e, 0x83, 0x60, 0x12, 0xbe, 0x4e, 0xbe, 0x14, 0x3d, 0x5d, 0xc6, 0x2d, 0xbe, 0x9c, 0x96, 0x27, 0xbe, 0x4e, 0x7d, 0x76, 0x3d, 0x9c, 0x65, 0x24, 0xbd, 0xa4, 0x19, 0x40, 0x3e, 0x8a, 0xe5, 0x00, 0x3e, 0x44, 0x61, 0x1b, 0x3d, 0x2b, 0xbf, 0x42, 0xbe, 0x92, 0xfc, 0x4d, 0xbe, 0x06, 0x81, 0xd0, 0xbd, 0x03, 0x29, 0x12, 0xbd, 0xea, 0xeb, 0x4a, 0xbe, 0x3c, 0x83, 0x0d, 0xbe, 0x29, 0xf5, 0x11, 0x3e, 0x63, 0xf9, 0x17, 0xbe, 0xa0, 0x6f, 0x42, 0xbe, 0xc4, 0x80, 0x36, 0x3e, 0xc3, 0x7d, 0x88, 0x3d, 0xfb, 0x84, 0x19, 0x3c, 0x9a, 0x63, 0xf2, 0x3d, 0xe9, 0x35, 0x67, 0x3d, 0x3e, 0x25, 0xe4, 0xbc, 0xb8, 0xc3, 0x96, 0xbd, 0x18, 0xfe, 0xda, 0x3c, 0x90, 0xa3, 0x35, 0x3e, 0xab, 0x80, 0x8e, 0x3d, 0xdb, 0x45, 0xb6, 0x3d, 0xc6, 0x55, 0x24, 0xbd, 0x66, 0x4c, 0xef, 0xbd, 0x89, 0x9e, 0x84, 0x3d, 0xdc, 0x32, 0xc8, 0xbd, 0xb9, 0x3e, 0xb4, 0xbd, 0xc7, 0xcd, 0x0a, 0x3d, 0x78, 0x16, 0x27, 0xbe, 0xd4, 0xc6, 0xee, 0xbc, 0xbd, 0x8f, 0x9c, 0x3d, 0x4c, 0x99, 0x0d, 0x3d, 0xbb, 0xc6, 0x8f, 0xbd, 0x38, 0x0b, 0xf5, 0x3c, 0x37, 0x5b, 0x01, 0xbe, 0x62, 0xfe, 0xff, 0xff, 0x04, 0x00, 0x00, 0x00, 0x08, 0x00, 0x00, 0x00, 0xff, 0xff, 0xff, 0xff, 0x80, 0x00, 0x00, 0x00, 0x76, 0xfe, 0xff, 0xff, 0x04, 0x00, 0x00, 0x00, 0x40, 0x00, 0x00, 0x00, 0x83, 0xce, 0xc6, 0x3e, 0xcb, 0xf9, 0x04, 0x3d, 0xe6, 0x38, 0x9c, 0xba, 0x0d, 0x09, 0xc6, 0xbc, 0x9a, 0xa1, 0x7f, 0xbc, 0x0a, 0x23, 0x39, 0x3d, 0xab, 0xd1, 0xac, 0xbc, 0x22, 0xa0, 0x0e, 0x3d, 0xb5, 0x50, 0x63, 0xbb, 0xe6, 0x88, 0xe5, 0x3e, 0x17, 0xcd, 0xac, 0xbc, 0xa5, 0xce, 0x40, 0x3e, 0x7b, 0xc0, 0xc4, 0xbb, 0xff, 0x00, 0x1e, 0x3d, 0x6a, 0xbd, 0xc4, 0xbb, 0x22, 0x86, 0xed, 0xbc, 0xc2, 0xfe, 0xff, 0xff, 0x04, 0x00, 0x00, 0x00, 0x04, 0x00, 0x00, 0x00, 0x9a, 0x37, 0x4c, 0x3e, 0xd2, 0xfe, 0xff, 0xff, 0x04, 0x00, 0x00, 0x00, 0x20, 0x01, 0x00, 0x00, 0x8c, 0xd7, 0x08, 0xbd, 0xcc, 0x2d, 0x5c, 0xbe, 0x56, 0xe7, 0x81, 0x3e, 0x0b, 0x15, 0x7d, 0xbd, 0xa2, 0xd7, 0x24, 0xbe, 0x8e, 0xad, 0x47, 0x3e, 0x5f, 0xde, 0x6e, 0xbe, 0xa9, 0xca, 0x5b, 0x3e, 0x19, 0x6f, 0x26, 0x3e, 0x49, 0x1f, 0x84, 0x3e, 0x8c, 0xab, 0xb9, 0x3d, 0x52, 0x76, 0x41, 0xbe, 0x7b, 0xc9, 0xc7, 0x3d, 0x4c, 0x11, 0x2a, 0x3e, 0x04, 0xb9, 0x36, 0xbe, 0x4f, 0xf0, 0x7a, 0x3e, 0xe7, 0x25, 0xb2, 0xbd, 0xfa, 0xc7, 0x6a, 0xbd, 0x6e, 0x1b, 0x5a, 0xbe, 0x43, 0x17, 0x70, 0x3e, 0xbb, 0x72, 0x8b, 0xbd, 0xf1, 0x65, 0x58, 0x3e, 0x0d, 0xe5, 0x8c, 0x3d, 0x5f, 0xdc, 0x6e, 0x3d, 0xba, 0xbe, 0x2e, 0x3e, 0xdd, 0xf6, 0x10, 0x3e, 0x6c, 0x0c, 0x64, 0x3e, 0x0c, 0xb3, 0xc1, 0x40, 0x29, 0xea, 0xc7, 0x40, 0xf2, 0xc0, 0xb4, 0x40, 0xf4, 0x7e, 0x81, 0x40, 0x1f, 0x76, 0x7a, 0x40, 0x53, 0xff, 0x82, 0x40, 0xdb, 0x5e, 0x31, 0x3f, 0x8a, 0xd0, 0x4e, 0x3e, 0x16, 0xe9, 0xe1, 0xbc, 0x61, 0xdd, 0x3b, 0x3e, 0xfc, 0xdd, 0xb0, 0x3c, 0x20, 0x95, 0x2e, 0x3d, 0xf2, 0xfa, 0xf0, 0xbd, 0x14, 0x4a, 0xb7, 0x3d, 0xed, 0x3d, 0xe9, 0xbd, 0x4a, 0xff, 0xa0, 0x3d, 0x6f, 0x1c, 0x66, 0xbd, 0x27, 0x6f, 0x10, 0xbe, 0x27, 0xd5, 0x81, 0xbc, 0xb2, 0x45, 0x5e, 0xbd, 0x49, 0x75, 0x75, 0xbd, 0x27, 0xb8, 0x5a, 0x3d, 0xaf, 0x6d, 0x1c, 0xbe, 0x57, 0xeb, 0x34, 0x3d, 0x11, 0xf8, 0x68, 0x3e, 0x94, 0x0f, 0x68, 0x3e, 0x8f, 0xe2, 0xfb, 0xbd, 0x33, 0x0f, 0x34, 0xbe, 0x31, 0x6c, 0x6e, 0xbe, 0x9f, 0xee, 0x03, 0xbe, 0xc2, 0x0d, 0x69, 0xbe, 0xc1, 0x7f, 0x80, 0x3e, 0x05, 0xa4, 0x5b, 0x3e, 0x32, 0xf0, 0x2a, 0x3e, 0xe9, 0x4f, 0x64, 0xbd, 0x87, 0xc1, 0x3c, 0xbe, 0xe1, 0x34, 0x57, 0xbe, 0x1a, 0x98, 0x84, 0x3e, 0x77, 0x7f, 0x46, 0x3e, 0x27, 0x6c, 0xb9, 0xbd, 0x58, 0xa5, 0xff, 0xbd, 0x80, 0x08, 0x5e, 0xbd, 0xff, 0xca, 0x90, 0x3d, 0x80, 0x1f, 0x49, 0xbe, 0x72, 0x98, 0xb8, 0xbd, 0x00, 0x00, 0x06, 0x00, 0x08, 0x00, 0x04, 0x00, 0x06, 0x00, 0x00, 0x00, 0x04, 0x00, 0x00, 0x00, 0x20, 0x00, 0x00, 0x00, 0x2d, 0xc3, 0xc4, 0xbb, 0x9d, 0x97, 0xc0, 0xbb, 0x7e, 0x21, 0x0f, 0xbc, 0x25, 0x0c, 0x1a, 0x3c, 0x35, 0xc5, 0xc4, 0xbb, 0x87, 0x77, 0x0a, 0xbc, 0xde, 0xba, 0xc4, 0xbb, 0x82, 0xc6, 0xc4, 0xbb, 0x18, 0xf8, 0xff, 0xff, 0x1c, 0xf8, 0xff, 0xff, 0x0f, 0x00, 0x00, 0x00, 0x4d, 0x4c, 0x49, 0x52, 0x20, 0x43, 0x6f, 0x6e, 0x76, 0x65, 0x72, 0x74, 0x65, 0x64, 0x2e, 0x00, 0x01, 0x00, 0x00, 0x00, 0x14, 0x00, 0x00, 0x00, 0x00, 0x00, 0x0e, 0x00, 0x18, 0x00, 0x14, 0x00, 0x10, 0x00, 0x0c, 0x00, 0x08, 0x00, 0x04, 0x00, 0x0e, 0x00, 0x00, 0x00, 0x14, 0x00, 0x00, 0x00, 0x1c, 0x00, 0x00, 0x00, 0xb4, 0x01, 0x00, 0x00, 0xb8, 0x01, 0x00, 0x00, 0xbc, 0x01, 0x00, 0x00, 0x04, 0x00, 0x00, 0x00, 0x6d, 0x61, 0x69, 0x6e, 0x00, 0x00, 0x00, 0x00, 0x06, 0x00, 0x00, 0x00, 0x4c, 0x01, 0x00, 0x00, 0xe8, 0x00, 0x00, 0x00, 0xb0, 0x00, 0x00, 0x00, 0x60, 0x00, 0x00, 0x00, 0x28, 0x00, 0x00, 0x00, 0x04, 0x00, 0x00, 0x00, 0x6a, 0xff, 0xff, 0xff, 0x0c, 0x00, 0x00, 0x00, 0x10, 0x00, 0x00, 0x00, 0x04, 0x00, 0x00, 0x00, 0x01, 0x00, 0x00, 0x00, 0x0d, 0x00, 0x00, 0x00, 0x01, 0x00, 0x00, 0x00, 0x0c, 0x00, 0x00, 0x00, 0x5a, 0xff, 0xff, 0xff, 0x14, 0x00, 0x00, 0x00, 0x00, 0x00, 0x00, 0x08, 0x10, 0x00, 0x00, 0x00, 0x14, 0x00, 0x00, 0x00, 0x03, 0x00, 0x00, 0x00, 0xc4, 0xf8, 0xff, 0xff, 0x01, 0x00, 0x00, 0x00, 0x0c, 0x00, 0x00, 0x00, 0x03, 0x00, 0x00, 0x00, 0x0b, 0x00, 0x00, 0x00, 0x07, 0x00, 0x00, 0x00, 0x03, 0x00, 0x00, 0x00, 0x8e, 0xff, 0xff, 0xff, 0x1c, 0x00, 0x00, 0x00, 0x00, 0x00, 0x00, 0x08, 0x1c, 0x00, 0x00, 0x00, 0x20, 0x00, 0x00, 0x00, 0x03, 0x00, 0x00, 0x00, 0x00, 0x00, 0x06, 0x00, 0x08, 0x00, 0x07, 0x00, 0x06, 0x00, 0x00, 0x00, 0x00, 0x00, 0x00, 0x01, 0x01, 0x00, 0x00, 0x00, 0x0b, 0x00, 0x00, 0x00, 0x03, 0x00, 0x00, 0x00, 0x0a, 0x00, 0x00, 0x00, 0x06, 0x00, 0x00, 0x00, 0x04, 0x00, 0x00, 0x00, 0x00, 0x00, 0x0a, 0x00, 0x10, 0x00, 0x0c, 0x00, 0x08, 0x00, 0x04, 0x00, 0x0a, 0x00, 0x00, 0x00, 0x0c, 0x00, 0x00, 0x00, 0x10, 0x00, 0x00, 0x00, 0x02, 0x00, 0x00, 0x00, 0x01, 0x00, 0x00, 0x00, 0x0a, 0x00, 0x00, 0x00, 0x02, 0x00, 0x00, 0x00, 0x09, 0x00, 0x00, 0x00, 0x05, 0x00, 0x00, 0x00, 0x00, 0x00, 0x0e, 0x00, 0x1a, 0x00, 0x14, 0x00, 0x10, 0x00, 0x0c, 0x00, 0x0b, 0x00, 0x04, 0x00, 0x0e, 0x00, 0x00, 0x00, 0x24, 0x00, 0x00, 0x00, 0x00, 0x00, 0x00, 0x05, 0x34, 0x00, 0x00, 0x00, 0x38, 0x00, 0x00, 0x00, 0x01, 0x00, 0x00, 0x00, 0x00, 0x00, 0x0e, 0x00, 0x18, 0x00, 0x17, 0x00, 0x10, 0x00, 0x0c, 0x00, 0x08, 0x00, 0x04, 0x00, 0x0e, 0x00, 0x00, 0x00, 0x02, 0x00, 0x00, 0x00, 0x02, 0x00, 0x00, 0x00, 0x02, 0x00, 0x00, 0x00, 0x02, 0x00, 0x00, 0x00, 0x00, 0x00, 0x00, 0x01, 0x01, 0x00, 0x00, 0x00, 0x09, 0x00, 0x00, 0x00, 0x01, 0x00, 0x00, 0x00, 0x08, 0x00, 0x00, 0x00, 0x00, 0x00, 0x0e, 0x00, 0x14, 0x00, 0x00, 0x00, 0x10, 0x00, 0x0c, 0x00, 0x0b, 0x00, 0x04, 0x00, 0x0e, 0x00, 0x00, 0x00, 0x1c, 0x00, 0x00, 0x00, 0x00, 0x00, 0x00, 0x01, 0x28, 0x00, 0x00, 0x00, 0x2c, 0x00, 0x00, 0x00, 0x0c, 0x00, 0x14, 0x00, 0x13, 0x00, 0x0c, 0x00, 0x08, 0x00, 0x07, 0x00, 0x0c, 0x00, 0x00, 0x00, 0x00, 0x00, 0x00, 0x01, 0x01, 0x00, 0x00, 0x00, 0x01, 0x00, 0x00, 0x00, 0x00, 0x00, 0x00, 0x01, 0x01, 0x00, 0x00, 0x00, 0x08, 0x00, 0x00, 0x00, 0x03, 0x00, 0x00, 0x00, 0x00, 0x00, 0x00, 0x00, 0x02, 0x00, 0x00, 0x00, 0x01, 0x00, 0x00, 0x00, 0x01, 0x00, 0x00, 0x00, 0x0d, 0x00, 0x00, 0x00, 0x01, 0x00, 0x00, 0x00, 0x00, 0x00, 0x00, 0x00, 0x0e, 0x00, 0x00, 0x00, 0xb0, 0x05, 0x00, 0x00, 0x3c, 0x05, 0x00, 0x00, 0xcc, 0x04, 0x00, 0x00, 0x74, 0x04, 0x00, 0x00, 0x1c, 0x04, 0x00, 0x00, 0xcc, 0x03, 0x00, 0x00, 0x68, 0x03, 0x00, 0x00, 0x1c, 0x03, 0x00, 0x00, 0x48, 0x02, 0x00, 0x00, 0xd0, 0x01, 0x00, 0x00, 0x70, 0x01, 0x00, 0x00, 0xdc, 0x00, 0x00, 0x00, 0x60, 0x00, 0x00, 0x00, 0x04, 0x00, 0x00, 0x00, 0x9e, 0xfa, 0xff, 0xff, 0x00, 0x00, 0x00, 0x01, 0x14, 0x00, 0x00, 0x00, 0x1c, 0x00, 0x00, 0x00, 0x1c, 0x00, 0x00, 0x00, 0x0e, 0x00, 0x00, 0x00, 0x34, 0x00, 0x00, 0x00, 0x02, 0x00, 0x00, 0x00, 0xff, 0xff, 0xff, 0xff, 0x01, 0x00, 0x00, 0x00, 0x80, 0xfa, 0xff, 0xff, 0x19, 0x00, 0x00, 0x00, 0x53, 0x74, 0x61, 0x74, 0x65, 0x66, 0x75, 0x6c, 0x50, 0x61, 0x72, 0x74, 0x69, 0x74, 0x69, 0x6f, 0x6e, 0x65, 0x64, 0x43, 0x61, 0x6c, 0x6c, 0x3a, 0x30, 0x00, 0x00, 0x00, 0x02, 0x00, 0x00, 0x00, 0x01, 0x00, 0x00, 0x00, 0x01, 0x00, 0x00, 0x00, 0xf6, 0xfa, 0xff, 0xff, 0x00, 0x00, 0x00, 0x01, 0x14, 0x00, 0x00, 0x00, 0x1c, 0x00, 0x00, 0x00, 0x1c, 0x00, 0x00, 0x00, 0x0d, 0x00, 0x00, 0x00, 0x54, 0x00, 0x00, 0x00, 0x02, 0x00, 0x00, 0x00, 0xff, 0xff, 0xff, 0xff, 0x01, 0x00, 0x00, 0x00, 0xd8, 0xfa, 0xff, 0xff, 0x38, 0x00, 0x00, 0x00, 0x73, 0x65, 0x71, 0x75, 0x65, 0x6e, 0x74, 0x69, 0x61, 0x6c, 0x5f, 0x31, 0x2f, 0x64, 0x65, 0x6e, 0x73, 0x65, 0x5f, 0x33, 0x2f, 0x4d, 0x61, 0x74, 0x4d, 0x75, 0x6c, 0x3b, 0x73, 0x65, 0x71, 0x75, 0x65, 0x6e, 0x74, 0x69, 0x61, 0x6c, 0x5f, 0x31, 0x2f, 0x64, 0x65, 0x6e, 0x73, 0x65, 0x5f, 0x33, 0x2f, 0x42, 0x69, 0x61, 0x73, 0x41, 0x64, 0x64, 0x00, 0x00, 0x00, 0x00, 0x02, 0x00, 0x00, 0x00, 0x01, 0x00, 0x00, 0x00, 0x01, 0x00, 0x00, 0x00, 0x6e, 0xfb, 0xff, 0xff, 0x00, 0x00, 0x00, 0x01, 0x14, 0x00, 0x00, 0x00, 0x1c, 0x00, 0x00, 0x00, 0x1c, 0x00, 0x00, 0x00, 0x0c, 0x00, 0x00, 0x00, 0x6c, 0x00, 0x00, 0x00, 0x02, 0x00, 0x00, 0x00, 0xff, 0xff, 0xff, 0xff, 0x10, 0x00, 0x00, 0x00, 0x50, 0xfb, 0xff, 0xff, 0x52, 0x00, 0x00, 0x00, 0x73, 0x65, 0x71, 0x75, 0x65, 0x6e, 0x74, 0x69, 0x61, 0x6c, 0x5f, 0x31, 0x2f, 0x64, 0x65, 0x6e, 0x73, 0x65, 0x5f, 0x32, 0x2f, 0x4d, 0x61, 0x74, 0x4d, 0x75, 0x6c, 0x3b, 0x73, 0x65, 0x71, 0x75, 0x65, 0x6e, 0x74, 0x69, 0x61, 0x6c, 0x5f, 0x31, 0x2f, 0x64, 0x65, 0x6e, 0x73, 0x65, 0x5f, 0x32, 0x2f, 0x52, 0x65, 0x6c, 0x75, 0x3b, 0x73, 0x65, 0x71, 0x75, 0x65, 0x6e, 0x74, 0x69, 0x61, 0x6c, 0x5f, 0x31, 0x2f, 0x64, 0x65, 0x6e, 0x73, 0x65, 0x5f, 0x32, 0x2f, 0x42, 0x69, 0x61, 0x73, 0x41, 0x64, 0x64, 0x00, 0x00, 0x02, 0x00, 0x00, 0x00, 0x01, 0x00, 0x00, 0x00, 0x10, 0x00, 0x00, 0x00, 0xfe, 0xfb, 0xff, 0xff, 0x00, 0x00, 0x00, 0x01, 0x14, 0x00, 0x00, 0x00, 0x1c, 0x00, 0x00, 0x00, 0x1c, 0x00, 0x00, 0x00, 0x0b, 0x00, 0x00, 0x00, 0x38, 0x00, 0x00, 0x00, 0x02, 0x00, 0x00, 0x00, 0xff, 0xff, 0xff, 0xff, 0x80, 0x00, 0x00, 0x00, 0xe0, 0xfb, 0xff, 0xff, 0x1e, 0x00, 0x00, 0x00, 0x73, 0x65, 0x71, 0x75, 0x65, 0x6e, 0x74, 0x69, 0x61, 0x6c, 0x5f, 0x31, 0x2f, 0x66, 0x6c, 0x61, 0x74, 0x74, 0x65, 0x6e, 0x5f, 0x31, 0x2f, 0x52, 0x65, 0x73, 0x68, 0x61, 0x70, 0x65, 0x00, 0x00, 0x02, 0x00, 0x00, 0x00, 0x01, 0x00, 0x00, 0x00, 0x80, 0x00, 0x00, 0x00, 0x5a, 0xfc, 0xff, 0xff, 0x00, 0x00, 0x00, 0x01, 0x14, 0x00, 0x00, 0x00, 0x24, 0x00, 0x00, 0x00, 0x24, 0x00, 0x00, 0x00, 0x0a, 0x00, 0x00, 0x00, 0x48, 0x00, 0x00, 0x00, 0x04, 0x00, 0x00, 0x00, 0xff, 0xff, 0xff, 0xff, 0x04, 0x00, 0x00, 0x00, 0x04, 0x00, 0x00, 0x00, 0x08, 0x00, 0x00, 0x00, 0x44, 0xfc, 0xff, 0xff, 0x24, 0x00, 0x00, 0x00, 0x73, 0x65, 0x71, 0x75, 0x65, 0x6e, 0x74, 0x69, 0x61, 0x6c, 0x5f, 0x31, 0x2f, 0x6d, 0x61, 0x78, 0x5f, 0x70, 0x6f, 0x6f, 0x6c, 0x69, 0x6e, 0x67, 0x32, 0x64, 0x5f, 0x31, 0x2f, 0x4d, 0x61, 0x78, 0x50, 0x6f, 0x6f, 0x6c, 0x00, 0x00, 0x00, 0x00, 0x04, 0x00, 0x00, 0x00, 0x01, 0x00, 0x00, 0x00, 0x04, 0x00, 0x00, 0x00, 0x04, 0x00, 0x00, 0x00, 0x08, 0x00, 0x00, 0x00, 0xce, 0xfc, 0xff, 0xff, 0x00, 0x00, 0x00, 0x01, 0x14, 0x00, 0x00, 0x00, 0x24, 0x00, 0x00, 0x00, 0x24, 0x00, 0x00, 0x00, 0x09, 0x00, 0x00, 0x00, 0xa4, 0x00, 0x00, 0x00, 0x04, 0x00, 0x00, 0x00, 0xff, 0xff, 0xff, 0xff, 0x08, 0x00, 0x00, 0x00, 0x08, 0x00, 0x00, 0x00, 0x08, 0x00, 0x00, 0x00, 0xb8, 0xfc, 0xff, 0xff, 0x82, 0x00, 0x00, 0x00, 0x73, 0x65, 0x71, 0x75, 0x65, 0x6e, 0x74, 0x69, 0x61, 0x6c, 0x5f, 0x31, 0x2f, 0x63, 0x6f, 0x6e, 0x76, 0x32, 0x64, 0x5f, 0x31, 0x2f, 0x52, 0x65, 0x6c, 0x75, 0x3b, 0x73, 0x65, 0x71, 0x75, 0x65, 0x6e, 0x74, 0x69, 0x61, 0x6c, 0x5f, 0x31, 0x2f, 0x63, 0x6f, 0x6e, 0x76, 0x32, 0x64, 0x5f, 0x31, 0x2f, 0x42, 0x69, 0x61, 0x73, 0x41, 0x64, 0x64, 0x3b, 0x73, 0x65, 0x71, 0x75, 0x65, 0x6e, 0x74, 0x69, 0x61, 0x6c, 0x5f, 0x31, 0x2f, 0x63, 0x6f, 0x6e, 0x76, 0x32, 0x64, 0x5f, 0x31, 0x2f, 0x43, 0x6f, 0x6e, 0x76, 0x32, 0x44, 0x3b, 0x73, 0x65, 0x71, 0x75, 0x65, 0x6e, 0x74, 0x69, 0x61, 0x6c, 0x5f, 0x31, 0x2f, 0x63, 0x6f, 0x6e, 0x76, 0x32, 0x64, 0x5f, 0x31, 0x2f, 0x42, 0x69, 0x61, 0x73, 0x41, 0x64, 0x64, 0x2f, 0x52, 0x65, 0x61, 0x64, 0x56, 0x61, 0x72, 0x69, 0x61, 0x62, 0x6c, 0x65, 0x4f, 0x70, 0x00, 0x00, 0x04, 0x00, 0x00, 0x00, 0x01, 0x00, 0x00, 0x00, 0x08, 0x00, 0x00, 0x00, 0x08, 0x00, 0x00, 0x00, 0x08, 0x00, 0x00, 0x00, 0x0e, 0xfe, 0xff, 0xff, 0x00, 0x00, 0x00, 0x01, 0x10, 0x00, 0x00, 0x00, 0x10, 0x00, 0x00, 0x00, 0x08, 0x00, 0x00, 0x00, 0x28, 0x00, 0x00, 0x00, 0x70, 0xfd, 0xff, 0xff, 0x1b, 0x00, 0x00, 0x00, 0x73, 0x65, 0x71, 0x75, 0x65, 0x6e, 0x74, 0x69, 0x61, 0x6c, 0x5f, 0x31, 0x2f, 0x64, 0x65, 0x6e, 0x73, 0x65, 0x5f, 0x33, 0x2f, 0x4d, 0x61, 0x74, 0x4d, 0x75, 0x6c, 0x00, 0x02, 0x00, 0x00, 0x00, 0x01, 0x00, 0x00, 0x00, 0x10, 0x00, 0x00, 0x00, 0x56, 0xfe, 0xff, 0xff, 0x00, 0x00, 0x00, 0x01, 0x10, 0x00, 0x00, 0x00, 0x10, 0x00, 0x00, 0x00, 0x07, 0x00, 0x00, 0x00, 0x28, 0x00, 0x00, 0x00, 0xb8, 0xfd, 0xff, 0xff, 0x1b, 0x00, 0x00, 0x00, 0x73, 0x65, 0x71, 0x75, 0x65, 0x6e, 0x74, 0x69, 0x61, 0x6c, 0x5f, 0x31, 0x2f, 0x64, 0x65, 0x6e, 0x73, 0x65, 0x5f, 0x32, 0x2f, 0x4d, 0x61, 0x74, 0x4d, 0x75, 0x6c, 0x00, 0x02, 0x00, 0x00, 0x00, 0x10, 0x00, 0x00, 0x00, 0x80, 0x00, 0x00, 0x00, 0x00, 0x00, 0x16, 0x00, 0x1c, 0x00, 0x18, 0x00, 0x17, 0x00, 0x10, 0x00, 0x0c, 0x00, 0x08, 0x00, 0x00, 0x00, 0x00, 0x00, 0x00, 0x00, 0x07, 0x00, 0x16, 0x00, 0x00, 0x00, 0x00, 0x00, 0x00, 0x01, 0x14, 0x00, 0x00, 0x00, 0x14, 0x00, 0x00, 0x00, 0x06, 0x00, 0x00, 0x00, 0x00, 0x00, 0x00, 0x02, 0x2c, 0x00, 0x00, 0x00, 0x1c, 0xfe, 0xff, 0xff, 0x1c, 0x00, 0x00, 0x00, 0x73, 0x65, 0x71, 0x75, 0x65, 0x6e, 0x74, 0x69, 0x61, 0x6c, 0x5f, 0x31, 0x2f, 0x66, 0x6c, 0x61, 0x74, 0x74, 0x65, 0x6e, 0x5f, 0x31, 0x2f, 0x43, 0x6f, 0x6e, 0x73, 0x74, 0x00, 0x00, 0x00, 0x00, 0x01, 0x00, 0x00, 0x00, 0x02, 0x00, 0x00, 0x00, 0x02, 0xff, 0xff, 0xff, 0x00, 0x00, 0x00, 0x01, 0x10, 0x00, 0x00, 0x00, 0x10, 0x00, 0x00, 0x00, 0x05, 0x00, 0x00, 0x00, 0x38, 0x00, 0x00, 0x00, 0x64, 0xfe, 0xff, 0xff, 0x2b, 0x00, 0x00, 0x00, 0x73, 0x65, 0x71, 0x75, 0x65, 0x6e, 0x74, 0x69, 0x61, 0x6c, 0x5f, 0x31, 0x2f, 0x64, 0x65, 0x6e, 0x73, 0x65, 0x5f, 0x32, 0x2f, 0x42, 0x69, 0x61, 0x73, 0x41, 0x64, 0x64, 0x2f, 0x52, 0x65, 0x61, 0x64, 0x56, 0x61, 0x72, 0x69, 0x61, 0x62, 0x6c, 0x65, 0x4f, 0x70, 0x00, 0x01, 0x00, 0x00, 0x00, 0x10, 0x00, 0x00, 0x00, 0x56, 0xff, 0xff, 0xff, 0x00, 0x00, 0x00, 0x01, 0x10, 0x00, 0x00, 0x00, 0x10, 0x00, 0x00, 0x00, 0x04, 0x00, 0x00, 0x00, 0x38, 0x00, 0x00, 0x00, 0xb8, 0xfe, 0xff, 0xff, 0x2b, 0x00, 0x00, 0x00, 0x73, 0x65, 0x71, 0x75, 0x65, 0x6e, 0x74, 0x69, 0x61, 0x6c, 0x5f, 0x31, 0x2f, 0x64, 0x65, 0x6e, 0x73, 0x65, 0x5f, 0x33, 0x2f, 0x42, 0x69, 0x61, 0x73, 0x41, 0x64, 0x64, 0x2f, 0x52, 0x65, 0x61, 0x64, 0x56, 0x61, 0x72, 0x69, 0x61, 0x62, 0x6c, 0x65, 0x4f, 0x70, 0x00, 0x01, 0x00, 0x00, 0x00, 0x01, 0x00, 0x00, 0x00, 0xaa, 0xff, 0xff, 0xff, 0x00, 0x00, 0x00, 0x01, 0x10, 0x00, 0x00, 0x00, 0x10, 0x00, 0x00, 0x00, 0x03, 0x00, 0x00, 0x00, 0x2c, 0x00, 0x00, 0x00, 0x0c, 0xff, 0xff, 0xff, 0x1c, 0x00, 0x00, 0x00, 0x73, 0x65, 0x71, 0x75, 0x65, 0x6e, 0x74, 0x69, 0x61, 0x6c, 0x5f, 0x31, 0x2f, 0x63, 0x6f, 0x6e, 0x76, 0x32, 0x64, 0x5f, 0x31, 0x2f, 0x43, 0x6f, 0x6e, 0x76, 0x32, 0x44, 0x00, 0x00, 0x00, 0x00, 0x04, 0x00, 0x00, 0x00, 0x08, 0x00, 0x00, 0x00, 0x03, 0x00, 0x00, 0x00, 0x03, 0x00, 0x00, 0x00, 0x01, 0x00, 0x00, 0x00, 0x00, 0x00, 0x16, 0x00, 0x18, 0x00, 0x14, 0x00, 0x00, 0x00, 0x10, 0x00, 0x0c, 0x00, 0x08, 0x00, 0x00, 0x00, 0x00, 0x00, 0x00, 0x00, 0x07, 0x00, 0x16, 0x00, 0x00, 0x00, 0x00, 0x00, 0x00, 0x01, 0x10, 0x00, 0x00, 0x00, 0x10, 0x00, 0x00, 0x00, 0x02, 0x00, 0x00, 0x00, 0x3c, 0x00, 0x00, 0x00, 0x78, 0xff, 0xff, 0xff, 0x2c, 0x00, 0x00, 0x00, 0x73, 0x65, 0x71, 0x75, 0x65, 0x6e, 0x74, 0x69, 0x61, 0x6c, 0x5f, 0x31, 0x2f, 0x63, 0x6f, 0x6e, 0x76, 0x32, 0x64, 0x5f, 0x31, 0x2f, 0x42, 0x69, 0x61, 0x73, 0x41, 0x64, 0x64, 0x2f, 0x52, 0x65, 0x61, 0x64, 0x56, 0x61, 0x72, 0x69, 0x61, 0x62, 0x6c, 0x65, 0x4f, 0x70, 0x00, 0x00, 0x00, 0x00, 0x01, 0x00, 0x00, 0x00, 0x08, 0x00, 0x00, 0x00, 0x00, 0x00, 0x16, 0x00, 0x1c, 0x00, 0x18, 0x00, 0x00, 0x00, 0x14, 0x00, 0x10, 0x00, 0x0c, 0x00, 0x00, 0x00, 0x00, 0x00, 0x08, 0x00, 0x07, 0x00, 0x16, 0x00, 0x00, 0x00, 0x00, 0x00, 0x00, 0x01, 0x14, 0x00, 0x00, 0x00, 0x28, 0x00, 0x00, 0x00, 0x28, 0x00, 0x00, 0x00, 0x01, 0x00, 0x00, 0x00, 0x48, 0x00, 0x00, 0x00, 0x04, 0x00, 0x00, 0x00, 0xff, 0xff, 0xff, 0xff, 0x0a, 0x00, 0x00, 0x00, 0x0a, 0x00, 0x00, 0x00, 0x01, 0x00, 0x00, 0x00, 0x04, 0x00, 0x04, 0x00, 0x04, 0x00, 0x00, 0x00, 0x20, 0x00, 0x00, 0x00, 0x73, 0x65, 0x72, 0x76, 0x69, 0x6e, 0x67, 0x5f, 0x64, 0x65, 0x66, 0x61, 0x75, 0x6c, 0x74, 0x5f, 0x63, 0x6f, 0x6e, 0x76, 0x32, 0x64, 0x5f, 0x31, 0x5f, 0x69, 0x6e, 0x70, 0x75, 0x74, 0x3a, 0x30, 0x00, 0x00, 0x00, 0x00, 0x04, 0x00, 0x00, 0x00, 0x01, 0x00, 0x00, 0x00, 0x0a, 0x00, 0x00, 0x00, 0x0a, 0x00, 0x00, 0x00, 0x01, 0x00, 0x00, 0x00, 0x05, 0x00, 0x00, 0x00, 0x50, 0x00, 0x00, 0x00, 0x34, 0x00, 0x00, 0x00, 0x24, 0x00, 0x00, 0x00, 0x14, 0x00, 0x00, 0x00, 0x04, 0x00, 0x00, 0x00, 0xd0, 0xff, 0xff, 0xff, 0x0e, 0x00, 0x00, 0x00, 0x00, 0x00, 0x00, 0x0e, 0xdc, 0xff, 0xff, 0xff, 0x09, 0x00, 0x00, 0x00, 0x00, 0x00, 0x00, 0x09, 0xe8, 0xff, 0xff, 0xff, 0x16, 0x00, 0x00, 0x00, 0x00, 0x00, 0x00, 0x16, 0xf4, 0xff, 0xff, 0xff, 0x11, 0x00, 0x00, 0x00, 0x00, 0x00, 0x00, 0x11, 0x0c, 0x00, 0x0c, 0x00, 0x0b, 0x00, 0x00, 0x00, 0x00, 0x00, 0x04, 0x00, 0x0c, 0x00, 0x00, 0x00, 0x03, 0x00, 0x00, 0x00, 0x00, 0x00, 0x00, 0x03};
const int model_data_len = 11428;
float x[100] = {0.000781188969611749, 0.0009061792047496289, 0.0010624169986719787, 0.0011717834544176236, 0.0012186547925943285, 0.0012811499101632684, 0.0013123974689477384, 0.0013280212483399733, 0.0013436450277322083, 0.0013905163659089135, 0.0007186938520428092, 0.000765565190219514, 0.0009218029841418639, 0.0010155456604952738, 0.0010780407780642137, 0.0011092883368486839, 0.0011405358956331538, 0.0012186547925943285, 0.0012499023513787985, 0.0012967736895555034, 0.0007186938520428092, 
0.000765565190219514, 0.000781188969611749, 0.000765565190219514, 0.000781188969611749, 0.000765565190219514, 0.000828060307788454, 0.0009374267635340989, 0.0010780407780642137, 0.0011874072338098585, 0.000765565190219514, 0.0008124365283962191, 0.000843684087180689, 0.000874931645965159, 0.0009061792047496289, 0.0009686743223185689, 0.0009999218811030388, 0.0009842981017108038, 0.0009530505429263339, 0.0010311694398875088, 0.0006561987344738692, 
0.0007343176314350442, 0.000781188969611749, 0.000781188969611749, 0.000828060307788454, 0.000890555425357394, 0.000859307866572924, 0.0009218029841418639, 0.0010155456604952738, 0.000843684087180689, 0.0005780798375126944, 0.000765565190219514, 0.000874931645965159, 0.0007968127490039841, 0.0007499414108272792, 0.000765565190219514, 0.0008124365283962191, 0.0009218029841418639, 0.0009061792047496289, 0.000828060307788454, 0.0005780798375126944, 
0.0007499414108272792, 0.000890555425357394, 0.000890555425357394, 0.000859307866572924, 0.000890555425357394, 0.0009374267635340989, 0.0009530505429263339, 0.000859307866572924, 0.0008124365283962191, 0.0006249511756893992, 0.0007186938520428092, 0.0009061792047496289, 0.0009530505429263339, 0.0009842981017108038, 0.0009686743223185689, 0.0009842981017108038, 0.0010155456604952738, 0.0009218029841418639, 0.0009374267635340989, 0.0006405749550816342, 
0.000765565190219514, 0.000859307866572924, 0.0009061792047496289, 0.0009374267635340989, 0.0009530505429263339, 0.0009999218811030388, 0.0009999218811030388, 0.0009374267635340989, 0.0009842981017108038, 0.0006093273962971642, 0.000843684087180689, 0.0009686743223185689, 0.0009999218811030388, 0.0010155456604952738, 0.0010467932192797437, 0.0011092883368486839, 0.0011092883368486839, 0.0009999218811030388, 0.0009999218811030388};const int input_size = 100;
const int output_size = 1;