
    // if having troubles with min/max, uncomment the following
    // #undef min    
    // #undef max
    #ifdef __has_attribute
    #define HAVE_ATTRIBUTE(x) __has_attribute(x)
    #else
    #define HAVE_ATTRIBUTE(x) 0
    #endif
    #if HAVE_ATTRIBUTE(aligned) || (defined(__GNUC__) && !defined(__clang__))
    #define DATA_ALIGN_ATTRIBUTE __attribute__((aligned(4)))
    #else
    #define DATA_ALIGN_ATTRIBUTE
    #endif
    const unsigned char model_data[] DATA_ALIGN_ATTRIBUTE = {0x1c, 0x00, 0x00, 0x00, 0x54, 0x46, 0x4c, 0x33, 0x14, 0x00, 0x20, 0x00, 0x1c, 0x00, 0x18, 0x00, 0x14, 0x00, 0x10, 0x00, 0x0c, 0x00, 0x00, 0x00, 0x08, 0x00, 0x04, 0x00, 0x14, 0x00, 0x00, 0x00, 0x1c, 0x00, 0x00, 0x00, 0x8c, 0x00, 0x00, 0x00, 0xe4, 0x00, 0x00, 0x00, 0x20, 0x15, 0x00, 0x00, 0x30, 0x15, 0x00, 0x00, 0x10, 0x1b, 0x00, 0x00, 0x03, 0x00, 0x00, 0x00, 0x01, 0x00, 0x00, 0x00, 0x04, 0x00, 0x00, 0x00, 0x92, 0xea, 0xff, 0xff, 0x0c, 0x00, 0x00, 0x00, 0x1c, 0x00, 0x00, 0x00, 0x3c, 0x00, 0x00, 0x00, 0x0f, 0x00, 0x00, 0x00, 0x73, 0x65, 0x72, 0x76, 0x69, 0x6e, 0x67, 0x5f, 0x64, 0x65, 0x66, 0x61, 0x75, 0x6c, 0x74, 0x00, 0x01, 0x00, 0x00, 0x00, 0x04, 0x00, 0x00, 0x00, 0x90, 0xff, 0xff, 0xff, 0x0a, 0x00, 0x00, 0x00, 0x04, 0x00, 0x00, 0x00, 0x08, 0x00, 0x00, 0x00, 0x64, 0x65, 0x6e, 0x73, 0x65, 0x5f, 0x32, 0x32, 0x00, 0x00, 0x00, 0x00, 0x01, 0x00, 0x00, 0x00, 0x04, 0x00, 0x00, 0x00, 0x66, 0xeb, 0xff, 0xff, 0x04, 0x00, 0x00, 0x00, 0x0e, 0x00, 0x00, 0x00, 0x64, 0x65, 0x6e, 0x73, 0x65, 0x5f, 0x32, 0x30, 0x5f, 0x69, 0x6e, 0x70, 0x75, 0x74, 0x00, 0x00, 0x02, 0x00, 0x00, 0x00, 0x34, 0x00, 0x00, 0x00, 0x04, 0x00, 0x00, 0x00, 0xdc, 0xff, 0xff, 0xff, 0x0d, 0x00, 0x00, 0x00, 0x04, 0x00, 0x00, 0x00, 0x13, 0x00, 0x00, 0x00, 0x43, 0x4f, 0x4e, 0x56, 0x45, 0x52, 0x53, 0x49, 0x4f, 0x4e, 0x5f, 0x4d, 0x45, 0x54, 0x41, 0x44, 0x41, 0x54, 0x41, 0x00, 0x08, 0x00, 0x0c, 0x00, 0x08, 0x00, 0x04, 0x00, 0x08, 0x00, 0x00, 0x00, 0x0c, 0x00, 0x00, 0x00, 0x04, 0x00, 0x00, 0x00, 0x13, 0x00, 0x00, 0x00, 0x6d, 0x69, 0x6e, 0x5f, 0x72, 0x75, 0x6e, 0x74, 0x69, 0x6d, 0x65, 0x5f, 0x76, 0x65, 0x72, 0x73, 0x69, 0x6f, 0x6e, 0x00, 0x0e, 0x00, 0x00, 0x00, 0x38, 0x14, 0x00, 0x00, 0x30, 0x14, 0x00, 0x00, 0x1c, 0x14, 0x00, 0x00, 0x3c, 0x13, 0x00, 0x00, 0xdc, 0x12, 0x00, 0x00, 0x3c, 0x11, 0x00, 0x00, 0x8c, 0x01, 0x00, 0x00, 0xb4, 0x00, 0x00, 0x00, 0xac, 0x00, 0x00, 0x00, 0xa4, 0x00, 0x00, 0x00, 0x9c, 0x00, 0x00, 0x00, 0x94, 0x00, 0x00, 0x00, 0x74, 0x00, 0x00, 0x00, 0x04, 0x00, 0x00, 0x00, 0x1a, 0xec, 0xff, 0xff, 0x04, 0x00, 0x00, 0x00, 0x60, 0x00, 0x00, 0x00, 0x0c, 0x00, 0x00, 0x00, 0x08, 0x00, 0x0e, 0x00, 0x08, 0x00, 0x04, 0x00, 0x08, 0x00, 0x00, 0x00, 0x10, 0x00, 0x00, 0x00, 0x24, 0x00, 0x00, 0x00, 0x00, 0x00, 0x06, 0x00, 0x08, 0x00, 0x04, 0x00, 0x06, 0x00, 0x00, 0x00, 0x04, 0x00, 0x00, 0x00, 0x00, 0x00, 0x00, 0x00, 0x00, 0x00, 0x0a, 0x00, 0x10, 0x00, 0x0c, 0x00, 0x08, 0x00, 0x04, 0x00, 0x0a, 0x00, 0x00, 0x00, 0x02, 0x00, 0x00, 0x00, 0x02, 0x00, 0x00, 0x00, 0x04, 0x00, 0x00, 0x00, 0x12, 0x00, 0x00, 0x00, 0x32, 0x2e, 0x31, 0x34, 0x2e, 0x30, 0x2d, 0x64, 0x65, 0x76, 0x32, 0x30, 0x32, 0x33, 0x30, 0x35, 0x32, 0x35, 0x00, 0x00, 0x86, 0xec, 0xff, 0xff, 0x04, 0x00, 0x00, 0x00, 0x10, 0x00, 0x00, 0x00, 0x31, 0x2e, 0x31, 0x34, 0x2e, 0x30, 0x00, 0x00, 0x00, 0x00, 0x00, 0x00, 0x00, 0x00, 0x00, 0x00, 0xc8, 0xe6, 0xff, 0xff, 0xcc, 0xe6, 0xff, 0xff, 0xd0, 0xe6, 0xff, 0xff, 0xd4, 0xe6, 0xff, 0xff, 0xb2, 0xec, 0xff, 0xff, 0x04, 0x00, 0x00, 0x00, 0xc8, 0x00, 0x00, 0x00, 0x1f, 0xd6, 0xd6, 0xbb, 0xa5, 0x2c, 0x66, 0xbc, 0xb9, 0xad, 0x0a, 0xbe, 0x3d, 0x01, 0x51, 0x3e, 0x9c, 0x7c, 0x6d, 0xbc, 0xf9, 0xab, 0x91, 0xba, 0x3f, 0x89, 0x09, 0x3e, 0x2b, 0x8e, 0x82, 0xbe, 0xab, 0x0d, 0x7a, 0xbc, 0x52, 0x4c, 0xd9, 0x3d, 0xc2, 0xa0, 0x6c, 0x39, 0x5c, 0x80, 0xb1, 0xbe, 0x97, 0x60, 0xd7, 0xbd, 0xf9, 0x63, 0x17, 0xbf, 0xca, 0x65, 0x6f, 0x3d, 0xa2, 0x9c, 0x60, 0x3d, 0x54, 0x80, 0x99, 0x3d, 0xe6, 0xa1, 0xf6, 0xbd, 0xdc, 0xcc, 0x56, 0x3d, 0x29, 0xaf, 0xcc, 0xbe, 0x19, 0x65, 0x6a, 0xbd, 0x40, 0xaf, 0xfc, 0xbb, 0xea, 0x5a, 0xce, 0x3d, 0x00, 0x54, 0x8c, 0x3c, 0x89, 0xe9, 0xbc, 0x3c, 0x87, 0xa4, 0x39, 0x3e, 0xb1, 0x6b, 0x81, 0xbe, 0x4a, 0xc6, 0x0c, 0xbc, 0xfc, 0x45, 0x03, 0xbe, 0x69, 0x6f, 0x9b, 0xbb, 0xd7, 0x04, 0x4b, 0x3e, 0x5d, 0xbb, 0x6a, 0x3b, 0x0a, 0xd6, 0x04, 0xbc, 0xdb, 0x04, 0x65, 0xbb, 0x7f, 0x3b, 0xd0, 0xba, 0xac, 0x95, 0x19, 0xbe, 0x48, 0xeb, 0x77, 0x3e, 0x95, 0x0a, 0x39, 0x3e, 0xf7, 0xba, 0xb1, 0xbe, 0xc1, 0x8b, 0xb1, 0xbd, 0x3a, 0xf3, 0x8c, 0x3d, 0x80, 0xb5, 0x10, 0x3e, 0xb7, 0x4d, 0xb4, 0xbd, 0x3a, 0x31, 0x9d, 0x3d, 0x7e, 0x12, 0x43, 0x3e, 0xda, 0x47, 0xfb, 0x3c, 0xa8, 0x06, 0xc2, 0x3d, 0xbe, 0x5e, 0x36, 0xbd, 0xc4, 0xbc, 0xc1, 0xbb, 0xd6, 0x15, 0x7e, 0x3d, 0x86, 0xed, 0xff, 0xff, 0x04, 0x00, 0x00, 0x00, 0xa0, 0x0f, 0x00, 0x00, 0xb1, 0xa6, 0x98, 0xbd, 0x55, 0x17, 0xc9, 0xbd, 0x4d, 0xa1, 0xcb, 0x3a, 0x1f, 0x0b, 0x38, 0xbe, 0x0e, 0x6b, 0x86, 0xbe, 0x18, 0x63, 0xc3, 0xbe, 0x08, 0xf9, 0xa2, 0x3d, 0x7d, 0x3a, 0x42, 0x3e, 0x30, 0x8c, 0x68, 0x3e, 0x17, 0x5d, 0x4b, 0xbd, 0xc6, 0x4e, 0xe1, 0xbe, 0x70, 0xd2, 0xc2, 0xbd, 0x7f, 0x84, 0xb7, 0xbe, 0xe7, 0xda, 0x4d, 0xbe, 0x40, 0x42, 0xed, 0xbd, 0x44, 0x53, 0x60, 0xbe, 0x58, 0x9b, 0x8f, 0xbe, 0x5d, 0x2e, 0x94, 0xbd, 0x38, 0x77, 0x11, 0xbe, 0x3d, 0x34, 0x56, 0x3c, 0x45, 0x72, 0x2b, 0xbe, 0xc0, 0x1b, 0xd8, 0x3d, 0xa2, 0x5f, 0xd4, 0xbb, 0x3c, 0x9d, 0x83, 0xbd, 0xec, 0x53, 0x63, 0x3e, 0x06, 0xba, 0x1f, 0xbe, 0x5e, 0xfc, 0x06, 0xbe, 0xf3, 0xc9, 0x17, 0x3e, 0x34, 0x69, 0x86, 0xbe, 0x1a, 0x30, 0x20, 0x3d, 0x93, 0x38, 0xe9, 0xbd, 0xe1, 0x0e, 0xb8, 0xbe, 0xf6, 0x89, 0x49, 0xbd, 0x12, 0xe1, 0x8e, 0xbe, 0x05, 0x2c, 0x0f, 0x3e, 0x21, 0xd2, 0xaa, 0x3e, 0x00, 0x13, 0xd2, 0xbb, 0xf5, 0x7a, 0x20, 0xbd, 0xc6, 0xa2, 0x6e, 0xbe, 0x7d, 0x23, 0x87, 0x3d, 0xd8, 0x9c, 0xb7, 0x3d, 0xa8, 0x47, 0x4b, 0x3d, 0x01, 0xe4, 0x96, 0xbe, 0xf7, 0xc2, 0x8d, 0x3e, 0x39, 0x25, 0x6d, 0xbc, 0x6d, 0xfe, 0x96, 0xbe, 0xbf, 0xf0, 0x16, 0xbf, 0x58, 0x3a, 0xb9, 0x3d, 0x6c, 0x2c, 0x6c, 0x3e, 0x78, 0x5a, 0x38, 0xbe, 0x63, 0x8e, 0x86, 0xbe, 0x94, 0x52, 0x6b, 0x3e, 0x2e, 0x8d, 0x84, 0xbd, 0x6c, 0x6d, 0x4b, 0xbd, 0x42, 0x1c, 0x42, 0x3e, 0x60, 0x66, 0x4f, 0xbe, 0xf4, 0xf3, 0x8b, 0xbe, 0xfb, 0x74, 0xa2, 0xbd, 0x00, 0x1d, 0xcc, 0x3b, 0xf8, 0x78, 0x86, 0xbe, 0xdc, 0x31, 0xd9, 0xbd, 0x6f, 0x06, 0x8c, 0x3d, 0x98, 0xc2, 0x61, 0xbe, 0x2b, 0x05, 0xe9, 0x3d, 0x0b, 0x29, 0x8f, 0x3c, 0xba, 0x4a, 0x3d, 0x3e, 0x5b, 0x9f, 0x34, 0xbe, 0xb2, 0x9f, 0x72, 0xba, 0x4b, 0x58, 0x49, 0x3c, 0xcf, 0x85, 0x73, 0x3a, 0x08, 0xd2, 0x90, 0xbe, 0x24, 0x3a, 0x91, 0xbc, 0xcb, 0xc9, 0x8d, 0x3d, 0x12, 0x26, 0xe0, 0x3d, 0x64, 0x08, 0x15, 0xbe, 0x97, 0xff, 0x40, 0xbe, 0x44, 0xc3, 0x95, 0x3e, 0x6d, 0x67, 0x2a, 0x3d, 0x45, 0x6a, 0x84, 0xbd, 0x2d, 0xf2, 0x06, 0x3d, 0xc1, 0x74, 0xde, 0xbd, 0x3a, 0x0e, 0xad, 0x3d, 0xac, 0x30, 0x90, 0xbb, 0xe6, 0x0f, 0x24, 0x3e, 0x15, 0x29, 0x35, 0xbe, 0x06, 0x52, 0x09, 0xbe, 0xa9, 0x6f, 0x0d, 0x3e, 0x2f, 0xf1, 0x88, 0xbc, 0xc5, 0x74, 0x7a, 0xbe, 0x09, 0xd8, 0xad, 0xbe, 0x62, 0x07, 0x44, 0x3e, 0x93, 0x5c, 0x1c, 0x3e, 0x40, 0x42, 0x8a, 0x3b, 0xe8, 0x1c, 0x0d, 0xbe, 0x46, 0x6b, 0xf3, 0xb9, 0x20, 0x12, 0xff, 0x3c, 0xa4, 0x5d, 0x1c, 0xbe, 0x5b, 0x45, 0x92, 0xbe, 0x2f, 0xba, 0x01, 0x3f, 0x1a, 0x2c, 0xa4, 0xbd, 0xc3, 0x9d, 0x1d, 0xbe, 0x50, 0x9b, 0x29, 0xbe, 0x02, 0x7c, 0x87, 0xbb, 0x3a, 0xee, 0x6d, 0xbe, 0xeb, 0xc2, 0x43, 0x3e, 0xf7, 0x9f, 0x98, 0x3d, 0xf3, 0x16, 0xbb, 0xbe, 0x8c, 0xfb, 0x2c, 0x3e, 0xd6, 0xe4, 0x58, 0x3e, 0xf4, 0xdc, 0x22, 0xbe, 0x90, 0x0f, 0x28, 0xbe, 0x5e, 0x01, 0xec, 0x3d, 0xc2, 0xb7, 0x44, 0xbe, 0x81, 0x82, 0xda, 0x3d, 0x60, 0xa4, 0x2e, 0x3e, 0x4a, 0x04, 0x8a, 0x3e, 0x4e, 0xe9, 0x66, 0xbe, 0x61, 0x46, 0x52, 0xbc, 0x08, 0x40, 0x94, 0xbd, 0x13, 0x56, 0xbd, 0x3d, 0x3c, 0x93, 0x0c, 0xbe, 0x59, 0xec, 0x40, 0x3e, 0x26, 0x0c, 0xc6, 0xbe, 0x9c, 0x31, 0xc3, 0xbd, 0x8e, 0x7a, 0x54, 0x3e, 0xb6, 0x09, 0xb3, 0xbe, 0x54, 0x91, 0xdf, 0xbc, 0xde, 0xf5, 0x1b, 0xbe, 0xe0, 0x83, 0x8c, 0x3e, 0x4b, 0x77, 0x9e, 0xbc, 0x97, 0x84, 0x05, 0xbe, 0x30, 0x93, 0x29, 0x3e, 0xd3, 0x99, 0x87, 0xbe, 0xff, 0x50, 0x90, 0xbe, 0xdb, 0x45, 0x14, 0xbe, 0x40, 0xff, 0x90, 0xbb, 0xec, 0xbe, 0x90, 0x3d, 0x16, 0x3b, 0x2d, 0xbe, 0xf8, 0xff, 0x63, 0x3e, 0xd8, 0x3e, 0xf0, 0xbb, 0x4b, 0xd2, 0x86, 0x3e, 0x4d, 0xbc, 0x37, 0xbd, 0x58, 0x4c, 0x18, 0xbe, 0xfb, 0x0e, 0x06, 0xbe, 0x43, 0xb5, 0x51, 0xbd, 0x80, 0x9a, 0xc8, 0x3d, 0x28, 0xed, 0x07, 0x3d, 0xb0, 0x0a, 0x99, 0x3e, 0x21, 0x35, 0x96, 0xbd, 0x2a, 0x8e, 0x8d, 0xbd, 0x02, 0x85, 0x15, 0x3e, 0xab, 0x11, 0x50, 0x3e, 0x13, 0xfa, 0x75, 0x3e, 0x55, 0x68, 0x11, 0xbd, 0x3a, 0xd6, 0xb7, 0x3e, 0x46, 0xd6, 0x90, 0x3e, 0x70, 0x41, 0x52, 0xbe, 0x98, 0xb3, 0x0a, 0xbd, 0x28, 0x09, 0xb2, 0x3c, 0x12, 0x15, 0x43, 0x3e, 0xa7, 0xff, 0x88, 0x3e, 0x6d, 0x97, 0x7f, 0x3e, 0xf9, 0xac, 0x3d, 0xbd, 0x76, 0xc8, 0x93, 0x3d, 0x23, 0x77, 0x00, 0xbe, 0x16, 0xc7, 0x47, 0x3e, 0xe5, 0x94, 0x9a, 0x3d, 0x60, 0x7b, 0x83, 0xbd, 0x75, 0x26, 0x2b, 0xbd, 0xb2, 0xea, 0x4f, 0xbe, 0xd8, 0x0e, 0x74, 0xbe, 0xf7, 0x19, 0x7d, 0x3e, 0x72, 0x77, 0xa9, 0xbe, 0x1f, 0xc6, 0xfe, 0xbd, 0x0e, 0x4d, 0x7d, 0x3e, 0x70, 0xe6, 0x91, 0xbc, 0x7c, 0x42, 0x04, 0x3e, 0x11, 0x3d, 0xbd, 0xbc, 0x80, 0x5c, 0xdd, 0xbc, 0x52, 0x3e, 0x21, 0xbd, 0x74, 0x73, 0x76, 0xbe, 0xdb, 0xcd, 0x6b, 0x3d, 0xff, 0x13, 0xcd, 0x3d, 0x9e, 0x2c, 0x08, 0xbe, 0x40, 0xf8, 0x94, 0x3e, 0x0b, 0x81, 0xbf, 0x3d, 0x7b, 0xfe, 0x6b, 0x3e, 0x99, 0x7a, 0x81, 0xbd, 0x14, 0xd0, 0xd8, 0xbd, 0xe4, 0xf9, 0x78, 0x3e, 0xce, 0x16, 0xba, 0xbe, 0x16, 0x8f, 0xa3, 0xbe, 0x94, 0xc3, 0x5a, 0xbe, 0x81, 0x09, 0xbd, 0x3c, 0x1b, 0xf2, 0xa1, 0xbe, 0x3b, 0xbb, 0x4f, 0x3c, 0x40, 0xfc, 0x08, 0xbe, 0xee, 0xcb, 0x1d, 0xbe, 0xac, 0xf1, 0x2b, 0x3e, 0xf9, 0x86, 0x18, 0xbe, 0xe8, 0x7e, 0x02, 0xbe, 0xd9, 0xf0, 0x30, 0xbe, 0x5f, 0x69, 0x8f, 0xbe, 0x34, 0x9f, 0xae, 0xbe, 0x80, 0x1f, 0xf1, 0x3c, 0x68, 0xef, 0x85, 0xbe, 0xd7, 0x5f, 0x33, 0xbe, 0x8b, 0xca, 0x09, 0x3e, 0x80, 0x0d, 0x40, 0x3c, 0xb7, 0x6c, 0xe7, 0xbe, 0x22, 0x3f, 0x46, 0x3e, 0x1e, 0x40, 0xa3, 0xbd, 0x84, 0x0f, 0x82, 0x3e, 0x54, 0x89, 0xaf, 0xbe, 0x04, 0xe6, 0x8d, 0xbe, 0x4e, 0x8b, 0x92, 0xbe, 0x10, 0x74, 0x6c, 0x3e, 0x84, 0xc8, 0x8f, 0x3d, 0x14, 0xdb, 0x7b, 0xbe, 0x40, 0xbc, 0x6e, 0x3e, 0x12, 0x99, 0xc4, 0xbd, 0x85, 0xdb, 0x1e, 0xbe, 0x50, 0x6c, 0x13, 0xbe, 0x6d, 0x59, 0x6f, 0xbd, 0x2b, 0xbb, 0x02, 0x3e, 0x60, 0xd6, 0x36, 0xbe, 0x5b, 0xb8, 0x96, 0x3e, 0x30, 0x66, 0x9c, 0xbd, 0x70, 0x74, 0x7e, 0x3d, 0x3b, 0xfe, 0xca, 0x3e, 0xaa, 0x17, 0x8e, 0x3e, 0x60, 0x44, 0xbe, 0x3d, 0x5a, 0x99, 0x58, 0x3e, 0x2e, 0xdc, 0xfd, 0x3e, 0x75, 0x0c, 0x44, 0x3c, 0x84, 0xed, 0xeb, 0xbd, 0xf2, 0x87, 0x20, 0xbe, 0x7f, 0x29, 0xa9, 0x3e, 0xef, 0x8d, 0x21, 0x3d, 0x16, 0x0e, 0xf6, 0x3b, 0x6a, 0xc2, 0x36, 0x3e, 0x81, 0x29, 0x00, 0xbe, 0x5c, 0x77, 0x33, 0xbe, 0x06, 0x54, 0xa8, 0xbe, 0x86, 0x62, 0x4a, 0x3e, 0x3b, 0x80, 0x9e, 0xbe, 0x65, 0x68, 0x82, 0xbe, 0x77, 0x20, 0x77, 0xbe, 0x80, 0x3b, 0xff, 0xbd, 0xa8, 0xfc, 0xf3, 0xbd, 0x9c, 0x21, 0x49, 0xbe, 0x6d, 0xcc, 0x15, 0xbe, 0x88, 0xc2, 0xcd, 0x3d, 0xf0, 0xd5, 0xf2, 0x3d, 0x8b, 0x62, 0x44, 0xbe, 0x80, 0x3e, 0xf5, 0x3c, 0x40, 0xc6, 0xa4, 0x3b, 0x30, 0x4c, 0x79, 0x3e, 0x30, 0xa7, 0x51, 0x3e, 0x41, 0xb3, 0x3e, 0x3d, 0xd9, 0x41, 0xce, 0x3e, 0xd6, 0x82, 0xaa, 0xbd, 0xbf, 0x38, 0x27, 0xbe, 0x1b, 0x65, 0xb9, 0xbe, 0xce, 0x99, 0x36, 0x3e, 0x4d, 0xb1, 0x8b, 0xbe, 0x13, 0x93, 0x97, 0xbd, 0xa2, 0x69, 0xa0, 0xbe, 0x8f, 0x58, 0xa4, 0xbe, 0x2d, 0x26, 0x91, 0xbd, 0x4c, 0x83, 0x85, 0xbd, 0xcf, 0x41, 0x78, 0x3d, 0x99, 0x97, 0x67, 0x3d, 0x10, 0x8c, 0xa2, 0x3d, 0x88, 0xfa, 0x30, 0x3d, 0xcd, 0x79, 0xae, 0xbd, 0x44, 0x8e, 0xf1, 0x3d, 0xab, 0xed, 0xcd, 0xbc, 0x66, 0x4a, 0x2c, 0xbe, 0x15, 0xe9, 0xca, 0xbe, 0x49, 0x25, 0xbc, 0x3d, 0x05, 0x5b, 0xd7, 0xbe, 0xaf, 0x80, 0xfd, 0xbe, 0xcd, 0x95, 0x92, 0xbc, 0xa8, 0x19, 0x85, 0xbe, 0xa1, 0x20, 0xf5, 0xbe, 0x69, 0xd9, 0x51, 0xbe, 0x41, 0xb9, 0x82, 0x3e, 0xa0, 0xf9, 0x09, 0x3e, 0xf9, 0xdb, 0x00, 0xbf, 0x60, 0x39, 0xea, 0xbc, 0x40, 0x21, 0x04, 0x3d, 0x40, 0x5c, 0xe3, 0x3d, 0x42, 0xe9, 0x06, 0xbf, 0xd0, 0x82, 0xcf, 0xbc, 0xa8, 0x8a, 0x75, 0x3e, 0xc2, 0xb2, 0x85, 0x3e, 0x84, 0x16, 0xc2, 0xbd, 0xfc, 0xa8, 0x0f, 0xbe, 0x4d, 0x3e, 0x81, 0x3d, 0x33, 0xe5, 0x0d, 0x3f, 0x1e, 0xc4, 0x9f, 0xbd, 0xde, 0x2f, 0xa1, 0xbc, 0x1f, 0x72, 0x68, 0xbe, 0xa3, 0x03, 0xb5, 0xbd, 0xa8, 0x8e, 0x1d, 0x3d, 0xf1, 0xf5, 0x91, 0xbe, 0xae, 0x74, 0x81, 0xbe, 0xdc, 0xb3, 0x8b, 0x3d, 0x60, 0x38, 0x7b, 0xbe, 0x20, 0x51, 0x71, 0x3d, 0xe8, 0x23, 0x65, 0x3d, 0x8e, 0x60, 0xa0, 0x3d, 0xb3, 0x0f, 0x21, 0xbe, 0x85, 0x53, 0xfa, 0xbd, 0x09, 0xf4, 0x92, 0xbe, 0xb0, 0x40, 0xb9, 0x3d, 0x09, 0xce, 0x4f, 0x3e, 0x77, 0x21, 0x43, 0xbe, 0x77, 0x6c, 0xa4, 0x3f, 0xf0, 0x2c, 0xcc, 0xbe, 0xee, 0x54, 0xd5, 0xbd, 0xdf, 0x01, 0x71, 0xbe, 0x79, 0xd3, 0x8f, 0xbe, 0x2a, 0xa2, 0x32, 0x3e, 0xef, 0xb9, 0x9a, 0xbe, 0xe3, 0xb9, 0xb9, 0x3b, 0x46, 0xa9, 0x84, 0xbd, 0x59, 0xec, 0xb4, 0xbe, 0xf9, 0x17, 0x2c, 0xbe, 0xb0, 0x64, 0x8f, 0xbc, 0x72, 0x12, 0x1d, 0x3e, 0x22, 0xd1, 0x5e, 0x3d, 0xe4, 0xb8, 0x10, 0xbe, 0x16, 0x03, 0xa7, 0x3c, 0xc8, 0xbe, 0xf2, 0xbd, 0x80, 0x64, 0xfd, 0xbc, 0x61, 0xa0, 0xb3, 0xbe, 0xae, 0x96, 0xd5, 0xbd, 0x23, 0x99, 0x91, 0xbe, 0x70, 0x49, 0x5b, 0x3e, 0xc0, 0x23, 0xec, 0xbc, 0x31, 0x46, 0x8f, 0xbe, 0xbf, 0x03, 0x04, 0x3f, 0x47, 0x08, 0x46, 0xbe, 0xe4, 0x5f, 0xbb, 0xbe, 0x7d, 0x3e, 0xbd, 0xbe, 0xa4, 0xa0, 0x17, 0xbe, 0xc8, 0xf2, 0x66, 0x3d, 0xaa, 0xb7, 0x21, 0xbe, 0xf0, 0x27, 0xa0, 0xbc, 0x17, 0x5f, 0x79, 0xbe, 0xfb, 0x83, 0x61, 0xbe, 0xe3, 0x5f, 0x68, 0xbe, 0xe0, 0xa0, 0xf5, 0x3c, 0xde, 0x1e, 0xd9, 0xbd, 0xdc, 0x65, 0x1a, 0x3e, 0x0a, 0xe7, 0x6a, 0xbe, 0x30, 0xb2, 0x8a, 0x3e, 0x9c, 0xae, 0x82, 0xbe, 0x7d, 0x4c, 0xad, 0xbd, 0xb9, 0x13, 0x87, 0xbc, 0x22, 0x94, 0xef, 0xbb, 0x22, 0x88, 0x8e, 0x3d, 0xd3, 0x91, 0xaa, 0xbc, 0x24, 0xa2, 0xfe, 0xbb, 0x79, 0x0a, 0x94, 0xbe, 0xed, 0x23, 0x0c, 0xbe, 0xe1, 0x88, 0x5f, 0x3e, 0x3e, 0xf5, 0xcf, 0xbb, 0x1b, 0x6e, 0x6a, 0xbe, 0x59, 0xa6, 0xef, 0x3d, 0xd4, 0x91, 0x94, 0xbe, 0xfc, 0xcf, 0x28, 0x3e, 0x4b, 0x7d, 0x31, 0x3e, 0xdc, 0x99, 0x45, 0xbe, 0x94, 0x60, 0xe2, 0x3d, 0x4e, 0x2c, 0x05, 0xbe, 0x31, 0x81, 0x05, 0xbe, 0xbe, 0x5e, 0x63, 0xbd, 0x40, 0xc1, 0xc1, 0x3c, 0x41, 0x4c, 0x56, 0xbe, 0xcd, 0x40, 0x0e, 0xbe, 0x41, 0xbf, 0x86, 0x3e, 0xde, 0xce, 0x10, 0x3e, 0xf5, 0x20, 0x5b, 0x3e, 0x44, 0x79, 0xfe, 0xbd, 0x70, 0xb2, 0xa0, 0xbe, 0xc7, 0x19, 0x66, 0xbd, 0x2c, 0x5f, 0x12, 0xbe, 0xde, 0x6f, 0xde, 0xbe, 0x84, 0x51, 0x0c, 0x3e, 0x09, 0x28, 0xc5, 0xbd, 0x21, 0x39, 0x0a, 0xbe, 0x3e, 0xfb, 0xa2, 0x3d, 0x0d, 0xf6, 0xb5, 0xbd, 0x14, 0x19, 0xba, 0xbd, 0xa2, 0x62, 0x94, 0xbe, 0xe5, 0x76, 0xa5, 0xbe, 0x70, 0x7a, 0x37, 0x3e, 0xb0, 0xba, 0x78, 0x3d, 0xaa, 0x80, 0x4c, 0x3e, 0x88, 0x40, 0x93, 0xbe, 0x2a, 0x2f, 0x2a, 0xbe, 0xc7, 0xe1, 0xe6, 0x3e, 0x9e, 0x2f, 0xfe, 0xba, 0x6f, 0x19, 0x99, 0xbe, 0x40, 0x55, 0x00, 0x3c, 0xc0, 0xd2, 0x94, 0x3d, 0x78, 0xa0, 0x20, 0xbd, 0xda, 0x0c, 0x80, 0x3e, 0x8c, 0xae, 0x88, 0x3e, 0xa5, 0x0a, 0x7c, 0xbd, 0x9e, 0xc3, 0xc6, 0xbd, 0x0f, 0x3a, 0xbc, 0x3e, 0x83, 0x37, 0x88, 0x3e, 0x29, 0x72, 0x4b, 0xbe, 0x57, 0x93, 0xdb, 0x3e, 0x1a, 0x35, 0x0f, 0xbe, 0x86, 0xa3, 0x88, 0xbe, 0xbd, 0xfa, 0xd4, 0x3d, 0xb6, 0xcb, 0x04, 0x3e, 0xbc, 0x20, 0x83, 0xb9, 0xfd, 0xe4, 0x48, 0xbd, 0x54, 0x11, 0x20, 0x3e, 0x6b, 0x24, 0x45, 0xbd, 0x01, 0xb7, 0xfd, 0x3d, 0x20, 0x2c, 0x91, 0x3d, 0x26, 0x4f, 0x7b, 0x3e, 0xae, 0xb7, 0x1c, 0x3d, 0xe7, 0x2b, 0xdf, 0x3c, 0x09, 0xd4, 0x98, 0xbe, 0x1f, 0x8b, 0xa2, 0x3d, 0xcf, 0x39, 0xb2, 0xbe, 0xb1, 0x72, 0x50, 0x3b, 0x75, 0xd0, 0x4e, 0xbd, 0xc8, 0x2d, 0x92, 0x3e, 0x6e, 0xc3, 0xfc, 0xbd, 0xcd, 0x47, 0xb0, 0x3d, 0x79, 0xc0, 0x21, 0x3e, 0x1f, 0xef, 0x9f, 0x3e, 0x69, 0x29, 0x17, 0x3f, 0x35, 0x6f, 0x64, 0xbd, 0x4c, 0x60, 0xd2, 0xbd, 0x45, 0x87, 0x23, 0x3d, 0xa8, 0xf9, 0x04, 0x3e, 0x02, 0x19, 0x1c, 0x3e, 0x98, 0xc1, 0xd3, 0xbc, 0xf9, 0x75, 0x79, 0xbe, 0xd6, 0x57, 0x85, 0x3e, 0x2e, 0x47, 0x14, 0x3d, 0x46, 0xae, 0xee, 0xbd, 0xd8, 0x11, 0x8f, 0xbe, 0x89, 0x93, 0x99, 0xbe, 0x8d, 0xa6, 0x50, 0xbe, 0x17, 0x14, 0xcb, 0x3c, 0x69, 0x2b, 0x3a, 0xbe, 0x4a, 0x64, 0x79, 0xbd, 0x13, 0x87, 0x6c, 0xbd, 0x99, 0x22, 0x41, 0xbe, 0x80, 0x9a, 0x5c, 0xbc, 0xf3, 0x40, 0x20, 0xbe, 0x46, 0x78, 0x89, 0xbe, 0x69, 0xc0, 0x52, 0xbe, 0xbc, 0x29, 0xa1, 0xbd, 0x0a, 0x08, 0x4a, 0xbe, 0xde, 0xea, 0x7b, 0xbe, 0x90, 0xea, 0xcd, 0x3d, 0x08, 0xd2, 0x85, 0x3e, 0xd2, 0xc2, 0xa5, 0xbd, 0x1c, 0xe9, 0x81, 0x3e, 0xcc, 0x5c, 0x26, 0xbe, 0x00, 0x83, 0xa7, 0x3a, 0xbc, 0xd5, 0x3e, 0xbd, 0xe5, 0x4d, 0x8f, 0xbe, 0x8c, 0x2b, 0x4f, 0xbe, 0xd4, 0xe0, 0x61, 0xbe, 0xe0, 0x0e, 0xf4, 0x3c, 0xe0, 0x61, 0x99, 0xbd, 0x90, 0xc1, 0xf2, 0xbd, 0x5e, 0x8e, 0xc9, 0xbe, 0x16, 0xb9, 0xec, 0xbd, 0x54, 0x66, 0x3c, 0xbd, 0x87, 0xb7, 0x43, 0x3e, 0x7b, 0x6a, 0x83, 0x3e, 0x32, 0x62, 0xe7, 0x3d, 0xda, 0x29, 0xa2, 0xbe, 0xf5, 0x1e, 0x95, 0x3d, 0xd1, 0xdc, 0x85, 0xbe, 0x75, 0x54, 0xc7, 0xbd, 0xa5, 0x1a, 0x1e, 0xbe, 0x99, 0xa6, 0xae, 0xbe, 0x13, 0x6e, 0xcd, 0xbe, 0x42, 0xeb, 0x0e, 0xbe, 0x4a, 0x82, 0xa6, 0xbe, 0x45, 0x48, 0x4d, 0x3d, 0xc0, 0x77, 0xda, 0xbb, 0x44, 0xbd, 0xb9, 0x3c, 0x07, 0x0e, 0xb1, 0xbe, 0xfb, 0x34, 0x68, 0xbc, 0x70, 0xb6, 0x3c, 0xbe, 0xe0, 0x01, 0x7d, 0x3d, 0xe5, 0x56, 0x53, 0xbe, 0xd1, 0x38, 0x87, 0xbe, 0x98, 0x11, 0x0b, 0xbe, 0x02, 0xcc, 0xd4, 0x3f, 0xfa, 0x77, 0x05, 0xbf, 0x70, 0xdf, 0x63, 0x3d, 0x54, 0x02, 0x8d, 0x3d, 0x06, 0x0e, 0xae, 0x3c, 0x65, 0x95, 0x46, 0x3d, 0xda, 0x83, 0x43, 0xbe, 0xea, 0x98, 0x38, 0x3c, 0x9f, 0x79, 0x08, 0xbe, 0x25, 0x9a, 0x58, 0xbe, 0xb6, 0x94, 0xae, 0xbe, 0x7c, 0x46, 0x62, 0x3e, 0x41, 0x79, 0x92, 0x3d, 0xe2, 0x08, 0xdf, 0xbe, 0xa0, 0x6a, 0x0b, 0x3e, 0x15, 0x7e, 0x9c, 0xbe, 0x23, 0x59, 0x63, 0x3f, 0xad, 0xd0, 0xf2, 0xbe, 0x6d, 0x3e, 0x48, 0xbe, 0x9d, 0x79, 0x84, 0x3d, 0xb6, 0x85, 0x57, 0xbe, 0xc7, 0x12, 0xcb, 0x3d, 0x88, 0x91, 0xd7, 0xbe, 0xcd, 0x38, 0x4f, 0xbe, 0xba, 0xba, 0xd2, 0x3d, 0x52, 0x1e, 0x8a, 0x3e, 0x48, 0xbf, 0x11, 0x3d, 0x8b, 0xa6, 0xa1, 0x3e, 0x72, 0xff, 0x40, 0x3f, 0x6f, 0xd7, 0x0a, 0x3e, 0x4a, 0x17, 0x2f, 0x3e, 0x10, 0x92, 0x1f, 0xbd, 0x67, 0x01, 0x02, 0x3e, 0x41, 0x24, 0xe8, 0x3c, 0x33, 0x97, 0xf5, 0xbd, 0x3c, 0x2a, 0xb9, 0x3c, 0xab, 0xea, 0xae, 0xbe, 0x6e, 0x44, 0x03, 0xbe, 0x4d, 0x95, 0x76, 0xbe, 0x80, 0xa5, 0x2b, 0xbe, 0x98, 0x0b, 0xc3, 0xbd, 0xc6, 0xec, 0x73, 0x3d, 0x3e, 0x9a, 0x96, 0xbe, 0x49, 0xa2, 0x3c, 0x3e, 0xd9, 0x00, 0x2d, 0xbd, 0xf4, 0xc8, 0x66, 0x3e, 0xe7, 0x6c, 0xa6, 0xbd, 0x0e, 0x0b, 0x2b, 0x3e, 0x5d, 0x02, 0xb1, 0x3d, 0xe2, 0x8c, 0xcf, 0x3d, 0x65, 0xb3, 0x0d, 0xbe, 0x78, 0x04, 0x3b, 0xbd, 0x8b, 0xa9, 0x57, 0xbe, 0xf3, 0x98, 0x12, 0x3d, 0x37, 0x0b, 0x45, 0x3e, 0x19, 0x44, 0xb5, 0x3d, 0x8d, 0x6c, 0x77, 0x3e, 0x43, 0x17, 0x8c, 0xbe, 0xf7, 0xea, 0x98, 0x3d, 0xef, 0xe9, 0x15, 0xbe, 0x98, 0x36, 0xf4, 0xbd, 0xf6, 0x3a, 0x27, 0x39, 0xf4, 0xc7, 0x05, 0xbe, 0x10, 0x9a, 0x97, 0x3c, 0xa6, 0xf6, 0xa1, 0xbe, 0x74, 0x72, 0x95, 0xbd, 0x58, 0xd7, 0x1e, 0xbe, 0x88, 0x8d, 0x07, 0xbd, 0x8d, 0x71, 0x0c, 0xbd, 0x1c, 0x5a, 0x08, 0xbe, 0x92, 0x31, 0x2f, 0xbe, 0xf6, 0x81, 0x52, 0x3e, 0x3c, 0x35, 0x56, 0xbe, 0x30, 0x7e, 0x7a, 0xbe, 0x73, 0x9a, 0x35, 0x3e, 0x4c, 0x3b, 0xa7, 0xbd, 0x7e, 0x04, 0xa5, 0x3d, 0xa1, 0xde, 0x74, 0xba, 0x20, 0xbc, 0xfd, 0x3d, 0xc0, 0xc5, 0x5f, 0x3e, 0x85, 0x6d, 0x9e, 0x3d, 0x6c, 0x87, 0x37, 0xbd, 0x66, 0xd4, 0xa1, 0xbe, 0x26, 0xd1, 0xec, 0xbd, 0x48, 0x75, 0x52, 0x3e, 0xec, 0x3a, 0x8a, 0xbe, 0x11, 0x3d, 0xf6, 0xbd, 0x6c, 0xee, 0xed, 0xbc, 0x41, 0xe6, 0x92, 0xbe, 0x50, 0x1c, 0xbe, 0xbe, 0x84, 0x34, 0xc5, 0xbe, 0x0c, 0x83, 0x7f, 0x3e, 0x58, 0xa0, 0x10, 0x3e, 0x10, 0x18, 0x3e, 0x3c, 0xda, 0xbd, 0x47, 0xbb, 0x49, 0x0b, 0xbf, 0xbc, 0xb3, 0x62, 0x36, 0x3e, 0x4a, 0x6b, 0x82, 0xbe, 0x1f, 0x38, 0x96, 0xbe, 0x5f, 0x1b, 0x1d, 0xbc, 0x37, 0x2a, 0x19, 0x3e, 0x5f, 0xd8, 0x43, 0xbe, 0x8a, 0x03, 0x69, 0x3d, 0x8a, 0x05, 0xa4, 0x3d, 0xd3, 0x31, 0x6b, 0x3c, 0x02, 0xc3, 0x86, 0x3e, 0x93, 0xa4, 0x69, 0x3d, 0xc0, 0x48, 0x2b, 0xbd, 0x95, 0x15, 0xc0, 0x3d, 0xd9, 0x32, 0xb0, 0xbe, 0x3a, 0xb4, 0x60, 0xbe, 0x57, 0xce, 0x0a, 0xbe, 0x99, 0xb0, 0x8d, 0xbd, 0x1c, 0x93, 0x6f, 0x3e, 0x93, 0x15, 0xa6, 0xbd, 0x00, 0xe4, 0xbc, 0x3a, 0xee, 0x74, 0x2e, 0x3e, 0x5e, 0x03, 0x09, 0xbe, 0x6f, 0xaf, 0x1e, 0xbe, 0xce, 0x85, 0x11, 0xbe, 0x7c, 0x08, 0x9b, 0xbc, 0xc1, 0x30, 0x4a, 0xbe, 0x9d, 0x73, 0x61, 0xbe, 0xbd, 0x40, 0x67, 0xbd, 0xe5, 0xb2, 0x28, 0xbe, 0xa3, 0x8c, 0x48, 0xbe, 0x1c, 0x36, 0x93, 0xbe, 0xb8, 0x98, 0x8f, 0xbc, 0x50, 0xd1, 0xfc, 0xbd, 0x6c, 0xc1, 0x0d, 0xbc, 0x64, 0x0f, 0x88, 0xbd, 0x74, 0x38, 0xdc, 0xbd, 0xbf, 0x6a, 0x7b, 0xbd, 0x7b, 0xd3, 0x70, 0xbe, 0x29, 0xe6, 0x4e, 0x3e, 0x4f, 0x6f, 0x6b, 0x3e, 0x1d, 0xca, 0x3a, 0xbe, 0x50, 0xbf, 0x32, 0xbc, 0x7a, 0x54, 0xbd, 0xbb, 0x35, 0xb1, 0xa3, 0x3d, 0x32, 0x0b, 0x4e, 0xbe, 0x0c, 0xa0, 0x3e, 0x3e, 0x3e, 0x80, 0x19, 0xbe, 0x08, 0xc8, 0x2c, 0xbe, 0x06, 0x24, 0x8a, 0x3d, 0xaa, 0xc9, 0x6d, 0x3d, 0x49, 0x06, 0x13, 0xbe, 0x9e, 0xff, 0xd1, 0xbd, 0x0a, 0xd7, 0x31, 0xbd, 0x17, 0x68, 0xaa, 0x3d, 0x4e, 0xcf, 0xca, 0xbe, 0x80, 0x96, 0x51, 0x3e, 0xa5, 0x8d, 0x12, 0xbe, 0xc7, 0x6e, 0x1c, 0xbe, 0x3d, 0x97, 0x08, 0xbe, 0x6e, 0x84, 0xdd, 0x3b, 0x77, 0x11, 0x25, 0x3e, 0x87, 0x24, 0x1a, 0xbd, 0x87, 0xaa, 0xca, 0xbd, 0x77, 0x28, 0x41, 0x3e, 0x2e, 0x3f, 0x95, 0x3e, 0x9a, 0x00, 0x07, 0x3e, 0x76, 0x40, 0x1f, 0xbe, 0x9d, 0xbf, 0x55, 0xbe, 0xc3, 0xdf, 0x59, 0xbe, 0xa4, 0x29, 0x98, 0x3d, 0xa4, 0xee, 0x9b, 0xbd, 0x1e, 0xf8, 0xa9, 0xbe, 0x2b, 0x21, 0x1c, 0x3e, 0x6b, 0x17, 0xef, 0x3d, 0xff, 0xd6, 0x04, 0xbe, 0xd4, 0xc2, 0x0a, 0x3e, 0xa5, 0x78, 0x2a, 0x3d, 0xa1, 0x05, 0x01, 0xbe, 0xe3, 0xb0, 0x95, 0x3e, 0xc4, 0x09, 0x7d, 0xbe, 0xf2, 0x23, 0x71, 0xbe, 0x50, 0x6c, 0x43, 0xbc, 0xea, 0x30, 0x8e, 0x3e, 0x49, 0x9c, 0xcb, 0x3d, 0x22, 0x6f, 0x01, 0x3e, 0x22, 0x6f, 0xcc, 0xbd, 0xd0, 0x63, 0x36, 0xbe, 0x03, 0x78, 0x3d, 0x3e, 0xe1, 0xae, 0x2d, 0x3e, 0xb7, 0x54, 0x5e, 0xbd, 0xd2, 0xb1, 0xc5, 0xbd, 0xc3, 0x46, 0x9e, 0xbe, 0xc3, 0x61, 0xae, 0x3c, 0x67, 0xff, 0xcb, 0x3c, 0xb5, 0x5d, 0x0a, 0xbd, 0x50, 0x71, 0x0a, 0x3e, 0x15, 0x25, 0x75, 0xbe, 0xb5, 0x2b, 0x77, 0x3e, 0x54, 0xa2, 0x1a, 0xbe, 0x15, 0x48, 0xf3, 0x3e, 0x73, 0xe3, 0x61, 0xbe, 0xf2, 0xd7, 0x97, 0xbc, 0xad, 0x8e, 0x6a, 0xbd, 0x5a, 0x46, 0xa1, 0x3d, 0x1f, 0xf5, 0x35, 0xbe, 0x6d, 0x52, 0xdd, 0xbd, 0x64, 0x5c, 0x23, 0xbe, 0xa8, 0x09, 0x31, 0x3d, 0x93, 0x88, 0x0c, 0x3e, 0xfb, 0x35, 0x27, 0xbe, 0xe8, 0x22, 0x25, 0x3d, 0x2d, 0x7d, 0xa8, 0xbe, 0xab, 0x7f, 0x12, 0x3e, 0xb4, 0xad, 0xaa, 0x3d, 0xc2, 0x68, 0xf0, 0xbd, 0x3a, 0xba, 0xc0, 0xbd, 0x89, 0xdf, 0x88, 0x3e, 0xf9, 0x5c, 0x86, 0xbe, 0x4f, 0x2f, 0x8f, 0xbe, 0x83, 0xf1, 0xf0, 0x3d, 0xb7, 0x85, 0x2c, 0x3e, 0x95, 0x24, 0x10, 0xbe, 0x25, 0x5e, 0xa7, 0xbd, 0x35, 0xec, 0x77, 0xbd, 0x97, 0x8e, 0x36, 0xbe, 0x05, 0x55, 0x28, 0xbe, 0x00, 0xf9, 0x5a, 0xbe, 0xf0, 0x0e, 0x9b, 0x3d, 0x66, 0x9f, 0xd4, 0xbc, 0x94, 0xb6, 0x83, 0xbe, 0x8a, 0x06, 0xf2, 0x3a, 0xb0, 0x05, 0xbb, 0x3c, 0x8e, 0xad, 0x5d, 0xbe, 0xc4, 0x5b, 0x79, 0x3e, 0xd4, 0xb9, 0x93, 0x3e, 0x30, 0xa8, 0xc6, 0xbc, 0x8f, 0x3f, 0x0e, 0xbe, 0x84, 0x7e, 0x7a, 0xbd, 0xe1, 0xdf, 0x13, 0x3e, 0x5d, 0x80, 0x91, 0xbe, 0xbe, 0x6e, 0x90, 0x3e, 0xb4, 0x8d, 0x6e, 0xbe, 0x08, 0xf9, 0x0f, 0xbd, 0xc0, 0xbe, 0xe9, 0xbd, 0xe0, 0x81, 0x5f, 0xbe, 0xde, 0x20, 0x06, 0xbf, 0x81, 0x40, 0x8a, 0xbe, 0xd0, 0x0e, 0xbc, 0xbc, 0x95, 0x80, 0x9e, 0xbe, 0xc4, 0x63, 0x8c, 0x3e, 0x26, 0x7d, 0x22, 0xbe, 0x90, 0xf5, 0x83, 0x3d, 0xdf, 0x9f, 0x93, 0xbe, 0x3b, 0xa6, 0x2a, 0xbe, 0x40, 0xfc, 0xf7, 0xbb, 0x60, 0xdd, 0x7a, 0xbd, 0x1c, 0xd6, 0x6c, 0xbd, 0x58, 0x69, 0x0e, 0xbd, 0xac, 0x64, 0xcf, 0xbd, 0x4e, 0x87, 0x93, 0x3c, 0xe2, 0xfb, 0xfb, 0x3c, 0x41, 0x51, 0x19, 0xbe, 0xdb, 0xc5, 0x96, 0x3d, 0xf1, 0x08, 0x36, 0x3e, 0x9d, 0x36, 0x7a, 0x3e, 0x2f, 0xde, 0x4e, 0x3e, 0xc8, 0xba, 0xe0, 0x3d, 0xc9, 0x8d, 0xf2, 0xbd, 0x74, 0x8c, 0x0f, 0xbe, 0xdf, 0x69, 0x44, 0x3e, 0xad, 0xc7, 0xc6, 0x3e, 0x46, 0xae, 0x8d, 0x3e, 0xad, 0x09, 0x38, 0xbe, 0x2e, 0xf7, 0xa1, 0xbd, 0x51, 0xb4, 0xeb, 0x3e, 0x78, 0x5c, 0x1c, 0xbd, 0xc8, 0xff, 0x6a, 0xbd, 0xe6, 0x9d, 0x3b, 0x3d, 0xdc, 0x70, 0xd1, 0xbd, 0x01, 0x5f, 0xb0, 0x3d, 0x16, 0xe0, 0x2f, 0x3c, 0x48, 0xea, 0x9d, 0xbe, 0xcc, 0x93, 0x3a, 0x3e, 0x19, 0xa3, 0x3b, 0x3e, 0xb8, 0x95, 0x11, 0x3e, 0x73, 0x82, 0x77, 0xbe, 0xa1, 0x9f, 0xab, 0x3e, 0xc3, 0xa4, 0x92, 0xbe, 0xb1, 0x7a, 0xa4, 0xbe, 0xb0, 0x4a, 0xa8, 0x3d, 0x4b, 0x95, 0x90, 0x3c, 0x63, 0xc1, 0xc5, 0x3c, 0x00, 0xfd, 0xfb, 0x3d, 0x08, 0x42, 0x61, 0x3e, 0x68, 0xc0, 0x30, 0xbd, 0x18, 0x4a, 0x79, 0x3d, 0x46, 0x03, 0x7f, 0x3e, 0x28, 0xbe, 0x8c, 0x3e, 0x55, 0xec, 0x91, 0x3e, 0x80, 0x6c, 0x7e, 0xbc, 0x7e, 0xac, 0x7b, 0xbe, 0xd3, 0xd1, 0xa2, 0xbd, 0x06, 0x69, 0x6b, 0xbf, 0xe6, 0xed, 0x2e, 0x3d, 0x8d, 0x91, 0x9d, 0xbe, 0x88, 0xdd, 0xac, 0xbe, 0xe0, 0x5a, 0xb2, 0xbd, 0xbc, 0x78, 0x83, 0xbe, 0x37, 0x91, 0xbf, 0xbd, 0x3c, 0x9c, 0x97, 0x3e, 0x07, 0x1d, 0x4a, 0xbe, 0xa0, 0xf0, 0xdf, 0x3e, 0xe0, 0xfb, 0x71, 0x3e, 0x94, 0xbf, 0xd5, 0x3e, 0x82, 0x2c, 0x87, 0x3e, 0x78, 0xa0, 0x8b, 0x3e, 0x1a, 0xcb, 0xa5, 0x3e, 0x96, 0x49, 0xb0, 0x3e, 0x8c, 0x95, 0x79, 0x3e, 0x12, 0x89, 0x1b, 0x3e, 0xb8, 0x04, 0x25, 0xbe, 0x47, 0xcd, 0x38, 0xbe, 0xe5, 0xad, 0x17, 0xbe, 0xaa, 0xb0, 0xba, 0x3c, 0x4a, 0xf5, 0x01, 0xbf, 0xae, 0xff, 0x8b, 0xbe, 0xec, 0x92, 0xe8, 0xbd, 0xb9, 0x0b, 0x90, 0xbe, 0x0e, 0x1c, 0xa4, 0xbe, 0xe4, 0x40, 0xcf, 0x3d, 0x08, 0x14, 0x38, 0x3d, 0x49, 0xda, 0x5a, 0x3c, 0xf4, 0xeb, 0x95, 0x3d, 0x23, 0x86, 0xbe, 0x3d, 0xcb, 0x4c, 0x95, 0xba, 0xda, 0x1b, 0x8e, 0xbe, 0xbc, 0x2d, 0x3b, 0xbd, 0xde, 0xfe, 0x5a, 0xbe, 0x5a, 0x83, 0xf2, 0xbd, 0x60, 0x2b, 0x19, 0x3d, 0xa4, 0xd3, 0xab, 0x3e, 0xce, 0x48, 0x09, 0xbe, 0xf2, 0x98, 0x4c, 0x3e, 0xce, 0x60, 0x3c, 0x3e, 0x56, 0xd7, 0x7b, 0x3d, 0x8f, 0x8f, 0xb3, 0x3c, 0xf4, 0x36, 0x00, 0xbe, 0x6f, 0x10, 0x8c, 0x3e, 0xc2, 0x93, 0x50, 0xbd, 0xa4, 0x48, 0xb0, 0x3d, 0x5a, 0x03, 0x16, 0x3c, 0x32, 0xa7, 0x2a, 0xbe, 0x58, 0x32, 0x32, 0x3e, 0x81, 0xdb, 0x86, 0x3d, 0x68, 0x89, 0x68, 0xbe, 0xdc, 0x89, 0x60, 0x3e, 0x93, 0x31, 0xa2, 0xbe, 0x55, 0xd5, 0xe5, 0x3c, 0x70, 0xa1, 0x9f, 0x3e, 0xd5, 0x02, 0xb7, 0x3e, 0x52, 0x15, 0xc7, 0x3d, 0x07, 0x4c, 0x27, 0xbf, 0xaa, 0xd1, 0x99, 0xbe, 0xd0, 0xd3, 0x69, 0xbe, 0xaa, 0xa1, 0xcb, 0xbe, 0xf3, 0x7c, 0x2e, 0xbd, 0x01, 0xd7, 0x95, 0x3f, 0x00, 0x51, 0x03, 0x3b, 0x2a, 0xc7, 0x01, 0xbe, 0xb4, 0x6a, 0x56, 0xbe, 0x46, 0x5a, 0x1c, 0xbe, 0x40, 0x82, 0x68, 0x3e, 0x28, 0xee, 0x1f, 0x3e, 0x00, 0x1a, 0x77, 0xbb, 0xc9, 0x43, 0x2e, 0xbe, 0xb9, 0xf9, 0x14, 0xbe, 0xd8, 0x77, 0x0c, 0xbd, 0xe5, 0x26, 0x12, 0xbe, 0x3b, 0x9d, 0xc9, 0xbe, 0xb8, 0x16, 0x48, 0xbe, 0x02, 0xbd, 0xe9, 0xbc, 0xa7, 0xa6, 0x7c, 0xbe, 0xed, 0x9c, 0x08, 0x3e, 0xab, 0x1c, 0xab, 0xbd, 0x5a, 0x77, 0x99, 0xbd, 0x76, 0xd2, 0x4d, 0xbc, 0xe4, 0x92, 0x64, 0xbd, 0x8a, 0x20, 0x89, 0xbe, 0x55, 0x9b, 0x07, 0xbe, 0xa2, 0x73, 0xcc, 0xbd, 0x4b, 0xff, 0xb1, 0xbc, 0xa0, 0x7f, 0xef, 0x3c, 0x18, 0x2e, 0x44, 0x3d, 0x82, 0xb4, 0xe5, 0xbd, 0x90, 0x7c, 0x9a, 0x3c, 0x06, 0x41, 0x24, 0x3e, 0x07, 0xfd, 0xde, 0xbd, 0x76, 0xe0, 0x6d, 0xbe, 0xd7, 0xb3, 0xd0, 0xbd, 0x0a, 0x19, 0xf7, 0x3e, 0xae, 0x65, 0xbd, 0x3e, 0xee, 0xe8, 0x17, 0xbe, 0x3c, 0x67, 0xab, 0xbd, 0x8d, 0xce, 0x11, 0xbe, 0x51, 0x84, 0x61, 0x3d, 0x64, 0x5d, 0x09, 0xbe, 0xa9, 0xb0, 0xc2, 0x3e, 0xa7, 0x6d, 0x00, 0xbe, 0x78, 0x82, 0xf2, 0xbe, 0x4e, 0xa2, 0x84, 0x3e, 0xb0, 0xb1, 0xfd, 0xbd, 0xac, 0xf2, 0x5a, 0xbd, 0x73, 0x6a, 0x37, 0x3f, 0x74, 0xec, 0x58, 0x3e, 0xb5, 0xd8, 0x81, 0xbe, 0xc0, 0xbc, 0x9d, 0x3d, 0x48, 0xd9, 0x50, 0x3d, 0xce, 0x51, 0x08, 0xbe, 0x3f, 0xa1, 0xf6, 0x3e, 0x2a, 0x37, 0x98, 0xbd, 0xf0, 0x16, 0xfb, 0xbd, 0x12, 0x25, 0x4a, 0xbe, 0xed, 0x12, 0x37, 0xbe, 0x90, 0x84, 0xe9, 0xbd, 0xbe, 0x2e, 0x9f, 0xbb, 0xb0, 0x99, 0x41, 0xbd, 0xf0, 0x42, 0xec, 0x3c, 0xf9, 0xe2, 0x90, 0xbe, 0x40, 0x50, 0x8b, 0xbe, 0x96, 0x56, 0x95, 0xbe, 0x68, 0x69, 0x28, 0xbe, 0x18, 0xa8, 0xe1, 0x3d, 0xa0, 0x89, 0x0f, 0x3c, 0x8e, 0x8a, 0x33, 0x3e, 0xf8, 0x28, 0x12, 0x3d, 0x54, 0xcd, 0x84, 0x3d, 0xe3, 0xd4, 0x58, 0xbe, 0x46, 0x61, 0x17, 0xbe, 0x76, 0x79, 0x5c, 0xbe, 0xdc, 0x54, 0x6e, 0x3e, 0x3d, 0xac, 0x46, 0x3e, 0x93, 0x6d, 0x15, 0xbe, 0xb4, 0x34, 0x52, 0x3e, 0xa4, 0x03, 0x2b, 0xbe, 0xd9, 0xee, 0x5a, 0x3d, 0xc9, 0xc5, 0xff, 0x3d, 0x56, 0x39, 0x82, 0xbd, 0x12, 0xf2, 0x12, 0x3c, 0x65, 0x85, 0xbc, 0xbe, 0xec, 0x08, 0x73, 0xbd, 0x42, 0x86, 0x06, 0xbe, 0x68, 0xc6, 0x23, 0x3e, 0xd7, 0x4f, 0x1e, 0x3e, 0x05, 0xc2, 0x97, 0xbe, 0x4c, 0xd0, 0x95, 0xbe, 0xa0, 0x92, 0xe5, 0x3c, 0x11, 0xc7, 0xef, 0x3d, 0xf2, 0xa3, 0x85, 0xbe, 0x5e, 0xf9, 0x41, 0xbe, 0x77, 0x67, 0x7e, 0xbe, 0x19, 0x35, 0x14, 0xbe, 0x8d, 0x18, 0xa1, 0xbd, 0x40, 0x4f, 0x03, 0x3e, 0x80, 0x91, 0x31, 0xbd, 0x80, 0xa4, 0x54, 0xbd, 0x07, 0xf3, 0x11, 0x3d, 0xa4, 0xce, 0x44, 0x3e, 0xdf, 0x20, 0xbe, 0x3d, 0xc8, 0x26, 0x08, 0x3e, 0x0a, 0x74, 0xa8, 0xbd, 0x50, 0xc5, 0x04, 0x3e, 0x9c, 0x68, 0x95, 0x3e, 0x70, 0x36, 0xeb, 0x3d, 0x7d, 0x25, 0xf9, 0x3b, 0xdb, 0xc7, 0xe3, 0xbc, 0xb8, 0x29, 0x56, 0x3d, 0x08, 0x7e, 0x85, 0x3c, 0x4a, 0x26, 0x32, 0x3e, 0x2f, 0xc7, 0x3c, 0x3e, 0xf0, 0x2f, 0x7d, 0xbd, 0xb9, 0x22, 0x1c, 0xbe, 0xa2, 0x6b, 0xc2, 0xbe, 0xfe, 0x49, 0x88, 0xbe, 0xb5, 0x81, 0x80, 0xbe, 0xf8, 0xb9, 0x50, 0xbd, 0x15, 0x52, 0xce, 0xbe, 0x30, 0xd8, 0xea, 0x3c, 0x78, 0xe8, 0x74, 0x3d, 0x8a, 0x60, 0x55, 0xbe, 0xfe, 0x03, 0x05, 0xbe, 0x84, 0xd3, 0xd8, 0xbd, 0xa0, 0x73, 0x5d, 0x3e, 0x96, 0xd9, 0x86, 0x3e, 0xa8, 0x4a, 0x7e, 0xbd, 0x36, 0x82, 0x89, 0x3e, 0xe0, 0xc6, 0x12, 0xbe, 0xf2, 0x6d, 0x80, 0x3e, 0x5d, 0xb6, 0x70, 0xbe, 0xa1, 0x22, 0xed, 0xbe, 0x32, 0xfd, 0xff, 0xff, 0x04, 0x00, 0x00, 0x00, 0x90, 0x01, 0x00, 0x00, 0x56, 0xe7, 0x22, 0x3f, 0x4f, 0xed, 0x22, 0x3d, 0x7f, 0x6f, 0xff, 0xbe, 0x61, 0x73, 0x17, 0xbd, 0x39, 0x7b, 0x00, 0x3e, 0xe2, 0x15, 0xee, 0x3a, 0x0c, 0x59, 0xe9, 0xbd, 0xc2, 0x75, 0x0e, 0xbf, 0x86, 0x2c, 0x3e, 0xbc, 0xf2, 0x71, 0x5c, 0xbe, 0x7b, 0x7a, 0x8b, 0xc0, 0x11, 0x66, 0x8d, 0xbc, 0x4e, 0x1a, 0x80, 0x3e, 0x64, 0xe6, 0x18, 0x3d, 0x6e, 0x5b, 0xb9, 0xbf, 0x5f, 0xbf, 0xed, 0xbe, 0x06, 0xc9, 0xeb, 0xbe, 0x31, 0x35, 0x9b, 0xbe, 0xa0, 0xe7, 0x8a, 0x3b, 0x8b, 0x3a, 0x07, 0xbf, 0xa9, 0x8a, 0xd1, 0x3d, 0x37, 0x3c, 0xf2, 0xbe, 0xee, 0x60, 0x61, 0x3d, 0x0e, 0xc7, 0x69, 0xbe, 0x01, 0x4c, 0x2d, 0xbe, 0xf5, 0xcd, 0xe0, 0xbe, 0xd0, 0xae, 0x4b, 0xbf, 0x64, 0xc8, 0xb0, 0xbe, 0x4b, 0xe7, 0x99, 0xbd, 0x2a, 0xea, 0x66, 0xbe, 0x6e, 0x49, 0x89, 0x3f, 0x5b, 0xd8, 0xa5, 0x3e, 0x17, 0xe2, 0xc5, 0xbe, 0xd0, 0xd3, 0xbe, 0xbd, 0x5f, 0x36, 0x11, 0x3f, 0xfd, 0x70, 0x45, 0xbf, 0xb4, 0x34, 0x1a, 0x3e, 0x5c, 0x3d, 0x10, 0xbf, 0xa9, 0x75, 0x9d, 0xba, 0x2b, 0xab, 0xe2, 0x3d, 0x72, 0xb1, 0xe2, 0xbe, 0xa4, 0xbb, 0xa6, 0xbe, 0xaa, 0x54, 0xd1, 0x3b, 0x32, 0x3b, 0xd2, 0xbd, 0xb3, 0xef, 0xc1, 0xbd, 0x5b, 0x12, 0x99, 0xbf, 0xe8, 0xe6, 0x1f, 0xbe, 0xcd, 0x23, 0x97, 0x3c, 0x4f, 0x53, 0x83, 0xbd, 0xbc, 0xc1, 0x9e, 0xbe, 0xcc, 0x18, 0x15, 0xbf, 0x23, 0x2e, 0xfc, 0x3d, 0x14, 0x8f, 0xd3, 0xbb, 0xb7, 0x19, 0x12, 0xbf, 0xcc, 0xff, 0xf4, 0xbe, 0xd3, 0x20, 0x27, 0xbe, 0xb7, 0x5c, 0x98, 0x3d, 0x55, 0x28, 0x86, 0xbe, 0x07, 0xa1, 0x5b, 0xbc, 0x03, 0x5c, 0xb4, 0x3e, 0x55, 0x2c, 0x1c, 0xbe, 0x76, 0xa2, 0x59, 0x3e, 0x62, 0x9b, 0xc1, 0x3d, 0xf5, 0xc4, 0xd6, 0xbe, 0xf8, 0xbd, 0x09, 0xbe, 0xe0, 0x7b, 0x77, 0x3e, 0x4e, 0x00, 0x97, 0x3e, 0xe3, 0xbf, 0x68, 0xbe, 0x07, 0x3f, 0x9c, 0xbd, 0x5e, 0x36, 0x1f, 0xbf, 0xe8, 0xce, 0xd0, 0xbe, 0x54, 0xde, 0x93, 0xbe, 0x1c, 0x81, 0x17, 0x3d, 0xc4, 0x11, 0xfe, 0xbe, 0x90, 0xe7, 0x65, 0xbe, 0x53, 0x41, 0xdd, 0xbe, 0x21, 0x92, 0x94, 0x3e, 0xe0, 0x0f, 0x24, 0x3e, 0x98, 0xe1, 0x21, 0xbf, 0x83, 0x68, 0x3f, 0xbe, 0x10, 0x82, 0xd2, 0xbd, 0x5b, 0xa2, 0xd0, 0x3e, 0xa2, 0xe9, 0x19, 0xbe, 0xdf, 0xe4, 0xd5, 0xbe, 0x7b, 0x48, 0xb2, 0x3e, 0x66, 0x09, 0x8d, 0xbe, 0x05, 0x51, 0xa2, 0xbe, 0x42, 0xc1, 0xad, 0x3d, 0x6e, 0x5e, 0xb4, 0xbe, 0x9c, 0x2e, 0x82, 0xbe, 0xd5, 0xe5, 0x49, 0x3e, 0x3f, 0x83, 0x9f, 0xbd, 0x2b, 0x2e, 0x7f, 0x3d, 0x47, 0xba, 0xdd, 0xbe, 0x30, 0xd3, 0xb9, 0x3e, 0xff, 0x3a, 0x09, 0xbe, 0x4b, 0x1d, 0x5b, 0xbe, 0x17, 0x16, 0x41, 0xbf, 0x9f, 0x21, 0x1d, 0x3b, 0x44, 0xee, 0x84, 0x3d, 0xce, 0xfe, 0xff, 0xff, 0x04, 0x00, 0x00, 0x00, 0x50, 0x00, 0x00, 0x00, 0xd6, 0x6c, 0x1a, 0x3e, 0xd3, 0x84, 0x31, 0xbe, 0x28, 0x20, 0x5c, 0xc0, 0x58, 0x54, 0x12, 0xbf, 0x4f, 0x41, 0x7c, 0xbe, 0x3f, 0xb1, 0x26, 0xbf, 0xee, 0x5e, 0x4d, 0x3f, 0x5f, 0x54, 0x98, 0xbe, 0x82, 0x96, 0xdb, 0xbd, 0x07, 0xe2, 0x5f, 0xbf, 0xc3, 0x80, 0x2e, 0xbe, 0xae, 0x67, 0xe5, 0xbd, 0x09, 0x7a, 0x08, 0xbe, 0x28, 0x9a, 0x09, 0xbe, 0x08, 0xd2, 0x8c, 0xbe, 0x0b, 0x87, 0x2e, 0xbe, 0x00, 0x00, 0x00, 0x00, 0x1e, 0x09, 0x66, 0xbe, 0x68, 0x73, 0xd0, 0xbd, 0x45, 0xfa, 0xb0, 0xbe, 0x2a, 0xff, 0xff, 0xff, 0x04, 0x00, 0x00, 0x00, 0xc8, 0x00, 0x00, 0x00, 0x7f, 0x9f, 0x51, 0xbf, 0x77, 0xbd, 0x19, 0xbf, 0xdf, 0x0a, 0x10, 0xbf, 0x0a, 0x05, 0x5a, 0xbe, 0x96, 0x75, 0x9d, 0xbf, 0xdf, 0x0d, 0x84, 0xbe, 0x91, 0xc1, 0x96, 0xbd, 0x79, 0xa3, 0x86, 0x40, 0x8f, 0x49, 0x24, 0x3f, 0x82, 0x86, 0xaf, 0x3f, 0x05, 0x85, 0x2a, 0xba, 0x92, 0x2e, 0x38, 0x40, 0x11, 0xfc, 0xc9, 0xbe, 0x81, 0x95, 0x9e, 0x40, 0xc5, 0x8e, 0x33, 0xbf, 0xcd, 0x74, 0x4f, 0xbf, 0x49, 0xb5, 0x31, 0xbf, 0x01, 0x62, 0x05, 0x3f, 0xae, 0x98, 0x9f, 0xbd, 0x4a, 0x78, 0x7d, 0x40, 0xe1, 0x36, 0xf8, 0xbd, 0x5e, 0x64, 0xa3, 0xbe, 0x8c, 0x1c, 0x71, 0xbf, 0x00, 0x00, 0x00, 0x00, 0x5f, 0xc8, 0xe9, 0x3e, 0x53, 0xbd, 0xec, 0xbe, 0xe3, 0xac, 0xe6, 0x3f, 0xa1, 0x8e, 0x21, 0xbe, 0x82, 0x32, 0x12, 0x3f, 0x22, 0x41, 0x93, 0xbe, 0x27, 0xdb, 0x69, 0xbe, 0x4c, 0xa1, 0xdd, 0xbe, 0x5d, 0x87, 0xa5, 0x3e, 0x80, 0x7d, 0x08, 0x3f, 0xb3, 0xb9, 0xc0, 0xbf, 0x33, 0x93, 0x29, 0xc0, 0x73, 0x27, 0xd4, 0xbd, 0x20, 0xda, 0x88, 0xbe, 0xba, 0x19, 0x93, 0x40, 0xae, 0x6b, 0x17, 0x40, 0x55, 0x82, 0x78, 0xbf, 0x78, 0x56, 0x52, 0xbe, 0x8b, 0xe4, 0x1c, 0x40, 0x6c, 0xa4, 0x55, 0xbd, 0x64, 0x27, 0xba, 0xbd, 0xa8, 0x6c, 0x93, 0x3f, 0xbe, 0x5d, 0x76, 0xbe, 0x4e, 0x45, 0x01, 0x40, 0xf8, 0xfd, 0x53, 0x3e, 0x2c, 0xec, 0x83, 0xbe, 0x00, 0x00, 0x06, 0x00, 0x08, 0x00, 0x04, 0x00, 0x06, 0x00, 0x00, 0x00, 0x04, 0x00, 0x00, 0x00, 0x04, 0x00, 0x00, 0x00, 0x07, 0x92, 0x19, 0x40, 0x3c, 0xfa, 0xff, 0xff, 0x40, 0xfa, 0xff, 0xff, 0x0f, 0x00, 0x00, 0x00, 0x4d, 0x4c, 0x49, 0x52, 0x20, 0x43, 0x6f, 0x6e, 0x76, 0x65, 0x72, 0x74, 0x65, 0x64, 0x2e, 0x00, 0x01, 0x00, 0x00, 0x00, 0x14, 0x00, 0x00, 0x00, 0x00, 0x00, 0x0e, 0x00, 0x18, 0x00, 0x14, 0x00, 0x10, 0x00, 0x0c, 0x00, 0x08, 0x00, 0x04, 0x00, 0x0e, 0x00, 0x00, 0x00, 0x14, 0x00, 0x00, 0x00, 0x1c, 0x00, 0x00, 0x00, 0x08, 0x01, 0x00, 0x00, 0x0c, 0x01, 0x00, 0x00, 0x10, 0x01, 0x00, 0x00, 0x04, 0x00, 0x00, 0x00, 0x6d, 0x61, 0x69, 0x6e, 0x00, 0x00, 0x00, 0x00, 0x04, 0x00, 0x00, 0x00, 0xb0, 0x00, 0x00, 0x00, 0x68, 0x00, 0x00, 0x00, 0x34, 0x00, 0x00, 0x00, 0x10, 0x00, 0x00, 0x00, 0x00, 0x00, 0x0a, 0x00, 0x10, 0x00, 0x0c, 0x00, 0x08, 0x00, 0x04, 0x00, 0x0a, 0x00, 0x00, 0x00, 0x0c, 0x00, 0x00, 0x00, 0x10, 0x00, 0x00, 0x00, 0x01, 0x00, 0x00, 0x00, 0x01, 0x00, 0x00, 0x00, 0x0a, 0x00, 0x00, 0x00, 0x01, 0x00, 0x00, 0x00, 0x09, 0x00, 0x00, 0x00, 0x9a, 0xff, 0xff, 0xff, 0x10, 0x00, 0x00, 0x00, 0x00, 0x00, 0x00, 0x08, 0x0c, 0x00, 0x00, 0x00, 0x10, 0x00, 0x00, 0x00, 0xe8, 0xfa, 0xff, 0xff, 0x01, 0x00, 0x00, 0x00, 0x09, 0x00, 0x00, 0x00, 0x03, 0x00, 0x00, 0x00, 0x08, 0x00, 0x00, 0x00, 0x06, 0x00, 0x00, 0x00, 0x01, 0x00, 0x00, 0x00, 0xca, 0xff, 0xff, 0xff, 0x10, 0x00, 0x00, 0x00, 0x00, 0x00, 0x00, 0x08, 0x10, 0x00, 0x00, 0x00, 0x14, 0x00, 0x00, 0x00, 0xba, 0xff, 0xff, 0xff, 0x00, 0x00, 0x00, 0x01, 0x01, 0x00, 0x00, 0x00, 0x08, 0x00, 0x00, 0x00, 0x03, 0x00, 0x00, 0x00, 0x07, 0x00, 0x00, 0x00, 0x05, 0x00, 0x00, 0x00, 0x02, 0x00, 0x00, 0x00, 0x00, 0x00, 0x0e, 0x00, 0x16, 0x00, 0x00, 0x00, 0x10, 0x00, 0x0c, 0x00, 0x0b, 0x00, 0x04, 0x00, 0x0e, 0x00, 0x00, 0x00, 0x18, 0x00, 0x00, 0x00, 0x00, 0x00, 0x00, 0x08, 0x18, 0x00, 0x00, 0x00, 0x1c, 0x00, 0x00, 0x00, 0x00, 0x00, 0x06, 0x00, 0x08, 0x00, 0x07, 0x00, 0x06, 0x00, 0x00, 0x00, 0x00, 0x00, 0x00, 0x01, 0x01, 0x00, 0x00, 0x00, 0x07, 0x00, 0x00, 0x00, 0x03, 0x00, 0x00, 0x00, 0x00, 0x00, 0x00, 0x00, 0x04, 0x00, 0x00, 0x00, 0x03, 0x00, 0x00, 0x00, 0x01, 0x00, 0x00, 0x00, 0x0a, 0x00, 0x00, 0x00, 0x01, 0x00, 0x00, 0x00, 0x00, 0x00, 0x00, 0x00, 0x0b, 0x00, 0x00, 0x00, 0x40, 0x04, 0x00, 0x00, 0xcc, 0x03, 0x00, 0x00, 0x58, 0x03, 0x00, 0x00, 0xfc, 0x02, 0x00, 0x00, 0xac, 0x02, 0x00, 0x00, 0x5c, 0x02, 0x00, 0x00, 0x0c, 0x02, 0x00, 0x00, 0x74, 0x01, 0x00, 0x00, 0xdc, 0x00, 0x00, 0x00, 0x60, 0x00, 0x00, 0x00, 0x04, 0x00, 0x00, 0x00, 0x02, 0xfc, 0xff, 0xff, 0x00, 0x00, 0x00, 0x01, 0x14, 0x00, 0x00, 0x00, 0x1c, 0x00, 0x00, 0x00, 0x1c, 0x00, 0x00, 0x00, 0x0b, 0x00, 0x00, 0x00, 0x34, 0x00, 0x00, 0x00, 0x02, 0x00, 0x00, 0x00, 0xff, 0xff, 0xff, 0xff, 0x01, 0x00, 0x00, 0x00, 0xec, 0xfb, 0xff, 0xff, 0x19, 0x00, 0x00, 0x00, 0x53, 0x74, 0x61, 0x74, 0x65, 0x66, 0x75, 0x6c, 0x50, 0x61, 0x72, 0x74, 0x69, 0x74, 0x69, 0x6f, 0x6e, 0x65, 0x64, 0x43, 0x61, 0x6c, 0x6c, 0x3a, 0x30, 0x00, 0x00, 0x00, 0x02, 0x00, 0x00, 0x00, 0x01, 0x00, 0x00, 0x00, 0x01, 0x00, 0x00, 0x00, 0x5a, 0xfc, 0xff, 0xff, 0x00, 0x00, 0x00, 0x01, 0x14, 0x00, 0x00, 0x00, 0x1c, 0x00, 0x00, 0x00, 0x1c, 0x00, 0x00, 0x00, 0x0a, 0x00, 0x00, 0x00, 0x54, 0x00, 0x00, 0x00, 0x02, 0x00, 0x00, 0x00, 0xff, 0xff, 0xff, 0xff, 0x01, 0x00, 0x00, 0x00, 0x44, 0xfc, 0xff, 0xff, 0x3a, 0x00, 0x00, 0x00, 0x73, 0x65, 0x71, 0x75, 0x65, 0x6e, 0x74, 0x69, 0x61, 0x6c, 0x5f, 0x38, 0x2f, 0x64, 0x65, 0x6e, 0x73, 0x65, 0x5f, 0x32, 0x32, 0x2f, 0x4d, 0x61, 0x74, 0x4d, 0x75, 0x6c, 0x3b, 0x73, 0x65, 0x71, 0x75, 0x65, 0x6e, 0x74, 0x69, 0x61, 0x6c, 0x5f, 0x38, 0x2f, 0x64, 0x65, 0x6e, 0x73, 0x65, 0x5f, 0x32, 0x32, 0x2f, 0x42, 0x69, 0x61, 0x73, 0x41, 0x64, 0x64, 0x00, 0x00, 0x02, 0x00, 0x00, 0x00, 0x01, 0x00, 0x00, 0x00, 0x01, 0x00, 0x00, 0x00, 0xd2, 0xfc, 0xff, 0xff, 0x00, 0x00, 0x00, 0x01, 0x14, 0x00, 0x00, 0x00, 0x1c, 0x00, 0x00, 0x00, 0x1c, 0x00, 0x00, 0x00, 0x09, 0x00, 0x00, 0x00, 0x70, 0x00, 0x00, 0x00, 0x02, 0x00, 0x00, 0x00, 0xff, 0xff, 0xff, 0xff, 0x32, 0x00, 0x00, 0x00, 0xbc, 0xfc, 0xff, 0xff, 0x55, 0x00, 0x00, 0x00, 0x73, 0x65, 0x71, 0x75, 0x65, 0x6e, 0x74, 0x69, 0x61, 0x6c, 0x5f, 0x38, 0x2f, 0x64, 0x65, 0x6e, 0x73, 0x65, 0x5f, 0x32, 0x31, 0x2f, 0x4d, 0x61, 0x74, 0x4d, 0x75, 0x6c, 0x3b, 0x73, 0x65, 0x71, 0x75, 0x65, 0x6e, 0x74, 0x69, 0x61, 0x6c, 0x5f, 0x38, 0x2f, 0x64, 0x65, 0x6e, 0x73, 0x65, 0x5f, 0x32, 0x31, 0x2f, 0x52, 0x65, 0x6c, 0x75, 0x3b, 0x73, 0x65, 0x71, 0x75, 0x65, 0x6e, 0x74, 0x69, 0x61, 0x6c, 0x5f, 0x38, 0x2f, 0x64, 0x65, 0x6e, 0x73, 0x65, 0x5f, 0x32, 0x31, 0x2f, 0x42, 0x69, 0x61, 0x73, 0x41, 0x64, 0x64, 0x00, 0x00, 0x00, 0x02, 0x00, 0x00, 0x00, 0x01, 0x00, 0x00, 0x00, 0x32, 0x00, 0x00, 0x00, 0x66, 0xfd, 0xff, 0xff, 0x00, 0x00, 0x00, 0x01, 0x14, 0x00, 0x00, 0x00, 0x1c, 0x00, 0x00, 0x00, 0x1c, 0x00, 0x00, 0x00, 0x08, 0x00, 0x00, 0x00, 0x70, 0x00, 0x00, 0x00, 0x02, 0x00, 0x00, 0x00, 0xff, 0xff, 0xff, 0xff, 0x14, 0x00, 0x00, 0x00, 0x50, 0xfd, 0xff, 0xff, 0x55, 0x00, 0x00, 0x00, 0x73, 0x65, 0x71, 0x75, 0x65, 0x6e, 0x74, 0x69, 0x61, 0x6c, 0x5f, 0x38, 0x2f, 0x64, 0x65, 0x6e, 0x73, 0x65, 0x5f, 0x32, 0x30, 0x2f, 0x4d, 0x61, 0x74, 0x4d, 0x75, 0x6c, 0x3b, 0x73, 0x65, 0x71, 0x75, 0x65, 0x6e, 0x74, 0x69, 0x61, 0x6c, 0x5f, 0x38, 0x2f, 0x64, 0x65, 0x6e, 0x73, 0x65, 0x5f, 0x32, 0x30, 0x2f, 0x52, 0x65, 0x6c, 0x75, 0x3b, 0x73, 0x65, 0x71, 0x75, 0x65, 0x6e, 0x74, 0x69, 0x61, 0x6c, 0x5f, 0x38, 0x2f, 0x64, 0x65, 0x6e, 0x73, 0x65, 0x5f, 0x32, 0x30, 0x2f, 0x42, 0x69, 0x61, 0x73, 0x41, 0x64, 0x64, 0x00, 0x00, 0x00, 0x02, 0x00, 0x00, 0x00, 0x01, 0x00, 0x00, 0x00, 0x14, 0x00, 0x00, 0x00, 0x6a, 0xfe, 0xff, 0xff, 0x00, 0x00, 0x00, 0x01, 0x10, 0x00, 0x00, 0x00, 0x10, 0x00, 0x00, 0x00, 0x07, 0x00, 0x00, 0x00, 0x2c, 0x00, 0x00, 0x00, 0xd4, 0xfd, 0xff, 0xff, 0x1c, 0x00, 0x00, 0x00, 0x73, 0x65, 0x71, 0x75, 0x65, 0x6e, 0x74, 0x69, 0x61, 0x6c, 0x5f, 0x38, 0x2f, 0x64, 0x65, 0x6e, 0x73, 0x65, 0x5f, 0x32, 0x32, 0x2f, 0x4d, 0x61, 0x74, 0x4d, 0x75, 0x6c, 0x00, 0x00, 0x00, 0x00, 0x02, 0x00, 0x00, 0x00, 0x01, 0x00, 0x00, 0x00, 0x32, 0x00, 0x00, 0x00, 0xb6, 0xfe, 0xff, 0xff, 0x00, 0x00, 0x00, 0x01, 0x10, 0x00, 0x00, 0x00, 0x10, 0x00, 0x00, 0x00, 0x06, 0x00, 0x00, 0x00, 0x2c, 0x00, 0x00, 0x00, 0x20, 0xfe, 0xff, 0xff, 0x1c, 0x00, 0x00, 0x00, 0x73, 0x65, 0x71, 0x75, 0x65, 0x6e, 0x74, 0x69, 0x61, 0x6c, 0x5f, 0x38, 0x2f, 0x64, 0x65, 0x6e, 0x73, 0x65, 0x5f, 0x32, 0x31, 0x2f, 0x4d, 0x61, 0x74, 0x4d, 0x75, 0x6c, 0x00, 0x00, 0x00, 0x00, 0x02, 0x00, 0x00, 0x00, 0x32, 0x00, 0x00, 0x00, 0x14, 0x00, 0x00, 0x00, 0x02, 0xff, 0xff, 0xff, 0x00, 0x00, 0x00, 0x01, 0x10, 0x00, 0x00, 0x00, 0x10, 0x00, 0x00, 0x00, 0x05, 0x00, 0x00, 0x00, 0x2c, 0x00, 0x00, 0x00, 0x6c, 0xfe, 0xff, 0xff, 0x1c, 0x00, 0x00, 0x00, 0x73, 0x65, 0x71, 0x75, 0x65, 0x6e, 0x74, 0x69, 0x61, 0x6c, 0x5f, 0x38, 0x2f, 0x64, 0x65, 0x6e, 0x73, 0x65, 0x5f, 0x32, 0x30, 0x2f, 0x4d, 0x61, 0x74, 0x4d, 0x75, 0x6c, 0x00, 0x00, 0x00, 0x00, 0x02, 0x00, 0x00, 0x00, 0x14, 0x00, 0x00, 0x00, 0x05, 0x00, 0x00, 0x00, 0x4e, 0xff, 0xff, 0xff, 0x00, 0x00, 0x00, 0x01, 0x10, 0x00, 0x00, 0x00, 0x10, 0x00, 0x00, 0x00, 0x04, 0x00, 0x00, 0x00, 0x3c, 0x00, 0x00, 0x00, 0xb8, 0xfe, 0xff, 0xff, 0x2c, 0x00, 0x00, 0x00, 0x73, 0x65, 0x71, 0x75, 0x65, 0x6e, 0x74, 0x69, 0x61, 0x6c, 0x5f, 0x38, 0x2f, 0x64, 0x65, 0x6e, 0x73, 0x65, 0x5f, 0x32, 0x30, 0x2f, 0x42, 0x69, 0x61, 0x73, 0x41, 0x64, 0x64, 0x2f, 0x52, 0x65, 0x61, 0x64, 0x56, 0x61, 0x72, 0x69, 0x61, 0x62, 0x6c, 0x65, 0x4f, 0x70, 0x00, 0x00, 0x00, 0x00, 0x01, 0x00, 0x00, 0x00, 0x14, 0x00, 0x00, 0x00, 0xa6, 0xff, 0xff, 0xff, 0x00, 0x00, 0x00, 0x01, 0x10, 0x00, 0x00, 0x00, 0x10, 0x00, 0x00, 0x00, 0x03, 0x00, 0x00, 0x00, 0x3c, 0x00, 0x00, 0x00, 0x10, 0xff, 0xff, 0xff, 0x2c, 0x00, 0x00, 0x00, 0x73, 0x65, 0x71, 0x75, 0x65, 0x6e, 0x74, 0x69, 0x61, 0x6c, 0x5f, 0x38, 0x2f, 0x64, 0x65, 0x6e, 0x73, 0x65, 0x5f, 0x32, 0x31, 0x2f, 0x42, 0x69, 0x61, 0x73, 0x41, 0x64, 0x64, 0x2f, 0x52, 0x65, 0x61, 0x64, 0x56, 0x61, 0x72, 0x69, 0x61, 0x62, 0x6c, 0x65, 0x4f, 0x70, 0x00, 0x00, 0x00, 0x00, 0x01, 0x00, 0x00, 0x00, 0x32, 0x00, 0x00, 0x00, 0x00, 0x00, 0x16, 0x00, 0x18, 0x00, 0x14, 0x00, 0x00, 0x00, 0x10, 0x00, 0x0c, 0x00, 0x08, 0x00, 0x00, 0x00, 0x00, 0x00, 0x00, 0x00, 0x07, 0x00, 0x16, 0x00, 0x00, 0x00, 0x00, 0x00, 0x00, 0x01, 0x10, 0x00, 0x00, 0x00, 0x10, 0x00, 0x00, 0x00, 0x02, 0x00, 0x00, 0x00, 0x3c, 0x00, 0x00, 0x00, 0x80, 0xff, 0xff, 0xff, 0x2c, 0x00, 0x00, 0x00, 0x73, 0x65, 0x71, 0x75, 0x65, 0x6e, 0x74, 0x69, 0x61, 0x6c, 0x5f, 0x38, 0x2f, 0x64, 0x65, 0x6e, 0x73, 0x65, 0x5f, 0x32, 0x32, 0x2f, 0x42, 0x69, 0x61, 0x73, 0x41, 0x64, 0x64, 0x2f, 0x52, 0x65, 0x61, 0x64, 0x56, 0x61, 0x72, 0x69, 0x61, 0x62, 0x6c, 0x65, 0x4f, 0x70, 0x00, 0x00, 0x00, 0x00, 0x01, 0x00, 0x00, 0x00, 0x01, 0x00, 0x00, 0x00, 0x00, 0x00, 0x16, 0x00, 0x1c, 0x00, 0x18, 0x00, 0x00, 0x00, 0x14, 0x00, 0x10, 0x00, 0x0c, 0x00, 0x00, 0x00, 0x00, 0x00, 0x08, 0x00, 0x07, 0x00, 0x16, 0x00, 0x00, 0x00, 0x00, 0x00, 0x00, 0x01, 0x14, 0x00, 0x00, 0x00, 0x20, 0x00, 0x00, 0x00, 0x20, 0x00, 0x00, 0x00, 0x01, 0x00, 0x00, 0x00, 0x40, 0x00, 0x00, 0x00, 0x02, 0x00, 0x00, 0x00, 0xff, 0xff, 0xff, 0xff, 0x05, 0x00, 0x00, 0x00, 0x04, 0x00, 0x04, 0x00, 0x04, 0x00, 0x00, 0x00, 0x20, 0x00, 0x00, 0x00, 0x73, 0x65, 0x72, 0x76, 0x69, 0x6e, 0x67, 0x5f, 0x64, 0x65, 0x66, 0x61, 0x75, 0x6c, 0x74, 0x5f, 0x64, 0x65, 0x6e, 0x73, 0x65, 0x5f, 0x32, 0x30, 0x5f, 0x69, 0x6e, 0x70, 0x75, 0x74, 0x3a, 0x30, 0x00, 0x00, 0x00, 0x00, 0x02, 0x00, 0x00, 0x00, 0x01, 0x00, 0x00, 0x00, 0x05, 0x00, 0x00, 0x00, 0x02, 0x00, 0x00, 0x00, 0x20, 0x00, 0x00, 0x00, 0x04, 0x00, 0x00, 0x00, 0xf4, 0xff, 0xff, 0xff, 0x0e, 0x00, 0x00, 0x00, 0x00, 0x00, 0x00, 0x0e, 0x0c, 0x00, 0x0c, 0x00, 0x0b, 0x00, 0x00, 0x00, 0x00, 0x00, 0x04, 0x00, 0x0c, 0x00, 0x00, 0x00, 0x09, 0x00, 0x00, 0x00, 0x00, 0x00, 0x00, 0x09};
const int model_data_len = 7028;
float x[5] = {22.5, 27.4725, 460.75, 1062.0, 0.004632100264599, };
const int input_size = 5;
const int output_size = 1;