
    // if having troubles with min/max, uncomment the following
    // #undef min    
    // #undef max
    #ifdef __has_attribute
    #define HAVE_ATTRIBUTE(x) __has_attribute(x)
    #else
    #define HAVE_ATTRIBUTE(x) 0
    #endif
    #if HAVE_ATTRIBUTE(aligned) || (defined(__GNUC__) && !defined(__clang__))
    #define DATA_ALIGN_ATTRIBUTE __attribute__((aligned(4)))
    #else
    #define DATA_ALIGN_ATTRIBUTE
    #endif
    const unsigned char model_data[] DATA_ALIGN_ATTRIBUTE = {0x1c, 0x00, 0x00, 0x00, 0x54, 0x46, 0x4c, 0x33, 0x14, 0x00, 0x20, 0x00, 0x1c, 0x00, 0x18, 0x00, 0x14, 0x00, 0x10, 0x00, 0x0c, 0x00, 0x00, 0x00, 0x08, 0x00, 0x04, 0x00, 0x14, 0x00, 0x00, 0x00, 0x1c, 0x00, 0x00, 0x00, 0x88, 0x00, 0x00, 0x00, 0xe0, 0x00, 0x00, 0x00, 0xdc, 0x06, 0x00, 0x00, 0xec, 0x06, 0x00, 0x00, 0xb8, 0x0e, 0x00, 0x00, 0x03, 0x00, 0x00, 0x00, 0x01, 0x00, 0x00, 0x00, 0x04, 0x00, 0x00, 0x00, 0x3a, 0xf8, 0xff, 0xff, 0x0c, 0x00, 0x00, 0x00, 0x1c, 0x00, 0x00, 0x00, 0x38, 0x00, 0x00, 0x00, 0x0f, 0x00, 0x00, 0x00, 0x73, 0x65, 0x72, 0x76, 0x69, 0x6e, 0x67, 0x5f, 0x64, 0x65, 0x66, 0x61, 0x75, 0x6c, 0x74, 0x00, 0x01, 0x00, 0x00, 0x00, 0x04, 0x00, 0x00, 0x00, 0x94, 0xff, 0xff, 0xff, 0x0d, 0x00, 0x00, 0x00, 0x04, 0x00, 0x00, 0x00, 0x07, 0x00, 0x00, 0x00, 0x64, 0x65, 0x6e, 0x73, 0x65, 0x5f, 0x31, 0x00, 0x01, 0x00, 0x00, 0x00, 0x04, 0x00, 0x00, 0x00, 0xa6, 0xf9, 0xff, 0xff, 0x04, 0x00, 0x00, 0x00, 0x0c, 0x00, 0x00, 0x00, 0x63, 0x6f, 0x6e, 0x76, 0x32, 0x64, 0x5f, 0x69, 0x6e, 0x70, 0x75, 0x74, 0x00, 0x00, 0x00, 0x00, 0x02, 0x00, 0x00, 0x00, 0x34, 0x00, 0x00, 0x00, 0x04, 0x00, 0x00, 0x00, 0xdc, 0xff, 0xff, 0xff, 0x10, 0x00, 0x00, 0x00, 0x04, 0x00, 0x00, 0x00, 0x13, 0x00, 0x00, 0x00, 0x43, 0x4f, 0x4e, 0x56, 0x45, 0x52, 0x53, 0x49, 0x4f, 0x4e, 0x5f, 0x4d, 0x45, 0x54, 0x41, 0x44, 0x41, 0x54, 0x41, 0x00, 0x08, 0x00, 0x0c, 0x00, 0x08, 0x00, 0x04, 0x00, 0x08, 0x00, 0x00, 0x00, 0x0f, 0x00, 0x00, 0x00, 0x04, 0x00, 0x00, 0x00, 0x13, 0x00, 0x00, 0x00, 0x6d, 0x69, 0x6e, 0x5f, 0x72, 0x75, 0x6e, 0x74, 0x69, 0x6d, 0x65, 0x5f, 0x76, 0x65, 0x72, 0x73, 0x69, 0x6f, 0x6e, 0x00, 0x11, 0x00, 0x00, 0x00, 0xf8, 0x05, 0x00, 0x00, 0xf0, 0x05, 0x00, 0x00, 0xdc, 0x05, 0x00, 0x00, 0xa0, 0x05, 0x00, 0x00, 0x50, 0x05, 0x00, 0x00, 0x3c, 0x05, 0x00, 0x00, 0x24, 0x05, 0x00, 0x00, 0x14, 0x01, 0x00, 0x00, 0xc4, 0x00, 0x00, 0x00, 0xbc, 0x00, 0x00, 0x00, 0xb4, 0x00, 0x00, 0x00, 0xac, 0x00, 0x00, 0x00, 0xa4, 0x00, 0x00, 0x00, 0x9c, 0x00, 0x00, 0x00, 0x94, 0x00, 0x00, 0x00, 0x74, 0x00, 0x00, 0x00, 0x04, 0x00, 0x00, 0x00, 0x66, 0xfa, 0xff, 0xff, 0x04, 0x00, 0x00, 0x00, 0x60, 0x00, 0x00, 0x00, 0x0c, 0x00, 0x00, 0x00, 0x08, 0x00, 0x0e, 0x00, 0x08, 0x00, 0x04, 0x00, 0x08, 0x00, 0x00, 0x00, 0x10, 0x00, 0x00, 0x00, 0x24, 0x00, 0x00, 0x00, 0x00, 0x00, 0x06, 0x00, 0x08, 0x00, 0x04, 0x00, 0x06, 0x00, 0x00, 0x00, 0x04, 0x00, 0x00, 0x00, 0x00, 0x00, 0x00, 0x00, 0x00, 0x00, 0x0a, 0x00, 0x10, 0x00, 0x0c, 0x00, 0x08, 0x00, 0x04, 0x00, 0x0a, 0x00, 0x00, 0x00, 0x02, 0x00, 0x00, 0x00, 0x02, 0x00, 0x00, 0x00, 0x04, 0x00, 0x00, 0x00, 0x12, 0x00, 0x00, 0x00, 0x32, 0x2e, 0x31, 0x34, 0x2e, 0x30, 0x2d, 0x64, 0x65, 0x76, 0x32, 0x30, 0x32, 0x33, 0x30, 0x35, 0x32, 0x35, 0x00, 0x00, 0xd2, 0xfa, 0xff, 0xff, 0x04, 0x00, 0x00, 0x00, 0x10, 0x00, 0x00, 0x00, 0x31, 0x2e, 0x31, 0x34, 0x2e, 0x30, 0x00, 0x00, 0x00, 0x00, 0x00, 0x00, 0x00, 0x00, 0x00, 0x00, 0x2c, 0xf3, 0xff, 0xff, 0x30, 0xf3, 0xff, 0xff, 0x34, 0xf3, 0xff, 0xff, 0x38, 0xf3, 0xff, 0xff, 0x3c, 0xf3, 0xff, 0xff, 0x40, 0xf3, 0xff, 0xff, 0x06, 0xfb, 0xff, 0xff, 0x04, 0x00, 0x00, 0x00, 0x40, 0x00, 0x00, 0x00, 0xe2, 0x85, 0x06, 0x3f, 0x1a, 0xfd, 0xb2, 0x3e, 0x64, 0x16, 0xe7, 0xbc, 0x07, 0x77, 0x8b, 0xc0, 0x9e, 0x60, 0xb1, 0x3e, 0x41, 0x4e, 0x75, 0xc0, 0xd1, 0x08, 0xef, 0xbc, 0x11, 0xf8, 0x82, 0xc0, 0xd0, 0x5e, 0x3e, 0x40, 0xc8, 0xcc, 0x54, 0xc0, 0x35, 0xa8, 0x43, 0x40, 0xf6, 0x82, 0xb6, 0xbe, 0xfc, 0xb1, 0xdf, 0x3e, 0xb7, 0x10, 0x8e, 0xc0, 0x2e, 0xab, 0xc3, 0xbe, 0x29, 0x9c, 0x56, 0x3e, 0x52, 0xfb, 0xff, 0xff, 0x04, 0x00, 0x00, 0x00, 0x00, 0x04, 0x00, 0x00, 0x60, 0x8c, 0x24, 0xbc, 0x00, 0xb2, 0x46, 0x3c, 0x35, 0xc1, 0xa6, 0xbe, 0xba, 0x57, 0xa1, 0xbe, 0x88, 0x9b, 0x60, 0xbd, 0xae, 0x55, 0x16, 0xbe, 0xa0, 0x27, 0x9a, 0xbe, 0x0d, 0x11, 0xae, 0xbe, 0xa4, 0x82, 0x25, 0xbe, 0xac, 0xbd, 0xea, 0xbd, 0x3a, 0x69, 0x7a, 0x3e, 0xb8, 0x3a, 0x2a, 0xbd, 0x20, 0x52, 0x35, 0xbc, 0xd0, 0x67, 0x11, 0xbd, 0xa0, 0x04, 0xfb, 0xbc, 0x28, 0x1e, 0x88, 0xbe, 0xc6, 0x40, 0xa8, 0x3e, 0x23, 0x8b, 0xe4, 0x3d, 0x99, 0x0f, 0xb7, 0xbe, 0xa2, 0x00, 0x11, 0xbe, 0x64, 0x18, 0x83, 0xbe, 0x81, 0x79, 0x4b, 0xbe, 0xc4, 0xc2, 0xdd, 0x3d, 0x1e, 0xf5, 0xcb, 0xbe, 0x10, 0x08, 0x78, 0xbe, 0xc8, 0x43, 0xd5, 0xbe, 0x49, 0x4c, 0x92, 0x3e, 0x88, 0x1f, 0xb2, 0xbd, 0xdc, 0x2d, 0xfb, 0x3d, 0xa1, 0x4e, 0xb2, 0xbe, 0x2f, 0x61, 0x3d, 0xbe, 0x94, 0x2d, 0x88, 0x3d, 0xfd, 0xe1, 0xd1, 0x3e, 0x59, 0xb9, 0xdc, 0xbe, 0x9d, 0x52, 0xd6, 0xbd, 0xe8, 0xd4, 0xfa, 0x3d, 0xce, 0x31, 0x3e, 0xbd, 0x4d, 0x48, 0xb0, 0x3d, 0xa4, 0x09, 0x2c, 0xbe, 0xce, 0x17, 0xce, 0x3e, 0xc3, 0x68, 0x80, 0x3e, 0xb6, 0x76, 0x09, 0x3e, 0xcc, 0xb9, 0xd0, 0xbe, 0x3a, 0x5b, 0xd7, 0xbe, 0x79, 0x18, 0x89, 0xbd, 0x82, 0x11, 0xbd, 0xbd, 0x12, 0x44, 0x7f, 0xbd, 0x4a, 0x70, 0x08, 0x3e, 0xa0, 0xe5, 0x54, 0x3f, 0xc4, 0xe9, 0xb2, 0x3e, 0x9e, 0x61, 0x75, 0x3f, 0x90, 0x28, 0xea, 0x3e, 0xe3, 0x36, 0x57, 0xbf, 0x66, 0x76, 0x03, 0x40, 0x3e, 0xe4, 0x07, 0x40, 0x07, 0xcf, 0x8b, 0xbf, 0xef, 0x24, 0x06, 0x3f, 0x07, 0xd0, 0x5f, 0x40, 0x88, 0x87, 0x5a, 0x40, 0x1f, 0xf9, 0xd9, 0xbe, 0x9e, 0x77, 0x1c, 0xc0, 0x8c, 0xa6, 0x02, 0xc0, 0xb5, 0x0e, 0x2a, 0xc0, 0xa2, 0x46, 0xe2, 0xbf, 0x75, 0x24, 0x99, 0x3d, 0x25, 0x08, 0x1a, 0xbe, 0xa4, 0xdb, 0x96, 0x3e, 0x5f, 0xc1, 0xd0, 0xbe, 0x44, 0x40, 0x96, 0xbe, 0x89, 0xd8, 0x2c, 0x3b, 0x61, 0x56, 0x81, 0x3e, 0x27, 0x4e, 0x76, 0x3e, 0x56, 0x3a, 0x96, 0x3d, 0xc2, 0xef, 0x8f, 0xbe, 0xe1, 0x15, 0xdb, 0x3d, 0x10, 0x3c, 0x46, 0xbc, 0xee, 0x04, 0x2a, 0xbe, 0x4b, 0x0d, 0xa4, 0x3e, 0x53, 0xae, 0x83, 0xbe, 0xc6, 0xe3, 0x92, 0xbe, 0x51, 0x09, 0x8e, 0x3e, 0x35, 0x1e, 0x0c, 0x3f, 0x75, 0x3c, 0x76, 0x3f, 0xd7, 0x89, 0x03, 0x3f, 0xf5, 0xa3, 0xcd, 0xbe, 0x49, 0xa0, 0x08, 0x40, 0x17, 0x18, 0xf5, 0x3f, 0x83, 0xa9, 0x4b, 0xbf, 0x76, 0x06, 0x4b, 0x3c, 0x71, 0xc6, 0x70, 0x40, 0x8b, 0x67, 0x43, 0x40, 0xda, 0xdd, 0xe7, 0xbe, 0x9b, 0x0c, 0x05, 0xc0, 0x45, 0xab, 0x1d, 0xc0, 0xd5, 0xad, 0x00, 0xc0, 0x3b, 0x95, 0xaf, 0xbf, 0x6a, 0x6a, 0xda, 0xbc, 0xed, 0xe7, 0x06, 0x3e, 0x51, 0x35, 0xad, 0xbe, 0x12, 0xcc, 0xd0, 0xbe, 0xef, 0xf6, 0x85, 0x3e, 0x3a, 0xaf, 0x11, 0xbd, 0xf6, 0xf9, 0x7a, 0x3d, 0x86, 0xcd, 0xbb, 0x3e, 0xf0, 0xd9, 0x7c, 0xbe, 0x51, 0x0f, 0x26, 0xbd, 0x62, 0x2c, 0x68, 0xbc, 0x50, 0xbe, 0xd7, 0xbd, 0x2f, 0xd9, 0xc8, 0xbe, 0x37, 0xdf, 0x6e, 0x3e, 0x1c, 0x74, 0xab, 0xbe, 0x6e, 0xed, 0x94, 0xbd, 0x82, 0xe3, 0x66, 0x3e, 0x1a, 0x16, 0x40, 0x3f, 0x91, 0x61, 0x39, 0x3f, 0x72, 0x00, 0x43, 0x3f, 0x20, 0x8a, 0x0e, 0xbe, 0x86, 0xbe, 0x00, 0x40, 0xc9, 0x17, 0x01, 0x40, 0x7a, 0xd0, 0x27, 0xbf, 0xba, 0x0c, 0xfc, 0xbd, 0x13, 0x61, 0x71, 0x40, 0x6c, 0x5c, 0x48, 0x40, 0xfb, 0x59, 0x06, 0xbf, 0x7f, 0x4f, 0x1b, 0xc0, 0x1b, 0x1e, 0x16, 0xc0, 0x5c, 0xcd, 0x0c, 0xc0, 0xd5, 0x37, 0xec, 0xbf, 0x75, 0xa1, 0x06, 0xbf, 0x72, 0xf7, 0xb3, 0x3c, 0xe0, 0x90, 0x27, 0xbf, 0x53, 0x50, 0xb5, 0xbe, 0x77, 0xc0, 0x8f, 0x3f, 0xb0, 0x97, 0xe5, 0xbf, 0xec, 0xe2, 0xca, 0xbf, 0x61, 0x36, 0xbd, 0x3f, 0x94, 0x6b, 0x1f, 0xbe, 0xce, 0x31, 0x2f, 0xc0, 0x3f, 0xaf, 0x37, 0xc0, 0x15, 0x11, 0x80, 0x3f, 0xad, 0x5d, 0x34, 0x40, 0x50, 0x87, 0x34, 0x40, 0x89, 0x8b, 0x18, 0x40, 0xba, 0x24, 0x16, 0x40, 0x5e, 0x82, 0x81, 0x3f, 0xc9, 0xf4, 0xb2, 0x3e, 0xd1, 0xe6, 0x81, 0x3f, 0xa2, 0xd9, 0x80, 0x3f, 0x67, 0xb6, 0xd2, 0xbd, 0xff, 0x89, 0x0c, 0x40, 0xb7, 0x05, 0x04, 0x40, 0xdb, 0xd6, 0x39, 0xbf, 0x82, 0x8c, 0x2a, 0x3f, 0x9a, 0xdf, 0x64, 0x40, 0xc4, 0x90, 0x62, 0x40, 0x09, 0x44, 0x46, 0x3e, 0xf8, 0x57, 0x19, 0xc0, 0xfd, 0x2a, 0x21, 0xc0, 0xf3, 0xcc, 0x31, 0xc0, 0xb4, 0x7b, 0xef, 0xbf, 0x39, 0x7a, 0xdf, 0xbe, 0x9d, 0x32, 0xce, 0xbe, 0x88, 0x4f, 0x82, 0xbf, 0xb3, 0x99, 0x6a, 0xbe, 0x97, 0x19, 0x5d, 0x3f, 0xbe, 0x68, 0xfa, 0xbf, 0x2b, 0xcb, 0x01, 0xc0, 0x43, 0x97, 0x49, 0x3f, 0x96, 0xb3, 0x04, 0xbe, 0xd6, 0x29, 0x71, 0xc0, 0x17, 0xd1, 0x39, 0xc0, 0xcf, 0x53, 0x08, 0x3f, 0x31, 0x91, 0x25, 0x40, 0x3e, 0xc5, 0x51, 0x40, 0x64, 0x18, 0x2b, 0x40, 0xa9, 0x3d, 0xec, 0x3f, 0x90, 0x8a, 0x86, 0x3e, 0x3b, 0xec, 0x90, 0xbe, 0x43, 0x99, 0xb4, 0xbe, 0x02, 0x8b, 0x7d, 0xbe, 0x29, 0x03, 0x8e, 0xbe, 0xe1, 0x52, 0x30, 0x3e, 0x28, 0xca, 0x97, 0x3e, 0x9e, 0xdc, 0x22, 0x3e, 0x4a, 0x33, 0x73, 0xbe, 0x44, 0xe5, 0x39, 0x3e, 0x92, 0x41, 0xb7, 0xbe, 0x56, 0x8a, 0xc3, 0xbd, 0x7b, 0x96, 0xaa, 0xbe, 0x86, 0x41, 0xc9, 0x3e, 0x03, 0xd3, 0xc9, 0x3e, 0x6e, 0x2e, 0xc3, 0xbe, 0xc0, 0xdc, 0x8d, 0xbc, 0xa6, 0xd8, 0xc9, 0xbe, 0xfa, 0xd9, 0x36, 0x3e, 0xc2, 0x1e, 0x42, 0xbe, 0xe4, 0xc0, 0xa5, 0xbe, 0x5a, 0xda, 0x60, 0x3e, 0x8d, 0x55, 0x5a, 0xbe, 0xaf, 0xcd, 0x84, 0x3e, 0xfb, 0xfd, 0x41, 0xbe, 0xaa, 0xf3, 0x96, 0xbe, 0x23, 0x8b, 0xa4, 0xbe, 0xb4, 0x3f, 0xcc, 0x3d, 0xde, 0x86, 0x38, 0xbe, 0xae, 0xaf, 0x0b, 0x3e, 0x98, 0x28, 0x2d, 0xbe, 0x08, 0x63, 0x53, 0xbe, 0x01, 0xff, 0xd9, 0x3e, 0x57, 0xda, 0xb7, 0x3d, 0x10, 0x7b, 0xf5, 0x3e, 0x51, 0xe1, 0x0f, 0x3f, 0xa0, 0xdf, 0x91, 0xbe, 0x7c, 0xb6, 0xb0, 0x3f, 0x92, 0xb8, 0x07, 0x40, 0xd4, 0xb3, 0x4e, 0xbf, 0x84, 0x50, 0xc4, 0x3e, 0x73, 0x99, 0x76, 0x40, 0xca, 0xee, 0x55, 0x40, 0xb9, 0x30, 0x59, 0xbe, 0x19, 0x46, 0x10, 0xc0, 0xc6, 0x27, 0x1f, 0xc0, 0xc5, 0x5d, 0x09, 0xc0, 0x21, 0x58, 0xca, 0xbf, 0x0c, 0xa6, 0x8d, 0x3d, 0x1e, 0x79, 0xba, 0x3e, 0xa9, 0x6f, 0xf9, 0x3d, 0x0b, 0x57, 0x05, 0x3e, 0xc6, 0x89, 0x0f, 0xbd, 0x02, 0x40, 0x2a, 0xbe, 0xfc, 0x2d, 0x0b, 0x3e, 0x3a, 0x47, 0xb6, 0xbe, 0x9a, 0x48, 0x29, 0xbd, 0xbd, 0x20, 0x9d, 0xbe, 0x8c, 0x8d, 0xc6, 0xbd, 0x11, 0xd7, 0x04, 0xbe, 0x9b, 0xb9, 0xa6, 0x3e, 0xef, 0x48, 0xaa, 0x3d, 0x40, 0xce, 0x86, 0xbd, 0x1f, 0xdf, 0x5b, 0xbe, 0xa0, 0xed, 0x40, 0x3d, 0x7e, 0x37, 0x65, 0xbd, 0x85, 0x6a, 0xc2, 0xbe, 0x0a, 0xe0, 0x4d, 0x3d, 0x03, 0x5d, 0x35, 0x3e, 0x4c, 0x72, 0xdf, 0xbe, 0x4d, 0xed, 0xac, 0x3e, 0x32, 0x84, 0x5c, 0xbe, 0x41, 0xea, 0xcc, 0x3e, 0xf7, 0x1b, 0xbe, 0x3e, 0x7a, 0x71, 0xb0, 0xbe, 0xd0, 0x17, 0x9c, 0x3e, 0x4d, 0x80, 0x8a, 0xbe, 0xd0, 0xbb, 0x3c, 0xbd, 0x6f, 0x89, 0x95, 0x3e, 0x9e, 0xbd, 0xa6, 0xbe, 0x5e, 0xff, 0xff, 0xff, 0x04, 0x00, 0x00, 0x00, 0x08, 0x00, 0x00, 0x00, 0xff, 0xff, 0xff, 0xff, 0x10, 0x00, 0x00, 0x00, 0x72, 0xff, 0xff, 0xff, 0x04, 0x00, 0x00, 0x00, 0x04, 0x00, 0x00, 0x00, 0x04, 0xef, 0x9f, 0x3e, 0x82, 0xff, 0xff, 0xff, 0x04, 0x00, 0x00, 0x00, 0x40, 0x00, 0x00, 0x00, 0x00, 0x00, 0x00, 0x00, 0x7d, 0x18, 0x92, 0xbc, 0x8b, 0xc6, 0xd6, 0xbc, 0x89, 0xfb, 0x94, 0x3d, 0xb3, 0x10, 0xd7, 0xbc, 0x61, 0xe3, 0x19, 0x3d, 0x0f, 0x7d, 0xc4, 0xbb, 0x15, 0xca, 0x8b, 0x3d, 0x61, 0x20, 0xf3, 0x3e, 0x2d, 0xcb, 0x15, 0x3c, 0xd9, 0xbe, 0x04, 0x3f, 0x56, 0xbb, 0xc4, 0xbb, 0x00, 0x00, 0x00, 0x00, 0x8b, 0x44, 0x8c, 0x3d, 0xfc, 0x66, 0x82, 0xbc, 0x32, 0x77, 0x57, 0xbc, 0xce, 0xff, 0xff, 0xff, 0x04, 0x00, 0x00, 0x00, 0x24, 0x00, 0x00, 0x00, 0xad, 0xff, 0x9f, 0x40, 0xcb, 0xce, 0xc3, 0x40, 0x6a, 0x93, 0xa3, 0x40, 0xbe, 0xdd, 0x7f, 0x40, 0x90, 0xbf, 0x77, 0x40, 0xe9, 0x14, 0x75, 0x40, 0x89, 0x8e, 0xa0, 0x3f, 0x2f, 0x19, 0x8f, 0x3e, 0xaf, 0xe9, 0x8d, 0xbe, 0x00, 0x00, 0x06, 0x00, 0x08, 0x00, 0x04, 0x00, 0x06, 0x00, 0x00, 0x00, 0x04, 0x00, 0x00, 0x00, 0x04, 0x00, 0x00, 0x00, 0x40, 0x53, 0x6b, 0x3c, 0x54, 0xf8, 0xff, 0xff, 0x58, 0xf8, 0xff, 0xff, 0x0f, 0x00, 0x00, 0x00, 0x4d, 0x4c, 0x49, 0x52, 0x20, 0x43, 0x6f, 0x6e, 0x76, 0x65, 0x72, 0x74, 0x65, 0x64, 0x2e, 0x00, 0x01, 0x00, 0x00, 0x00, 0x14, 0x00, 0x00, 0x00, 0x00, 0x00, 0x0e, 0x00, 0x18, 0x00, 0x14, 0x00, 0x10, 0x00, 0x0c, 0x00, 0x08, 0x00, 0x04, 0x00, 0x0e, 0x00, 0x00, 0x00, 0x14, 0x00, 0x00, 0x00, 0x1c, 0x00, 0x00, 0x00, 0xb4, 0x01, 0x00, 0x00, 0xb8, 0x01, 0x00, 0x00, 0xbc, 0x01, 0x00, 0x00, 0x04, 0x00, 0x00, 0x00, 0x6d, 0x61, 0x69, 0x6e, 0x00, 0x00, 0x00, 0x00, 0x06, 0x00, 0x00, 0x00, 0x4c, 0x01, 0x00, 0x00, 0xe8, 0x00, 0x00, 0x00, 0xb0, 0x00, 0x00, 0x00, 0x60, 0x00, 0x00, 0x00, 0x28, 0x00, 0x00, 0x00, 0x04, 0x00, 0x00, 0x00, 0x6a, 0xff, 0xff, 0xff, 0x0c, 0x00, 0x00, 0x00, 0x10, 0x00, 0x00, 0x00, 0x04, 0x00, 0x00, 0x00, 0x01, 0x00, 0x00, 0x00, 0x0d, 0x00, 0x00, 0x00, 0x01, 0x00, 0x00, 0x00, 0x0c, 0x00, 0x00, 0x00, 0x5a, 0xff, 0xff, 0xff, 0x14, 0x00, 0x00, 0x00, 0x00, 0x00, 0x00, 0x08, 0x10, 0x00, 0x00, 0x00, 0x14, 0x00, 0x00, 0x00, 0x03, 0x00, 0x00, 0x00, 0x00, 0xf9, 0xff, 0xff, 0x01, 0x00, 0x00, 0x00, 0x0c, 0x00, 0x00, 0x00, 0x03, 0x00, 0x00, 0x00, 0x0b, 0x00, 0x00, 0x00, 0x07, 0x00, 0x00, 0x00, 0x04, 0x00, 0x00, 0x00, 0x8e, 0xff, 0xff, 0xff, 0x1c, 0x00, 0x00, 0x00, 0x00, 0x00, 0x00, 0x08, 0x1c, 0x00, 0x00, 0x00, 0x20, 0x00, 0x00, 0x00, 0x03, 0x00, 0x00, 0x00, 0x00, 0x00, 0x06, 0x00, 0x08, 0x00, 0x07, 0x00, 0x06, 0x00, 0x00, 0x00, 0x00, 0x00, 0x00, 0x01, 0x01, 0x00, 0x00, 0x00, 0x0b, 0x00, 0x00, 0x00, 0x03, 0x00, 0x00, 0x00, 0x0a, 0x00, 0x00, 0x00, 0x06, 0x00, 0x00, 0x00, 0x03, 0x00, 0x00, 0x00, 0x00, 0x00, 0x0a, 0x00, 0x10, 0x00, 0x0c, 0x00, 0x08, 0x00, 0x04, 0x00, 0x0a, 0x00, 0x00, 0x00, 0x0c, 0x00, 0x00, 0x00, 0x10, 0x00, 0x00, 0x00, 0x02, 0x00, 0x00, 0x00, 0x01, 0x00, 0x00, 0x00, 0x0a, 0x00, 0x00, 0x00, 0x02, 0x00, 0x00, 0x00, 0x09, 0x00, 0x00, 0x00, 0x05, 0x00, 0x00, 0x00, 0x00, 0x00, 0x0e, 0x00, 0x1a, 0x00, 0x14, 0x00, 0x10, 0x00, 0x0c, 0x00, 0x0b, 0x00, 0x04, 0x00, 0x0e, 0x00, 0x00, 0x00, 0x24, 0x00, 0x00, 0x00, 0x00, 0x00, 0x00, 0x05, 0x34, 0x00, 0x00, 0x00, 0x38, 0x00, 0x00, 0x00, 0x01, 0x00, 0x00, 0x00, 0x00, 0x00, 0x0e, 0x00, 0x18, 0x00, 0x17, 0x00, 0x10, 0x00, 0x0c, 0x00, 0x08, 0x00, 0x04, 0x00, 0x0e, 0x00, 0x00, 0x00, 0x02, 0x00, 0x00, 0x00, 0x02, 0x00, 0x00, 0x00, 0x02, 0x00, 0x00, 0x00, 0x02, 0x00, 0x00, 0x00, 0x00, 0x00, 0x00, 0x01, 0x01, 0x00, 0x00, 0x00, 0x09, 0x00, 0x00, 0x00, 0x01, 0x00, 0x00, 0x00, 0x08, 0x00, 0x00, 0x00, 0x00, 0x00, 0x0e, 0x00, 0x14, 0x00, 0x00, 0x00, 0x10, 0x00, 0x0c, 0x00, 0x0b, 0x00, 0x04, 0x00, 0x0e, 0x00, 0x00, 0x00, 0x1c, 0x00, 0x00, 0x00, 0x00, 0x00, 0x00, 0x01, 0x28, 0x00, 0x00, 0x00, 0x2c, 0x00, 0x00, 0x00, 0x0c, 0x00, 0x14, 0x00, 0x13, 0x00, 0x0c, 0x00, 0x08, 0x00, 0x07, 0x00, 0x0c, 0x00, 0x00, 0x00, 0x00, 0x00, 0x00, 0x01, 0x01, 0x00, 0x00, 0x00, 0x01, 0x00, 0x00, 0x00, 0x00, 0x00, 0x00, 0x01, 0x01, 0x00, 0x00, 0x00, 0x08, 0x00, 0x00, 0x00, 0x03, 0x00, 0x00, 0x00, 0x00, 0x00, 0x00, 0x00, 0x02, 0x00, 0x00, 0x00, 0x01, 0x00, 0x00, 0x00, 0x01, 0x00, 0x00, 0x00, 0x0d, 0x00, 0x00, 0x00, 0x01, 0x00, 0x00, 0x00, 0x00, 0x00, 0x00, 0x00, 0x0e, 0x00, 0x00, 0x00, 0x74, 0x05, 0x00, 0x00, 0x04, 0x05, 0x00, 0x00, 0x98, 0x04, 0x00, 0x00, 0x44, 0x04, 0x00, 0x00, 0xec, 0x03, 0x00, 0x00, 0xa0, 0x03, 0x00, 0x00, 0x40, 0x03, 0x00, 0x00, 0xf4, 0x02, 0x00, 0x00, 0x30, 0x02, 0x00, 0x00, 0xbc, 0x01, 0x00, 0x00, 0x60, 0x01, 0x00, 0x00, 0xd8, 0x00, 0x00, 0x00, 0x60, 0x00, 0x00, 0x00, 0x04, 0x00, 0x00, 0x00, 0xda, 0xfa, 0xff, 0xff, 0x00, 0x00, 0x00, 0x01, 0x14, 0x00, 0x00, 0x00, 0x1c, 0x00, 0x00, 0x00, 0x1c, 0x00, 0x00, 0x00, 0x0e, 0x00, 0x00, 0x00, 0x34, 0x00, 0x00, 0x00, 0x02, 0x00, 0x00, 0x00, 0xff, 0xff, 0xff, 0xff, 0x01, 0x00, 0x00, 0x00, 0xbc, 0xfa, 0xff, 0xff, 0x19, 0x00, 0x00, 0x00, 0x53, 0x74, 0x61, 0x74, 0x65, 0x66, 0x75, 0x6c, 0x50, 0x61, 0x72, 0x74, 0x69, 0x74, 0x69, 0x6f, 0x6e, 0x65, 0x64, 0x43, 0x61, 0x6c, 0x6c, 0x3a, 0x30, 0x00, 0x00, 0x00, 0x02, 0x00, 0x00, 0x00, 0x01, 0x00, 0x00, 0x00, 0x01, 0x00, 0x00, 0x00, 0x32, 0xfb, 0xff, 0xff, 0x00, 0x00, 0x00, 0x01, 0x14, 0x00, 0x00, 0x00, 0x1c, 0x00, 0x00, 0x00, 0x1c, 0x00, 0x00, 0x00, 0x0d, 0x00, 0x00, 0x00, 0x50, 0x00, 0x00, 0x00, 0x02, 0x00, 0x00, 0x00, 0xff, 0xff, 0xff, 0xff, 0x01, 0x00, 0x00, 0x00, 0x14, 0xfb, 0xff, 0xff, 0x34, 0x00, 0x00, 0x00, 0x73, 0x65, 0x71, 0x75, 0x65, 0x6e, 0x74, 0x69, 0x61, 0x6c, 0x2f, 0x64, 0x65, 0x6e, 0x73, 0x65, 0x5f, 0x31, 0x2f, 0x4d, 0x61, 0x74, 0x4d, 0x75, 0x6c, 0x3b, 0x73, 0x65, 0x71, 0x75, 0x65, 0x6e, 0x74, 0x69, 0x61, 0x6c, 0x2f, 0x64, 0x65, 0x6e, 0x73, 0x65, 0x5f, 0x31, 0x2f, 0x42, 0x69, 0x61, 0x73, 0x41, 0x64, 0x64, 0x00, 0x00, 0x00, 0x00, 0x02, 0x00, 0x00, 0x00, 0x01, 0x00, 0x00, 0x00, 0x01, 0x00, 0x00, 0x00, 0xa6, 0xfb, 0xff, 0xff, 0x00, 0x00, 0x00, 0x01, 0x14, 0x00, 0x00, 0x00, 0x1c, 0x00, 0x00, 0x00, 0x1c, 0x00, 0x00, 0x00, 0x0c, 0x00, 0x00, 0x00, 0x60, 0x00, 0x00, 0x00, 0x02, 0x00, 0x00, 0x00, 0xff, 0xff, 0xff, 0xff, 0x10, 0x00, 0x00, 0x00, 0x88, 0xfb, 0xff, 0xff, 0x46, 0x00, 0x00, 0x00, 0x73, 0x65, 0x71, 0x75, 0x65, 0x6e, 0x74, 0x69, 0x61, 0x6c, 0x2f, 0x64, 0x65, 0x6e, 0x73, 0x65, 0x2f, 0x4d, 0x61, 0x74, 0x4d, 0x75, 0x6c, 0x3b, 0x73, 0x65, 0x71, 0x75, 0x65, 0x6e, 0x74, 0x69, 0x61, 0x6c, 0x2f, 0x64, 0x65, 0x6e, 0x73, 0x65, 0x2f, 0x52, 0x65, 0x6c, 0x75, 0x3b, 0x73, 0x65, 0x71, 0x75, 0x65, 0x6e, 0x74, 0x69, 0x61, 0x6c, 0x2f, 0x64, 0x65, 0x6e, 0x73, 0x65, 0x2f, 0x42, 0x69, 0x61, 0x73, 0x41, 0x64, 0x64, 0x00, 0x00, 0x02, 0x00, 0x00, 0x00, 0x01, 0x00, 0x00, 0x00, 0x10, 0x00, 0x00, 0x00, 0x2a, 0xfc, 0xff, 0xff, 0x00, 0x00, 0x00, 0x01, 0x14, 0x00, 0x00, 0x00, 0x1c, 0x00, 0x00, 0x00, 0x1c, 0x00, 0x00, 0x00, 0x0b, 0x00, 0x00, 0x00, 0x34, 0x00, 0x00, 0x00, 0x02, 0x00, 0x00, 0x00, 0xff, 0xff, 0xff, 0xff, 0x10, 0x00, 0x00, 0x00, 0x0c, 0xfc, 0xff, 0xff, 0x1a, 0x00, 0x00, 0x00, 0x73, 0x65, 0x71, 0x75, 0x65, 0x6e, 0x74, 0x69, 0x61, 0x6c, 0x2f, 0x66, 0x6c, 0x61, 0x74, 0x74, 0x65, 0x6e, 0x2f, 0x52, 0x65, 0x73, 0x68, 0x61, 0x70, 0x65, 0x00, 0x00, 0x02, 0x00, 0x00, 0x00, 0x01, 0x00, 0x00, 0x00, 0x10, 0x00, 0x00, 0x00, 0x82, 0xfc, 0xff, 0xff, 0x00, 0x00, 0x00, 0x01, 0x14, 0x00, 0x00, 0x00, 0x24, 0x00, 0x00, 0x00, 0x24, 0x00, 0x00, 0x00, 0x0a, 0x00, 0x00, 0x00, 0x44, 0x00, 0x00, 0x00, 0x04, 0x00, 0x00, 0x00, 0xff, 0xff, 0xff, 0xff, 0x04, 0x00, 0x00, 0x00, 0x04, 0x00, 0x00, 0x00, 0x01, 0x00, 0x00, 0x00, 0x6c, 0xfc, 0xff, 0xff, 0x20, 0x00, 0x00, 0x00, 0x73, 0x65, 0x71, 0x75, 0x65, 0x6e, 0x74, 0x69, 0x61, 0x6c, 0x2f, 0x6d, 0x61, 0x78, 0x5f, 0x70, 0x6f, 0x6f, 0x6c, 0x69, 0x6e, 0x67, 0x32, 0x64, 0x2f, 0x4d, 0x61, 0x78, 0x50, 0x6f, 0x6f, 0x6c, 0x00, 0x00, 0x00, 0x00, 0x04, 0x00, 0x00, 0x00, 0x01, 0x00, 0x00, 0x00, 0x04, 0x00, 0x00, 0x00, 0x04, 0x00, 0x00, 0x00, 0x01, 0x00, 0x00, 0x00, 0xf2, 0xfc, 0xff, 0xff, 0x00, 0x00, 0x00, 0x01, 0x14, 0x00, 0x00, 0x00, 0x24, 0x00, 0x00, 0x00, 0x24, 0x00, 0x00, 0x00, 0x09, 0x00, 0x00, 0x00, 0x94, 0x00, 0x00, 0x00, 0x04, 0x00, 0x00, 0x00, 0xff, 0xff, 0xff, 0xff, 0x08, 0x00, 0x00, 0x00, 0x08, 0x00, 0x00, 0x00, 0x01, 0x00, 0x00, 0x00, 0xdc, 0xfc, 0xff, 0xff, 0x72, 0x00, 0x00, 0x00, 0x73, 0x65, 0x71, 0x75, 0x65, 0x6e, 0x74, 0x69, 0x61, 0x6c, 0x2f, 0x63, 0x6f, 0x6e, 0x76, 0x32, 0x64, 0x2f, 0x52, 0x65, 0x6c, 0x75, 0x3b, 0x73, 0x65, 0x71, 0x75, 0x65, 0x6e, 0x74, 0x69, 0x61, 0x6c, 0x2f, 0x63, 0x6f, 0x6e, 0x76, 0x32, 0x64, 0x2f, 0x42, 0x69, 0x61, 0x73, 0x41, 0x64, 0x64, 0x3b, 0x73, 0x65, 0x71, 0x75, 0x65, 0x6e, 0x74, 0x69, 0x61, 0x6c, 0x2f, 0x63, 0x6f, 0x6e, 0x76, 0x32, 0x64, 0x2f, 0x43, 0x6f, 0x6e, 0x76, 0x32, 0x44, 0x3b, 0x73, 0x65, 0x71, 0x75, 0x65, 0x6e, 0x74, 0x69, 0x61, 0x6c, 0x2f, 0x63, 0x6f, 0x6e, 0x76, 0x32, 0x64, 0x2f, 0x42, 0x69, 0x61, 0x73, 0x41, 0x64, 0x64, 0x2f, 0x52, 0x65, 0x61, 0x64, 0x56, 0x61, 0x72, 0x69, 0x61, 0x62, 0x6c, 0x65, 0x4f, 0x70, 0x00, 0x00, 0x04, 0x00, 0x00, 0x00, 0x01, 0x00, 0x00, 0x00, 0x08, 0x00, 0x00, 0x00, 0x08, 0x00, 0x00, 0x00, 0x01, 0x00, 0x00, 0x00, 0x1e, 0xfe, 0xff, 0xff, 0x00, 0x00, 0x00, 0x01, 0x10, 0x00, 0x00, 0x00, 0x10, 0x00, 0x00, 0x00, 0x08, 0x00, 0x00, 0x00, 0x28, 0x00, 0x00, 0x00, 0x84, 0xfd, 0xff, 0xff, 0x19, 0x00, 0x00, 0x00, 0x73, 0x65, 0x71, 0x75, 0x65, 0x6e, 0x74, 0x69, 0x61, 0x6c, 0x2f, 0x64, 0x65, 0x6e, 0x73, 0x65, 0x5f, 0x31, 0x2f, 0x4d, 0x61, 0x74, 0x4d, 0x75, 0x6c, 0x00, 0x00, 0x00, 0x02, 0x00, 0x00, 0x00, 0x01, 0x00, 0x00, 0x00, 0x10, 0x00, 0x00, 0x00, 0x66, 0xfe, 0xff, 0xff, 0x00, 0x00, 0x00, 0x01, 0x10, 0x00, 0x00, 0x00, 0x10, 0x00, 0x00, 0x00, 0x07, 0x00, 0x00, 0x00, 0x24, 0x00, 0x00, 0x00, 0xcc, 0xfd, 0xff, 0xff, 0x17, 0x00, 0x00, 0x00, 0x73, 0x65, 0x71, 0x75, 0x65, 0x6e, 0x74, 0x69, 0x61, 0x6c, 0x2f, 0x64, 0x65, 0x6e, 0x73, 0x65, 0x2f, 0x4d, 0x61, 0x74, 0x4d, 0x75, 0x6c, 0x00, 0x02, 0x00, 0x00, 0x00, 0x10, 0x00, 0x00, 0x00, 0x10, 0x00, 0x00, 0x00, 0x00, 0x00, 0x16, 0x00, 0x1c, 0x00, 0x18, 0x00, 0x17, 0x00, 0x10, 0x00, 0x0c, 0x00, 0x08, 0x00, 0x00, 0x00, 0x00, 0x00, 0x00, 0x00, 0x07, 0x00, 0x16, 0x00, 0x00, 0x00, 0x00, 0x00, 0x00, 0x01, 0x14, 0x00, 0x00, 0x00, 0x14, 0x00, 0x00, 0x00, 0x06, 0x00, 0x00, 0x00, 0x00, 0x00, 0x00, 0x02, 0x28, 0x00, 0x00, 0x00, 0x2c, 0xfe, 0xff, 0xff, 0x18, 0x00, 0x00, 0x00, 0x73, 0x65, 0x71, 0x75, 0x65, 0x6e, 0x74, 0x69, 0x61, 0x6c, 0x2f, 0x66, 0x6c, 0x61, 0x74, 0x74, 0x65, 0x6e, 0x2f, 0x43, 0x6f, 0x6e, 0x73, 0x74, 0x00, 0x00, 0x00, 0x00, 0x01, 0x00, 0x00, 0x00, 0x02, 0x00, 0x00, 0x00, 0x0a, 0xff, 0xff, 0xff, 0x00, 0x00, 0x00, 0x01, 0x10, 0x00, 0x00, 0x00, 0x10, 0x00, 0x00, 0x00, 0x05, 0x00, 0x00, 0x00, 0x38, 0x00, 0x00, 0x00, 0x70, 0xfe, 0xff, 0xff, 0x29, 0x00, 0x00, 0x00, 0x73, 0x65, 0x71, 0x75, 0x65, 0x6e, 0x74, 0x69, 0x61, 0x6c, 0x2f, 0x64, 0x65, 0x6e, 0x73, 0x65, 0x5f, 0x31, 0x2f, 0x42, 0x69, 0x61, 0x73, 0x41, 0x64, 0x64, 0x2f, 0x52, 0x65, 0x61, 0x64, 0x56, 0x61, 0x72, 0x69, 0x61, 0x62, 0x6c, 0x65, 0x4f, 0x70, 0x00, 0x00, 0x00, 0x01, 0x00, 0x00, 0x00, 0x01, 0x00, 0x00, 0x00, 0x5e, 0xff, 0xff, 0xff, 0x00, 0x00, 0x00, 0x01, 0x10, 0x00, 0x00, 0x00, 0x10, 0x00, 0x00, 0x00, 0x04, 0x00, 0x00, 0x00, 0x34, 0x00, 0x00, 0x00, 0xc4, 0xfe, 0xff, 0xff, 0x27, 0x00, 0x00, 0x00, 0x73, 0x65, 0x71, 0x75, 0x65, 0x6e, 0x74, 0x69, 0x61, 0x6c, 0x2f, 0x64, 0x65, 0x6e, 0x73, 0x65, 0x2f, 0x42, 0x69, 0x61, 0x73, 0x41, 0x64, 0x64, 0x2f, 0x52, 0x65, 0x61, 0x64, 0x56, 0x61, 0x72, 0x69, 0x61, 0x62, 0x6c, 0x65, 0x4f, 0x70, 0x00, 0x01, 0x00, 0x00, 0x00, 0x10, 0x00, 0x00, 0x00, 0xae, 0xff, 0xff, 0xff, 0x00, 0x00, 0x00, 0x01, 0x10, 0x00, 0x00, 0x00, 0x10, 0x00, 0x00, 0x00, 0x03, 0x00, 0x00, 0x00, 0x28, 0x00, 0x00, 0x00, 0x14, 0xff, 0xff, 0xff, 0x18, 0x00, 0x00, 0x00, 0x73, 0x65, 0x71, 0x75, 0x65, 0x6e, 0x74, 0x69, 0x61, 0x6c, 0x2f, 0x63, 0x6f, 0x6e, 0x76, 0x32, 0x64, 0x2f, 0x43, 0x6f, 0x6e, 0x76, 0x32, 0x44, 0x00, 0x00, 0x00, 0x00, 0x04, 0x00, 0x00, 0x00, 0x01, 0x00, 0x00, 0x00, 0x03, 0x00, 0x00, 0x00, 0x03, 0x00, 0x00, 0x00, 0x01, 0x00, 0x00, 0x00, 0x00, 0x00, 0x16, 0x00, 0x18, 0x00, 0x14, 0x00, 0x00, 0x00, 0x10, 0x00, 0x0c, 0x00, 0x08, 0x00, 0x00, 0x00, 0x00, 0x00, 0x00, 0x00, 0x07, 0x00, 0x16, 0x00, 0x00, 0x00, 0x00, 0x00, 0x00, 0x01, 0x10, 0x00, 0x00, 0x00, 0x10, 0x00, 0x00, 0x00, 0x02, 0x00, 0x00, 0x00, 0x38, 0x00, 0x00, 0x00, 0x7c, 0xff, 0xff, 0xff, 0x28, 0x00, 0x00, 0x00, 0x73, 0x65, 0x71, 0x75, 0x65, 0x6e, 0x74, 0x69, 0x61, 0x6c, 0x2f, 0x63, 0x6f, 0x6e, 0x76, 0x32, 0x64, 0x2f, 0x42, 0x69, 0x61, 0x73, 0x41, 0x64, 0x64, 0x2f, 0x52, 0x65, 0x61, 0x64, 0x56, 0x61, 0x72, 0x69, 0x61, 0x62, 0x6c, 0x65, 0x4f, 0x70, 0x00, 0x00, 0x00, 0x00, 0x01, 0x00, 0x00, 0x00, 0x01, 0x00, 0x00, 0x00, 0x00, 0x00, 0x16, 0x00, 0x1c, 0x00, 0x18, 0x00, 0x00, 0x00, 0x14, 0x00, 0x10, 0x00, 0x0c, 0x00, 0x00, 0x00, 0x00, 0x00, 0x08, 0x00, 0x07, 0x00, 0x16, 0x00, 0x00, 0x00, 0x00, 0x00, 0x00, 0x01, 0x14, 0x00, 0x00, 0x00, 0x28, 0x00, 0x00, 0x00, 0x28, 0x00, 0x00, 0x00, 0x01, 0x00, 0x00, 0x00, 0x44, 0x00, 0x00, 0x00, 0x04, 0x00, 0x00, 0x00, 0xff, 0xff, 0xff, 0xff, 0x0a, 0x00, 0x00, 0x00, 0x0a, 0x00, 0x00, 0x00, 0x01, 0x00, 0x00, 0x00, 0x04, 0x00, 0x04, 0x00, 0x04, 0x00, 0x00, 0x00, 0x1e, 0x00, 0x00, 0x00, 0x73, 0x65, 0x72, 0x76, 0x69, 0x6e, 0x67, 0x5f, 0x64, 0x65, 0x66, 0x61, 0x75, 0x6c, 0x74, 0x5f, 0x63, 0x6f, 0x6e, 0x76, 0x32, 0x64, 0x5f, 0x69, 0x6e, 0x70, 0x75, 0x74, 0x3a, 0x30, 0x00, 0x00, 0x04, 0x00, 0x00, 0x00, 0x01, 0x00, 0x00, 0x00, 0x0a, 0x00, 0x00, 0x00, 0x0a, 0x00, 0x00, 0x00, 0x01, 0x00, 0x00, 0x00, 0x05, 0x00, 0x00, 0x00, 0x50, 0x00, 0x00, 0x00, 0x34, 0x00, 0x00, 0x00, 0x24, 0x00, 0x00, 0x00, 0x14, 0x00, 0x00, 0x00, 0x04, 0x00, 0x00, 0x00, 0xd0, 0xff, 0xff, 0xff, 0x0e, 0x00, 0x00, 0x00, 0x00, 0x00, 0x00, 0x0e, 0xdc, 0xff, 0xff, 0xff, 0x09, 0x00, 0x00, 0x00, 0x00, 0x00, 0x00, 0x09, 0xe8, 0xff, 0xff, 0xff, 0x16, 0x00, 0x00, 0x00, 0x00, 0x00, 0x00, 0x16, 0xf4, 0xff, 0xff, 0xff, 0x11, 0x00, 0x00, 0x00, 0x00, 0x00, 0x00, 0x11, 0x0c, 0x00, 0x0c, 0x00, 0x0b, 0x00, 0x00, 0x00, 0x00, 0x00, 0x04, 0x00, 0x0c, 0x00, 0x00, 0x00, 0x03, 0x00, 0x00, 0x00, 0x00, 0x00, 0x00, 0x03};
const int model_data_len = 3916;
float x[100] = {0.000781188969611749, 0.0009061792047496289, 0.0010624169986719787, 0.0011717834544176236, 0.0012186547925943285, 0.0012811499101632684, 0.0013123974689477384, 0.0013280212483399733, 0.0013436450277322083, 0.0013905163659089135, 0.0007186938520428092, 0.000765565190219514, 0.0009218029841418639, 0.0010155456604952738, 0.0010780407780642137, 0.0011092883368486839, 0.0011405358956331538, 0.0012186547925943285, 0.0012499023513787985, 0.0012967736895555034, 0.0007186938520428092, 
0.000765565190219514, 0.000781188969611749, 0.000765565190219514, 0.000781188969611749, 0.000765565190219514, 0.000828060307788454, 0.0009374267635340989, 0.0010780407780642137, 0.0011874072338098585, 0.000765565190219514, 0.0008124365283962191, 0.000843684087180689, 0.000874931645965159, 0.0009061792047496289, 0.0009686743223185689, 0.0009999218811030388, 0.0009842981017108038, 0.0009530505429263339, 0.0010311694398875088, 0.0006561987344738692, 
0.0007343176314350442, 0.000781188969611749, 0.000781188969611749, 0.000828060307788454, 0.000890555425357394, 0.000859307866572924, 0.0009218029841418639, 0.0010155456604952738, 0.000843684087180689, 0.0005780798375126944, 0.000765565190219514, 0.000874931645965159, 0.0007968127490039841, 0.0007499414108272792, 0.000765565190219514, 0.0008124365283962191, 0.0009218029841418639, 0.0009061792047496289, 0.000828060307788454, 0.0005780798375126944, 
0.0007499414108272792, 0.000890555425357394, 0.000890555425357394, 0.000859307866572924, 0.000890555425357394, 0.0009374267635340989, 0.0009530505429263339, 0.000859307866572924, 0.0008124365283962191, 0.0006249511756893992, 0.0007186938520428092, 0.0009061792047496289, 0.0009530505429263339, 0.0009842981017108038, 0.0009686743223185689, 0.0009842981017108038, 0.0010155456604952738, 0.0009218029841418639, 0.0009374267635340989, 0.0006405749550816342, 
0.000765565190219514, 0.000859307866572924, 0.0009061792047496289, 0.0009374267635340989, 0.0009530505429263339, 0.0009999218811030388, 0.0009999218811030388, 0.0009374267635340989, 0.0009842981017108038, 0.0006093273962971642, 0.000843684087180689, 0.0009686743223185689, 0.0009999218811030388, 0.0010155456604952738, 0.0010467932192797437, 0.0011092883368486839, 0.0011092883368486839, 0.0009999218811030388, 0.0009999218811030388};const int input_size = 100;
const int output_size = 1;