
    // if having troubles with min/max, uncomment the following
    // #undef min    
    // #undef max
    #ifdef __has_attribute
    #define HAVE_ATTRIBUTE(x) __has_attribute(x)
    #else
    #define HAVE_ATTRIBUTE(x) 0
    #endif
    #if HAVE_ATTRIBUTE(aligned) || (defined(__GNUC__) && !defined(__clang__))
    #define DATA_ALIGN_ATTRIBUTE __attribute__((aligned(4)))
    #else
    #define DATA_ALIGN_ATTRIBUTE
    #endif
    const unsigned char model_data[] DATA_ALIGN_ATTRIBUTE = {0x1c, 0x00, 0x00, 0x00, 0x54, 0x46, 0x4c, 0x33, 0x14, 0x00, 0x20, 0x00, 0x1c, 0x00, 0x18, 0x00, 0x14, 0x00, 0x10, 0x00, 0x0c, 0x00, 0x00, 0x00, 0x08, 0x00, 0x04, 0x00, 0x14, 0x00, 0x00, 0x00, 0x1c, 0x00, 0x00, 0x00, 0x88, 0x00, 0x00, 0x00, 0xe0, 0x00, 0x00, 0x00, 0x5c, 0x30, 0x00, 0x00, 0x6c, 0x30, 0x00, 0x00, 0x44, 0x3a, 0x00, 0x00, 0x03, 0x00, 0x00, 0x00, 0x01, 0x00, 0x00, 0x00, 0x04, 0x00, 0x00, 0x00, 0xb6, 0xce, 0xff, 0xff, 0x0c, 0x00, 0x00, 0x00, 0x1c, 0x00, 0x00, 0x00, 0x38, 0x00, 0x00, 0x00, 0x0f, 0x00, 0x00, 0x00, 0x73, 0x65, 0x72, 0x76, 0x69, 0x6e, 0x67, 0x5f, 0x64, 0x65, 0x66, 0x61, 0x75, 0x6c, 0x74, 0x00, 0x01, 0x00, 0x00, 0x00, 0x04, 0x00, 0x00, 0x00, 0x94, 0xff, 0xff, 0xff, 0x10, 0x00, 0x00, 0x00, 0x04, 0x00, 0x00, 0x00, 0x07, 0x00, 0x00, 0x00, 0x64, 0x65, 0x6e, 0x73, 0x65, 0x5f, 0x35, 0x00, 0x01, 0x00, 0x00, 0x00, 0x04, 0x00, 0x00, 0x00, 0x42, 0xd0, 0xff, 0xff, 0x04, 0x00, 0x00, 0x00, 0x0e, 0x00, 0x00, 0x00, 0x63, 0x6f, 0x6e, 0x76, 0x32, 0x64, 0x5f, 0x32, 0x5f, 0x69, 0x6e, 0x70, 0x75, 0x74, 0x00, 0x00, 0x02, 0x00, 0x00, 0x00, 0x34, 0x00, 0x00, 0x00, 0x04, 0x00, 0x00, 0x00, 0xdc, 0xff, 0xff, 0xff, 0x13, 0x00, 0x00, 0x00, 0x04, 0x00, 0x00, 0x00, 0x13, 0x00, 0x00, 0x00, 0x43, 0x4f, 0x4e, 0x56, 0x45, 0x52, 0x53, 0x49, 0x4f, 0x4e, 0x5f, 0x4d, 0x45, 0x54, 0x41, 0x44, 0x41, 0x54, 0x41, 0x00, 0x08, 0x00, 0x0c, 0x00, 0x08, 0x00, 0x04, 0x00, 0x08, 0x00, 0x00, 0x00, 0x12, 0x00, 0x00, 0x00, 0x04, 0x00, 0x00, 0x00, 0x13, 0x00, 0x00, 0x00, 0x6d, 0x69, 0x6e, 0x5f, 0x72, 0x75, 0x6e, 0x74, 0x69, 0x6d, 0x65, 0x5f, 0x76, 0x65, 0x72, 0x73, 0x69, 0x6f, 0x6e, 0x00, 0x14, 0x00, 0x00, 0x00, 0x78, 0x2f, 0x00, 0x00, 0x70, 0x2f, 0x00, 0x00, 0x40, 0x2f, 0x00, 0x00, 0xe8, 0x2e, 0x00, 0x00, 0xb8, 0x2d, 0x00, 0x00, 0xa8, 0x25, 0x00, 0x00, 0x94, 0x25, 0x00, 0x00, 0x44, 0x25, 0x00, 0x00, 0x2c, 0x25, 0x00, 0x00, 0x1c, 0x01, 0x00, 0x00, 0xcc, 0x00, 0x00, 0x00, 0xc4, 0x00, 0x00, 0x00, 0xbc, 0x00, 0x00, 0x00, 0xb4, 0x00, 0x00, 0x00, 0xac, 0x00, 0x00, 0x00, 0xa4, 0x00, 0x00, 0x00, 0x9c, 0x00, 0x00, 0x00, 0x94, 0x00, 0x00, 0x00, 0x74, 0x00, 0x00, 0x00, 0x04, 0x00, 0x00, 0x00, 0x0e, 0xd1, 0xff, 0xff, 0x04, 0x00, 0x00, 0x00, 0x60, 0x00, 0x00, 0x00, 0x0c, 0x00, 0x00, 0x00, 0x08, 0x00, 0x0e, 0x00, 0x08, 0x00, 0x04, 0x00, 0x08, 0x00, 0x00, 0x00, 0x10, 0x00, 0x00, 0x00, 0x24, 0x00, 0x00, 0x00, 0x00, 0x00, 0x06, 0x00, 0x08, 0x00, 0x04, 0x00, 0x06, 0x00, 0x00, 0x00, 0x04, 0x00, 0x00, 0x00, 0x00, 0x00, 0x00, 0x00, 0x00, 0x00, 0x0a, 0x00, 0x10, 0x00, 0x0c, 0x00, 0x08, 0x00, 0x04, 0x00, 0x0a, 0x00, 0x00, 0x00, 0x02, 0x00, 0x00, 0x00, 0x02, 0x00, 0x00, 0x00, 0x04, 0x00, 0x00, 0x00, 0x12, 0x00, 0x00, 0x00, 0x32, 0x2e, 0x31, 0x34, 0x2e, 0x30, 0x2d, 0x64, 0x65, 0x76, 0x32, 0x30, 0x32, 0x33, 0x30, 0x35, 0x32, 0x35, 0x00, 0x00, 0x7a, 0xd1, 0xff, 0xff, 0x04, 0x00, 0x00, 0x00, 0x10, 0x00, 0x00, 0x00, 0x31, 0x2e, 0x31, 0x34, 0x2e, 0x30, 0x00, 0x00, 0x00, 0x00, 0x00, 0x00, 0x00, 0x00, 0x00, 0x00, 0xb0, 0xc7, 0xff, 0xff, 0xb4, 0xc7, 0xff, 0xff, 0xb8, 0xc7, 0xff, 0xff, 0xbc, 0xc7, 0xff, 0xff, 0xc0, 0xc7, 0xff, 0xff, 0xc4, 0xc7, 0xff, 0xff, 0xc8, 0xc7, 0xff, 0xff, 0xb2, 0xd1, 0xff, 0xff, 0x04, 0x00, 0x00, 0x00, 0x40, 0x00, 0x00, 0x00, 0x99, 0x0e, 0x02, 0x40, 0x2c, 0x94, 0xd4, 0xbf, 0xe4, 0x36, 0xb6, 0x3d, 0xf0, 0xdf, 0xd4, 0xbf, 0x03, 0xe0, 0xf1, 0xbf, 0x1c, 0xdc, 0xf5, 0x3f, 0xe0, 0xd7, 0x08, 0x3e, 0x32, 0x57, 0x08, 0x3f, 0xcf, 0xec, 0xb1, 0x3f, 0x87, 0xe7, 0xc1, 0x3e, 0x1a, 0x0e, 0xe9, 0x3f, 0x08, 0x5b, 0xdb, 0x3f, 0x5d, 0x1d, 0x1d, 0xbe, 0x68, 0x29, 0xcb, 0xbf, 0x1c, 0x39, 0xb0, 0x3f, 0x2f, 0x48, 0xde, 0xbf, 0xfe, 0xd1, 0xff, 0xff, 0x04, 0x00, 0x00, 0x00, 0x00, 0x24, 0x00, 0x00, 0xa9, 0xdc, 0x05, 0xbe, 0xf2, 0x8d, 0x07, 0x3e, 0x05, 0xf5, 0xb7, 0x3d, 0xb0, 0x74, 0xd2, 0x3c, 0x78, 0xb3, 0x81, 0xbc, 0x8d, 0x31, 0x85, 0xbd, 0xda, 0x1f, 0x2a, 0xbc, 0x69, 0x55, 0x04, 0xbe, 0x95, 0x22, 0xde, 0xbd, 0x66, 0xa1, 0x0a, 0xbf, 0x3e, 0x5c, 0x11, 0xbe, 0x94, 0x14, 0x01, 0xbd, 0x3c, 0x25, 0x58, 0xbe, 0x37, 0xa0, 0x12, 0xbe, 0x9a, 0xbd, 0x11, 0x3e, 0x84, 0x74, 0x42, 0xbe, 0x9d, 0x80, 0xa0, 0xbc, 0x76, 0x43, 0xda, 0xbd, 0x74, 0x0d, 0x7a, 0xbe, 0xff, 0x7c, 0x8a, 0x3f, 0xa2, 0xbe, 0x18, 0xbe, 0x6d, 0x33, 0x49, 0xbf, 0x12, 0x63, 0xf7, 0x3d, 0xf8, 0xff, 0xb0, 0xbd, 0xcc, 0x79, 0x00, 0x3e, 0x9e, 0x2f, 0xf7, 0x3e, 0x9c, 0x01, 0x51, 0xbd, 0xb0, 0x83, 0x34, 0x3f, 0xb5, 0x06, 0x9c, 0xbf, 0x99, 0x42, 0x1d, 0xbe, 0xf2, 0x91, 0xc4, 0xbd, 0xd2, 0x1c, 0x3a, 0xbd, 0x22, 0xc3, 0xc7, 0x3d, 0xa0, 0xc1, 0x29, 0x3e, 0x46, 0xa2, 0x23, 0xbf, 0x99, 0xb4, 0x6c, 0x3f, 0x5a, 0xbf, 0x14, 0x3e, 0xfb, 0xe2, 0x40, 0x3d, 0xbe, 0xd5, 0x0c, 0x3e, 0xb6, 0xee, 0xf6, 0x3c, 0xa0, 0xa5, 0x21, 0x3d, 0x13, 0x16, 0x9b, 0xbe, 0xd1, 0x48, 0x97, 0xbd, 0x9c, 0xfb, 0xb5, 0xbc, 0x3a, 0x5b, 0x68, 0x3e, 0x9c, 0x82, 0x3d, 0xbe, 0x86, 0x3a, 0x9b, 0xbd, 0xe2, 0x2c, 0x0d, 0x3f, 0x0a, 0x9b, 0xf9, 0xbd, 0x80, 0x39, 0xdc, 0x3b, 0xff, 0xc9, 0xe9, 0x3e, 0xdd, 0xf4, 0xfd, 0xbe, 0x86, 0x9a, 0xbc, 0xbd, 0x1c, 0x9f, 0x8f, 0x3e, 0x92, 0x07, 0x3b, 0xbd, 0xfe, 0x25, 0x18, 0x3e, 0xfa, 0xa0, 0x40, 0x3e, 0xde, 0xcf, 0x94, 0xbd, 0xb0, 0x64, 0x0e, 0xbe, 0x03, 0x62, 0x5a, 0x3e, 0xea, 0x4d, 0x38, 0x3d, 0x1d, 0xe1, 0x16, 0xbe, 0x36, 0xbc, 0x3b, 0xbe, 0xdd, 0x87, 0x7f, 0x3d, 0x37, 0x9d, 0x19, 0x3e, 0xa4, 0x8e, 0xd9, 0xbd, 0x18, 0x97, 0xb4, 0x3f, 0xf9, 0xc6, 0x5a, 0xbf, 0xdc, 0x26, 0x81, 0x3d, 0x44, 0x01, 0x70, 0xbf, 0x5e, 0x16, 0xe8, 0x3c, 0xcb, 0xb7, 0x66, 0x3d, 0x77, 0x59, 0x0a, 0x3d, 0x6b, 0xc4, 0xf7, 0x3e, 0x76, 0xd6, 0x94, 0xbd, 0xd0, 0xb5, 0x67, 0x3f, 0x79, 0x4e, 0xab, 0xbe, 0x00, 0x84, 0x20, 0xbe, 0xd5, 0xd9, 0x93, 0x3d, 0xb2, 0xdb, 0x56, 0xbf, 0x1f, 0x89, 0x4a, 0x3d, 0x2b, 0xb5, 0x92, 0xbd, 0x79, 0x2e, 0x0b, 0x3d, 0x8e, 0x83, 0x65, 0x3e, 0x77, 0x36, 0xb3, 0xbd, 0x01, 0x73, 0xd9, 0xbc, 0x98, 0xc9, 0x39, 0x3c, 0x9b, 0x49, 0xc2, 0x3d, 0x2a, 0xee, 0xa3, 0x3d, 0xcc, 0xaf, 0x39, 0x3e, 0xb0, 0xa8, 0x03, 0xbd, 0xe3, 0x57, 0xa3, 0x3e, 0xe5, 0x6e, 0x02, 0x3f, 0x79, 0xa1, 0x40, 0x3e, 0xc7, 0x36, 0x75, 0xbd, 0x5d, 0x1e, 0x61, 0x3e, 0xf6, 0x1d, 0x0b, 0xbe, 0xbc, 0xc1, 0xf5, 0xbd, 0x1f, 0xea, 0x0a, 0xbd, 0x01, 0xc9, 0x36, 0xbf, 0x78, 0xc0, 0x20, 0x3e, 0x9a, 0x52, 0x53, 0x3f, 0x12, 0x4a, 0x10, 0x3e, 0xe2, 0x76, 0x34, 0x3e, 0x28, 0x0f, 0xe4, 0xbd, 0x4b, 0x34, 0x62, 0xbf, 0x16, 0x20, 0x1c, 0xbe, 0xd9, 0x44, 0x34, 0xbf, 0x51, 0x60, 0x41, 0x3f, 0xe6, 0xc9, 0x1b, 0xbd, 0xc2, 0xe2, 0x3b, 0xbe, 0x9d, 0x05, 0xb9, 0x3e, 0xaa, 0x8c, 0xe4, 0xbc, 0xf7, 0xda, 0x95, 0xbd, 0x42, 0x85, 0xcd, 0x3e, 0x50, 0xa3, 0x10, 0xbf, 0xa2, 0xa3, 0x3a, 0x3e, 0x12, 0xdc, 0x1f, 0x3f, 0x77, 0x21, 0x83, 0x3d, 0xdf, 0xe8, 0x0f, 0x3e, 0x7b, 0xe8, 0xfa, 0xbd, 0x13, 0x02, 0x58, 0xbf, 0xd0, 0x6b, 0x96, 0xbc, 0x58, 0x42, 0x93, 0xbe, 0x84, 0x2f, 0x20, 0x3f, 0x5b, 0xb0, 0x35, 0xbe, 0xa5, 0x06, 0x59, 0x3d, 0x11, 0xa1, 0xbc, 0xbd, 0x8f, 0x69, 0xc6, 0x3c, 0x2c, 0x4f, 0x3c, 0x3e, 0x7b, 0xe2, 0xc6, 0xbe, 0x5a, 0xe6, 0x3a, 0xbe, 0x10, 0x19, 0x7b, 0x3d, 0x50, 0x1a, 0x1f, 0x3f, 0x6a, 0xac, 0x99, 0xbd, 0x12, 0xcc, 0x10, 0x3e, 0xca, 0x9d, 0x33, 0xbd, 0x60, 0xba, 0xda, 0xbe, 0x28, 0x20, 0xa8, 0x3d, 0xf8, 0x27, 0xdf, 0xbe, 0x15, 0xe6, 0x05, 0x3f, 0x95, 0x67, 0xfe, 0x3d, 0x25, 0x3e, 0x1d, 0xbd, 0xcf, 0xe8, 0xa4, 0x3e, 0xc9, 0x0b, 0xac, 0xbb, 0x1c, 0x5c, 0x11, 0xbd, 0x49, 0xc5, 0x33, 0x3e, 0x84, 0xbd, 0x94, 0x3e, 0x4c, 0x05, 0xc3, 0x3d, 0x17, 0x1c, 0xb6, 0x3e, 0x18, 0x36, 0xb2, 0x3d, 0x04, 0x74, 0xd4, 0xbd, 0xd8, 0x9b, 0xa2, 0x3e, 0x61, 0x81, 0xf5, 0x3e, 0xc8, 0xe4, 0xb7, 0x3c, 0x19, 0xba, 0xc7, 0x3d, 0x3e, 0xe7, 0xc1, 0x3e, 0xec, 0x68, 0x20, 0x3e, 0x4b, 0xd1, 0x87, 0x3d, 0x96, 0x40, 0xab, 0x3e, 0x56, 0xf9, 0x03, 0xbd, 0xd6, 0xf4, 0x33, 0x3e, 0x42, 0x14, 0xe5, 0x3e, 0xa1, 0xb7, 0x66, 0xbf, 0xcb, 0x72, 0x1d, 0xbe, 0xe6, 0x35, 0x82, 0x3f, 0x7e, 0xa6, 0x97, 0x3d, 0x5e, 0x56, 0xad, 0xbd, 0x8c, 0x13, 0x2b, 0xbe, 0x72, 0x10, 0x6c, 0xbe, 0xe5, 0x81, 0x42, 0xbe, 0x89, 0xc2, 0x46, 0xbf, 0x92, 0x49, 0x94, 0x3f, 0x84, 0x3f, 0x04, 0xbe, 0xac, 0xde, 0x5e, 0x3d, 0x73, 0x4a, 0x26, 0x3e, 0x5f, 0x04, 0x3d, 0x3e, 0x75, 0x37, 0x9c, 0xbd, 0xa0, 0xa0, 0x61, 0x3f, 0x33, 0xe9, 0xef, 0xbe, 0x48, 0xb7, 0x87, 0x3d, 0x63, 0xfc, 0x14, 0x3e, 0x55, 0xc4, 0xbd, 0x3d, 0x88, 0x48, 0xf4, 0x3d, 0x73, 0x88, 0xd8, 0x3d, 0x27, 0x8f, 0xb6, 0x3e, 0x98, 0x27, 0x14, 0xbd, 0x41, 0xcc, 0x17, 0xbe, 0x68, 0xbc, 0xf9, 0x3c, 0x14, 0x96, 0x2d, 0x3e, 0x8f, 0x97, 0x26, 0x3e, 0x0c, 0xfa, 0x1b, 0xbf, 0x2f, 0x82, 0xaa, 0xbd, 0x80, 0x48, 0x20, 0xbc, 0xe5, 0xe3, 0xa6, 0xbe, 0xeb, 0x9d, 0xc3, 0x3e, 0x50, 0xe3, 0x9a, 0xbc, 0x47, 0x3e, 0x50, 0xbc, 0xfa, 0xe8, 0x93, 0x3d, 0x41, 0x18, 0x10, 0xbe, 0xf0, 0xb2, 0xad, 0x3d, 0x5d, 0xed, 0xa7, 0x3e, 0x6c, 0xd9, 0x9c, 0x3d, 0x6b, 0xa0, 0x81, 0x3d, 0x4c, 0x35, 0xa8, 0x3e, 0x11, 0xea, 0x2f, 0xbe, 0xd3, 0x73, 0x34, 0x3e, 0xb4, 0x1d, 0x37, 0x3e, 0x01, 0xcf, 0x01, 0xbd, 0xa4, 0x7b, 0x59, 0xbd, 0xdc, 0x01, 0xc0, 0xbf, 0x59, 0xef, 0x85, 0x3f, 0xa4, 0xe5, 0x10, 0xbd, 0xfc, 0xd9, 0x4f, 0x3f, 0x65, 0x36, 0x44, 0xbe, 0x6c, 0xf7, 0x2b, 0x3d, 0xb1, 0x7d, 0xd9, 0x3e, 0xd5, 0xf3, 0x1b, 0xbf, 0x5a, 0x72, 0x85, 0xbd, 0x76, 0xa8, 0x8a, 0xbf, 0x2a, 0xc2, 0x1f, 0x3f, 0xf8, 0x18, 0x85, 0xbd, 0x8a, 0xbe, 0x79, 0xbc, 0x1c, 0x39, 0x42, 0x3f, 0xcd, 0x19, 0x4a, 0xbc, 0x9c, 0xb9, 0x44, 0xbd, 0xe4, 0x18, 0x2b, 0x3e, 0x2b, 0x83, 0xde, 0xbc, 0x40, 0x2c, 0xe8, 0x3c, 0x18, 0x18, 0xc3, 0x3e, 0x86, 0x83, 0x93, 0x3d, 0x01, 0x65, 0x39, 0xbe, 0xc0, 0xa5, 0x70, 0x3e, 0x73, 0x21, 0xd2, 0x3b, 0xe0, 0xb9, 0xb3, 0xbc, 0x48, 0xd9, 0x93, 0xbd, 0x75, 0x34, 0xed, 0xbe, 0xe4, 0x68, 0xc2, 0xbd, 0x75, 0x54, 0x2a, 0x3c, 0x92, 0x66, 0xd2, 0x3d, 0xee, 0xaf, 0xdd, 0x3d, 0x3c, 0x62, 0xa8, 0x3d, 0xc2, 0xe6, 0x06, 0x3d, 0x42, 0xcf, 0x62, 0x3f, 0xea, 0xf0, 0x16, 0xbe, 0x46, 0xc9, 0x19, 0xbf, 0x02, 0xd6, 0xc7, 0x3d, 0x1e, 0xd3, 0xb6, 0xbd, 0xa5, 0xf8, 0x21, 0x3e, 0x8f, 0xdb, 0x79, 0x3f, 0x98, 0xf2, 0xd4, 0x3d, 0x67, 0xfa, 0x2e, 0x3f, 0xd8, 0x28, 0x38, 0xbf, 0x1f, 0xe5, 0x18, 0x3e, 0x4a, 0x52, 0xa8, 0x3c, 0x09, 0x44, 0x9e, 0x3c, 0xbf, 0x12, 0xcd, 0x3c, 0xf4, 0x45, 0x8a, 0xbd, 0x20, 0x49, 0x8a, 0xbe, 0x0b, 0x76, 0x46, 0x3f, 0x0c, 0x92, 0xbf, 0x3d, 0x8f, 0xbf, 0x9b, 0xbe, 0xd6, 0x6a, 0xfb, 0xbd, 0x5c, 0xd1, 0xf2, 0xbd, 0xcd, 0x2d, 0x4a, 0x3e, 0x9b, 0x55, 0x6f, 0x3f, 0x74, 0x31, 0xe0, 0xbd, 0x08, 0xd6, 0xa5, 0x3e, 0x48, 0x03, 0xc7, 0xbe, 0x0c, 0x9a, 0x1e, 0xbe, 0xe4, 0x63, 0x3e, 0xbe, 0x23, 0x85, 0xb9, 0x3c, 0x0e, 0xcd, 0x41, 0xbe, 0x57, 0x90, 0x24, 0x3e, 0xc1, 0x5a, 0x53, 0x3e, 0x0f, 0x62, 0x18, 0x3e, 0x82, 0x06, 0x38, 0x3e, 0xd7, 0x71, 0xa6, 0xbe, 0x98, 0x47, 0x08, 0x3e, 0xd8, 0x10, 0x37, 0x3d, 0xa2, 0x99, 0xd5, 0x3d, 0x29, 0xe1, 0xfa, 0x3e, 0x44, 0xb1, 0xf2, 0x3d, 0xdc, 0x51, 0xf1, 0x3e, 0x58, 0xca, 0x0f, 0xbf, 0xeb, 0x21, 0xd7, 0x3c, 0x0f, 0x73, 0xb3, 0xbd, 0xf4, 0x13, 0x81, 0xbe, 0xc0, 0x8e, 0x9c, 0x3b, 0x15, 0xbb, 0xea, 0xbd, 0x70, 0xc8, 0xcc, 0xbc, 0x54, 0x72, 0xb9, 0xbd, 0x40, 0x4e, 0x0d, 0xbd, 0xcf, 0xdb, 0x0f, 0xbe, 0x31, 0xac, 0x30, 0xbe, 0x8e, 0xa2, 0xaf, 0xbd, 0xcd, 0x9d, 0xfe, 0x3d, 0x1a, 0x1b, 0xa8, 0xbd, 0x40, 0x6e, 0x13, 0xbb, 0x3d, 0xdb, 0x0f, 0xbe, 0xb8, 0x34, 0xe0, 0x3b, 0x9e, 0xe9, 0x25, 0x3e, 0xd4, 0x30, 0x2d, 0x3e, 0x49, 0x1c, 0x23, 0x3e, 0xe4, 0x1d, 0x05, 0x3d, 0x08, 0x11, 0x64, 0xbd, 0xb0, 0x3e, 0x05, 0xbe, 0xd2, 0x4b, 0xe4, 0x3c, 0xf1, 0x98, 0xb4, 0xbd, 0x62, 0x17, 0xd5, 0x3d, 0xa4, 0xc4, 0x4d, 0xbd, 0xc0, 0xe0, 0xba, 0x3c, 0xce, 0x00, 0x9e, 0xbc, 0xc4, 0xb8, 0x9b, 0xbd, 0xde, 0xf4, 0x04, 0xbe, 0x58, 0x22, 0x3e, 0x3b, 0xf6, 0x7f, 0x45, 0xbe, 0xf5, 0x1c, 0x37, 0xbe, 0x70, 0xaf, 0x02, 0xbe, 0x0d, 0xf0, 0xc3, 0xbd, 0x0c, 0xe5, 0x21, 0x3e, 0x40, 0x83, 0x9f, 0x3b, 0x9a, 0x68, 0xfe, 0xbd, 0x02, 0x9d, 0xb9, 0x3b, 0x00, 0x77, 0x06, 0x3a, 0x66, 0xea, 0x00, 0xbe, 0xc6, 0xf1, 0x0b, 0xbe, 0x74, 0x16, 0x3b, 0xbe, 0x1c, 0xea, 0xa2, 0x3d, 0x31, 0xdd, 0x44, 0xba, 0xe0, 0x92, 0x19, 0xbe, 0x98, 0x18, 0xfe, 0x3d, 0xa3, 0x2c, 0xc9, 0xbd, 0xba, 0x0b, 0xe3, 0xbd, 0xb0, 0x3d, 0xa1, 0xbc, 0x08, 0x33, 0x2b, 0xbe, 0xb4, 0xa4, 0x72, 0xbd, 0x80, 0x4b, 0x9b, 0x3a, 0xfb, 0x3c, 0x02, 0xbd, 0xd1, 0x4f, 0x10, 0x3d, 0xc4, 0xcd, 0xef, 0xbd, 0x7f, 0x98, 0xde, 0x3d, 0x1c, 0xaa, 0x57, 0x3d, 0x38, 0x57, 0x57, 0xbd, 0xe5, 0x69, 0xae, 0x3d, 0x6f, 0x64, 0x0c, 0x3e, 0x50, 0xa3, 0xb3, 0x3c, 0xea, 0x00, 0x1e, 0xbe, 0x39, 0x8c, 0x0e, 0xbe, 0xe0, 0xf0, 0xc1, 0xbb, 0x14, 0xb4, 0x00, 0xbe, 0x98, 0x2e, 0xf3, 0xbd, 0xbc, 0x73, 0x0c, 0x3e, 0x24, 0xc0, 0x94, 0xbd, 0x7f, 0xe1, 0x4f, 0xbd, 0x7c, 0x01, 0x0f, 0xbe, 0x16, 0x1e, 0x2f, 0xbe, 0x41, 0xc3, 0xc8, 0xbc, 0x4e, 0x06, 0x2f, 0xbe, 0x40, 0xec, 0x06, 0xbc, 0x7e, 0x0d, 0xc7, 0x3d, 0x26, 0x7a, 0x4f, 0xbe, 0x92, 0x80, 0x3d, 0x3e, 0x31, 0xf8, 0x95, 0x3d, 0x5a, 0xc2, 0xe6, 0x3d, 0x02, 0x09, 0x16, 0xbe, 0x26, 0xbd, 0x0d, 0x3e, 0xd6, 0x55, 0x0d, 0xbe, 0x06, 0x93, 0x14, 0xbe, 0x63, 0x71, 0x28, 0xbe, 0x7d, 0x2a, 0x3d, 0xbe, 0x21, 0x74, 0x57, 0xbe, 0x76, 0xf6, 0x42, 0x3e, 0x38, 0x1a, 0x4a, 0xbe, 0x4c, 0xcf, 0x14, 0xbd, 0xa0, 0x33, 0x28, 0x3e, 0xf2, 0xfd, 0x21, 0xbe, 0xe3, 0x7c, 0x9b, 0x3d, 0x3e, 0x08, 0x18, 0x3e, 0xf3, 0xa2, 0x12, 0x3d, 0x21, 0x56, 0xe9, 0xbd, 0xfe, 0x32, 0x82, 0xbd, 0x83, 0xfc, 0x14, 0xbe, 0x26, 0x57, 0x65, 0xbb, 0x11, 0xb3, 0xa4, 0xbd, 0x25, 0xa9, 0xfb, 0xbd, 0x5f, 0x19, 0x25, 0xbc, 0x7f, 0x48, 0xc8, 0x3d, 0x3c, 0xeb, 0xc2, 0x3d, 0x46, 0xb7, 0xd7, 0x3d, 0xa2, 0x13, 0x96, 0xbd, 0xc0, 0x9e, 0xaf, 0x3b, 0xd2, 0x52, 0x09, 0x3e, 0xc1, 0xa0, 0xe1, 0x3d, 0x80, 0x4b, 0x6e, 0xbd, 0xbe, 0x3a, 0xcd, 0x3c, 0xf2, 0xc4, 0x85, 0x3d, 0xef, 0xc5, 0x90, 0xbd, 0x64, 0x7d, 0xf3, 0x3d, 0x96, 0x2c, 0xaa, 0xbc, 0x52, 0x01, 0x27, 0x3e, 0xe8, 0xb9, 0xfe, 0xbd, 0x44, 0x7b, 0xa7, 0x3d, 0xb8, 0x8d, 0xd0, 0xbd, 0x08, 0x5c, 0x7e, 0xbd, 0xf3, 0x5b, 0x8f, 0x3d, 0x40, 0x81, 0x98, 0xbb, 0xc0, 0x91, 0xd6, 0xbb, 0x29, 0xe9, 0xff, 0xbd, 0x95, 0x57, 0x5e, 0x3d, 0x29, 0xe9, 0x2e, 0xbe, 0xee, 0x77, 0x9e, 0xbd, 0x0e, 0x4a, 0xfe, 0xbc, 0xc4, 0x94, 0xad, 0x3d, 0x52, 0x4d, 0xcb, 0xbd, 0xb7, 0x49, 0x21, 0x3e, 0xf2, 0x41, 0x0e, 0x3e, 0x34, 0xf9, 0x22, 0x3e, 0xcb, 0x04, 0x0c, 0x3e, 0x6c, 0x13, 0x81, 0x3d, 0xb4, 0xb5, 0x30, 0xbd, 0x35, 0xc3, 0x0b, 0xbd, 0x4e, 0x3f, 0x06, 0x3e, 0xc0, 0x25, 0x7a, 0x3d, 0xeb, 0xcd, 0x1d, 0xbe, 0x2f, 0x8d, 0x13, 0xbe, 0xc0, 0xe9, 0x24, 0x3d, 0xde, 0x03, 0x1f, 0x3e, 0xdf, 0x45, 0xe0, 0x3d, 0x7c, 0x08, 0x24, 0x3d, 0x40, 0x1a, 0x8c, 0x3c, 0x3f, 0x00, 0xd3, 0x3d, 0x7f, 0x11, 0xc6, 0xbd, 0x9f, 0x7c, 0x1d, 0xbe, 0xc3, 0xb0, 0xbe, 0xbc, 0x72, 0xd9, 0xc2, 0x3e, 0xa2, 0xf1, 0x9d, 0xbd, 0x3e, 0x6c, 0xdc, 0x3e, 0xcd, 0x6d, 0x43, 0x3c, 0x23, 0x42, 0xac, 0xbd, 0x85, 0xb4, 0x26, 0x3d, 0x57, 0xb8, 0x13, 0x3f, 0x18, 0xc4, 0xaa, 0x3c, 0xb2, 0x34, 0x6e, 0x3e, 0xb7, 0xb0, 0xc9, 0x3e, 0x9a, 0x33, 0x79, 0x3d, 0xf9, 0x57, 0x8c, 0x3b, 0x7c, 0x2b, 0x81, 0x3e, 0x8c, 0xfb, 0xa8, 0xbc, 0x84, 0xe8, 0x9b, 0x3d, 0x0b, 0x1e, 0xfe, 0x3e, 0x2a, 0x5a, 0x80, 0xbf, 0x00, 0x35, 0xf4, 0x3d, 0x32, 0x15, 0x8d, 0x3f, 0xdb, 0x20, 0xc5, 0x3b, 0x65, 0xa4, 0x2b, 0xbd, 0xff, 0x4f, 0x6d, 0xbe, 0x2b, 0xf5, 0xa7, 0xbd, 0x3e, 0x0d, 0x10, 0xbe, 0x9e, 0xd3, 0x09, 0xbf, 0xbb, 0x19, 0xa2, 0x3f, 0x98, 0x30, 0x19, 0xbd, 0xc5, 0x76, 0xb0, 0x3d, 0xf8, 0x20, 0xf0, 0xbc, 0x5a, 0x23, 0x7f, 0xbd, 0xa8, 0xb1, 0x25, 0x3e, 0x9c, 0xed, 0x3b, 0x3f, 0xb5, 0x3d, 0x15, 0xbf, 0x60, 0x82, 0xb0, 0x3c, 0xd1, 0x07, 0x7a, 0x3d, 0xb1, 0xd6, 0x36, 0x3e, 0x00, 0xe3, 0xc1, 0xbd, 0x2c, 0xac, 0xd1, 0x3d, 0xf3, 0x79, 0xb3, 0x3e, 0x7a, 0x2c, 0x23, 0xbe, 0x1b, 0x77, 0x3b, 0xbe, 0x3d, 0x9f, 0x9b, 0x3d, 0x17, 0x74, 0xe0, 0x3d, 0xeb, 0x68, 0x27, 0x3e, 0x41, 0xc9, 0x20, 0xbf, 0x4b, 0xc9, 0x06, 0x3e, 0x64, 0x6f, 0x2b, 0x3e, 0x55, 0xf4, 0x24, 0xbf, 0x6f, 0xb4, 0x9d, 0x3e, 0x50, 0xcb, 0x5d, 0x3c, 0x2b, 0xc2, 0x32, 0x3e, 0x2d, 0x1e, 0x2c, 0x3e, 0x12, 0xf9, 0xb1, 0x3d, 0xed, 0x73, 0xf1, 0xbd, 0x7c, 0x7d, 0x61, 0x3e, 0x0c, 0x45, 0xf9, 0x3d, 0x60, 0xad, 0xb1, 0xbc, 0x45, 0xc4, 0x88, 0x3e, 0xb5, 0xa8, 0x01, 0xbd, 0x03, 0x4b, 0x93, 0x3d, 0xe1, 0x20, 0x83, 0x3d, 0x65, 0x95, 0x35, 0xbe, 0xe5, 0xfc, 0xd8, 0xbd, 0xaa, 0x98, 0xc0, 0xbf, 0x1a, 0x65, 0x89, 0x3f, 0x16, 0x59, 0x0b, 0x3e, 0xa8, 0xa5, 0x75, 0x3f, 0x37, 0x3d, 0x5b, 0xbd, 0x0e, 0x23, 0xc6, 0xbd, 0x8b, 0xc0, 0xb0, 0x3e, 0x88, 0xfa, 0x06, 0xbf, 0xb0, 0x65, 0x0e, 0x3d, 0x13, 0x2b, 0x7f, 0xbf, 0x1c, 0x6a, 0x0d, 0x3f, 0xc6, 0x65, 0x13, 0xbe, 0xf6, 0xe4, 0xc6, 0xbd, 0x99, 0xca, 0x57, 0x3f, 0xa9, 0x47, 0x90, 0xbd, 0x83, 0x52, 0x3f, 0xbe, 0x10, 0x49, 0x07, 0x3e, 0x2d, 0xee, 0xaf, 0x3c, 0x98, 0xbf, 0x19, 0x3e, 0x23, 0x42, 0x95, 0x3e, 0x0f, 0xb4, 0xd5, 0xbd, 0xca, 0x44, 0x42, 0x3d, 0x54, 0x2a, 0xae, 0x3e, 0x81, 0x97, 0x1d, 0x3e, 0x98, 0x44, 0xd9, 0xbd, 0xb7, 0x1c, 0x46, 0xbd, 0xd0, 0x13, 0xf4, 0xbe, 0x2c, 0x43, 0x40, 0xbe, 0xa6, 0x94, 0xf9, 0xbd, 0x45, 0x32, 0x0c, 0x3d, 0x00, 0x5c, 0x0c, 0xbe, 0x72, 0xdb, 0x1c, 0xbe, 0x01, 0x98, 0xcb, 0x3d, 0x55, 0xc8, 0x67, 0x3f, 0x00, 0x5f, 0xf7, 0x3d, 0xcc, 0x91, 0x01, 0xbf, 0x36, 0x50, 0x13, 0xbe, 0xdc, 0x87, 0x11, 0xbd, 0x27, 0x13, 0x87, 0x3e, 0x0b, 0xc5, 0x8e, 0x3f, 0x34, 0x78, 0x1b, 0x3e, 0x0d, 0x25, 0x29, 0x3f, 0x6a, 0x12, 0x12, 0xbf, 0x10, 0xf4, 0x0a, 0xbd, 0xf9, 0x69, 0x46, 0x3e, 0xb9, 0x58, 0xa0, 0xbe, 0xc1, 0x61, 0xf6, 0x3d, 0x50, 0xc9, 0x0d, 0x3e, 0xcb, 0xfe, 0x27, 0xbd, 0x96, 0x2b, 0x81, 0x3f, 0xf2, 0x1a, 0x19, 0xbe, 0x9b, 0x43, 0xff, 0xbe, 0x79, 0xb3, 0x0c, 0x3e, 0x07, 0x11, 0xb0, 0xbc, 0x7a, 0x09, 0x8f, 0x3e, 0x36, 0x8a, 0x5d, 0x3f, 0x80, 0xa1, 0x07, 0xbc, 0xb7, 0xfa, 0xaa, 0x3e, 0x54, 0x22, 0x1e, 0xbf, 0xbd, 0x59, 0x41, 0xbe, 0x88, 0x1f, 0x25, 0xbe, 0xbf, 0x4b, 0xe4, 0xbc, 0xed, 0x8f, 0x1a, 0x3e, 0x13, 0x80, 0xf2, 0xbd, 0x68, 0x6f, 0xdd, 0x3e, 0x7e, 0x2a, 0xdf, 0x3c, 0xf6, 0xae, 0x24, 0xbe, 0xc8, 0xf6, 0xa6, 0xbe, 0x80, 0xfe, 0xe5, 0x3b, 0x78, 0x61, 0x36, 0xbe, 0x18, 0x3d, 0x20, 0x3e, 0x2b, 0x96, 0x30, 0x3f, 0xe0, 0x4d, 0xba, 0x3b, 0x60, 0xb0, 0xd4, 0x3e, 0x2c, 0xbd, 0xc4, 0xbe, 0x07, 0xb4, 0xdf, 0x3c, 0x34, 0x9c, 0xd4, 0xbd, 0x1f, 0x19, 0xfa, 0xbb, 0xdf, 0x1e, 0x05, 0x3e, 0xfd, 0x3a, 0x95, 0xbd, 0x81, 0xe2, 0x84, 0x3d, 0x1a, 0xb2, 0x5f, 0x3d, 0xee, 0x54, 0x42, 0x3e, 0x16, 0xfe, 0x8d, 0x3e, 0xd1, 0x10, 0x96, 0x3d, 0x7f, 0xdd, 0xbc, 0xbd, 0x41, 0x64, 0x19, 0x3e, 0x9d, 0xfe, 0xc6, 0x3e, 0x7b, 0x9d, 0x31, 0xbe, 0xfe, 0x8c, 0xb6, 0x3d, 0x77, 0x8b, 0xdb, 0x3e, 0xbb, 0x88, 0xeb, 0xbd, 0x03, 0x88, 0x12, 0x3d, 0x0c, 0x02, 0x73, 0x3d, 0xa3, 0x84, 0x84, 0x3d, 0x40, 0xa0, 0x26, 0xbb, 0x3a, 0xb6, 0x9e, 0x3e, 0x6c, 0xae, 0x51, 0xbf, 0x55, 0x64, 0xa1, 0xbd, 0xe6, 0x97, 0x93, 0x3f, 0x26, 0x97, 0xf5, 0xbd, 0xec, 0x96, 0xaa, 0xbd, 0xeb, 0x4b, 0x3d, 0xbe, 0x46, 0x0a, 0x68, 0xbe, 0x80, 0x56, 0x88, 0xbd, 0x11, 0xd2, 0x2b, 0xbf, 0xb7, 0x06, 0xa2, 0x3f, 0x6c, 0x71, 0x05, 0xbe, 0x57, 0x30, 0xca, 0x3d, 0x6e, 0xc9, 0x9f, 0x3c, 0x93, 0x38, 0x7d, 0xbc, 0x2c, 0xfd, 0x77, 0xbd, 0xf7, 0xf1, 0x4b, 0x3f, 0x2f, 0x41, 0x3e, 0xbf, 0x24, 0x78, 0x8b, 0xbd, 0x1a, 0x04, 0x3d, 0x3e, 0xec, 0xd8, 0xef, 0x3d, 0x22, 0x93, 0xeb, 0xbd, 0xe5, 0x5e, 0x54, 0x3e, 0x29, 0xfb, 0xfc, 0x3e, 0xf2, 0x75, 0x04, 0xbe, 0xe2, 0x79, 0xb8, 0xbd, 0x9c, 0xba, 0x10, 0x3e, 0xd3, 0xef, 0x3f, 0x3e, 0x37, 0xa7, 0x49, 0x3e, 0x20, 0x55, 0x15, 0xbf, 0x50, 0x70, 0x5b, 0xba, 0x26, 0x63, 0x04, 0xbe, 0x33, 0x2f, 0x1c, 0xbf, 0xb7, 0x77, 0x18, 0x3f, 0xe0, 0xb2, 0xa9, 0x3d, 0x8c, 0x47, 0x15, 0x3e, 0x6e, 0x10, 0x38, 0x3e, 0x15, 0x2d, 0x04, 0xbd, 0xa4, 0xb6, 0x50, 0xbc, 0xdf, 0x73, 0x51, 0x3e, 0x70, 0x9f, 0x73, 0x3d, 0x29, 0xed, 0x0e, 0x3e, 0x58, 0x8f, 0x6e, 0x3e, 0x69, 0xae, 0x2c, 0xbe, 0xba, 0x6e, 0x3d, 0xbd, 0x28, 0xd7, 0x0a, 0x3e, 0x1a, 0x40, 0x0b, 0x3d, 0x17, 0xba, 0xc2, 0xbd, 0x57, 0x5a, 0xb6, 0xbf, 0x84, 0x61, 0x43, 0x3f, 0x84, 0xbf, 0xd4, 0x3d, 0x8f, 0xd5, 0x4c, 0x3f, 0x80, 0xdb, 0x3d, 0x3e, 0x73, 0xce, 0xe6, 0x3d, 0xcf, 0x33, 0xde, 0x3e, 0xd1, 0x7b, 0x20, 0xbf, 0x64, 0x41, 0x42, 0xbd, 0x17, 0x6b, 0x93, 0xbf, 0xa4, 0x4d, 0x18, 0x3f, 0x92, 0x74, 0xbb, 0xbd, 0x0a, 0xbe, 0x5f, 0x3e, 0x7a, 0xeb, 0x8c, 0x3f, 0xf3, 0x89, 0xeb, 0xbd, 0x93, 0x2f, 0x15, 0xbe, 0xab, 0x44, 0xa4, 0x3d, 0x2b, 0xc1, 0x12, 0x3e, 0xe6, 0x57, 0x0b, 0xbe, 0x5b, 0x81, 0xc9, 0x3e, 0x86, 0xb2, 0xe6, 0x3d, 0x59, 0xed, 0x12, 0xbe, 0x92, 0xe7, 0xf5, 0x3e, 0xcc, 0xf7, 0x31, 0x3e, 0x38, 0xd6, 0x37, 0x3d, 0xf3, 0x81, 0x7a, 0xbe, 0x9f, 0x43, 0xac, 0xbe, 0xd3, 0xdb, 0xf6, 0x3d, 0xf3, 0xce, 0x18, 0xbe, 0x3b, 0xaf, 0xc4, 0x3d, 0x05, 0x62, 0x00, 0x3e, 0x52, 0x11, 0x1c, 0xbe, 0x1c, 0xa7, 0x03, 0x3e, 0x63, 0x04, 0x3f, 0x3f, 0x82, 0xfc, 0x2f, 0x3e, 0x9d, 0x9a, 0x14, 0xbf, 0x2a, 0x3d, 0x0c, 0x3e, 0x51, 0xac, 0x8b, 0x3d, 0xa7, 0x88, 0x1d, 0x3e, 0xb6, 0x83, 0x57, 0x3f, 0x34, 0x84, 0xde, 0x3d, 0x49, 0xca, 0x1e, 0x3f, 0x56, 0xb5, 0x12, 0xbf, 0x31, 0xd6, 0xed, 0x3d, 0x5d, 0xf6, 0xb3, 0x3d, 0x6d, 0xe6, 0x39, 0x3d, 0x07, 0x64, 0xb2, 0x3d, 0x5c, 0xe5, 0x04, 0xbd, 0x9d, 0x29, 0xa4, 0xbe, 0xf6, 0x3e, 0x83, 0x3f, 0x08, 0xe0, 0x30, 0x3e, 0x45, 0xbd, 0xbb, 0xbe, 0xaf, 0xd8, 0x14, 0x3d, 0x4d, 0x52, 0x15, 0x3e, 0x14, 0x9f, 0xcd, 0x3e, 0x74, 0x91, 0x6f, 0x3f, 0xe4, 0xba, 0x14, 0xbe, 0x7e, 0x23, 0x6d, 0x3e, 0x82, 0xe7, 0x1a, 0xbf, 0x53, 0x42, 0xa4, 0x3d, 0xa8, 0xa9, 0x1b, 0x3e, 0x4e, 0x15, 0x09, 0xbe, 0x77, 0x0b, 0xe3, 0x3d, 0x2b, 0xe4, 0xa8, 0xbd, 0x7d, 0xe3, 0xa2, 0x3e, 0xf9, 0x81, 0xac, 0x3d, 0xb3, 0xe3, 0x2e, 0xbe, 0x75, 0xf7, 0xdb, 0xbe, 0xdf, 0x6e, 0x19, 0xbe, 0xee, 0x30, 0x99, 0x3b, 0x14, 0x6e, 0x84, 0x3e, 0x28, 0xe7, 0x37, 0x3f, 0x88, 0xab, 0x0f, 0xbe, 0xcc, 0xec, 0x04, 0x3f, 0x43, 0x96, 0x20, 0xbf, 0xcd, 0x03, 0x19, 0xbd, 0x8b, 0xb2, 0x4f, 0xbe, 0x43, 0x95, 0x7b, 0xbc, 0xe5, 0x2c, 0x0e, 0xbe, 0xb0, 0x9c, 0xa4, 0xbc, 0xfe, 0x37, 0xee, 0x3d, 0xfb, 0x42, 0xa0, 0xbe, 0x9c, 0xc2, 0x36, 0x3e, 0xe5, 0x91, 0xd2, 0x3a, 0x39, 0x9b, 0xe5, 0xbd, 0x1b, 0x80, 0x15, 0xbe, 0x4d, 0x35, 0x18, 0x3e, 0xd7, 0xc1, 0xe5, 0xbe, 0x2e, 0xb2, 0x3a, 0x3e, 0xb6, 0x5f, 0x98, 0x3d, 0x27, 0xc8, 0x82, 0xbe, 0x20, 0xc4, 0x29, 0x3c, 0x5e, 0x7e, 0xf4, 0xbc, 0x4b, 0xea, 0x88, 0x3d, 0xe0, 0x02, 0x18, 0x3e, 0x3c, 0x9c, 0xb0, 0x3d, 0x5b, 0xb5, 0x3d, 0xbe, 0x79, 0x10, 0x5c, 0x3f, 0xa4, 0xcb, 0x02, 0xbd, 0x2b, 0x79, 0x49, 0xbf, 0x47, 0x0a, 0x33, 0x3e, 0xa1, 0xdb, 0x88, 0xbd, 0x2b, 0x53, 0xc0, 0x3e, 0x10, 0x38, 0xc6, 0x3e, 0x58, 0xf4, 0x9e, 0x3d, 0xec, 0x65, 0x2d, 0x3f, 0xdf, 0x5f, 0x87, 0xbf, 0xc8, 0x40, 0xa2, 0xbc, 0xc0, 0x63, 0x51, 0x3e, 0xf8, 0x56, 0x3e, 0x3e, 0x98, 0x6d, 0x9e, 0xbc, 0x58, 0x2e, 0x3b, 0xbd, 0xa0, 0x28, 0x3a, 0xbf, 0x76, 0xb5, 0x45, 0x3f, 0x20, 0x83, 0xf2, 0x3b, 0xd4, 0xed, 0x32, 0xbe, 0xda, 0x0c, 0x28, 0x3d, 0xd6, 0xc4, 0xb6, 0xbc, 0xdd, 0x30, 0xb6, 0xbd, 0xca, 0xc9, 0x1c, 0xbf, 0xc8, 0x22, 0xa7, 0x3d, 0x32, 0xc5, 0x5c, 0x3e, 0xcb, 0xd7, 0xeb, 0x3d, 0x29, 0xbb, 0xb8, 0xbd, 0x6a, 0xc3, 0xac, 0x3d, 0x78, 0xdb, 0x1b, 0x3f, 0xec, 0x57, 0x2f, 0x3d, 0xfc, 0x2c, 0xba, 0x3d, 0x2d, 0x38, 0x13, 0x3f, 0xd4, 0x20, 0x1d, 0xbe, 0x30, 0xf5, 0x80, 0x3d, 0x42, 0x1a, 0xac, 0x3d, 0xe3, 0x1e, 0xc9, 0x3d, 0x7d, 0xb1, 0x43, 0x3e, 0xfa, 0x41, 0xdd, 0x3d, 0x47, 0x11, 0xd7, 0xbd, 0xa6, 0xa0, 0x39, 0x3e, 0x20, 0xfb, 0x0b, 0x3e, 0xaa, 0x3d, 0x24, 0xbe, 0xea, 0x18, 0x00, 0xbe, 0xa6, 0xe9, 0x8c, 0x3d, 0x8a, 0xe5, 0xd7, 0x3c, 0x28, 0xfe, 0xcd, 0xbd, 0xdc, 0xcd, 0x46, 0xbd, 0xda, 0xd4, 0xb8, 0x3f, 0x6f, 0x19, 0x4a, 0xbf, 0x84, 0x56, 0x45, 0x3e, 0x4b, 0x41, 0x76, 0xbf, 0x58, 0x6a, 0xb2, 0xbc, 0x33, 0x7f, 0xd0, 0x3d, 0x23, 0x59, 0x68, 0xbe, 0xfc, 0x49, 0x32, 0x3f, 0xb5, 0xd7, 0xe8, 0xbd, 0x5f, 0xd9, 0x91, 0x3f, 0x68, 0x48, 0xf9, 0xbe, 0x80, 0x34, 0x81, 0x3b, 0x50, 0x73, 0xf0, 0x3d, 0xa1, 0x07, 0x48, 0xbf, 0xf5, 0x3b, 0x0b, 0xbe, 0xc8, 0x2f, 0x3b, 0xbe, 0xc8, 0x39, 0x1b, 0xbe, 0x1c, 0x5a, 0xdb, 0xbd, 0x04, 0xd2, 0x67, 0xbd, 0xbe, 0xc4, 0x54, 0x3d, 0x91, 0x59, 0x6a, 0x3d, 0x08, 0xc2, 0xd8, 0xbc, 0x4e, 0x13, 0x3c, 0xbd, 0xbf, 0x46, 0x0f, 0x3e, 0xc4, 0x0a, 0xab, 0x3d, 0x5f, 0xfd, 0x8b, 0x3e, 0xae, 0x03, 0x2d, 0x3f, 0xe0, 0xf8, 0x13, 0x3e, 0xb5, 0x34, 0xf9, 0xbd, 0x13, 0xaf, 0xed, 0x3d, 0x46, 0x1f, 0xbe, 0xbd, 0xa3, 0xdd, 0x11, 0xbe, 0x88, 0xdf, 0x80, 0x3e, 0x80, 0xb2, 0x20, 0xbf, 0x90, 0xdc, 0x59, 0x3d, 0xf8, 0xb9, 0x61, 0x3f, 0xdc, 0x96, 0x21, 0x3e, 0x27, 0x13, 0x68, 0x3c, 0x3a, 0x0b, 0xd2, 0x3d, 0xd6, 0x46, 0x42, 0xbf, 0x70, 0xbe, 0x48, 0x3c, 0xee, 0x34, 0xb0, 0xbe, 0x26, 0xed, 0x3a, 0x3f, 0x24, 0x63, 0xbc, 0xbd, 0x4a, 0x19, 0x2a, 0x3d, 0x75, 0x26, 0x92, 0x3e, 0xfb, 0x65, 0xf2, 0xbd, 0x3c, 0xd4, 0xdf, 0x3d, 0x4c, 0x14, 0xdf, 0x3e, 0x9f, 0x3c, 0x61, 0xbf, 0xc4, 0x43, 0x29, 0xbd, 0x74, 0x27, 0x25, 0x3f, 0x75, 0x19, 0xd7, 0x3d, 0x5c, 0x95, 0xf8, 0x3c, 0x43, 0xab, 0x42, 0xbe, 0x00, 0x5d, 0x40, 0xbf, 0x38, 0x88, 0x07, 0xbd, 0xc4, 0x6a, 0x8e, 0xbe, 0x22, 0xa1, 0x0b, 0x3f, 0xe2, 0x5a, 0x0b, 0x3e, 0xf3, 0xaf, 0x5e, 0x3c, 0xe2, 0xb7, 0x3a, 0x3e, 0xb8, 0x6f, 0x43, 0x3e, 0xe9, 0x04, 0x24, 0x3e, 0xbf, 0xa4, 0x6a, 0xbe, 0xb0, 0x7a, 0x70, 0xbe, 0x1a, 0xf2, 0xd9, 0xbd, 0x24, 0x17, 0xc3, 0x3e, 0x93, 0xcb, 0x3f, 0xbc, 0xd1, 0x96, 0x12, 0x3e, 0xb8, 0x39, 0x25, 0x3e, 0x00, 0xc4, 0x16, 0xbf, 0x38, 0x56, 0xad, 0x3d, 0x33, 0x30, 0xc4, 0xbe, 0xaf, 0x72, 0x4a, 0x3f, 0x90, 0x3d, 0x5f, 0x3c, 0x26, 0xbb, 0x3c, 0xbd, 0x62, 0xaa, 0xa7, 0x3e, 0x60, 0x18, 0xbb, 0xbb, 0xad, 0xea, 0xbd, 0xbd, 0x15, 0xa0, 0x3c, 0xbe, 0x60, 0xa3, 0x73, 0xbd, 0x2c, 0x0f, 0x20, 0xbe, 0xf0, 0x8e, 0xfd, 0xbd, 0x93, 0x03, 0x31, 0x3e, 0x23, 0xd5, 0x19, 0xbd, 0x48, 0x11, 0xc7, 0x3d, 0xd5, 0x7c, 0xe9, 0xbd, 0xc0, 0x6e, 0x5d, 0x3c, 0xac, 0xb7, 0xc0, 0x3d, 0x90, 0x2f, 0x3a, 0x3d, 0x76, 0x2f, 0x0b, 0xbe, 0xfb, 0xb0, 0x94, 0xbd, 0x6b, 0x26, 0x9a, 0xbd, 0xba, 0x5d, 0x2a, 0xbe, 0xdc, 0xbd, 0x99, 0x3d, 0xa2, 0xf9, 0x17, 0xbe, 0x30, 0xc1, 0x20, 0x3e, 0x8c, 0x67, 0x4f, 0xbd, 0x1d, 0xea, 0x39, 0xbe, 0x3c, 0x65, 0x37, 0x3e, 0xc4, 0xf7, 0x02, 0x3e, 0x4a, 0xb5, 0x35, 0xbd, 0x82, 0xdf, 0x54, 0xbd, 0x34, 0x69, 0x38, 0x3e, 0xe4, 0xe6, 0xfa, 0x3d, 0xf2, 0x4f, 0x85, 0xbc, 0x10, 0xd8, 0x38, 0x3e, 0x92, 0x46, 0xcf, 0x3d, 0x22, 0x86, 0x0e, 0x3e, 0x36, 0xb6, 0x9e, 0xbd, 0xec, 0x44, 0x46, 0x3e, 0x06, 0x08, 0xa4, 0xbd, 0xd7, 0xe4, 0xa7, 0x3c, 0x40, 0x63, 0x54, 0x3b, 0xdc, 0xbf, 0x57, 0xbc, 0xf1, 0xf4, 0xb8, 0xbd, 0x8e, 0x8f, 0x05, 0xbe, 0x92, 0x55, 0xd6, 0x3a, 0x82, 0x6e, 0x3c, 0x3d, 0xbf, 0xfa, 0x03, 0xbe, 0x66, 0xaf, 0x1e, 0x3e, 0x41, 0x0d, 0xff, 0xbd, 0x12, 0x7f, 0xde, 0xbd, 0x1d, 0xfb, 0x35, 0xbe, 0xc2, 0x33, 0xe5, 0x3d, 0x3c, 0xc6, 0x35, 0xbd, 0x84, 0xd8, 0x53, 0x3d, 0x77, 0x65, 0x01, 0xbd, 0x58, 0xd3, 0x09, 0xbe, 0x91, 0xcf, 0x35, 0xbe, 0x28, 0xbb, 0x3c, 0x3e, 0x76, 0xe7, 0xbd, 0xbd, 0x37, 0x0a, 0x88, 0xbd, 0xc3, 0x00, 0xb3, 0x3c, 0xe3, 0x89, 0x16, 0x3d, 0x60, 0x0e, 0x6f, 0x3d, 0xc5, 0xd6, 0x46, 0xbe, 0x3e, 0x31, 0x3f, 0x3d, 0x76, 0x1e, 0x17, 0x3e, 0x53, 0x81, 0x30, 0x3e, 0x60, 0x2a, 0xb6, 0x3d, 0x10, 0x15, 0x06, 0x3c, 0x08, 0x0f, 0x94, 0x3d, 0xb4, 0x02, 0x9d, 0xbd, 0xdd, 0xae, 0x89, 0x3c, 0xbc, 0x2c, 0x13, 0xbe, 0x30, 0x26, 0x14, 0xbc, 0xd7, 0x08, 0xc3, 0x3d, 0x58, 0xb6, 0xf0, 0x3d, 0x4d, 0x9b, 0xf4, 0xba, 0xcf, 0x9c, 0x98, 0xbd, 0x4c, 0xca, 0xed, 0x3d, 0xce, 0x93, 0x34, 0xbe, 0xf8, 0x5b, 0x32, 0x3d, 0x00, 0x34, 0x44, 0x3d, 0x8e, 0x07, 0x2c, 0x3e, 0x40, 0xce, 0xfe, 0x3c, 0x7d, 0xd2, 0x09, 0x3e, 0x7a, 0xec, 0x23, 0xbe, 0xe7, 0x65, 0xc9, 0xbd, 0x62, 0x78, 0xd8, 0x3d, 0x92, 0x8e, 0x38, 0x3e, 0x2e, 0x92, 0xec, 0x3d, 0xb6, 0x0a, 0xef, 0x3d, 0xf3, 0x85, 0xa5, 0x3d, 0xd9, 0x10, 0x17, 0x3d, 0xd1, 0x9a, 0x10, 0xbe, 0x0e, 0x7a, 0xc5, 0xbd, 0xbc, 0xfe, 0x04, 0xbe, 0x1f, 0xbe, 0x21, 0xbe, 0x76, 0x73, 0x2a, 0x3e, 0x8f, 0x74, 0x33, 0xbe, 0xb6, 0x10, 0x13, 0x3e, 0xb0, 0x20, 0x91, 0x3d, 0xf8, 0x6f, 0x2d, 0xbe, 0x82, 0xff, 0x50, 0xbd, 0x1c, 0x42, 0x1d, 0x3d, 0xdb, 0x37, 0xd8, 0xbd, 0xfa, 0x86, 0x70, 0xbd, 0x04, 0xe8, 0x2c, 0x3b, 0x2b, 0x70, 0xc1, 0x3d, 0x7c, 0xec, 0x8d, 0x3c, 0x37, 0xd9, 0xe4, 0x3d, 0xc4, 0xc5, 0xd5, 0xbd, 0x47, 0x24, 0xeb, 0xbc, 0x9e, 0x22, 0xfe, 0x3c, 0x40, 0xb8, 0x9e, 0x3b, 0xcf, 0x67, 0x20, 0xbe, 0x25, 0x66, 0xe1, 0xbd, 0x40, 0xb2, 0x03, 0x3e, 0xe7, 0x96, 0x90, 0xbd, 0x5a, 0x05, 0x0b, 0x3e, 0xac, 0x64, 0xdb, 0xbd, 0x3a, 0x52, 0x41, 0x3e, 0xa7, 0x36, 0x0d, 0xbe, 0x11, 0xe6, 0xec, 0xbd, 0x2c, 0xed, 0xf0, 0x3c, 0xcb, 0xb5, 0x52, 0xbd, 0xbf, 0x6c, 0xde, 0xbc, 0xb0, 0xfc, 0x4a, 0x3d, 0xce, 0x8d, 0x36, 0x3e, 0xc0, 0xc2, 0x25, 0x3e, 0x32, 0x69, 0xeb, 0xbd, 0x3b, 0x1e, 0xa4, 0x3d, 0xc9, 0x19, 0x3e, 0xbe, 0xec, 0x19, 0x2c, 0x3e, 0xe2, 0xe5, 0x3e, 0x3e, 0x13, 0x0e, 0x74, 0x3c, 0x9d, 0x0f, 0x5e, 0x3d, 0xc0, 0x70, 0x66, 0x3d, 0x2d, 0x9c, 0x08, 0xbe, 0xf7, 0x1c, 0xe1, 0x3d, 0xf9, 0xef, 0x91, 0x3d, 0xdd, 0x46, 0xbd, 0xbd, 0xf7, 0xe2, 0x55, 0x3d, 0x36, 0x10, 0x19, 0x3e, 0x7d, 0xcb, 0xd4, 0xbc, 0xd8, 0x80, 0xae, 0xbd, 0x34, 0xc8, 0x1d, 0xbe, 0x2c, 0x7c, 0x15, 0xbe, 0x37, 0xba, 0x3d, 0x3d, 0x84, 0xad, 0xa4, 0x3d, 0xad, 0x54, 0xad, 0xbd, 0xc0, 0x89, 0x6b, 0xbd, 0xe0, 0xd8, 0x1f, 0x3d, 0xfa, 0x20, 0x1b, 0x3e, 0xde, 0xaf, 0x2c, 0xbe, 0xe4, 0x2a, 0x59, 0x3d, 0x14, 0x1e, 0x0f, 0x3d, 0xca, 0x82, 0x14, 0xbe, 0x90, 0xf7, 0xe1, 0x3c, 0xec, 0xe9, 0x4c, 0xbd, 0x2e, 0x67, 0x3b, 0xbe, 0xc8, 0x24, 0x9e, 0xbd, 0xdb, 0xff, 0x9b, 0xbd, 0x38, 0x4c, 0x0e, 0x3d, 0xa0, 0xb9, 0x8f, 0x3c, 0x58, 0xae, 0xc3, 0xbc, 0x56, 0xae, 0x86, 0xbd, 0xdc, 0x19, 0x42, 0x3e, 0x44, 0xbd, 0x19, 0x3d, 0x98, 0x76, 0x85, 0xbc, 0xc0, 0x9f, 0xe2, 0x3b, 0x19, 0x10, 0x13, 0xbe, 0x04, 0x7d, 0x3a, 0xbd, 0x0c, 0x0f, 0x14, 0x3e, 0x9c, 0x02, 0x34, 0xbe, 0x48, 0x87, 0x29, 0x3e, 0xf8, 0x3f, 0xf4, 0xbc, 0x7e, 0xe8, 0x89, 0xbd, 0x7e, 0xbd, 0xc5, 0xbd, 0xb7, 0x7b, 0x8f, 0xbd, 0x83, 0x0f, 0xf1, 0xbd, 0x07, 0x95, 0xb6, 0xbd, 0x40, 0x06, 0x3a, 0x3d, 0x84, 0x60, 0x06, 0xbd, 0x80, 0xd6, 0x27, 0x3c, 0xf6, 0x59, 0x01, 0xbe, 0x38, 0xf5, 0xe7, 0x3d, 0x2e, 0x10, 0x2f, 0xbe, 0xba, 0x19, 0x04, 0x3e, 0x14, 0x04, 0x53, 0xbd, 0xe5, 0x07, 0x25, 0xbe, 0xa0, 0xfb, 0x41, 0xbe, 0xa1, 0x6f, 0xe4, 0xbd, 0x74, 0x36, 0x36, 0xbe, 0x59, 0xcd, 0x3a, 0xbe, 0xc9, 0x4d, 0xb5, 0xbd, 0xec, 0x9a, 0x10, 0x3e, 0x58, 0xaa, 0x63, 0xbd, 0x68, 0x88, 0x1b, 0x3d, 0x20, 0x46, 0xbb, 0x3c, 0x2e, 0xe9, 0x2d, 0xbe, 0x85, 0xcb, 0x34, 0xbe, 0x06, 0x8b, 0xff, 0xbd, 0xd9, 0xb1, 0x14, 0xbe, 0x61, 0xc0, 0xe9, 0xbd, 0xa0, 0x67, 0x43, 0xbe, 0xf0, 0xa2, 0x9b, 0xbc, 0x8b, 0x4b, 0x43, 0xbe, 0x78, 0x8f, 0x49, 0x3d, 0xac, 0x1a, 0x59, 0x3d, 0x4c, 0x29, 0x0a, 0xbe, 0x24, 0x34, 0x3a, 0x3d, 0xb4, 0x89, 0x28, 0xbe, 0x25, 0x95, 0x2f, 0xbe, 0xb0, 0x1c, 0xa8, 0xbd, 0x40, 0x7d, 0x16, 0xbd, 0xa8, 0xd1, 0x28, 0xbd, 0x80, 0xbf, 0x68, 0x3c, 0xc8, 0xfd, 0xb4, 0x3d, 0xfc, 0x98, 0xa7, 0xbd, 0xe8, 0xcf, 0xce, 0x3d, 0x80, 0x4b, 0x9f, 0xbc, 0x0e, 0x97, 0x01, 0x3e, 0x90, 0xeb, 0xe6, 0xbc, 0x21, 0x52, 0xf7, 0xbd, 0x08, 0x0f, 0x53, 0xbd, 0xf8, 0x24, 0xe7, 0x3d, 0x28, 0x34, 0x3c, 0xbd, 0x00, 0x0d, 0x0b, 0xba, 0x10, 0xb2, 0x05, 0x3e, 0x00, 0xff, 0x6a, 0x3d, 0x44, 0xc7, 0x9d, 0x3d, 0xc4, 0x7f, 0x5c, 0x3d, 0x12, 0xdd, 0x43, 0x3e, 0x5d, 0xe1, 0xfe, 0xbd, 0xe8, 0x11, 0x15, 0xbd, 0x48, 0xb0, 0x02, 0xbe, 0x74, 0x27, 0x03, 0x3e, 0x38, 0xed, 0xbe, 0x3d, 0x20, 0x81, 0x47, 0x3d, 0xe0, 0xa6, 0x29, 0x3c, 0x43, 0x3d, 0xac, 0xbd, 0x3c, 0x07, 0xb8, 0x3d, 0x48, 0x32, 0x27, 0x3d, 0xc6, 0xb6, 0x17, 0x3e, 0xac, 0x4c, 0x8c, 0x3d, 0xd6, 0xac, 0xed, 0xbd, 0x2e, 0x8f, 0x3e, 0xbe, 0x16, 0x60, 0x24, 0xbe, 0x40, 0xfe, 0x58, 0xbd, 0x28, 0xeb, 0x82, 0x3c, 0xe8, 0xbf, 0x15, 0x3d, 0x58, 0xca, 0xd7, 0x3d, 0x68, 0x13, 0x36, 0xbd, 0x94, 0x92, 0x56, 0xbd, 0xbc, 0x7e, 0x45, 0x3e, 0x48, 0x41, 0x77, 0x3d, 0xe9, 0x97, 0x0b, 0xbe, 0x7b, 0xe9, 0x10, 0xbe, 0x1c, 0x9c, 0x61, 0xbd, 0x70, 0x30, 0x41, 0x3c, 0x14, 0x54, 0xc6, 0x3d, 0x40, 0x25, 0x10, 0x3d, 0x10, 0xa5, 0x82, 0x3c, 0x2c, 0x3d, 0x30, 0x3e, 0xe0, 0xbe, 0x40, 0x3e, 0x08, 0x3b, 0x5f, 0x3d, 0xa0, 0x9d, 0x94, 0x3d, 0x30, 0x6e, 0x17, 0x3d, 0x15, 0x52, 0x0d, 0xbe, 0x66, 0x21, 0x12, 0x3e, 0x15, 0x22, 0x3e, 0xbe, 0x65, 0x82, 0xc8, 0xbd, 0xc8, 0x9f, 0x23, 0x3e, 0xc1, 0x15, 0x17, 0xbe, 0x60, 0xf7, 0x84, 0xbc, 0x00, 0x0e, 0x84, 0xbc, 0xd4, 0x85, 0xb5, 0x3d, 0xa0, 0x19, 0x10, 0x3e, 0x8c, 0xbd, 0x30, 0xbd, 0xbc, 0x2e, 0x76, 0xbd, 0x43, 0x7a, 0xa6, 0xbd, 0x5c, 0x58, 0x5b, 0x3d, 0xb0, 0xed, 0xc9, 0xbc, 0x70, 0xc2, 0x70, 0x3c, 0x18, 0x28, 0x46, 0x3d, 0xc4, 0xef, 0xa7, 0x3d, 0x96, 0x09, 0x1c, 0x3e, 0x60, 0x1c, 0x8c, 0xbd, 0x50, 0xbb, 0x85, 0x3d, 0xfb, 0x65, 0xcf, 0xbd, 0xbc, 0x37, 0x5d, 0x3d, 0xa0, 0xe9, 0x77, 0x3c, 0xa7, 0x25, 0x87, 0x3c, 0x80, 0x2c, 0x9c, 0x3d, 0x06, 0x7f, 0x74, 0x3e, 0xb8, 0xa5, 0x07, 0xbe, 0xf0, 0xdb, 0xd5, 0xbd, 0xbb, 0xb2, 0x23, 0xbe, 0x30, 0x0e, 0xd0, 0xbd, 0xc4, 0x83, 0x59, 0xbd, 0x21, 0x15, 0x8f, 0x3d, 0x07, 0xd3, 0xf1, 0xbe, 0xee, 0x08, 0x0c, 0x3e, 0x70, 0x6b, 0x2e, 0xbe, 0x92, 0x1a, 0x52, 0xbe, 0x47, 0x3f, 0xf5, 0x3d, 0x89, 0x0b, 0x0a, 0x3e, 0x29, 0x60, 0xbe, 0xbd, 0x6a, 0x69, 0xb4, 0x3d, 0x6c, 0x0c, 0x4b, 0x3d, 0xbe, 0x4c, 0xc4, 0xbd, 0xe8, 0xcb, 0x94, 0x3f, 0xe8, 0x02, 0xff, 0xbc, 0x4a, 0xe0, 0x73, 0xbf, 0x72, 0x47, 0x24, 0x3e, 0x5c, 0xd3, 0x15, 0xbd, 0xd8, 0xfb, 0xe8, 0x3e, 0x80, 0x04, 0xef, 0x3e, 0x7e, 0x57, 0x2c, 0x3e, 0x6d, 0xa8, 0x22, 0x3f, 0x65, 0xa8, 0xa0, 0xbf, 0x49, 0x3b, 0x3e, 0x3e, 0x8c, 0x9f, 0x58, 0xbd, 0x7c, 0x5b, 0xf9, 0xbc, 0x45, 0x0f, 0xa5, 0xbd, 0x64, 0x66, 0xe5, 0x3d, 0x2b, 0x1f, 0xf1, 0xbe, 0xf1, 0x31, 0x4e, 0x3f, 0x21, 0xdd, 0x2e, 0xbe, 0x83, 0x7c, 0x91, 0x3c, 0x57, 0x73, 0xd3, 0xbd, 0x88, 0x49, 0xb2, 0xbd, 0x0a, 0xef, 0xe4, 0x3c, 0x60, 0x28, 0xf7, 0xbe, 0x1c, 0x00, 0xa5, 0x3d, 0x43, 0xa2, 0x5f, 0x3d, 0xb2, 0x5c, 0x76, 0x3e, 0x80, 0x0f, 0x17, 0x3e, 0xcb, 0x8e, 0x9f, 0x3d, 0xff, 0xfa, 0x56, 0x3f, 0x3b, 0x3b, 0x3a, 0xbe, 0xe0, 0x3f, 0xfc, 0x3d, 0x67, 0xbb, 0x36, 0x3f, 0xb9, 0x0a, 0x0f, 0xbf, 0xe4, 0x81, 0x50, 0xbd, 0x9d, 0x7b, 0x34, 0x3e, 0x8c, 0x80, 0x14, 0xbe, 0x3f, 0xd5, 0xb9, 0x3c, 0x9b, 0x62, 0xc2, 0x3d, 0x5c, 0xc5, 0xa8, 0xbe, 0x30, 0x69, 0x1c, 0x3e, 0x70, 0x2f, 0x01, 0x3e, 0x55, 0x47, 0x59, 0x3d, 0x61, 0x0c, 0x86, 0x3d, 0x75, 0x50, 0x5d, 0xbe, 0xcd, 0x54, 0xa5, 0x3d, 0x2b, 0xc0, 0x74, 0xbd, 0x37, 0x66, 0xdf, 0xbd, 0xbf, 0x3f, 0xda, 0x3f, 0x59, 0xb7, 0x79, 0xbf, 0x14, 0x82, 0x29, 0x3e, 0x0f, 0xee, 0x25, 0xbf, 0x59, 0xa5, 0xe8, 0x3d, 0x18, 0xe7, 0x1e, 0xbe, 0x25, 0x6b, 0x9d, 0xbd, 0xe8, 0xaf, 0x07, 0x3f, 0x00, 0x66, 0x53, 0xbb, 0xc8, 0xe1, 0x9e, 0x3f, 0x22, 0xc7, 0x04, 0xbf, 0x33, 0x9f, 0x05, 0x3d, 0x86, 0x9b, 0x11, 0x3e, 0x72, 0x8d, 0x38, 0xbf, 0xc4, 0x5c, 0x02, 0xbe, 0x38, 0xc9, 0x25, 0xbd, 0x34, 0xe4, 0x5a, 0xbe, 0x28, 0x2f, 0xd9, 0x3c, 0x14, 0xfa, 0xb2, 0x3d, 0xd0, 0xe9, 0x5f, 0xbe, 0xe8, 0x50, 0x55, 0xbd, 0x70, 0x35, 0x3c, 0x3e, 0xad, 0x3b, 0x82, 0xbe, 0x82, 0x1a, 0x89, 0x3e, 0x20, 0x3e, 0x8a, 0x3b, 0x03, 0xbd, 0x2b, 0x3e, 0xdc, 0x72, 0x10, 0x3f, 0x68, 0xec, 0x10, 0x3e, 0xff, 0xc4, 0x8e, 0x3d, 0xc0, 0x65, 0x92, 0x3c, 0xe4, 0x77, 0x42, 0xbd, 0x94, 0x21, 0x14, 0xbe, 0x8d, 0xba, 0x92, 0x3e, 0xe3, 0x01, 0x20, 0xbf, 0x18, 0xfc, 0x53, 0x3d, 0xa4, 0x15, 0x3f, 0x3f, 0x8d, 0x77, 0xb3, 0xbd, 0x70, 0xa7, 0xf2, 0x3d, 0x5e, 0xff, 0xef, 0xbd, 0x65, 0x77, 0x7a, 0xbf, 0xed, 0xa9, 0xb2, 0xbd, 0xa8, 0x02, 0xed, 0xbe, 0x82, 0x71, 0x74, 0x3f, 0x34, 0xdc, 0x38, 0x3c, 0xed, 0xbb, 0xb7, 0x3d, 0xef, 0x0c, 0xae, 0x3e, 0x37, 0x0f, 0x26, 0x3e, 0xbc, 0xfd, 0x85, 0x3d, 0x42, 0x4a, 0x7c, 0x3e, 0x57, 0xd7, 0x35, 0xbf, 0x48, 0x40, 0xa1, 0xbc, 0x2a, 0x5b, 0x42, 0x3f, 0xac, 0x1a, 0x44, 0x3e, 0xae, 0x1d, 0x42, 0x3e, 0x66, 0xf0, 0x83, 0xbe, 0x79, 0xb0, 0x3c, 0xbf, 0xd4, 0x70, 0xe2, 0x3d, 0xe9, 0xe3, 0x14, 0xbe, 0x5a, 0x63, 0x11, 0x3f, 0xd3, 0x9b, 0x0d, 0xbe, 0xe7, 0x83, 0x1f, 0x3e, 0xd6, 0x6f, 0x85, 0x3e, 0x1b, 0xf4, 0x3e, 0xbe, 0x4f, 0x68, 0x2b, 0xbe, 0x42, 0xf6, 0xbd, 0xbe, 0x8b, 0x28, 0xb1, 0x3d, 0xbc, 0x52, 0xfc, 0x3d, 0x5e, 0x63, 0x0f, 0x3f, 0xb7, 0x36, 0x9a, 0x3c, 0xe8, 0xa4, 0x3d, 0x3d, 0x08, 0xc9, 0x31, 0x3d, 0x5e, 0x78, 0x20, 0xbf, 0x6c, 0xa5, 0x07, 0x3e, 0x0d, 0x66, 0x05, 0xbf, 0x8b, 0x24, 0x32, 0x3f, 0x20, 0x66, 0x36, 0xbd, 0x4b, 0x53, 0xf5, 0xbc, 0x8f, 0x97, 0xc2, 0x3d, 0x1c, 0x06, 0x46, 0x3d, 0x68, 0x47, 0xd9, 0xbc, 0x1f, 0x1d, 0xbf, 0xbd, 0xb6, 0x3f, 0x10, 0x3d, 0x49, 0xa7, 0x40, 0xbe, 0xbb, 0x8c, 0x32, 0xbd, 0x7f, 0x5f, 0x25, 0x3e, 0xa1, 0x0e, 0x12, 0xbe, 0xb7, 0x26, 0xb0, 0x3d, 0xa2, 0xc9, 0x4e, 0x3d, 0x3c, 0x00, 0x5a, 0xbd, 0x03, 0x28, 0x2f, 0xbe, 0x94, 0x8f, 0xc3, 0xbd, 0xb8, 0x74, 0xac, 0x3d, 0x8c, 0xb5, 0x93, 0xbd, 0x90, 0x55, 0x8e, 0xbd, 0xab, 0xa9, 0xcb, 0xbd, 0xc0, 0x06, 0x87, 0x3b, 0x56, 0x20, 0x0e, 0x3e, 0x40, 0x32, 0x4d, 0xbe, 0x66, 0x11, 0x06, 0xbe, 0xa0, 0x5d, 0x01, 0x3e, 0x47, 0x89, 0x24, 0xbe, 0x5d, 0xed, 0x1d, 0x3e, 0x75, 0x4e, 0x3c, 0xbe, 0xc7, 0x17, 0xeb, 0x3d, 0x98, 0xf8, 0x06, 0x3e, 0x99, 0x90, 0xed, 0x3d, 0x0b, 0xd3, 0x4f, 0xbe, 0xf5, 0x56, 0x3d, 0xbe, 0x0b, 0xff, 0x2d, 0xbe, 0xa2, 0x1e, 0x8b, 0x3d, 0xae, 0xc3, 0x43, 0xbe, 0xda, 0xa1, 0x9e, 0xbd, 0x5b, 0x68, 0x51, 0xbe, 0x87, 0xf7, 0x54, 0xbc, 0x72, 0xf1, 0xde, 0xbd, 0xb3, 0xea, 0x84, 0x3a, 0x42, 0xf6, 0xcf, 0xbd, 0xc4, 0xe2, 0x2a, 0x3e, 0xf2, 0xc3, 0x70, 0x3b, 0x09, 0xcc, 0x0d, 0xbb, 0x94, 0x6c, 0x29, 0x3d, 0x79, 0x6c, 0x2c, 0x3e, 0x14, 0xd8, 0xf1, 0xbd, 0x3c, 0xf5, 0x78, 0xbd, 0x90, 0xd3, 0x82, 0x3d, 0x26, 0x54, 0xb3, 0xbd, 0x40, 0x05, 0x41, 0x3c, 0x00, 0x1a, 0x0b, 0x3d, 0xfc, 0x72, 0xff, 0x3d, 0x22, 0x84, 0x44, 0xbe, 0x0e, 0xc5, 0x45, 0x3e, 0xaf, 0x03, 0x17, 0x3d, 0xf2, 0x3f, 0x46, 0xbe, 0x33, 0x98, 0x35, 0xbe, 0xdb, 0xbd, 0x40, 0xbe, 0x44, 0xe3, 0x81, 0xbd, 0x49, 0x43, 0x14, 0xbe, 0x7b, 0xfe, 0x32, 0xbe, 0x88, 0x2c, 0xa2, 0x3d, 0x9a, 0x3c, 0xf5, 0xbd, 0x02, 0x77, 0x40, 0x3e, 0x9f, 0x17, 0x20, 0x3d, 0xaa, 0xd6, 0x0b, 0x3e, 0xf8, 0xec, 0xce, 0x3d, 0xe1, 0x4f, 0x1f, 0x3e, 0xfd, 0x5e, 0x3f, 0x3d, 0x14, 0x30, 0xd0, 0x3d, 0x16, 0x26, 0x42, 0x3d, 0x3e, 0x7a, 0xda, 0x3d, 0x49, 0x96, 0x99, 0x3d, 0xf2, 0x5e, 0x48, 0xbe, 0x1d, 0x01, 0xde, 0x3c, 0x2a, 0xba, 0x36, 0x3e, 0xde, 0x2e, 0x83, 0xbd, 0xde, 0xe4, 0x27, 0xbe, 0x80, 0xdd, 0xbb, 0xbb, 0xa0, 0x43, 0x01, 0x3d, 0xb1, 0x70, 0xda, 0xbd, 0x58, 0xd6, 0x9e, 0x3d, 0xb1, 0xe8, 0xc3, 0xbd, 0x24, 0x3f, 0x5d, 0xbe, 0xf7, 0x84, 0x10, 0x3e, 0x70, 0xc1, 0xb2, 0x3c, 0x0d, 0x21, 0xdc, 0xbd, 0x84, 0x46, 0xba, 0xbd, 0xa5, 0x1f, 0xba, 0xbc, 0x3c, 0x05, 0xd8, 0x3d, 0x60, 0xd4, 0xf1, 0x3d, 0x60, 0x1d, 0x40, 0xbd, 0xcb, 0x74, 0xb0, 0x3c, 0x59, 0xa5, 0x02, 0x3e, 0xd0, 0xf3, 0x09, 0xbc, 0xa6, 0xd9, 0xaf, 0x3b, 0x4d, 0x28, 0x03, 0xbe, 0x32, 0x53, 0x95, 0xbd, 0x10, 0x2a, 0x66, 0xbd, 0x17, 0x0b, 0x69, 0x3d, 0x67, 0x21, 0x83, 0xbd, 0xb8, 0x11, 0x9b, 0x3d, 0x8f, 0x3f, 0x53, 0xbe, 0x90, 0x02, 0x06, 0x3e, 0x1b, 0xa6, 0x34, 0x3c, 0xbf, 0xbf, 0xf9, 0x3d, 0x23, 0x85, 0xb1, 0x3d, 0x94, 0xac, 0x2b, 0x3d, 0xd5, 0x07, 0x20, 0x3e, 0xb2, 0x47, 0xe3, 0xbd, 0x71, 0xdf, 0xd4, 0xbd, 0xb3, 0x09, 0xa5, 0x3d, 0xb2, 0xba, 0xc6, 0x3d, 0xb4, 0x4f, 0xce, 0x3d, 0xd0, 0x98, 0x3e, 0x3e, 0xb1, 0x24, 0x90, 0xbd, 0xc2, 0x92, 0x8b, 0x3d, 0x48, 0x73, 0xa3, 0x3d, 0xb3, 0xe9, 0x90, 0xbd, 0x11, 0x85, 0x02, 0x3d, 0x60, 0x7c, 0x57, 0x3d, 0x84, 0x96, 0xf0, 0x3d, 0x7d, 0x46, 0x4d, 0xbd, 0x00, 0x63, 0xa2, 0x3d, 0x08, 0xbc, 0x74, 0x3d, 0xf9, 0xf4, 0x10, 0xbe, 0xb9, 0x79, 0x36, 0xbe, 0x68, 0x5f, 0x18, 0xbd, 0xc1, 0x32, 0x9f, 0xbd, 0x7e, 0x29, 0x05, 0x3e, 0xc1, 0x4e, 0x41, 0xbe, 0x55, 0xa5, 0x4e, 0xbd, 0xec, 0x5d, 0xd6, 0x3d, 0x98, 0x94, 0x1a, 0xbe, 0x0e, 0x9b, 0xce, 0x3d, 0x26, 0x93, 0x8d, 0xbd, 0x88, 0x90, 0xaa, 0x3d, 0xf2, 0xaa, 0x4d, 0xbe, 0x6b, 0x79, 0x1e, 0x3e, 0x58, 0xad, 0x3e, 0xbd, 0xb1, 0xe5, 0x17, 0xbe, 0x19, 0xb9, 0x08, 0xbe, 0x96, 0xbb, 0x04, 0xbe, 0x37, 0xb2, 0x7b, 0x3d, 0xc3, 0x53, 0x1c, 0x3e, 0x09, 0x5c, 0xaf, 0x3d, 0xf0, 0xe5, 0x8f, 0x3d, 0x61, 0x18, 0xc6, 0xba, 0x2a, 0x5a, 0x0c, 0xbe, 0xb4, 0x6e, 0x2c, 0xbe, 0xeb, 0x4e, 0x00, 0xbe, 0xbc, 0x22, 0xe7, 0xbd, 0x14, 0x86, 0x8a, 0x3d, 0xf2, 0xec, 0x8b, 0x3d, 0x27, 0xb0, 0x94, 0xbe, 0x10, 0x4e, 0x48, 0x3d, 0xbf, 0x0d, 0x9f, 0xbd, 0xeb, 0x25, 0x9b, 0xbd, 0xeb, 0x0b, 0x9d, 0x3d, 0x24, 0xae, 0x0b, 0xbd, 0xe0, 0xc0, 0xe2, 0x3d, 0xe1, 0x67, 0xd5, 0x3c, 0x11, 0x0a, 0x46, 0xbe, 0x63, 0x2d, 0x40, 0xbe, 0x3a, 0x9d, 0x8b, 0x3f, 0xa4, 0x00, 0x46, 0x3d, 0x95, 0xbd, 0x5f, 0xbf, 0x6b, 0x1c, 0xc3, 0x3d, 0x24, 0xbd, 0x45, 0x3e, 0xa4, 0xb5, 0xd2, 0x3e, 0x46, 0x76, 0x5e, 0x3e, 0x40, 0x0c, 0x70, 0xbc, 0x68, 0xb2, 0x3e, 0x3f, 0xcd, 0xa3, 0x89, 0xbf, 0x4a, 0xd3, 0x7a, 0xbc, 0x90, 0x10, 0xa3, 0x3d, 0x8a, 0x9c, 0xdf, 0x3d, 0xd6, 0x01, 0xb0, 0x3c, 0xe8, 0xc1, 0x5f, 0x3d, 0x4b, 0x68, 0x4e, 0xbf, 0x7b, 0x95, 0x42, 0x3f, 0xc0, 0x5f, 0xe6, 0xbc, 0xf3, 0xec, 0x32, 0x3e, 0x5a, 0xf3, 0x98, 0x3c, 0xfd, 0xc5, 0xe6, 0xbd, 0xe6, 0x10, 0xda, 0xbd, 0x19, 0x46, 0xdc, 0xbe, 0x17, 0xc3, 0xc1, 0xbd, 0x13, 0xb9, 0x8f, 0x3e, 0x87, 0xb6, 0x06, 0x3e, 0xb9, 0xad, 0x85, 0xbc, 0xdf, 0xd2, 0xa1, 0xbd, 0x97, 0x1e, 0x2e, 0x3f, 0xab, 0x94, 0x2a, 0xbe, 0xa0, 0xa7, 0x7f, 0x3c, 0xb4, 0xe3, 0x15, 0x3f, 0xd4, 0x4b, 0x2a, 0xbe, 0x2b, 0x72, 0xd8, 0xbd, 0x23, 0x14, 0x69, 0x3e, 0x2b, 0xaa, 0x29, 0xbe, 0x32, 0xab, 0x94, 0xbb, 0x89, 0x66, 0x04, 0x3e, 0xb5, 0x4f, 0x80, 0xbd, 0x68, 0xd6, 0x6e, 0xbd, 0x1e, 0xd6, 0x8a, 0x3e, 0xc4, 0xc5, 0xb5, 0xbd, 0x63, 0xe8, 0x3d, 0xbe, 0x82, 0x5f, 0x62, 0xbe, 0xc7, 0x8c, 0x89, 0xbd, 0x22, 0xca, 0x10, 0xbe, 0xa0, 0x7c, 0x7f, 0xbc, 0x62, 0x45, 0xc6, 0x3f, 0xba, 0x83, 0x60, 0xbf, 0x24, 0xda, 0xe4, 0x3d, 0xb1, 0x8b, 0x38, 0xbf, 0xfc, 0x31, 0xe0, 0xbd, 0x14, 0xce, 0x7d, 0x3d, 0xeb, 0x70, 0x0b, 0xbe, 0xec, 0x8d, 0xfc, 0x3e, 0x50, 0xb4, 0x30, 0x3e, 0x0f, 0x77, 0x93, 0x3f, 0xc0, 0x01, 0x07, 0xbf, 0x6f, 0xfa, 0x0b, 0x3e, 0xa5, 0xf2, 0x49, 0xba, 0x75, 0xec, 0x4e, 0xbf, 0xea, 0xe0, 0xb1, 0xbc, 0x94, 0xc1, 0x3f, 0x3d, 0xbc, 0x3c, 0x91, 0xbc, 0x3d, 0x62, 0x0d, 0x3e, 0xa4, 0xf2, 0x7b, 0xbd, 0x00, 0x0c, 0x3b, 0xbe, 0x7b, 0xe7, 0x29, 0xbe, 0x19, 0xfd, 0xc6, 0x3b, 0x15, 0xbc, 0x82, 0xbe, 0x4d, 0xf0, 0xf7, 0x3d, 0x00, 0xad, 0xee, 0x3b, 0xf8, 0x1c, 0x38, 0x3d, 0xcd, 0xbd, 0x07, 0x3f, 0x8c, 0x75, 0x56, 0x3d, 0xa8, 0x52, 0x4e, 0xbd, 0xf5, 0xbf, 0x58, 0x3d, 0x68, 0x15, 0x3c, 0x3e, 0x09, 0x7d, 0x98, 0xbd, 0x57, 0xa7, 0x3b, 0x3e, 0x19, 0x64, 0x13, 0xbf, 0xc0, 0x1d, 0x10, 0x3d, 0x92, 0x61, 0x5f, 0x3f, 0xbd, 0xcb, 0x0a, 0x3c, 0x60, 0x8c, 0x9e, 0xbc, 0x54, 0x4e, 0x54, 0xbe, 0x1f, 0xa8, 0x4d, 0xbf, 0x16, 0xbe, 0xdf, 0xbd, 0xf7, 0xe3, 0xc4, 0xbe, 0xfc, 0xc2, 0x37, 0x3f, 0xfa, 0xe0, 0x62, 0x3c, 0x3d, 0xa5, 0x64, 0xbd, 0x8b, 0x60, 0x84, 0x3e, 0x6a, 0xb7, 0xc5, 0xbd, 0x45, 0x36, 0xa1, 0xbd, 0x86, 0xfd, 0x39, 0x3e, 0x37, 0xfc, 0x34, 0xbf, 0xf8, 0x76, 0x75, 0xbd, 0x00, 0x93, 0x05, 0x3f, 0x7b, 0x7e, 0x10, 0xbc, 0x0c, 0x2b, 0xaa, 0x3d, 0xe8, 0x0e, 0x95, 0xbe, 0x77, 0x58, 0xef, 0xbe, 0x0c, 0x78, 0x2f, 0xbe, 0x88, 0xb9, 0x96, 0xbe, 0x8c, 0x7e, 0x47, 0x3f, 0x9d, 0x3d, 0x95, 0x3d, 0xff, 0x58, 0x2b, 0x3e, 0x92, 0x0a, 0x0b, 0x3e, 0xb7, 0x44, 0x33, 0xbd, 0x6b, 0x1d, 0xa5, 0x3c, 0xd6, 0xcb, 0xd0, 0xbe, 0x61, 0x37, 0x33, 0xbd, 0xc8, 0x8a, 0x6d, 0x3d, 0xcc, 0x7a, 0x12, 0x3f, 0x1e, 0x8d, 0x3b, 0x3d, 0x57, 0xe6, 0x27, 0xbe, 0x75, 0x36, 0x20, 0x3e, 0x90, 0x73, 0x01, 0xbf, 0x7a, 0x77, 0x3d, 0x3e, 0x59, 0x1a, 0x0c, 0xbf, 0x19, 0x64, 0x46, 0x3f, 0x05, 0xa4, 0x3f, 0x3d, 0x41, 0xa7, 0xc8, 0x3d, 0xe6, 0x95, 0x6d, 0x3d, 0xcc, 0xbc, 0x44, 0x3e, 0x24, 0xaf, 0x06, 0x3d, 0x19, 0x5c, 0x5e, 0x3e, 0x42, 0xd4, 0x72, 0xbe, 0xf0, 0x5a, 0x5e, 0xbd, 0x37, 0xe1, 0xe2, 0xbd, 0xa7, 0xee, 0xd1, 0x3c, 0x45, 0x21, 0xea, 0xbd, 0xfb, 0x37, 0x36, 0x3c, 0x0d, 0xf8, 0x7e, 0xbe, 0x44, 0x47, 0xa6, 0x3d, 0x8c, 0x1d, 0x2b, 0x3d, 0x30, 0x25, 0xf3, 0xbc, 0xc2, 0xfc, 0x0d, 0x3e, 0xbc, 0xb0, 0x8f, 0xbd, 0x58, 0xfb, 0x03, 0xbe, 0xa3, 0x0b, 0xab, 0xbd, 0xcc, 0xab, 0xfa, 0x3d, 0xd7, 0xfb, 0x21, 0xbe, 0x9b, 0xa2, 0x75, 0x3f, 0xf4, 0x35, 0x18, 0x3e, 0x87, 0x61, 0x60, 0xbf, 0x39, 0xc6, 0x22, 0x3e, 0x14, 0x7a, 0xf6, 0x3d, 0x3d, 0x24, 0xbe, 0x3e, 0x16, 0x61, 0x85, 0x3e, 0x20, 0x2d, 0x5b, 0xbd, 0xdb, 0x67, 0x38, 0x3f, 0x21, 0xf8, 0x74, 0xbf, 0x6e, 0x94, 0x8a, 0xbd, 0x05, 0x48, 0x96, 0x3d, 0x0d, 0x36, 0x67, 0x3d, 0x38, 0x4a, 0x3a, 0x3d, 0xe0, 0x0f, 0x07, 0x3e, 0xf8, 0x38, 0xe4, 0xbe, 0x43, 0xcc, 0x0f, 0x3f, 0xe0, 0x6b, 0xab, 0x3d, 0x4d, 0x79, 0x6f, 0xbd, 0x4d, 0x69, 0xd2, 0xbd, 0x89, 0xdb, 0x19, 0x3e, 0x55, 0x1b, 0xf2, 0x3c, 0x5d, 0x69, 0xa3, 0xbe, 0x9c, 0xcc, 0xc4, 0x3d, 0x82, 0xfb, 0xaf, 0x3d, 0xa2, 0x03, 0xdd, 0x3c, 0x68, 0xe0, 0x9a, 0x3d, 0x88, 0x14, 0xe1, 0xbc, 0xc8, 0x29, 0x21, 0x3f, 0x02, 0xe4, 0x1e, 0xbe, 0x24, 0xe9, 0x10, 0x3e, 0x7d, 0x52, 0xca, 0x3e, 0xdb, 0x08, 0xe2, 0xbe, 0x58, 0xaa, 0xa8, 0xbc, 0xb7, 0xbc, 0x86, 0x3e, 0xe9, 0xf6, 0x05, 0x3e, 0x8f, 0x1a, 0x15, 0xbe, 0xd5, 0x93, 0x2e, 0x3b, 0x44, 0x81, 0xa4, 0xbe, 0x60, 0x6f, 0x42, 0xbc, 0x9f, 0xcf, 0x5b, 0x3e, 0xe8, 0x0b, 0x42, 0xbd, 0x00, 0x80, 0x38, 0x3c, 0xe6, 0x28, 0x81, 0x3d, 0x31, 0xbb, 0x3f, 0xbe, 0x98, 0xff, 0x98, 0x3c, 0x14, 0xeb, 0x1f, 0x3e, 0x84, 0x8a, 0xaf, 0x3f, 0xdd, 0x4b, 0x59, 0xbf, 0x80, 0x57, 0xf9, 0xba, 0xda, 0x3c, 0x73, 0xbf, 0x51, 0xfe, 0xdb, 0x3d, 0xca, 0xda, 0x29, 0x3e, 0xb7, 0xf0, 0x46, 0x3d, 0xe7, 0x84, 0x4d, 0x3f, 0xe2, 0xaf, 0x32, 0x3e, 0xa0, 0xaf, 0x8d, 0x3f, 0xcb, 0x5b, 0xcd, 0xbe, 0x90, 0x5e, 0xf5, 0x3d, 0x33, 0xce, 0x8f, 0x3d, 0xe4, 0xac, 0x50, 0xbf, 0x11, 0x2c, 0x87, 0x3d, 0x00, 0x86, 0xde, 0x3d, 0x86, 0xcf, 0x1b, 0xbe, 0xe2, 0xa3, 0xbb, 0x3d, 0x38, 0xee, 0xd7, 0x3d, 0x0a, 0x26, 0xfd, 0xbd, 0x3b, 0x49, 0x04, 0x3e, 0x21, 0x39, 0xff, 0x3a, 0xd4, 0x44, 0x9e, 0x3d, 0xde, 0x8d, 0x5a, 0x3e, 0x20, 0xbf, 0x70, 0x3d, 0x47, 0xaf, 0xa2, 0x3d, 0x0b, 0x5e, 0x11, 0x3f, 0x92, 0xad, 0x12, 0x3e, 0x4f, 0x57, 0xbf, 0x3c, 0xc7, 0xf7, 0x66, 0x3e, 0x04, 0x72, 0xba, 0x3d, 0x5c, 0x2a, 0x0d, 0xbe, 0xff, 0x5c, 0x78, 0x3c, 0x3e, 0xbf, 0x20, 0xbf, 0x69, 0xeb, 0x11, 0xbe, 0x07, 0x6c, 0x26, 0x3f, 0x74, 0xeb, 0x1f, 0xbe, 0xba, 0x40, 0xa9, 0x39, 0xa1, 0x4b, 0x9c, 0x3d, 0x58, 0x0a, 0x86, 0xbf, 0x7a, 0x23, 0x45, 0x3e, 0xc8, 0xee, 0x15, 0xbf, 0x58, 0x73, 0x6c, 0x3f, 0x5a, 0x1e, 0x29, 0xbe, 0x0e, 0x03, 0xff, 0xbd, 0xc1, 0x68, 0xc3, 0x3d, 0xd0, 0x7f, 0xb7, 0x3c, 0x16, 0x73, 0x43, 0xbe, 0xb2, 0x50, 0xb1, 0x3e, 0xb5, 0xee, 0x47, 0xbf, 0xf8, 0x70, 0x61, 0x3d, 0x47, 0xf1, 0xc4, 0x3e, 0xbb, 0x05, 0x45, 0xbe, 0xec, 0x51, 0x32, 0x3e, 0xce, 0xf9, 0x63, 0xbe, 0x17, 0xad, 0x0f, 0xbf, 0xc0, 0xfb, 0x7b, 0x3d, 0x61, 0x9e, 0xba, 0xbe, 0x6e, 0x73, 0x4c, 0x3f, 0xad, 0x7d, 0xcf, 0xbd, 0x1f, 0xd9, 0xd5, 0x3d, 0x5b, 0x93, 0xe1, 0x3d, 0x02, 0xac, 0x41, 0x3e, 0x7a, 0x10, 0x86, 0x3b, 0x83, 0x61, 0x95, 0xbe, 0x15, 0x1e, 0x0c, 0x3e, 0x4e, 0x17, 0xe5, 0xbd, 0x21, 0xb6, 0x39, 0x3f, 0xe2, 0x4e, 0xf6, 0x3d, 0x1c, 0xcc, 0x78, 0xbd, 0x67, 0x7d, 0xf6, 0x3d, 0x40, 0xbc, 0xd5, 0xbe, 0x68, 0x33, 0x5a, 0xbd, 0xfb, 0x65, 0x03, 0xbf, 0x2f, 0xbe, 0xfe, 0x3e, 0xe0, 0x58, 0x65, 0xbc, 0xc6, 0x75, 0x12, 0xbd, 0xa5, 0xc8, 0x04, 0x3e, 0xa0, 0x47, 0x9d, 0x3d, 0x28, 0x1a, 0xa9, 0x3d, 0x5b, 0x96, 0x6a, 0x3d, 0xf4, 0xc6, 0x14, 0x3e, 0xfe, 0xd4, 0x96, 0xbd, 0x4b, 0xae, 0x04, 0xbc, 0x45, 0x3e, 0x96, 0xbd, 0x2a, 0x09, 0x34, 0xbe, 0x6b, 0x5f, 0x1d, 0xbd, 0x27, 0xf3, 0xf7, 0x3c, 0xb1, 0x14, 0x23, 0xbe, 0x3b, 0x9b, 0x13, 0xbe, 0xd4, 0x09, 0x3c, 0x3e, 0xd9, 0x3b, 0x3a, 0xbe, 0x94, 0x86, 0x53, 0x3d, 0xe9, 0x1d, 0x3b, 0x3e, 0x25, 0x93, 0x67, 0xbc, 0x3e, 0xda, 0x07, 0x3e, 0xac, 0xbb, 0x57, 0xbd, 0x0c, 0xaf, 0xdb, 0xbd, 0xed, 0x0f, 0x21, 0xbe, 0x16, 0x5c, 0x1c, 0x3e, 0xd2, 0xd8, 0x44, 0x3e, 0x33, 0xb7, 0x3c, 0x3d, 0xe4, 0x99, 0xf4, 0xbd, 0xad, 0xc4, 0x37, 0x3e, 0x30, 0xa3, 0xef, 0xbc, 0x3a, 0x49, 0xf1, 0x3d, 0xd5, 0xb6, 0x05, 0xbc, 0xcd, 0x51, 0x2e, 0xbe, 0x40, 0x16, 0xfa, 0x3d, 0x6f, 0x2f, 0x56, 0x3d, 0x09, 0x19, 0x49, 0xbe, 0xc0, 0x5c, 0x13, 0xbd, 0xe4, 0x13, 0x4e, 0xbe, 0x4c, 0x6e, 0x4a, 0xbe, 0x68, 0x41, 0x93, 0x3c, 0x76, 0x98, 0x2b, 0xbe, 0x2a, 0x96, 0x45, 0x3e, 0x4f, 0x9a, 0xd1, 0xbd, 0x48, 0x60, 0x22, 0x3d, 0xf4, 0x21, 0xe3, 0xbd, 0x70, 0x45, 0xbb, 0x3d, 0x2d, 0x78, 0xfe, 0x3c, 0x26, 0x24, 0x3a, 0xbe, 0xd9, 0x4d, 0x21, 0xbe, 0xde, 0xa6, 0xbe, 0xbd, 0x4a, 0x57, 0xc1, 0xbd, 0x60, 0x74, 0xbb, 0x3d, 0xdf, 0xde, 0xfe, 0xbd, 0x05, 0xbe, 0x0e, 0xbe, 0x3e, 0xea, 0xe8, 0xbd, 0xc0, 0x56, 0xc5, 0x3b, 0x9e, 0xaf, 0x74, 0x3d, 0x0b, 0x50, 0x4a, 0x3d, 0x7e, 0x55, 0x1b, 0xbe, 0xf4, 0x55, 0x2d, 0x3e, 0xb4, 0x4a, 0x95, 0x3d, 0xd4, 0x54, 0xa5, 0x3d, 0x71, 0x8f, 0xb9, 0xbc, 0x38, 0xa2, 0xc6, 0xbd, 0x65, 0x85, 0xb9, 0xbd, 0x02, 0xee, 0xd7, 0xbd, 0x5a, 0x56, 0xc1, 0xbd, 0x08, 0x79, 0x28, 0x3e, 0x8a, 0x68, 0x20, 0x3e, 0x81, 0x4c, 0x2d, 0xbe, 0x28, 0xcc, 0x14, 0xbe, 0x11, 0x32, 0x92, 0xbd, 0x92, 0x8f, 0xc5, 0x3b, 0x30, 0xed, 0x20, 0xbe, 0xf5, 0x13, 0x28, 0x3d, 0x3f, 0xe9, 0x40, 0xbe, 0x54, 0xf1, 0xfc, 0x3d, 0x38, 0x05, 0xfc, 0xbc, 0xbf, 0x59, 0x17, 0x3e, 0xe1, 0x64, 0x05, 0x3d, 0xb4, 0x18, 0x92, 0xbd, 0x43, 0xf2, 0x7d, 0x3d, 0x1c, 0x01, 0x3a, 0x3e, 0xd5, 0xf6, 0xc6, 0x3c, 0xc0, 0x74, 0x10, 0x3d, 0x53, 0x6b, 0x8f, 0x3d, 0x51, 0x01, 0x12, 0x3e, 0x40, 0x3c, 0xd5, 0xbc, 0xea, 0x56, 0x25, 0xbe, 0x28, 0x26, 0xcb, 0x3b, 0x71, 0x70, 0x0d, 0xbe, 0x17, 0xd3, 0x98, 0x3d, 0xc8, 0x2b, 0xd5, 0x3d, 0x8c, 0x5d, 0x3c, 0xbe, 0xe5, 0xe5, 0x1a, 0x3e, 0xe3, 0xae, 0xc3, 0x3d, 0x61, 0x86, 0x25, 0xbe, 0x78, 0x24, 0xc3, 0x3d, 0xd1, 0xe7, 0xb0, 0xbd, 0x49, 0xb0, 0xfe, 0xbd, 0x80, 0xfa, 0xb3, 0xba, 0xcb, 0x75, 0xc7, 0x3d, 0xfc, 0xfd, 0x17, 0xbe, 0x8a, 0x2d, 0x2e, 0x3e, 0x0b, 0xb8, 0x76, 0xbc, 0x0a, 0xed, 0x61, 0x3b, 0x70, 0xf5, 0x96, 0x3d, 0x4b, 0x8b, 0x42, 0xbe, 0x49, 0x31, 0xe9, 0x3d, 0x34, 0x2b, 0x9a, 0x3d, 0x0c, 0x88, 0x41, 0xbe, 0x64, 0xb4, 0x43, 0x3e, 0x46, 0x84, 0xc8, 0x3c, 0x2c, 0x51, 0x02, 0x3c, 0x2a, 0x57, 0xfd, 0xbc, 0xba, 0x3f, 0x1c, 0xbe, 0xf8, 0x4c, 0xcd, 0x3c, 0x73, 0x4c, 0xa6, 0xbd, 0x28, 0x18, 0xb1, 0x3b, 0xe0, 0xad, 0x1d, 0x3d, 0xf2, 0x11, 0x02, 0xbe, 0x4b, 0x3c, 0x37, 0xbe, 0xa2, 0xea, 0x29, 0xbe, 0x23, 0xf1, 0x1e, 0x3e, 0x16, 0x18, 0xbe, 0xbd, 0x60, 0xab, 0x67, 0xbc, 0x49, 0x48, 0x1e, 0xbe, 0x80, 0x27, 0x49, 0xbd, 0x0e, 0x0e, 0x3e, 0x3c, 0xfd, 0xa2, 0xda, 0x3d, 0xb9, 0x6f, 0xa8, 0x3d, 0xce, 0x36, 0x83, 0x3d, 0x64, 0x24, 0xfa, 0x3d, 0xe0, 0x66, 0xfc, 0xbb, 0xb6, 0x9c, 0x07, 0xbd, 0xc4, 0xa6, 0x59, 0x3d, 0xa9, 0x7d, 0x1c, 0xbe, 0x69, 0x81, 0xc3, 0x3d, 0x39, 0x60, 0xf4, 0xbd, 0xe4, 0x4a, 0x71, 0x3c, 0x54, 0x21, 0x46, 0xbe, 0xc2, 0xe3, 0x08, 0xbe, 0xb7, 0xf4, 0x04, 0xbe, 0x31, 0x0b, 0xbf, 0xbd, 0x31, 0xe7, 0x24, 0xbe, 0x1a, 0xbd, 0x33, 0xbe, 0xfb, 0xbb, 0x19, 0x3b, 0x6b, 0x75, 0x19, 0xbd, 0xc4, 0xdf, 0xb3, 0xbd, 0xaa, 0x8b, 0x47, 0xbd, 0xaf, 0xe2, 0xad, 0x3e, 0xe9, 0xfa, 0x30, 0xbe, 0x4e, 0x52, 0x8b, 0x3e, 0xbc, 0x17, 0x74, 0xbd, 0xde, 0x42, 0x08, 0xbe, 0xb8, 0xb0, 0x25, 0x3e, 0x93, 0x01, 0xcc, 0x3e, 0x8b, 0xbc, 0x2a, 0xbe, 0xcd, 0x54, 0x82, 0x3d, 0x2a, 0x7b, 0xbe, 0x3e, 0x10, 0xaa, 0x5d, 0x3d, 0xb1, 0x5f, 0x60, 0x3d, 0x66, 0xdf, 0x4f, 0x3d, 0x05, 0xe0, 0xf9, 0x3b, 0x4c, 0xa1, 0x6f, 0xbd, 0x4b, 0x1e, 0x44, 0x3e, 0x82, 0x78, 0x86, 0xbf, 0xe0, 0x2d, 0xcd, 0x3c, 0x6a, 0x3a, 0x95, 0x3f, 0x29, 0xeb, 0x2c, 0xbd, 0x79, 0xb1, 0x3e, 0xbe, 0xf5, 0x73, 0x0a, 0xbe, 0x56, 0x43, 0x81, 0xbd, 0xa8, 0xae, 0x42, 0x3e, 0x8a, 0xf1, 0x03, 0xbf, 0x03, 0x9b, 0xac, 0x3f, 0x16, 0x10, 0x02, 0xbd, 0x92, 0x64, 0xbe, 0x3d, 0xca, 0x9c, 0x03, 0x3e, 0x3f, 0x76, 0xa8, 0xbd, 0x3c, 0xa0, 0xe9, 0x3d, 0x09, 0x8a, 0x16, 0x3f, 0xe0, 0x84, 0x1f, 0xbf, 0x18, 0x50, 0x32, 0x3d, 0x1d, 0x5a, 0xb5, 0x3e, 0x8a, 0x30, 0x2e, 0xbe, 0x95, 0x94, 0x13, 0x3e, 0xae, 0x8f, 0x16, 0x3e, 0x97, 0xdd, 0xbe, 0x3e, 0xc0, 0x8e, 0x37, 0xbe, 0x32, 0xba, 0x01, 0xbd, 0xb3, 0xc5, 0x62, 0x3c, 0xbe, 0xa0, 0x9c, 0x3c, 0x6d, 0xcf, 0xeb, 0x3b, 0xdc, 0xe5, 0xe4, 0xbe, 0x8c, 0x3d, 0xa2, 0x3d, 0xe0, 0x0a, 0x33, 0x3d, 0x94, 0x51, 0xf7, 0xbe, 0x54, 0x01, 0xb9, 0x3e, 0x0a, 0xf3, 0x31, 0x3e, 0x6c, 0xda, 0xee, 0x3d, 0x12, 0x8d, 0xf7, 0xbc, 0x61, 0xd0, 0xa5, 0x3d, 0xd8, 0xf7, 0x56, 0x3e, 0x2f, 0x8a, 0x89, 0x3e, 0x00, 0x1f, 0xbd, 0xbb, 0xf8, 0xb7, 0x2e, 0x3e, 0xed, 0xde, 0x8f, 0x3e, 0xe7, 0xb6, 0xf8, 0xbd, 0x29, 0x95, 0xe0, 0xbd, 0x2c, 0x94, 0x21, 0x3e, 0x69, 0xf0, 0xc2, 0x3d, 0x38, 0x59, 0xaa, 0x3d, 0x9b, 0xc4, 0xc7, 0xbf, 0x03, 0xa0, 0x81, 0x3f, 0xdc, 0xaa, 0x2e, 0xbd, 0xdb, 0x5d, 0x92, 0x3f, 0xfe, 0x1d, 0xae, 0x3d, 0x42, 0x41, 0x14, 0xbe, 0xd6, 0x71, 0xd9, 0x3e, 0xce, 0xd9, 0xd4, 0xbe, 0xa0, 0x5b, 0xc0, 0x3d, 0x04, 0xb2, 0x6f, 0xbf, 0x65, 0xe9, 0x3e, 0x3f, 0x2e, 0xe6, 0xc3, 0x3d, 0x90, 0xe5, 0xdd, 0x3d, 0x08, 0x53, 0x85, 0x3f, 0xcc, 0x04, 0xb0, 0x3c, 0xb0, 0x6d, 0xe7, 0x3d, 0x6f, 0x81, 0xe1, 0x3c, 0xc3, 0xfc, 0xba, 0x3d, 0x44, 0xd5, 0x2e, 0x3d, 0x4f, 0xdd, 0x70, 0x3d, 0x20, 0x5b, 0x04, 0xbe, 0xb5, 0x36, 0x6d, 0xbd, 0x6c, 0x64, 0xa0, 0x3e, 0xdb, 0xc8, 0x40, 0xbd, 0x10, 0xed, 0x6d, 0xbd, 0x76, 0x34, 0xc1, 0x3d, 0x50, 0xcc, 0x02, 0xbf, 0x34, 0xa9, 0x31, 0xbc, 0x15, 0x56, 0xc8, 0x3c, 0x32, 0xf2, 0xc8, 0xbc, 0x15, 0x0c, 0x00, 0x3e, 0xac, 0x9c, 0x07, 0xbe, 0x79, 0xbf, 0x27, 0xbe, 0x62, 0x91, 0x5e, 0x3f, 0x54, 0x09, 0x1e, 0x3d, 0xe8, 0xd4, 0x01, 0xbf, 0x59, 0x63, 0x34, 0x3e, 0x6c, 0x0d, 0x28, 0xbe, 0x91, 0x40, 0x57, 0x3d, 0xe2, 0x16, 0x87, 0x3f, 0x2e, 0xa8, 0x15, 0xbe, 0xda, 0x03, 0x01, 0x3f, 0xb1, 0x98, 0x10, 0xbf, 0x4c, 0x34, 0x0c, 0x3d, 0x89, 0x42, 0xed, 0xbd, 0x03, 0xf0, 0xd4, 0xbd, 0x1f, 0xa4, 0x94, 0x3c, 0xd8, 0x73, 0xc1, 0x3c, 0x90, 0x00, 0x4a, 0xbe, 0x0f, 0xea, 0x4b, 0x3f, 0x86, 0x43, 0x24, 0xbe, 0x1b, 0xd2, 0xad, 0xbe, 0x22, 0xc5, 0x10, 0x3e, 0x84, 0x0d, 0xbf, 0x3d, 0x95, 0x94, 0xd9, 0x3e, 0xcc, 0xf3, 0x55, 0x3f, 0x26, 0x69, 0xa6, 0xbd, 0x19, 0xc1, 0x4c, 0x3e, 0xf6, 0x3c, 0x15, 0xbf, 0xca, 0x83, 0x82, 0xbd, 0x38, 0x4c, 0x08, 0xbe, 0x38, 0xfe, 0xfc, 0x3d, 0x98, 0x18, 0x16, 0x3c, 0x2d, 0x5b, 0x95, 0xbc, 0x1a, 0xe4, 0x30, 0x3e, 0xe4, 0x67, 0x9e, 0x3e, 0xf1, 0x98, 0x42, 0xbe, 0x8a, 0x0d, 0xc8, 0xbe, 0x9a, 0x93, 0x08, 0xbd, 0xf4, 0xbe, 0x2d, 0xbd, 0x15, 0x86, 0x01, 0x3e, 0xd2, 0x61, 0xe1, 0x3e, 0xb4, 0x3d, 0x44, 0x3e, 0x9e, 0x1f, 0xe6, 0x3e, 0x1b, 0xc6, 0xf5, 0xbe, 0x41, 0x47, 0x20, 0x3e, 0x62, 0x0d, 0xef, 0xbd, 0xc0, 0xee, 0x69, 0xbd, 0x4b, 0x6d, 0x90, 0xbd, 0x18, 0x23, 0xf5, 0x3d, 0xaf, 0xb1, 0xcb, 0x3d, 0xcc, 0xe1, 0x82, 0xbe, 0x60, 0xe6, 0x1d, 0x3d, 0x2d, 0xec, 0x47, 0xbe, 0xd7, 0x09, 0x04, 0xbe, 0x14, 0xde, 0x20, 0x3e, 0xf3, 0x58, 0x91, 0x3d, 0xa2, 0x91, 0xf2, 0xbe, 0xc0, 0x6a, 0x16, 0x3e, 0x30, 0x48, 0x26, 0xbe, 0xe9, 0x8d, 0xa3, 0xbe, 0xe8, 0x4c, 0x8a, 0xbd, 0x40, 0xce, 0xda, 0xbb, 0xbd, 0x00, 0xde, 0xbd, 0x52, 0xaa, 0x3c, 0xbe, 0x01, 0x32, 0x37, 0xbe, 0xce, 0x5c, 0x41, 0xbe, 0x6b, 0xf2, 0x99, 0x3f, 0x26, 0xb7, 0x14, 0xbe, 0xb8, 0xc4, 0x5a, 0xbf, 0xd6, 0x99, 0x0d, 0x3e, 0x34, 0x08, 0x8b, 0x3d, 0x19, 0xdf, 0xe2, 0x3e, 0xd1, 0xd9, 0xc1, 0x3e, 0xa8, 0x5d, 0x54, 0xbd, 0xae, 0xc6, 0x26, 0x3f, 0x97, 0xfc, 0x82, 0xbf, 0x80, 0x54, 0x09, 0x3b, 0xfa, 0x0c, 0x73, 0xbc, 0x4f, 0xae, 0x2b, 0x3d, 0xa8, 0x61, 0x98, 0x3d, 0x10, 0x21, 0x2a, 0xbc, 0xee, 0x02, 0x02, 0xbf, 0x5d, 0x4d, 0x3a, 0x3f, 0xe4, 0x3d, 0x2e, 0xbe, 0xa7, 0x06, 0xc7, 0xbd, 0x4c, 0x97, 0xdd, 0x3d, 0xa6, 0xf0, 0xec, 0x3b, 0xfd, 0xc1, 0x14, 0x3d, 0x2a, 0xb8, 0xc0, 0xbe, 0x98, 0x6c, 0x03, 0xbe, 0x7d, 0x6b, 0xb0, 0x3c, 0x2b, 0x27, 0xb5, 0xbd, 0x80, 0xe1, 0x1a, 0x3e, 0xcf, 0x2e, 0x33, 0x3c, 0x32, 0xe8, 0x55, 0x3f, 0xc8, 0x0e, 0x94, 0xbd, 0x1c, 0x68, 0x1b, 0x3d, 0x76, 0x23, 0x1a, 0x3f, 0x47, 0x85, 0x9b, 0xbe, 0x98, 0xec, 0x45, 0xbd, 0xcd, 0x43, 0xcd, 0x3d, 0xd4, 0x4c, 0x08, 0x3e, 0xd9, 0x02, 0x1e, 0x3e, 0x29, 0x65, 0x8e, 0x3e, 0xf6, 0xf4, 0xa5, 0xbe, 0x89, 0xaf, 0x3c, 0xbe, 0x31, 0x54, 0x64, 0x3e, 0xfc, 0x04, 0x97, 0xbd, 0xa4, 0xd1, 0x92, 0x3d, 0x86, 0xe3, 0x23, 0xbe, 0x79, 0xd0, 0xe4, 0xbd, 0x46, 0xda, 0x20, 0xbe, 0x16, 0x5b, 0x06, 0x3e, 0xf9, 0xa3, 0xaf, 0x3f, 0xa4, 0x30, 0x64, 0xbf, 0x0c, 0x36, 0x88, 0xbd, 0x16, 0xdf, 0x5c, 0xbf, 0x4d, 0x1f, 0xbe, 0x3d, 0x05, 0x81, 0xed, 0xbb, 0x25, 0xca, 0xd9, 0xbd, 0x71, 0x63, 0x38, 0x3f, 0xba, 0x35, 0xc7, 0xbd, 0x62, 0x29, 0x72, 0x3f, 0x6a, 0xbb, 0xe9, 0xbe, 0xe6, 0x78, 0xc7, 0xbd, 0x8e, 0x21, 0x94, 0xbc, 0x56, 0x87, 0x42, 0xbf, 0x01, 0xc3, 0x26, 0x3e, 0x0c, 0x21, 0x14, 0xbe, 0xf1, 0x24, 0x4e, 0xbe, 0x41, 0x63, 0xa0, 0x3b, 0x3b, 0x25, 0x9c, 0xbd, 0x77, 0x64, 0xdf, 0x3c, 0x48, 0xe4, 0xba, 0x3a, 0x2e, 0x53, 0xdd, 0x3d, 0xcb, 0xda, 0x77, 0xbe, 0x9f, 0x40, 0x6d, 0x3d, 0x6f, 0xc4, 0xdb, 0xbd, 0xaf, 0x6c, 0x91, 0x3e, 0xe9, 0x99, 0x43, 0x3f, 0xb2, 0xea, 0x1f, 0x3e, 0x91, 0x84, 0x21, 0xbe, 0xac, 0x04, 0x42, 0x3e, 0x54, 0xa9, 0xed, 0x3d, 0xfe, 0xb5, 0x41, 0x3e, 0xf2, 0x24, 0x57, 0x3e, 0x78, 0xa3, 0x30, 0xbf, 0x4c, 0xcc, 0x8f, 0xbd, 0xf6, 0x23, 0x43, 0x3f, 0x42, 0x5d, 0x38, 0x3e, 0x1e, 0x73, 0xb5, 0x3c, 0x36, 0xfd, 0x30, 0xbe, 0x9e, 0xc7, 0x72, 0xbf, 0xcc, 0xa4, 0x0b, 0xbe, 0x24, 0x69, 0xde, 0xbe, 0x4c, 0xf2, 0x31, 0x3f, 0x74, 0x2c, 0x01, 0x3d, 0x4e, 0x21, 0x1f, 0x3d, 0x25, 0x45, 0xb3, 0x3e, 0x20, 0x6f, 0x32, 0x3d, 0x77, 0x25, 0x2e, 0xbe, 0x64, 0x14, 0x94, 0x3e, 0xed, 0x3f, 0x3a, 0xbf, 0x97, 0x97, 0x32, 0xbe, 0x44, 0xa1, 0xd3, 0x3e, 0xfd, 0x10, 0x07, 0x3e, 0x95, 0x9a, 0xf2, 0xbd, 0xe7, 0x02, 0xb4, 0xbd, 0xba, 0xb7, 0x12, 0xbf, 0x08, 0xfd, 0x4a, 0xbd, 0x19, 0xf6, 0xaa, 0xbe, 0xa8, 0x41, 0x4f, 0x3f, 0x90, 0x3d, 0xcc, 0xbc, 0x90, 0x4d, 0x82, 0x3d, 0x33, 0xc2, 0x9a, 0xbc, 0x18, 0xdc, 0x2f, 0xbe, 0x29, 0xa1, 0x5e, 0xba, 0x37, 0x93, 0x8a, 0xbd, 0xef, 0xd9, 0x35, 0xbe, 0x12, 0xac, 0x24, 0x3e, 0xac, 0x8a, 0x42, 0x3f, 0xdf, 0x6c, 0x16, 0xbd, 0x53, 0xb8, 0xe9, 0xbb, 0xd2, 0x43, 0x34, 0x3e, 0x45, 0x2b, 0x23, 0xbf, 0xf8, 0xcd, 0x05, 0xbd, 0xdf, 0x43, 0xab, 0xbe, 0x57, 0xaa, 0x4a, 0x3f, 0x26, 0xd1, 0x25, 0x3e, 0x08, 0x1a, 0x61, 0xbd, 0x50, 0xca, 0x10, 0x3e, 0xbc, 0xfd, 0x6a, 0xbd, 0x30, 0xc2, 0xc5, 0xbc, 0x43, 0xb2, 0x95, 0x3d, 0x2b, 0x90, 0x11, 0x3e, 0x26, 0x17, 0x3f, 0x3e, 0xed, 0xa0, 0x9f, 0x3e, 0xae, 0xeb, 0x88, 0xbd, 0x21, 0x02, 0x98, 0x3d, 0x90, 0x51, 0xbf, 0x3c, 0x38, 0x35, 0x1a, 0x3f, 0xb4, 0x4d, 0x7e, 0xbd, 0x71, 0x58, 0x85, 0x3d, 0x0f, 0x52, 0xe1, 0x3e, 0x9b, 0xfb, 0xfd, 0x3d, 0xfc, 0x92, 0xb1, 0x3d, 0xd9, 0x6f, 0x89, 0x3d, 0x36, 0xff, 0x2a, 0xbe, 0x6f, 0xbf, 0xfa, 0xbd, 0x9c, 0x5c, 0x04, 0x3f, 0x48, 0x65, 0x88, 0xbf, 0x00, 0x30, 0xc0, 0xbb, 0x9e, 0x32, 0x64, 0x3f, 0x62, 0x21, 0x7e, 0xbd, 0xee, 0xc8, 0x34, 0x3e, 0x9e, 0x4f, 0xd8, 0xbd, 0x4d, 0x57, 0x35, 0xbe, 0xd0, 0xfc, 0x2e, 0xbd, 0xa0, 0x52, 0x52, 0xbf, 0x66, 0x4f, 0x9d, 0x3f, 0xff, 0x1f, 0xe1, 0x3d, 0x4f, 0xbf, 0xa8, 0xbc, 0x4d, 0xfc, 0x02, 0x3e, 0xe5, 0xfe, 0x18, 0xbe, 0x20, 0x37, 0x63, 0xbd, 0x22, 0xfb, 0x43, 0x3f, 0x68, 0x34, 0x24, 0xbf, 0x6e, 0x9e, 0xb8, 0xbd, 0xe5, 0x45, 0x9e, 0x3d, 0xc8, 0x56, 0x2c, 0x3d, 0x9e, 0xae, 0x2f, 0x3e, 0xc6, 0xdf, 0x53, 0x3c, 0x3b, 0x0b, 0xe6, 0x3e, 0x00, 0xb0, 0xb4, 0xba, 0xe3, 0x5c, 0x50, 0xbd, 0x69, 0x40, 0x9b, 0x3e, 0x40, 0x5a, 0x41, 0xbe, 0x75, 0xf1, 0x95, 0xbd, 0xf2, 0x7a, 0x1a, 0xbf, 0x30, 0x35, 0xb1, 0x3d, 0x6a, 0x19, 0x09, 0x3e, 0xe1, 0x1e, 0x28, 0xbf, 0x5a, 0xce, 0x0d, 0x3f, 0x50, 0xed, 0x6f, 0xbd, 0x47, 0x01, 0xbe, 0x3d, 0xca, 0xec, 0x64, 0x3d, 0x9c, 0x11, 0xc5, 0x3c, 0x9c, 0xfd, 0xdf, 0xbd, 0x0d, 0xac, 0x86, 0x3e, 0xe8, 0x47, 0x85, 0x3c, 0x18, 0xf8, 0x10, 0x3e, 0x57, 0x06, 0x2f, 0x3e, 0x0f, 0x92, 0x9e, 0x3d, 0x6a, 0xfb, 0xf1, 0x3d, 0x3e, 0x38, 0xac, 0x3e, 0x06, 0x34, 0x12, 0x3e, 0x00, 0xbe, 0x89, 0xbb, 0x54, 0xf5, 0xb4, 0xbf, 0xe0, 0xe0, 0x68, 0x3f, 0xdc, 0x09, 0xee, 0x3d, 0x4f, 0x6e, 0x8f, 0x3f, 0xb1, 0x9b, 0x69, 0xbd, 0x56, 0xda, 0xf5, 0xbd, 0xe8, 0x6b, 0xa6, 0x3e, 0xef, 0x25, 0xd5, 0xbe, 0xe0, 0xcb, 0x75, 0xbd, 0x1b, 0x52, 0x70, 0xbf, 0x1c, 0xe2, 0x42, 0x3f, 0x96, 0x2d, 0x8c, 0xbd, 0x6f, 0x50, 0x25, 0x3d, 0x08, 0xff, 0x53, 0x3f, 0x2b, 0xa0, 0xae, 0x3c, 0x0c, 0xc0, 0xad, 0x3d, 0xb9, 0x82, 0x04, 0x3e, 0xcf, 0x74, 0x63, 0x3d, 0xe3, 0x59, 0x1b, 0xbe, 0xf7, 0xe4, 0xac, 0x3e, 0x55, 0x16, 0x2d, 0xbd, 0x73, 0x74, 0xbe, 0x3d, 0xf8, 0x9a, 0xba, 0x3e, 0x48, 0x5f, 0xc0, 0xbb, 0xa6, 0xe2, 0x3f, 0x3e, 0x27, 0x98, 0xb1, 0xbd, 0xca, 0xe0, 0x03, 0xbf, 0xd4, 0xf4, 0x31, 0x3e, 0x8b, 0x3f, 0xf0, 0xbd, 0x3a, 0x91, 0xda, 0x3d, 0x64, 0x4f, 0x3e, 0xbe, 0xdc, 0xc2, 0xfd, 0xbd, 0x50, 0x2c, 0x85, 0xbd, 0xe7, 0x02, 0x2b, 0x3f, 0x64, 0x03, 0xd4, 0x3d, 0x30, 0xcc, 0x07, 0xbf, 0xe6, 0x04, 0xad, 0x3d, 0x09, 0x64, 0x44, 0x3d, 0xff, 0x60, 0x7a, 0x3e, 0xff, 0x4d, 0x90, 0x3f, 0x3c, 0xfc, 0x38, 0x3d, 0x76, 0x0d, 0x0a, 0x3f, 0xb7, 0x3e, 0x28, 0xbf, 0xfb, 0x36, 0x48, 0xbe, 0xf2, 0x75, 0x39, 0xbe, 0xea, 0x45, 0xb4, 0xbd, 0xc7, 0x0a, 0xc6, 0x3d, 0x8e, 0x34, 0x8b, 0xbd, 0x9b, 0xbc, 0x9d, 0xbe, 0xe2, 0x91, 0x5a, 0x3f, 0x00, 0xda, 0xa7, 0xbb, 0x85, 0xf1, 0x0b, 0xbf, 0x48, 0x31, 0x61, 0x3d, 0x3c, 0xb4, 0x10, 0xbe, 0xd7, 0x28, 0xba, 0x3e, 0x28, 0x11, 0x52, 0x3f, 0xf0, 0xb8, 0xfe, 0x3c, 0x52, 0xea, 0x58, 0x3e, 0xc8, 0x3b, 0xb7, 0xbe, 0x2d, 0x0f, 0x5c, 0x3d, 0x89, 0xfb, 0xa4, 0xbd, 0x4d, 0xa0, 0x45, 0x3c, 0x02, 0x8b, 0x09, 0x3d, 0x57, 0xe8, 0x42, 0x3e, 0x39, 0xbf, 0xe5, 0x3e, 0xaa, 0x03, 0x50, 0x3e, 0xd4, 0xef, 0xdf, 0xbd, 0xf4, 0x9f, 0x02, 0xbf, 0x44, 0xb4, 0xa7, 0x3d, 0x4a, 0x5f, 0x26, 0xbc, 0x81, 0x6e, 0x9f, 0x3e, 0xc9, 0x85, 0x0f, 0x3f, 0xa2, 0x8e, 0xdd, 0xbd, 0x58, 0xf2, 0x1d, 0x3f, 0x19, 0xad, 0xf6, 0xbe, 0x46, 0xe7, 0x45, 0xbe, 0x94, 0xe5, 0xcf, 0xbd, 0x4a, 0xf7, 0x7b, 0x3d, 0x0a, 0xf6, 0xff, 0xff, 0x04, 0x00, 0x00, 0x00, 0x08, 0x00, 0x00, 0x00, 0xff, 0xff, 0xff, 0xff, 0x90, 0x00, 0x00, 0x00, 0x1e, 0xf6, 0xff, 0xff, 0x04, 0x00, 0x00, 0x00, 0x40, 0x00, 0x00, 0x00, 0xbf, 0x90, 0xde, 0x3c, 0x3e, 0x35, 0xe0, 0x3d, 0xdb, 0x87, 0x71, 0xbc, 0x2b, 0x51, 0xb5, 0x3d, 0xa4, 0x47, 0xc8, 0x3d, 0xf2, 0x64, 0x31, 0x3c, 0x3d, 0xca, 0x80, 0xbc, 0x00, 0x00, 0x00, 0x00, 0x68, 0x16, 0x3c, 0x3d, 0x50, 0x93, 0x0b, 0xbd, 0x13, 0x5d, 0xd7, 0x3c, 0x08, 0xa6, 0x15, 0x3c, 0x32, 0xe4, 0x1c, 0xbc, 0x3e, 0x5d, 0xd5, 0x3d, 0x89, 0x91, 0x88, 0x3c, 0x19, 0x27, 0xb7, 0x3d, 0x6a, 0xf6, 0xff, 0xff, 0x04, 0x00, 0x00, 0x00, 0x04, 0x00, 0x00, 0x00, 0x88, 0x67, 0x55, 0xbd, 0x7a, 0xf6, 0xff, 0xff, 0x04, 0x00, 0x00, 0x00, 0x00, 0x08, 0x00, 0x00, 0x38, 0x9f, 0x69, 0xbd, 0x14, 0x7f, 0x47, 0x3d, 0xa5, 0x04, 0x2a, 0x3e, 0x60, 0x17, 0x80, 0xbd, 0xb8, 0x91, 0x0b, 0x3e, 0x18, 0x0c, 0x98, 0x3d, 0x7e, 0xb3, 0x5a, 0x3e, 0x9e, 0xfc, 0x4e, 0x3d, 0x37, 0x44, 0x57, 0xbe, 0x9b, 0x80, 0x8e, 0x3b, 0xde, 0xcc, 0x96, 0x3d, 0x74, 0x6b, 0x36, 0x3e, 0xb7, 0x43, 0x5a, 0xbe, 0xd4, 0x55, 0x76, 0x3e, 0xf0, 0x48, 0x72, 0x3e, 0x54, 0xab, 0x60, 0xbe, 0x92, 0xb4, 0xe5, 0x3d, 0xda, 0x3f, 0x1d, 0xbe, 0xb6, 0x2d, 0x52, 0xbe, 0x90, 0xe5, 0x39, 0xbd, 0x19, 0x00, 0xb3, 0x3c, 0x20, 0x72, 0xe2, 0x3d, 0x77, 0x80, 0xbc, 0xbd, 0xbc, 0x6a, 0xa5, 0xbc, 0x6f, 0x22, 0xb2, 0x3d, 0x94, 0x27, 0xe6, 0xbc, 0x00, 0x2b, 0xd8, 0xbd, 0x20, 0x51, 0xaf, 0x3d, 0x92, 0xc1, 0x50, 0x3d, 0xe4, 0x61, 0x3a, 0xbe, 0xf0, 0xa9, 0x8f, 0x3d, 0x72, 0x16, 0x45, 0x3e, 0x0b, 0xfa, 0x0f, 0x3e, 0x83, 0x1e, 0x7f, 0x3d, 0xc8, 0x47, 0x67, 0xbe, 0x60, 0x51, 0x65, 0xbd, 0x7e, 0xf3, 0xc8, 0x3c, 0x04, 0x42, 0x70, 0x3e, 0x80, 0xc4, 0x4c, 0x3e, 0xc6, 0xcf, 0x1a, 0x3d, 0xd2, 0x82, 0x52, 0x3e, 0x01, 0xbf, 0x10, 0x3e, 0xc0, 0xc5, 0x48, 0xbc, 0xa4, 0x0f, 0x54, 0xbe, 0xa9, 0xa0, 0x8f, 0xbd, 0x60, 0xff, 0xd6, 0x3c, 0x80, 0x6a, 0xd7, 0x3c, 0x68, 0x07, 0x67, 0xbe, 0xb4, 0xc0, 0x04, 0x3e, 0x09, 0x34, 0xc6, 0xbd, 0x9a, 0xc9, 0xbc, 0xbd, 0xe0, 0x4a, 0xdd, 0x3d, 0x3e, 0x0e, 0x55, 0x3e, 0x40, 0xcc, 0x01, 0xbc, 0x24, 0x89, 0x5a, 0x3e, 0x44, 0xda, 0xb6, 0xbd, 0xda, 0x8b, 0x73, 0xbe, 0x58, 0xdf, 0x72, 0xbe, 0xc0, 0x57, 0x10, 0xbe, 0xe4, 0x86, 0x56, 0xbe, 0x44, 0x07, 0x2c, 0xbe, 0x10, 0x9a, 0x2d, 0x3e, 0x38, 0xab, 0xb4, 0x3d, 0x00, 0x50, 0x90, 0x3c, 0xca, 0x4b, 0x37, 0x3f, 0x26, 0x0f, 0xa5, 0x3e, 0x21, 0x67, 0x32, 0x3f, 0xfc, 0xd4, 0x43, 0xbe, 0x04, 0xc8, 0x8e, 0x3e, 0xb8, 0x8e, 0xf4, 0x3d, 0xc1, 0x8a, 0x27, 0xbe, 0x9c, 0x85, 0x2d, 0x3f, 0xf0, 0xf9, 0xbb, 0x3f, 0xf4, 0x93, 0x9a, 0xbe, 0x52, 0xd9, 0x08, 0x40, 0x10, 0xd2, 0xa9, 0x3d, 0x37, 0xcd, 0xa1, 0x3f, 0xfc, 0x0e, 0x32, 0xbe, 0xe8, 0x66, 0x22, 0x3e, 0x5b, 0xfb, 0xa1, 0x3f, 0x41, 0x20, 0x11, 0xbd, 0x65, 0xb0, 0x00, 0x3c, 0x65, 0xdd, 0x83, 0xbf, 0x64, 0x95, 0x14, 0x3e, 0x76, 0x23, 0x24, 0xbf, 0x00, 0x75, 0x15, 0xbb, 0x18, 0x3e, 0xca, 0x3d, 0x7e, 0xf6, 0x03, 0xbf, 0xc3, 0x15, 0x26, 0xbd, 0x31, 0xfb, 0x9b, 0xbe, 0xc9, 0x56, 0x54, 0xbe, 0x84, 0x7d, 0x51, 0xbe, 0x65, 0x5c, 0x90, 0x3e, 0x40, 0x17, 0x54, 0xbc, 0xd8, 0xae, 0x05, 0xbe, 0x2b, 0xae, 0xcb, 0xbd, 0xe5, 0x77, 0x1f, 0xbf, 0x7f, 0xbf, 0x93, 0xbe, 0x18, 0x2a, 0xd0, 0xbe, 0x80, 0x37, 0x66, 0x3c, 0x7c, 0x91, 0xc5, 0xbe, 0x40, 0xf6, 0x56, 0xbe, 0x0d, 0x64, 0x2a, 0xbe, 0x46, 0xd7, 0xa9, 0xbe, 0x53, 0x0e, 0x7d, 0xbf, 0xe2, 0xa8, 0x60, 0x3e, 0x3f, 0x82, 0x81, 0xbf, 0x68, 0x6b, 0xb9, 0xbd, 0x92, 0x5c, 0x5f, 0xbf, 0x90, 0xc3, 0x48, 0xbe, 0x00, 0x65, 0x0f, 0xbe, 0xb1, 0x58, 0x4a, 0xbf, 0x7d, 0xe4, 0x75, 0x3f, 0x32, 0x4f, 0xb8, 0xbe, 0x36, 0x7f, 0x26, 0x40, 0xb8, 0xca, 0x86, 0xbd, 0x2e, 0x79, 0xde, 0x3f, 0xfc, 0x07, 0x72, 0x3e, 0xa4, 0x2b, 0x4e, 0x3e, 0x8d, 0xd7, 0xb2, 0x3f, 0x9c, 0xbb, 0x16, 0x3f, 0x39, 0x11, 0x43, 0x3e, 0x3a, 0x03, 0x9a, 0x3f, 0x80, 0x14, 0x3e, 0xbc, 0x88, 0x52, 0x3b, 0x3f, 0x38, 0xb8, 0xb8, 0xbd, 0x98, 0x9a, 0x0b, 0xbe, 0x70, 0xe5, 0xfa, 0x3e, 0x14, 0xc1, 0x72, 0xbe, 0x70, 0xc6, 0xaf, 0xbd, 0xa0, 0xc7, 0x31, 0xbe, 0x44, 0xac, 0x40, 0x3e, 0x78, 0x8e, 0xf5, 0x3d, 0x34, 0x36, 0x5b, 0x3e, 0x80, 0x09, 0xdb, 0xbd, 0x60, 0x94, 0xa9, 0xbc, 0xb0, 0x4d, 0x0b, 0x3d, 0x58, 0x15, 0x42, 0xbe, 0x80, 0xb5, 0x53, 0x3c, 0xc8, 0xdf, 0xb1, 0x3d, 0xe4, 0x41, 0x06, 0xbe, 0xa8, 0x52, 0x3a, 0xbe, 0x80, 0x3f, 0x52, 0xbd, 0xf8, 0x60, 0x4a, 0x3e, 0xc4, 0xf5, 0x4c, 0xbe, 0x44, 0x7b, 0x34, 0x3e, 0x9c, 0x31, 0x05, 0xbe, 0x24, 0xd1, 0x0b, 0xbe, 0xc8, 0x47, 0x66, 0xbe, 0x00, 0x4f, 0x89, 0xbd, 0x08, 0x58, 0xae, 0x3d, 0xf0, 0x2b, 0xf1, 0xbd, 0xbc, 0xf2, 0x13, 0xbe, 0x80, 0x0a, 0xce, 0xbd, 0x00, 0x8d, 0x9b, 0x3b, 0x30, 0xc4, 0x22, 0x3e, 0x30, 0xbf, 0x0b, 0xbe, 0x60, 0x4c, 0x33, 0xbe, 0x64, 0x7c, 0x2a, 0xbe, 0x48, 0x7f, 0x5b, 0xbe, 0x97, 0x87, 0xec, 0xbf, 0x83, 0xf7, 0xeb, 0x3e, 0x75, 0x9a, 0xdb, 0xbe, 0xfc, 0x29, 0x3e, 0xbe, 0x07, 0x84, 0x3a, 0xbf, 0x84, 0x8c, 0x18, 0x3e, 0x4b, 0x55, 0xde, 0xbd, 0x3e, 0xc4, 0x28, 0xbf, 0x8f, 0xbe, 0xa1, 0xbf, 0x87, 0xe6, 0x6f, 0x3f, 0x04, 0xb2, 0x3d, 0xbf, 0x80, 0xcc, 0xb2, 0x3c, 0x24, 0x13, 0x46, 0xbe, 0xe8, 0xbb, 0x6a, 0xbe, 0x20, 0xd8, 0x5c, 0xbe, 0x72, 0x98, 0x71, 0x3e, 0xab, 0x79, 0x7e, 0xbf, 0xd2, 0xdb, 0x1f, 0x3e, 0x23, 0x47, 0x43, 0xbf, 0x50, 0xac, 0xba, 0x3d, 0xe4, 0xe3, 0xe5, 0xbe, 0xc0, 0xb7, 0x59, 0x3e, 0x3d, 0xd2, 0x56, 0xbc, 0x16, 0x0b, 0x12, 0xbf, 0x41, 0x34, 0x36, 0xbf, 0x61, 0x25, 0x90, 0x3e, 0xdd, 0x50, 0x97, 0xbf, 0x90, 0xa4, 0x62, 0xbe, 0x71, 0xdb, 0x42, 0xbf, 0x7c, 0x3f, 0x1d, 0xbe, 0xd8, 0xfe, 0x36, 0xbe, 0x33, 0xa1, 0x2d, 0xbf, 0x3d, 0x7d, 0x63, 0xbe, 0xba, 0x7b, 0x0e, 0x3e, 0x34, 0x06, 0x06, 0x3e, 0x98, 0xba, 0x35, 0xbe, 0x74, 0x23, 0x24, 0xbe, 0x60, 0x3a, 0x7a, 0x3e, 0x38, 0xe1, 0x5d, 0xbe, 0xbf, 0x8a, 0x85, 0xbe, 0x3d, 0xb2, 0x52, 0x3e, 0x02, 0xc9, 0x2b, 0xbe, 0x89, 0x8f, 0x8f, 0x3d, 0x00, 0xd5, 0x08, 0xbb, 0x23, 0x1a, 0x54, 0xbd, 0x40, 0x95, 0x6a, 0xbe, 0xc8, 0xa7, 0x1f, 0x3e, 0x32, 0x08, 0x4f, 0x3d, 0x3f, 0xf7, 0xc7, 0xbd, 0x47, 0x67, 0x19, 0x3e, 0x9a, 0x21, 0x3a, 0x3e, 0xc0, 0xcc, 0xba, 0xbc, 0x97, 0xae, 0x03, 0xba, 0x68, 0xdd, 0x95, 0xbd, 0x2c, 0x92, 0x0c, 0x3e, 0x90, 0xea, 0xca, 0x3d, 0xb8, 0x39, 0x06, 0x3e, 0x85, 0xc4, 0x18, 0xbe, 0x3e, 0xa4, 0x2a, 0xbe, 0xc4, 0x26, 0x22, 0x3e, 0x80, 0xa9, 0x3b, 0x3e, 0x48, 0xd7, 0x9f, 0x3d, 0x00, 0x12, 0xfd, 0xbc, 0xe2, 0xff, 0x9a, 0xbd, 0x28, 0xe3, 0x75, 0xbe, 0x8d, 0x14, 0xd6, 0x3d, 0x25, 0xee, 0x65, 0x3e, 0xf8, 0xc7, 0xa4, 0x3d, 0x38, 0x91, 0xbe, 0xbd, 0x24, 0x00, 0x35, 0xbe, 0xb0, 0xbe, 0x3e, 0x3e, 0x3a, 0x54, 0x71, 0xbd, 0x88, 0xb1, 0x03, 0xbe, 0xd0, 0xa1, 0x65, 0xbb, 0xad, 0x33, 0xff, 0xbd, 0x4c, 0xc1, 0x43, 0xbe, 0x98, 0x54, 0x71, 0x3e, 0x30, 0xad, 0x53, 0xbd, 0x18, 0xff, 0x5c, 0xbe, 0xa2, 0xbf, 0x35, 0xbe, 0x10, 0x6b, 0x14, 0x3e, 0x20, 0x45, 0xf8, 0xbd, 0xe6, 0x1e, 0x29, 0x3d, 0x14, 0x97, 0x28, 0xbe, 0x18, 0xc4, 0x4e, 0xbe, 0x00, 0xf0, 0xab, 0x3d, 0x48, 0x6b, 0xca, 0x3d, 0x80, 0x31, 0x83, 0xbd, 0x80, 0x09, 0xe6, 0x3b, 0xa3, 0x20, 0xf5, 0xbc, 0x52, 0xd6, 0x34, 0xbe, 0xb8, 0xea, 0x48, 0xbe, 0x70, 0x1d, 0xe6, 0xbd, 0x7c, 0xcf, 0x06, 0xbe, 0xec, 0x1f, 0x0b, 0x3e, 0x5c, 0xe7, 0x19, 0xbe, 0x5d, 0x35, 0x86, 0xbf, 0x92, 0xd9, 0xe6, 0x3e, 0x90, 0x16, 0x76, 0xbf, 0x10, 0x43, 0x99, 0xbd, 0x54, 0xdc, 0xd3, 0xbe, 0xac, 0x15, 0x53, 0x3e, 0xf0, 0x00, 0x68, 0xbe, 0xfd, 0x01, 0xb7, 0xbe, 0x6a, 0x64, 0x6a, 0xbe, 0xc5, 0x30, 0xbb, 0x3e, 0x87, 0x6e, 0xab, 0xbe, 0x18, 0xae, 0x26, 0xbe, 0xa5, 0x48, 0x61, 0x3d, 0x50, 0x6a, 0x32, 0xbd, 0x60, 0x30, 0x05, 0x3d, 0x95, 0x82, 0x3a, 0xbd, 0x62, 0x13, 0x80, 0x3e, 0x5a, 0xc4, 0xe3, 0x3d, 0x1d, 0x7f, 0x58, 0x3f, 0x58, 0x63, 0x3b, 0xbe, 0x23, 0x2a, 0x51, 0x3f, 0xe8, 0xd4, 0xb2, 0x3d, 0x08, 0x2a, 0xf3, 0xbd, 0x49, 0x11, 0x5a, 0x3f, 0x5d, 0x91, 0xb7, 0x3e, 0xd5, 0x38, 0x6a, 0xbe, 0x7f, 0xf2, 0xa6, 0x3f, 0x80, 0x08, 0xd6, 0x3b, 0xa3, 0x5d, 0x3d, 0x3f, 0x64, 0x57, 0x44, 0x3e, 0x10, 0x69, 0x38, 0xbe, 0xd9, 0xce, 0x63, 0x3f, 0x01, 0x18, 0x43, 0x3f, 0x9f, 0x1c, 0x84, 0xbe, 0x94, 0xf6, 0xbe, 0x3f, 0x20, 0x88, 0x60, 0x3e, 0x97, 0xe0, 0x83, 0x3f, 0xd4, 0x53, 0x4a, 0xbe, 0xbc, 0x12, 0x3d, 0x3e, 0x8a, 0xf3, 0x94, 0x3f, 0xe0, 0x13, 0x5f, 0x3f, 0x76, 0xb6, 0x36, 0x3d, 0xff, 0x05, 0xc0, 0x3f, 0xf0, 0xe8, 0xfd, 0x3d, 0xfd, 0xf7, 0x58, 0x3f, 0x40, 0x6f, 0x19, 0xbc, 0xa0, 0x55, 0x7b, 0xbe, 0xd2, 0xb3, 0x1b, 0x3f, 0x5e, 0xf3, 0x8b, 0x3f, 0xe7, 0xd5, 0xaa, 0xbe, 0xfe, 0x42, 0x72, 0x3f, 0xe0, 0xef, 0x7e, 0x3d, 0xa5, 0x74, 0x9f, 0x3f, 0xf4, 0x21, 0x11, 0xbe, 0x00, 0x92, 0x26, 0x3b, 0x6f, 0x65, 0x99, 0x3f, 0x06, 0x61, 0x61, 0x3f, 0xa8, 0xfe, 0xf9, 0xbe, 0x1e, 0xd4, 0xae, 0x3f, 0x60, 0x4e, 0x92, 0xbc, 0xec, 0x17, 0x5b, 0x3f, 0x78, 0xbe, 0xad, 0x3d, 0xc0, 0x0b, 0x79, 0x3d, 0xaa, 0x52, 0x45, 0x3f, 0x80, 0x4a, 0x74, 0x3c, 0xac, 0xc3, 0x6c, 0xbe, 0x44, 0x45, 0x44, 0xbe, 0xa0, 0x51, 0xfa, 0x3d, 0xf8, 0xee, 0xc7, 0x3d, 0x6c, 0x6a, 0x74, 0xbe, 0x80, 0x8c, 0xbc, 0x3b, 0x24, 0x68, 0x7d, 0x3e, 0x88, 0xc1, 0x3c, 0xbe, 0x38, 0x1e, 0x76, 0xbe, 0xe0, 0x93, 0xfa, 0xbd, 0x10, 0xbc, 0x6d, 0x3e, 0x88, 0xc7, 0x17, 0x3e, 0x90, 0xcf, 0x21, 0xbd, 0x5c, 0xbd, 0x43, 0x3e, 0x60, 0x33, 0x92, 0xbd, 0xf8, 0xee, 0x62, 0x3e, 0x40, 0x07, 0x7c, 0xbd, 0xa0, 0x81, 0x9d, 0x3c, 0xd0, 0x08, 0x3d, 0x3e, 0xd0, 0xf9, 0xdb, 0x3d, 0xdc, 0x01, 0x4d, 0x3e, 0x80, 0xf0, 0x7a, 0x3c, 0x1c, 0x19, 0x42, 0xbe, 0x3c, 0x42, 0x7c, 0xbe, 0xe0, 0x14, 0x2a, 0x3e, 0x8c, 0xa9, 0x59, 0xbe, 0x60, 0x22, 0xe0, 0xbc, 0xc0, 0x97, 0x0e, 0xbe, 0xc0, 0xd1, 0xa1, 0x3c, 0x00, 0x9b, 0xdd, 0x3d, 0x58, 0x00, 0x5e, 0xbe, 0x83, 0x04, 0xae, 0x3f, 0x63, 0xbe, 0x87, 0xbd, 0xb1, 0x33, 0x0c, 0x3f, 0x50, 0xff, 0x2f, 0xbe, 0xdc, 0x58, 0x6b, 0x3f, 0x98, 0x1c, 0xdd, 0xbd, 0xa8, 0x93, 0x1f, 0xbe, 0xa8, 0x1a, 0x52, 0x3f, 0xbf, 0x2e, 0x9d, 0x3f, 0x0b, 0x60, 0x0a, 0xbf, 0xa0, 0xd1, 0xa8, 0x3f, 0xec, 0x68, 0x70, 0x3e, 0x2a, 0x99, 0x3c, 0x3f, 0xfc, 0x5a, 0x00, 0xbe, 0x90, 0x04, 0x64, 0x3d, 0x28, 0x3b, 0x93, 0x3e, 0x10, 0x9a, 0x78, 0x3f, 0xea, 0x8a, 0x48, 0x3e, 0x7f, 0x87, 0x03, 0x3f, 0x64, 0xeb, 0x4d, 0x3e, 0x39, 0x9a, 0x4a, 0x3f, 0x80, 0x6c, 0xbe, 0x3c, 0xd0, 0xb1, 0x0b, 0xbd, 0xa3, 0xde, 0x2c, 0x3f, 0x7f, 0x4f, 0xa6, 0x3e, 0x8d, 0x24, 0xa2, 0xbe, 0xc3, 0x04, 0x5d, 0x3f, 0xc4, 0x3b, 0x27, 0x3e, 0xb1, 0x86, 0x07, 0x3e, 0xa0, 0x0a, 0xdd, 0x3c, 0xd8, 0x52, 0xc6, 0xbd, 0x51, 0x17, 0x95, 0x3e, 0x14, 0xe9, 0xaf, 0xbe, 0xeb, 0xd7, 0xdf, 0x3e, 0x12, 0x79, 0x4f, 0x3f, 0xd4, 0xd5, 0x1d, 0x3e, 0x9c, 0x24, 0xa0, 0x3e, 0x98, 0xac, 0x01, 0x3e, 0x9c, 0x37, 0x20, 0xbe, 0x8a, 0x91, 0x88, 0x3e, 0xcb, 0x78, 0xa0, 0xbf, 0xc7, 0x28, 0xc4, 0x3f, 0x64, 0xf6, 0xaa, 0xbf, 0x80, 0xc1, 0xec, 0xbc, 0x06, 0x88, 0x81, 0xbf, 0xc0, 0xf0, 0x3e, 0xbc, 0x10, 0x3e, 0x5e, 0xbe, 0xe9, 0xcc, 0x0e, 0xbf, 0xf3, 0x45, 0x9e, 0xbf, 0x17, 0xde, 0x8d, 0x3d, 0xb8, 0xa8, 0xcf, 0xbf, 0x40, 0xf3, 0x26, 0xbe, 0xdd, 0xd1, 0x95, 0xbf, 0x68, 0x11, 0xed, 0x3d, 0xb0, 0xc8, 0x2f, 0xbe, 0xb0, 0x1e, 0x97, 0xbf, 0x3f, 0x3c, 0x8e, 0xbf, 0xa6, 0x7c, 0x79, 0x3f, 0xd8, 0x29, 0x2c, 0xc0, 0x14, 0xf2, 0x52, 0xbe, 0x8f, 0x29, 0xfb, 0xbf, 0xfc, 0x92, 0x2e, 0xbe, 0xbc, 0xf0, 0x2c, 0xbe, 0x0b, 0x32, 0xe8, 0xbf, 0xba, 0x48, 0xea, 0xbd, 0x30, 0xb8, 0x17, 0xbe, 0x5a, 0x2a, 0x92, 0x3d, 0xd8, 0x43, 0xf0, 0x3d, 0x5e, 0xbf, 0x7c, 0xbe, 0x58, 0x98, 0xc6, 0x3d, 0x5d, 0xe6, 0x62, 0xbe, 0xcb, 0x36, 0x47, 0xbc, 0x95, 0xf9, 0xe8, 0x3d, 0xb9, 0xd3, 0x90, 0x3d, 0x0d, 0x4a, 0x74, 0x3d, 0x10, 0x6b, 0x40, 0x3e, 0x91, 0x08, 0xf2, 0x3d, 0xc8, 0x2c, 0x2b, 0xbe, 0x78, 0xdd, 0xb1, 0x3d, 0x28, 0xa4, 0x98, 0xbd, 0xf1, 0xaf, 0xce, 0xbd, 0x40, 0xfe, 0x16, 0xbe, 0x37, 0xca, 0xd3, 0x3d, 0x2c, 0xaa, 0x72, 0x3e, 0x93, 0xfd, 0xa9, 0xbd, 0x60, 0x2f, 0x9f, 0x3d, 0xf6, 0xd2, 0x6a, 0xbd, 0x66, 0x71, 0xce, 0xbd, 0x41, 0x52, 0xdd, 0x3d, 0x77, 0x1e, 0x33, 0xbe, 0x93, 0x20, 0x0a, 0x3c, 0xd8, 0x4c, 0xc7, 0xbd, 0x01, 0xae, 0x7c, 0xbe, 0xb0, 0x9c, 0x0e, 0xbd, 0xb4, 0xc6, 0x1b, 0x3e, 0xb4, 0x3f, 0xf8, 0xbd, 0x51, 0xdc, 0x30, 0x3e, 0x14, 0x18, 0x09, 0xbe, 0x30, 0xca, 0x8a, 0xbe, 0xf8, 0x95, 0x24, 0xbe, 0xb7, 0x79, 0x12, 0xbe, 0xd0, 0x8f, 0xd0, 0x3d, 0x48, 0x66, 0x3b, 0x3e, 0x53, 0xf1, 0x8d, 0x3d, 0x88, 0x35, 0x03, 0xbe, 0xfe, 0x5e, 0x57, 0x3c, 0x98, 0xd9, 0x99, 0xbd, 0x20, 0x44, 0x7c, 0x3d, 0x1c, 0xd9, 0xfa, 0xbc, 0x68, 0x73, 0xd4, 0x3d, 0x10, 0xd5, 0x46, 0xbd, 0x10, 0x50, 0xf2, 0xbd, 0xc0, 0xeb, 0x1b, 0xbe, 0x9b, 0xb3, 0xdd, 0xbc, 0x74, 0xfd, 0x59, 0xbe, 0xa0, 0x13, 0xbc, 0x3d, 0x89, 0x09, 0x22, 0x3e, 0xe8, 0xeb, 0x8a, 0xbd, 0x50, 0x5a, 0xff, 0x3d, 0x7a, 0x12, 0x02, 0x3d, 0x31, 0xed, 0x27, 0x3e, 0x6d, 0x18, 0x68, 0x3e, 0x41, 0xb6, 0x07, 0x3e, 0xc4, 0xc4, 0x51, 0x3e, 0xd7, 0x23, 0x4d, 0xbe, 0x08, 0x6e, 0x33, 0xbe, 0xa0, 0x66, 0x51, 0xbe, 0x2b, 0xbb, 0xc1, 0xbc, 0x19, 0x8f, 0xfa, 0xbe, 0xfd, 0xb3, 0x35, 0xbe, 0x5b, 0x2a, 0x51, 0xbf, 0xc4, 0xaf, 0x1a, 0x3e, 0x87, 0xbf, 0x50, 0xbf, 0x00, 0xb4, 0x02, 0x3d, 0xc4, 0x66, 0x4c, 0xbe, 0xf3, 0x0c, 0x1e, 0xbf, 0xd8, 0xec, 0x9f, 0xbf, 0x19, 0x5b, 0x85, 0x3e, 0x8a, 0xa6, 0x1c, 0xc0, 0x70, 0xdf, 0x9a, 0xbd, 0x37, 0xd6, 0x94, 0xbf, 0x80, 0x3e, 0x8d, 0x3c, 0xc0, 0x43, 0x22, 0xbe, 0xb4, 0xc8, 0x8f, 0xbf, 0x7a, 0x7e, 0x03, 0x3f, 0x04, 0x14, 0x99, 0xbe, 0xe7, 0x8b, 0x86, 0x3f, 0x78, 0xdc, 0x60, 0xbe, 0xc6, 0x1e, 0x5d, 0x3f, 0x34, 0x89, 0x6f, 0x3e, 0xe0, 0x8d, 0x8f, 0x3c, 0xa3, 0x8f, 0xe9, 0x3e, 0x94, 0x1d, 0xdd, 0xbe, 0xe4, 0xb4, 0x87, 0x3e, 0x28, 0xe9, 0xc8, 0xbe, 0x1c, 0xaf, 0x30, 0xbe, 0x6f, 0x88, 0x35, 0xbe, 0x34, 0x00, 0x23, 0x3e, 0x80, 0xe6, 0xf5, 0x3b, 0xc3, 0x87, 0x8f, 0xbe, 0x86, 0xfe, 0xff, 0xff, 0x04, 0x00, 0x00, 0x00, 0x20, 0x01, 0x00, 0x00, 0x0f, 0x8b, 0x27, 0xbe, 0x27, 0xf1, 0x11, 0xbf, 0xce, 0x3a, 0x8b, 0xbf, 0x2f, 0x39, 0x13, 0xc0, 0x24, 0x9d, 0x51, 0xc0, 0xf1, 0x69, 0x32, 0xc0, 0x1b, 0x95, 0xa6, 0xbf, 0xf0, 0x4e, 0x03, 0xc0, 0xad, 0xe3, 0x16, 0xbf, 0xb3, 0x38, 0x4d, 0x40, 0x94, 0x72, 0x4e, 0x40, 0x1b, 0x7a, 0xbe, 0x3d, 0x04, 0x72, 0xbb, 0x3f, 0xd6, 0x93, 0x9e, 0x3f, 0xbb, 0x97, 0x39, 0xbf, 0xa3, 0x47, 0x20, 0x3f, 0x4b, 0x4b, 0xf9, 0x3e, 0x03, 0x80, 0x44, 0xbf, 0x73, 0xce, 0x90, 0x3e, 0x76, 0x0a, 0x02, 0x3f, 0x63, 0xa0, 0x90, 0x3f, 0xb2, 0xd6, 0x1f, 0xc0, 0x00, 0x3e, 0x3d, 0xc0, 0x87, 0x46, 0xa7, 0xbf, 0xc8, 0xae, 0x38, 0xc0, 0x82, 0xe4, 0x3f, 0xc0, 0x70, 0xb9, 0xbe, 0xbf, 0x64, 0x09, 0x3f, 0xbe, 0x6c, 0xe4, 0x85, 0xbd, 0x54, 0x22, 0xe8, 0xbd, 0xae, 0xcf, 0xf2, 0xbd, 0xde, 0xdf, 0x26, 0xbe, 0x9c, 0x38, 0x5b, 0xbd, 0xdc, 0x3c, 0x71, 0xbe, 0x48, 0x6d, 0x4c, 0xbe, 0x5a, 0x39, 0x1a, 0xbe, 0x26, 0x90, 0x45, 0xbe, 0xc9, 0x94, 0xb3, 0xbd, 0x03, 0x91, 0xd2, 0x3e, 0x4f, 0x28, 0x14, 0xc0, 0xb3, 0x9b, 0x48, 0xc0, 0x33, 0xc3, 0x1c, 0xc0, 0x68, 0x12, 0x14, 0xc0, 0x46, 0x99, 0x2d, 0xc0, 0xb8, 0x97, 0xff, 0xbf, 0x94, 0xcb, 0x47, 0xbe, 0x0f, 0x2e, 0x23, 0xbe, 0x86, 0xe6, 0x4b, 0xbe, 0x30, 0x26, 0x4a, 0x3e, 0x20, 0x74, 0x8b, 0x3d, 0x00, 0x73, 0x49, 0xbe, 0x96, 0xd3, 0x05, 0xbe, 0x78, 0x3e, 0x10, 0x3e, 0x1e, 0x4b, 0xf4, 0xbd, 0x10, 0x89, 0x01, 0x3e, 0xa4, 0xc0, 0x03, 0x3e, 0x73, 0x28, 0xaa, 0xbd, 0x85, 0xfe, 0x04, 0x3e, 0xba, 0x2a, 0x89, 0xbe, 0x91, 0x57, 0x58, 0xbe, 0xa7, 0x17, 0x02, 0xbe, 0xf4, 0x9f, 0x55, 0xbe, 0xc3, 0xc0, 0xb8, 0xbd, 0x97, 0x20, 0x80, 0x3e, 0x35, 0x37, 0x6a, 0xbe, 0x3d, 0x28, 0x87, 0x3e, 0x98, 0xc1, 0x08, 0xc0, 0x3d, 0x65, 0x41, 0xc0, 0xad, 0xd7, 0x0b, 0xc0, 0xaf, 0x9f, 0x0a, 0xc0, 0x85, 0xab, 0x07, 0xc0, 0x69, 0x0c, 0x19, 0xc0, 0xb2, 0xff, 0xff, 0xff, 0x04, 0x00, 0x00, 0x00, 0x40, 0x00, 0x00, 0x00, 0xfe, 0x37, 0x45, 0xba, 0x0b, 0x93, 0xe0, 0xbc, 0x0c, 0xdb, 0xb5, 0x3c, 0x5d, 0x19, 0x78, 0x3d, 0x00, 0x00, 0x00, 0x00, 0x52, 0xe5, 0x30, 0x3e, 0xdf, 0x41, 0x04, 0xbd, 0x12, 0xbc, 0xc4, 0xbb, 0x18, 0xcc, 0x9a, 0x3d, 0x27, 0xa5, 0xbe, 0xbc, 0x00, 0x00, 0x00, 0x00, 0x95, 0x48, 0xf9, 0x3c, 0xd2, 0x24, 0x22, 0x3e, 0xe5, 0x1d, 0x4f, 0xbb, 0x33, 0xd5, 0xbd, 0xbc, 0x50, 0x82, 0xcf, 0x3d, 0x00, 0x00, 0x06, 0x00, 0x08, 0x00, 0x04, 0x00, 0x06, 0x00, 0x00, 0x00, 0x04, 0x00, 0x00, 0x00, 0x20, 0x00, 0x00, 0x00, 0x11, 0x7c, 0x07, 0x3d, 0x40, 0x26, 0x32, 0x3d, 0xfa, 0x21, 0x88, 0x3c, 0x00, 0x00, 0x00, 0x00, 0x21, 0x0b, 0xa4, 0x3c, 0x00, 0x00, 0x00, 0x00, 0x44, 0x69, 0xb5, 0xbb, 0xc0, 0x04, 0x98, 0x3c, 0x4c, 0xf6, 0xff, 0xff, 0x50, 0xf6, 0xff, 0xff, 0x0f, 0x00, 0x00, 0x00, 0x4d, 0x4c, 0x49, 0x52, 0x20, 0x43, 0x6f, 0x6e, 0x76, 0x65, 0x72, 0x74, 0x65, 0x64, 0x2e, 0x00, 0x01, 0x00, 0x00, 0x00, 0x14, 0x00, 0x00, 0x00, 0x00, 0x00, 0x0e, 0x00, 0x18, 0x00, 0x14, 0x00, 0x10, 0x00, 0x0c, 0x00, 0x08, 0x00, 0x04, 0x00, 0x0e, 0x00, 0x00, 0x00, 0x14, 0x00, 0x00, 0x00, 0x1c, 0x00, 0x00, 0x00, 0xf8, 0x01, 0x00, 0x00, 0xfc, 0x01, 0x00, 0x00, 0x00, 0x02, 0x00, 0x00, 0x04, 0x00, 0x00, 0x00, 0x6d, 0x61, 0x69, 0x6e, 0x00, 0x00, 0x00, 0x00, 0x07, 0x00, 0x00, 0x00, 0x90, 0x01, 0x00, 0x00, 0x2c, 0x01, 0x00, 0x00, 0xd8, 0x00, 0x00, 0x00, 0xb0, 0x00, 0x00, 0x00, 0x60, 0x00, 0x00, 0x00, 0x28, 0x00, 0x00, 0x00, 0x04, 0x00, 0x00, 0x00, 0x6a, 0xff, 0xff, 0xff, 0x0c, 0x00, 0x00, 0x00, 0x10, 0x00, 0x00, 0x00, 0x04, 0x00, 0x00, 0x00, 0x01, 0x00, 0x00, 0x00, 0x10, 0x00, 0x00, 0x00, 0x01, 0x00, 0x00, 0x00, 0x0f, 0x00, 0x00, 0x00, 0x1a, 0xff, 0xff, 0xff, 0x14, 0x00, 0x00, 0x00, 0x00, 0x00, 0x00, 0x08, 0x10, 0x00, 0x00, 0x00, 0x14, 0x00, 0x00, 0x00, 0x03, 0x00, 0x00, 0x00, 0xfc, 0xf6, 0xff, 0xff, 0x01, 0x00, 0x00, 0x00, 0x0f, 0x00, 0x00, 0x00, 0x03, 0x00, 0x00, 0x00, 0x0e, 0x00, 0x00, 0x00, 0x09, 0x00, 0x00, 0x00, 0x05, 0x00, 0x00, 0x00, 0x4e, 0xff, 0xff, 0xff, 0x1c, 0x00, 0x00, 0x00, 0x00, 0x00, 0x00, 0x08, 0x1c, 0x00, 0x00, 0x00, 0x20, 0x00, 0x00, 0x00, 0x03, 0x00, 0x00, 0x00, 0x00, 0x00, 0x06, 0x00, 0x08, 0x00, 0x07, 0x00, 0x06, 0x00, 0x00, 0x00, 0x00, 0x00, 0x00, 0x01, 0x01, 0x00, 0x00, 0x00, 0x0e, 0x00, 0x00, 0x00, 0x03, 0x00, 0x00, 0x00, 0x0d, 0x00, 0x00, 0x00, 0x08, 0x00, 0x00, 0x00, 0x06, 0x00, 0x00, 0x00, 0x00, 0x00, 0x0a, 0x00, 0x10, 0x00, 0x0c, 0x00, 0x08, 0x00, 0x04, 0x00, 0x0a, 0x00, 0x00, 0x00, 0x0c, 0x00, 0x00, 0x00, 0x10, 0x00, 0x00, 0x00, 0x02, 0x00, 0x00, 0x00, 0x01, 0x00, 0x00, 0x00, 0x0d, 0x00, 0x00, 0x00, 0x02, 0x00, 0x00, 0x00, 0x0c, 0x00, 0x00, 0x00, 0x07, 0x00, 0x00, 0x00, 0x5e, 0xff, 0xff, 0xff, 0x10, 0x00, 0x00, 0x00, 0x00, 0x00, 0x00, 0x01, 0x1c, 0x00, 0x00, 0x00, 0x20, 0x00, 0x00, 0x00, 0x50, 0xff, 0xff, 0xff, 0x00, 0x00, 0x00, 0x01, 0x01, 0x00, 0x00, 0x00, 0x01, 0x00, 0x00, 0x00, 0x00, 0x00, 0x00, 0x01, 0x01, 0x00, 0x00, 0x00, 0x0c, 0x00, 0x00, 0x00, 0x03, 0x00, 0x00, 0x00, 0x0b, 0x00, 0x00, 0x00, 0x04, 0x00, 0x00, 0x00, 0x02, 0x00, 0x00, 0x00, 0x00, 0x00, 0x0e, 0x00, 0x1a, 0x00, 0x14, 0x00, 0x10, 0x00, 0x0c, 0x00, 0x0b, 0x00, 0x04, 0x00, 0x0e, 0x00, 0x00, 0x00, 0x24, 0x00, 0x00, 0x00, 0x00, 0x00, 0x00, 0x05, 0x34, 0x00, 0x00, 0x00, 0x38, 0x00, 0x00, 0x00, 0x01, 0x00, 0x00, 0x00, 0x00, 0x00, 0x0e, 0x00, 0x18, 0x00, 0x17, 0x00, 0x10, 0x00, 0x0c, 0x00, 0x08, 0x00, 0x04, 0x00, 0x0e, 0x00, 0x00, 0x00, 0x02, 0x00, 0x00, 0x00, 0x02, 0x00, 0x00, 0x00, 0x02, 0x00, 0x00, 0x00, 0x02, 0x00, 0x00, 0x00, 0x00, 0x00, 0x00, 0x01, 0x01, 0x00, 0x00, 0x00, 0x0b, 0x00, 0x00, 0x00, 0x01, 0x00, 0x00, 0x00, 0x0a, 0x00, 0x00, 0x00, 0x00, 0x00, 0x0e, 0x00, 0x14, 0x00, 0x00, 0x00, 0x10, 0x00, 0x0c, 0x00, 0x0b, 0x00, 0x04, 0x00, 0x0e, 0x00, 0x00, 0x00, 0x1c, 0x00, 0x00, 0x00, 0x00, 0x00, 0x00, 0x01, 0x28, 0x00, 0x00, 0x00, 0x2c, 0x00, 0x00, 0x00, 0x0c, 0x00, 0x14, 0x00, 0x13, 0x00, 0x0c, 0x00, 0x08, 0x00, 0x07, 0x00, 0x0c, 0x00, 0x00, 0x00, 0x00, 0x00, 0x00, 0x01, 0x01, 0x00, 0x00, 0x00, 0x01, 0x00, 0x00, 0x00, 0x00, 0x00, 0x00, 0x01, 0x01, 0x00, 0x00, 0x00, 0x0a, 0x00, 0x00, 0x00, 0x03, 0x00, 0x00, 0x00, 0x00, 0x00, 0x00, 0x00, 0x03, 0x00, 0x00, 0x00, 0x01, 0x00, 0x00, 0x00, 0x01, 0x00, 0x00, 0x00, 0x10, 0x00, 0x00, 0x00, 0x01, 0x00, 0x00, 0x00, 0x00, 0x00, 0x00, 0x00, 0x11, 0x00, 0x00, 0x00, 0x38, 0x07, 0x00, 0x00, 0xc4, 0x06, 0x00, 0x00, 0x50, 0x06, 0x00, 0x00, 0xf8, 0x05, 0x00, 0x00, 0xa0, 0x05, 0x00, 0x00, 0x48, 0x05, 0x00, 0x00, 0xf0, 0x04, 0x00, 0x00, 0xa0, 0x04, 0x00, 0x00, 0x3c, 0x04, 0x00, 0x00, 0xf0, 0x03, 0x00, 0x00, 0x1c, 0x03, 0x00, 0x00, 0xa4, 0x02, 0x00, 0x00, 0xd0, 0x01, 0x00, 0x00, 0x70, 0x01, 0x00, 0x00, 0xdc, 0x00, 0x00, 0x00, 0x60, 0x00, 0x00, 0x00, 0x04, 0x00, 0x00, 0x00, 0x22, 0xf9, 0xff, 0xff, 0x00, 0x00, 0x00, 0x01, 0x14, 0x00, 0x00, 0x00, 0x1c, 0x00, 0x00, 0x00, 0x1c, 0x00, 0x00, 0x00, 0x11, 0x00, 0x00, 0x00, 0x34, 0x00, 0x00, 0x00, 0x02, 0x00, 0x00, 0x00, 0xff, 0xff, 0xff, 0xff, 0x01, 0x00, 0x00, 0x00, 0x04, 0xf9, 0xff, 0xff, 0x19, 0x00, 0x00, 0x00, 0x53, 0x74, 0x61, 0x74, 0x65, 0x66, 0x75, 0x6c, 0x50, 0x61, 0x72, 0x74, 0x69, 0x74, 0x69, 0x6f, 0x6e, 0x65, 0x64, 0x43, 0x61, 0x6c, 0x6c, 0x3a, 0x30, 0x00, 0x00, 0x00, 0x02, 0x00, 0x00, 0x00, 0x01, 0x00, 0x00, 0x00, 0x01, 0x00, 0x00, 0x00, 0x7a, 0xf9, 0xff, 0xff, 0x00, 0x00, 0x00, 0x01, 0x14, 0x00, 0x00, 0x00, 0x1c, 0x00, 0x00, 0x00, 0x1c, 0x00, 0x00, 0x00, 0x10, 0x00, 0x00, 0x00, 0x54, 0x00, 0x00, 0x00, 0x02, 0x00, 0x00, 0x00, 0xff, 0xff, 0xff, 0xff, 0x01, 0x00, 0x00, 0x00, 0x5c, 0xf9, 0xff, 0xff, 0x38, 0x00, 0x00, 0x00, 0x73, 0x65, 0x71, 0x75, 0x65, 0x6e, 0x74, 0x69, 0x61, 0x6c, 0x5f, 0x32, 0x2f, 0x64, 0x65, 0x6e, 0x73, 0x65, 0x5f, 0x35, 0x2f, 0x4d, 0x61, 0x74, 0x4d, 0x75, 0x6c, 0x3b, 0x73, 0x65, 0x71, 0x75, 0x65, 0x6e, 0x74, 0x69, 0x61, 0x6c, 0x5f, 0x32, 0x2f, 0x64, 0x65, 0x6e, 0x73, 0x65, 0x5f, 0x35, 0x2f, 0x42, 0x69, 0x61, 0x73, 0x41, 0x64, 0x64, 0x00, 0x00, 0x00, 0x00, 0x02, 0x00, 0x00, 0x00, 0x01, 0x00, 0x00, 0x00, 0x01, 0x00, 0x00, 0x00, 0xf2, 0xf9, 0xff, 0xff, 0x00, 0x00, 0x00, 0x01, 0x14, 0x00, 0x00, 0x00, 0x1c, 0x00, 0x00, 0x00, 0x1c, 0x00, 0x00, 0x00, 0x0f, 0x00, 0x00, 0x00, 0x6c, 0x00, 0x00, 0x00, 0x02, 0x00, 0x00, 0x00, 0xff, 0xff, 0xff, 0xff, 0x10, 0x00, 0x00, 0x00, 0xd4, 0xf9, 0xff, 0xff, 0x52, 0x00, 0x00, 0x00, 0x73, 0x65, 0x71, 0x75, 0x65, 0x6e, 0x74, 0x69, 0x61, 0x6c, 0x5f, 0x32, 0x2f, 0x64, 0x65, 0x6e, 0x73, 0x65, 0x5f, 0x34, 0x2f, 0x4d, 0x61, 0x74, 0x4d, 0x75, 0x6c, 0x3b, 0x73, 0x65, 0x71, 0x75, 0x65, 0x6e, 0x74, 0x69, 0x61, 0x6c, 0x5f, 0x32, 0x2f, 0x64, 0x65, 0x6e, 0x73, 0x65, 0x5f, 0x34, 0x2f, 0x52, 0x65, 0x6c, 0x75, 0x3b, 0x73, 0x65, 0x71, 0x75, 0x65, 0x6e, 0x74, 0x69, 0x61, 0x6c, 0x5f, 0x32, 0x2f, 0x64, 0x65, 0x6e, 0x73, 0x65, 0x5f, 0x34, 0x2f, 0x42, 0x69, 0x61, 0x73, 0x41, 0x64, 0x64, 0x00, 0x00, 0x02, 0x00, 0x00, 0x00, 0x01, 0x00, 0x00, 0x00, 0x10, 0x00, 0x00, 0x00, 0x82, 0xfa, 0xff, 0xff, 0x00, 0x00, 0x00, 0x01, 0x14, 0x00, 0x00, 0x00, 0x1c, 0x00, 0x00, 0x00, 0x1c, 0x00, 0x00, 0x00, 0x0e, 0x00, 0x00, 0x00, 0x38, 0x00, 0x00, 0x00, 0x02, 0x00, 0x00, 0x00, 0xff, 0xff, 0xff, 0xff, 0x90, 0x00, 0x00, 0x00, 0x64, 0xfa, 0xff, 0xff, 0x1e, 0x00, 0x00, 0x00, 0x73, 0x65, 0x71, 0x75, 0x65, 0x6e, 0x74, 0x69, 0x61, 0x6c, 0x5f, 0x32, 0x2f, 0x66, 0x6c, 0x61, 0x74, 0x74, 0x65, 0x6e, 0x5f, 0x32, 0x2f, 0x52, 0x65, 0x73, 0x68, 0x61, 0x70, 0x65, 0x00, 0x00, 0x02, 0x00, 0x00, 0x00, 0x01, 0x00, 0x00, 0x00, 0x90, 0x00, 0x00, 0x00, 0xde, 0xfa, 0xff, 0xff, 0x00, 0x00, 0x00, 0x01, 0x14, 0x00, 0x00, 0x00, 0x24, 0x00, 0x00, 0x00, 0x24, 0x00, 0x00, 0x00, 0x0d, 0x00, 0x00, 0x00, 0xa4, 0x00, 0x00, 0x00, 0x04, 0x00, 0x00, 0x00, 0xff, 0xff, 0xff, 0xff, 0x03, 0x00, 0x00, 0x00, 0x03, 0x00, 0x00, 0x00, 0x10, 0x00, 0x00, 0x00, 0xc8, 0xfa, 0xff, 0xff, 0x82, 0x00, 0x00, 0x00, 0x73, 0x65, 0x71, 0x75, 0x65, 0x6e, 0x74, 0x69, 0x61, 0x6c, 0x5f, 0x32, 0x2f, 0x63, 0x6f, 0x6e, 0x76, 0x32, 0x64, 0x5f, 0x33, 0x2f, 0x52, 0x65, 0x6c, 0x75, 0x3b, 0x73, 0x65, 0x71, 0x75, 0x65, 0x6e, 0x74, 0x69, 0x61, 0x6c, 0x5f, 0x32, 0x2f, 0x63, 0x6f, 0x6e, 0x76, 0x32, 0x64, 0x5f, 0x33, 0x2f, 0x42, 0x69, 0x61, 0x73, 0x41, 0x64, 0x64, 0x3b, 0x73, 0x65, 0x71, 0x75, 0x65, 0x6e, 0x74, 0x69, 0x61, 0x6c, 0x5f, 0x32, 0x2f, 0x63, 0x6f, 0x6e, 0x76, 0x32, 0x64, 0x5f, 0x33, 0x2f, 0x43, 0x6f, 0x6e, 0x76, 0x32, 0x44, 0x3b, 0x73, 0x65, 0x71, 0x75, 0x65, 0x6e, 0x74, 0x69, 0x61, 0x6c, 0x5f, 0x32, 0x2f, 0x63, 0x6f, 0x6e, 0x76, 0x32, 0x64, 0x5f, 0x33, 0x2f, 0x42, 0x69, 0x61, 0x73, 0x41, 0x64, 0x64, 0x2f, 0x52, 0x65, 0x61, 0x64, 0x56, 0x61, 0x72, 0x69, 0x61, 0x62, 0x6c, 0x65, 0x4f, 0x70, 0x00, 0x00, 0x04, 0x00, 0x00, 0x00, 0x01, 0x00, 0x00, 0x00, 0x03, 0x00, 0x00, 0x00, 0x03, 0x00, 0x00, 0x00, 0x10, 0x00, 0x00, 0x00, 0xae, 0xfb, 0xff, 0xff, 0x00, 0x00, 0x00, 0x01, 0x14, 0x00, 0x00, 0x00, 0x24, 0x00, 0x00, 0x00, 0x24, 0x00, 0x00, 0x00, 0x0c, 0x00, 0x00, 0x00, 0x48, 0x00, 0x00, 0x00, 0x04, 0x00, 0x00, 0x00, 0xff, 0xff, 0xff, 0xff, 0x04, 0x00, 0x00, 0x00, 0x04, 0x00, 0x00, 0x00, 0x08, 0x00, 0x00, 0x00, 0x98, 0xfb, 0xff, 0xff, 0x24, 0x00, 0x00, 0x00, 0x73, 0x65, 0x71, 0x75, 0x65, 0x6e, 0x74, 0x69, 0x61, 0x6c, 0x5f, 0x32, 0x2f, 0x6d, 0x61, 0x78, 0x5f, 0x70, 0x6f, 0x6f, 0x6c, 0x69, 0x6e, 0x67, 0x32, 0x64, 0x5f, 0x32, 0x2f, 0x4d, 0x61, 0x78, 0x50, 0x6f, 0x6f, 0x6c, 0x00, 0x00, 0x00, 0x00, 0x04, 0x00, 0x00, 0x00, 0x01, 0x00, 0x00, 0x00, 0x04, 0x00, 0x00, 0x00, 0x04, 0x00, 0x00, 0x00, 0x08, 0x00, 0x00, 0x00, 0x22, 0xfc, 0xff, 0xff, 0x00, 0x00, 0x00, 0x01, 0x14, 0x00, 0x00, 0x00, 0x24, 0x00, 0x00, 0x00, 0x24, 0x00, 0x00, 0x00, 0x0b, 0x00, 0x00, 0x00, 0xa4, 0x00, 0x00, 0x00, 0x04, 0x00, 0x00, 0x00, 0xff, 0xff, 0xff, 0xff, 0x08, 0x00, 0x00, 0x00, 0x08, 0x00, 0x00, 0x00, 0x08, 0x00, 0x00, 0x00, 0x0c, 0xfc, 0xff, 0xff, 0x82, 0x00, 0x00, 0x00, 0x73, 0x65, 0x71, 0x75, 0x65, 0x6e, 0x74, 0x69, 0x61, 0x6c, 0x5f, 0x32, 0x2f, 0x63, 0x6f, 0x6e, 0x76, 0x32, 0x64, 0x5f, 0x32, 0x2f, 0x52, 0x65, 0x6c, 0x75, 0x3b, 0x73, 0x65, 0x71, 0x75, 0x65, 0x6e, 0x74, 0x69, 0x61, 0x6c, 0x5f, 0x32, 0x2f, 0x63, 0x6f, 0x6e, 0x76, 0x32, 0x64, 0x5f, 0x32, 0x2f, 0x42, 0x69, 0x61, 0x73, 0x41, 0x64, 0x64, 0x3b, 0x73, 0x65, 0x71, 0x75, 0x65, 0x6e, 0x74, 0x69, 0x61, 0x6c, 0x5f, 0x32, 0x2f, 0x63, 0x6f, 0x6e, 0x76, 0x32, 0x64, 0x5f, 0x32, 0x2f, 0x43, 0x6f, 0x6e, 0x76, 0x32, 0x44, 0x3b, 0x73, 0x65, 0x71, 0x75, 0x65, 0x6e, 0x74, 0x69, 0x61, 0x6c, 0x5f, 0x32, 0x2f, 0x63, 0x6f, 0x6e, 0x76, 0x32, 0x64, 0x5f, 0x32, 0x2f, 0x42, 0x69, 0x61, 0x73, 0x41, 0x64, 0x64, 0x2f, 0x52, 0x65, 0x61, 0x64, 0x56, 0x61, 0x72, 0x69, 0x61, 0x62, 0x6c, 0x65, 0x4f, 0x70, 0x00, 0x00, 0x04, 0x00, 0x00, 0x00, 0x01, 0x00, 0x00, 0x00, 0x08, 0x00, 0x00, 0x00, 0x08, 0x00, 0x00, 0x00, 0x08, 0x00, 0x00, 0x00, 0x62, 0xfd, 0xff, 0xff, 0x00, 0x00, 0x00, 0x01, 0x10, 0x00, 0x00, 0x00, 0x10, 0x00, 0x00, 0x00, 0x0a, 0x00, 0x00, 0x00, 0x28, 0x00, 0x00, 0x00, 0xc4, 0xfc, 0xff, 0xff, 0x1b, 0x00, 0x00, 0x00, 0x73, 0x65, 0x71, 0x75, 0x65, 0x6e, 0x74, 0x69, 0x61, 0x6c, 0x5f, 0x32, 0x2f, 0x64, 0x65, 0x6e, 0x73, 0x65, 0x5f, 0x35, 0x2f, 0x4d, 0x61, 0x74, 0x4d, 0x75, 0x6c, 0x00, 0x02, 0x00, 0x00, 0x00, 0x01, 0x00, 0x00, 0x00, 0x10, 0x00, 0x00, 0x00, 0xaa, 0xfd, 0xff, 0xff, 0x00, 0x00, 0x00, 0x01, 0x10, 0x00, 0x00, 0x00, 0x10, 0x00, 0x00, 0x00, 0x09, 0x00, 0x00, 0x00, 0x28, 0x00, 0x00, 0x00, 0x0c, 0xfd, 0xff, 0xff, 0x1b, 0x00, 0x00, 0x00, 0x73, 0x65, 0x71, 0x75, 0x65, 0x6e, 0x74, 0x69, 0x61, 0x6c, 0x5f, 0x32, 0x2f, 0x64, 0x65, 0x6e, 0x73, 0x65, 0x5f, 0x34, 0x2f, 0x4d, 0x61, 0x74, 0x4d, 0x75, 0x6c, 0x00, 0x02, 0x00, 0x00, 0x00, 0x10, 0x00, 0x00, 0x00, 0x90, 0x00, 0x00, 0x00, 0x00, 0x00, 0x16, 0x00, 0x1c, 0x00, 0x18, 0x00, 0x17, 0x00, 0x10, 0x00, 0x0c, 0x00, 0x08, 0x00, 0x00, 0x00, 0x00, 0x00, 0x00, 0x00, 0x07, 0x00, 0x16, 0x00, 0x00, 0x00, 0x00, 0x00, 0x00, 0x01, 0x14, 0x00, 0x00, 0x00, 0x14, 0x00, 0x00, 0x00, 0x08, 0x00, 0x00, 0x00, 0x00, 0x00, 0x00, 0x02, 0x2c, 0x00, 0x00, 0x00, 0x70, 0xfd, 0xff, 0xff, 0x1c, 0x00, 0x00, 0x00, 0x73, 0x65, 0x71, 0x75, 0x65, 0x6e, 0x74, 0x69, 0x61, 0x6c, 0x5f, 0x32, 0x2f, 0x66, 0x6c, 0x61, 0x74, 0x74, 0x65, 0x6e, 0x5f, 0x32, 0x2f, 0x43, 0x6f, 0x6e, 0x73, 0x74, 0x00, 0x00, 0x00, 0x00, 0x01, 0x00, 0x00, 0x00, 0x02, 0x00, 0x00, 0x00, 0x56, 0xfe, 0xff, 0xff, 0x00, 0x00, 0x00, 0x01, 0x10, 0x00, 0x00, 0x00, 0x10, 0x00, 0x00, 0x00, 0x07, 0x00, 0x00, 0x00, 0x38, 0x00, 0x00, 0x00, 0xb8, 0xfd, 0xff, 0xff, 0x2b, 0x00, 0x00, 0x00, 0x73, 0x65, 0x71, 0x75, 0x65, 0x6e, 0x74, 0x69, 0x61, 0x6c, 0x5f, 0x32, 0x2f, 0x64, 0x65, 0x6e, 0x73, 0x65, 0x5f, 0x34, 0x2f, 0x42, 0x69, 0x61, 0x73, 0x41, 0x64, 0x64, 0x2f, 0x52, 0x65, 0x61, 0x64, 0x56, 0x61, 0x72, 0x69, 0x61, 0x62, 0x6c, 0x65, 0x4f, 0x70, 0x00, 0x01, 0x00, 0x00, 0x00, 0x10, 0x00, 0x00, 0x00, 0xaa, 0xfe, 0xff, 0xff, 0x00, 0x00, 0x00, 0x01, 0x10, 0x00, 0x00, 0x00, 0x10, 0x00, 0x00, 0x00, 0x06, 0x00, 0x00, 0x00, 0x38, 0x00, 0x00, 0x00, 0x0c, 0xfe, 0xff, 0xff, 0x2b, 0x00, 0x00, 0x00, 0x73, 0x65, 0x71, 0x75, 0x65, 0x6e, 0x74, 0x69, 0x61, 0x6c, 0x5f, 0x32, 0x2f, 0x64, 0x65, 0x6e, 0x73, 0x65, 0x5f, 0x35, 0x2f, 0x42, 0x69, 0x61, 0x73, 0x41, 0x64, 0x64, 0x2f, 0x52, 0x65, 0x61, 0x64, 0x56, 0x61, 0x72, 0x69, 0x61, 0x62, 0x6c, 0x65, 0x4f, 0x70, 0x00, 0x01, 0x00, 0x00, 0x00, 0x01, 0x00, 0x00, 0x00, 0xfe, 0xfe, 0xff, 0xff, 0x00, 0x00, 0x00, 0x01, 0x10, 0x00, 0x00, 0x00, 0x10, 0x00, 0x00, 0x00, 0x05, 0x00, 0x00, 0x00, 0x2c, 0x00, 0x00, 0x00, 0x60, 0xfe, 0xff, 0xff, 0x1c, 0x00, 0x00, 0x00, 0x73, 0x65, 0x71, 0x75, 0x65, 0x6e, 0x74, 0x69, 0x61, 0x6c, 0x5f, 0x32, 0x2f, 0x63, 0x6f, 0x6e, 0x76, 0x32, 0x64, 0x5f, 0x33, 0x2f, 0x43, 0x6f, 0x6e, 0x76, 0x32, 0x44, 0x00, 0x00, 0x00, 0x00, 0x04, 0x00, 0x00, 0x00, 0x10, 0x00, 0x00, 0x00, 0x02, 0x00, 0x00, 0x00, 0x02, 0x00, 0x00, 0x00, 0x08, 0x00, 0x00, 0x00, 0x52, 0xff, 0xff, 0xff, 0x00, 0x00, 0x00, 0x01, 0x10, 0x00, 0x00, 0x00, 0x10, 0x00, 0x00, 0x00, 0x04, 0x00, 0x00, 0x00, 0x2c, 0x00, 0x00, 0x00, 0xb4, 0xfe, 0xff, 0xff, 0x1c, 0x00, 0x00, 0x00, 0x73, 0x65, 0x71, 0x75, 0x65, 0x6e, 0x74, 0x69, 0x61, 0x6c, 0x5f, 0x32, 0x2f, 0x63, 0x6f, 0x6e, 0x76, 0x32, 0x64, 0x5f, 0x32, 0x2f, 0x43, 0x6f, 0x6e, 0x76, 0x32, 0x44, 0x00, 0x00, 0x00, 0x00, 0x04, 0x00, 0x00, 0x00, 0x08, 0x00, 0x00, 0x00, 0x03, 0x00, 0x00, 0x00, 0x03, 0x00, 0x00, 0x00, 0x01, 0x00, 0x00, 0x00, 0xa6, 0xff, 0xff, 0xff, 0x00, 0x00, 0x00, 0x01, 0x10, 0x00, 0x00, 0x00, 0x10, 0x00, 0x00, 0x00, 0x03, 0x00, 0x00, 0x00, 0x3c, 0x00, 0x00, 0x00, 0x08, 0xff, 0xff, 0xff, 0x2c, 0x00, 0x00, 0x00, 0x73, 0x65, 0x71, 0x75, 0x65, 0x6e, 0x74, 0x69, 0x61, 0x6c, 0x5f, 0x32, 0x2f, 0x63, 0x6f, 0x6e, 0x76, 0x32, 0x64, 0x5f, 0x33, 0x2f, 0x42, 0x69, 0x61, 0x73, 0x41, 0x64, 0x64, 0x2f, 0x52, 0x65, 0x61, 0x64, 0x56, 0x61, 0x72, 0x69, 0x61, 0x62, 0x6c, 0x65, 0x4f, 0x70, 0x00, 0x00, 0x00, 0x00, 0x01, 0x00, 0x00, 0x00, 0x10, 0x00, 0x00, 0x00, 0x00, 0x00, 0x16, 0x00, 0x18, 0x00, 0x14, 0x00, 0x00, 0x00, 0x10, 0x00, 0x0c, 0x00, 0x08, 0x00, 0x00, 0x00, 0x00, 0x00, 0x00, 0x00, 0x07, 0x00, 0x16, 0x00, 0x00, 0x00, 0x00, 0x00, 0x00, 0x01, 0x10, 0x00, 0x00, 0x00, 0x10, 0x00, 0x00, 0x00, 0x02, 0x00, 0x00, 0x00, 0x3c, 0x00, 0x00, 0x00, 0x78, 0xff, 0xff, 0xff, 0x2c, 0x00, 0x00, 0x00, 0x73, 0x65, 0x71, 0x75, 0x65, 0x6e, 0x74, 0x69, 0x61, 0x6c, 0x5f, 0x32, 0x2f, 0x63, 0x6f, 0x6e, 0x76, 0x32, 0x64, 0x5f, 0x32, 0x2f, 0x42, 0x69, 0x61, 0x73, 0x41, 0x64, 0x64, 0x2f, 0x52, 0x65, 0x61, 0x64, 0x56, 0x61, 0x72, 0x69, 0x61, 0x62, 0x6c, 0x65, 0x4f, 0x70, 0x00, 0x00, 0x00, 0x00, 0x01, 0x00, 0x00, 0x00, 0x08, 0x00, 0x00, 0x00, 0x00, 0x00, 0x16, 0x00, 0x1c, 0x00, 0x18, 0x00, 0x00, 0x00, 0x14, 0x00, 0x10, 0x00, 0x0c, 0x00, 0x00, 0x00, 0x00, 0x00, 0x08, 0x00, 0x07, 0x00, 0x16, 0x00, 0x00, 0x00, 0x00, 0x00, 0x00, 0x01, 0x14, 0x00, 0x00, 0x00, 0x28, 0x00, 0x00, 0x00, 0x28, 0x00, 0x00, 0x00, 0x01, 0x00, 0x00, 0x00, 0x48, 0x00, 0x00, 0x00, 0x04, 0x00, 0x00, 0x00, 0xff, 0xff, 0xff, 0xff, 0x0a, 0x00, 0x00, 0x00, 0x0a, 0x00, 0x00, 0x00, 0x01, 0x00, 0x00, 0x00, 0x04, 0x00, 0x04, 0x00, 0x04, 0x00, 0x00, 0x00, 0x20, 0x00, 0x00, 0x00, 0x73, 0x65, 0x72, 0x76, 0x69, 0x6e, 0x67, 0x5f, 0x64, 0x65, 0x66, 0x61, 0x75, 0x6c, 0x74, 0x5f, 0x63, 0x6f, 0x6e, 0x76, 0x32, 0x64, 0x5f, 0x32, 0x5f, 0x69, 0x6e, 0x70, 0x75, 0x74, 0x3a, 0x30, 0x00, 0x00, 0x00, 0x00, 0x04, 0x00, 0x00, 0x00, 0x01, 0x00, 0x00, 0x00, 0x0a, 0x00, 0x00, 0x00, 0x0a, 0x00, 0x00, 0x00, 0x01, 0x00, 0x00, 0x00, 0x05, 0x00, 0x00, 0x00, 0x50, 0x00, 0x00, 0x00, 0x34, 0x00, 0x00, 0x00, 0x24, 0x00, 0x00, 0x00, 0x14, 0x00, 0x00, 0x00, 0x04, 0x00, 0x00, 0x00, 0xd0, 0xff, 0xff, 0xff, 0x0e, 0x00, 0x00, 0x00, 0x00, 0x00, 0x00, 0x0e, 0xdc, 0xff, 0xff, 0xff, 0x09, 0x00, 0x00, 0x00, 0x00, 0x00, 0x00, 0x09, 0xe8, 0xff, 0xff, 0xff, 0x16, 0x00, 0x00, 0x00, 0x00, 0x00, 0x00, 0x16, 0xf4, 0xff, 0xff, 0xff, 0x11, 0x00, 0x00, 0x00, 0x00, 0x00, 0x00, 0x11, 0x0c, 0x00, 0x0c, 0x00, 0x0b, 0x00, 0x00, 0x00, 0x00, 0x00, 0x04, 0x00, 0x0c, 0x00, 0x00, 0x00, 0x03, 0x00, 0x00, 0x00, 0x00, 0x00, 0x00, 0x03};
const int model_data_len = 15064;
float x[100] = {0.000781188969611749, 0.0009061792047496289, 0.0010624169986719787, 0.0011717834544176236, 0.0012186547925943285, 0.0012811499101632684, 0.0013123974689477384, 0.0013280212483399733, 0.0013436450277322083, 0.0013905163659089135, 0.0007186938520428092, 0.000765565190219514, 0.0009218029841418639, 0.0010155456604952738, 0.0010780407780642137, 0.0011092883368486839, 0.0011405358956331538, 0.0012186547925943285, 0.0012499023513787985, 0.0012967736895555034, 0.0007186938520428092, 
0.000765565190219514, 0.000781188969611749, 0.000765565190219514, 0.000781188969611749, 0.000765565190219514, 0.000828060307788454, 0.0009374267635340989, 0.0010780407780642137, 0.0011874072338098585, 0.000765565190219514, 0.0008124365283962191, 0.000843684087180689, 0.000874931645965159, 0.0009061792047496289, 0.0009686743223185689, 0.0009999218811030388, 0.0009842981017108038, 0.0009530505429263339, 0.0010311694398875088, 0.0006561987344738692, 
0.0007343176314350442, 0.000781188969611749, 0.000781188969611749, 0.000828060307788454, 0.000890555425357394, 0.000859307866572924, 0.0009218029841418639, 0.0010155456604952738, 0.000843684087180689, 0.0005780798375126944, 0.000765565190219514, 0.000874931645965159, 0.0007968127490039841, 0.0007499414108272792, 0.000765565190219514, 0.0008124365283962191, 0.0009218029841418639, 0.0009061792047496289, 0.000828060307788454, 0.0005780798375126944, 
0.0007499414108272792, 0.000890555425357394, 0.000890555425357394, 0.000859307866572924, 0.000890555425357394, 0.0009374267635340989, 0.0009530505429263339, 0.000859307866572924, 0.0008124365283962191, 0.0006249511756893992, 0.0007186938520428092, 0.0009061792047496289, 0.0009530505429263339, 0.0009842981017108038, 0.0009686743223185689, 0.0009842981017108038, 0.0010155456604952738, 0.0009218029841418639, 0.0009374267635340989, 0.0006405749550816342, 
0.000765565190219514, 0.000859307866572924, 0.0009061792047496289, 0.0009374267635340989, 0.0009530505429263339, 0.0009999218811030388, 0.0009999218811030388, 0.0009374267635340989, 0.0009842981017108038, 0.0006093273962971642, 0.000843684087180689, 0.0009686743223185689, 0.0009999218811030388, 0.0010155456604952738, 0.0010467932192797437, 0.0011092883368486839, 0.0011092883368486839, 0.0009999218811030388, 0.0009999218811030388};const int input_size = 100;
const int output_size = 1;