
    // if having troubles with min/max, uncomment the following
    // #undef min    
    // #undef max
    #ifdef __has_attribute
    #define HAVE_ATTRIBUTE(x) __has_attribute(x)
    #else
    #define HAVE_ATTRIBUTE(x) 0
    #endif
    #if HAVE_ATTRIBUTE(aligned) || (defined(__GNUC__) && !defined(__clang__))
    #define DATA_ALIGN_ATTRIBUTE __attribute__((aligned(4)))
    #else
    #define DATA_ALIGN_ATTRIBUTE
    #endif
    const unsigned char model_data[] DATA_ALIGN_ATTRIBUTE = {0x1c, 0x00, 0x00, 0x00, 0x54, 0x46, 0x4c, 0x33, 0x14, 0x00, 0x20, 0x00, 0x1c, 0x00, 0x18, 0x00, 0x14, 0x00, 0x10, 0x00, 0x0c, 0x00, 0x00, 0x00, 0x08, 0x00, 0x04, 0x00, 0x14, 0x00, 0x00, 0x00, 0x1c, 0x00, 0x00, 0x00, 0x8c, 0x00, 0x00, 0x00, 0xe4, 0x00, 0x00, 0x00, 0x70, 0x0e, 0x00, 0x00, 0x80, 0x0e, 0x00, 0x00, 0xd0, 0x22, 0x00, 0x00, 0x03, 0x00, 0x00, 0x00, 0x01, 0x00, 0x00, 0x00, 0x10, 0x00, 0x00, 0x00, 0x00, 0x00, 0x0a, 0x00, 0x10, 0x00, 0x0c, 0x00, 0x08, 0x00, 0x04, 0x00, 0x0a, 0x00, 0x00, 0x00, 0x0c, 0x00, 0x00, 0x00, 0x1c, 0x00, 0x00, 0x00, 0x3c, 0x00, 0x00, 0x00, 0x0f, 0x00, 0x00, 0x00, 0x73, 0x65, 0x72, 0x76, 0x69, 0x6e, 0x67, 0x5f, 0x64, 0x65, 0x66, 0x61, 0x75, 0x6c, 0x74, 0x00, 0x01, 0x00, 0x00, 0x00, 0x04, 0x00, 0x00, 0x00, 0x9c, 0xff, 0xff, 0xff, 0x2f, 0x00, 0x00, 0x00, 0x04, 0x00, 0x00, 0x00, 0x08, 0x00, 0x00, 0x00, 0x6f, 0x75, 0x74, 0x70, 0x75, 0x74, 0x5f, 0x30, 0x00, 0x00, 0x00, 0x00, 0x01, 0x00, 0x00, 0x00, 0x04, 0x00, 0x00, 0x00, 0x2a, 0xf2, 0xff, 0xff, 0x04, 0x00, 0x00, 0x00, 0x01, 0x00, 0x00, 0x00, 0x78, 0x00, 0x00, 0x00, 0x02, 0x00, 0x00, 0x00, 0x34, 0x00, 0x00, 0x00, 0x04, 0x00, 0x00, 0x00, 0xdc, 0xff, 0xff, 0xff, 0x28, 0x00, 0x00, 0x00, 0x04, 0x00, 0x00, 0x00, 0x13, 0x00, 0x00, 0x00, 0x43, 0x4f, 0x4e, 0x56, 0x45, 0x52, 0x53, 0x49, 0x4f, 0x4e, 0x5f, 0x4d, 0x45, 0x54, 0x41, 0x44, 0x41, 0x54, 0x41, 0x00, 0x08, 0x00, 0x0c, 0x00, 0x08, 0x00, 0x04, 0x00, 0x08, 0x00, 0x00, 0x00, 0x27, 0x00, 0x00, 0x00, 0x04, 0x00, 0x00, 0x00, 0x13, 0x00, 0x00, 0x00, 0x6d, 0x69, 0x6e, 0x5f, 0x72, 0x75, 0x6e, 0x74, 0x69, 0x6d, 0x65, 0x5f, 0x76, 0x65, 0x72, 0x73, 0x69, 0x6f, 0x6e, 0x00, 0x29, 0x00, 0x00, 0x00, 0x88, 0x0d, 0x00, 0x00, 0x80, 0x0d, 0x00, 0x00, 0x64, 0x0d, 0x00, 0x00, 0x40, 0x0d, 0x00, 0x00, 0x24, 0x0d, 0x00, 0x00, 0xd8, 0x0c, 0x00, 0x00, 0x8c, 0x0c, 0x00, 0x00, 0x40, 0x0c, 0x00, 0x00, 0xf4, 0x0b, 0x00, 0x00, 0xe0, 0x0b, 0x00, 0x00, 0xc4, 0x0b, 0x00, 0x00, 0x8c, 0x0b, 0x00, 0x00, 0x54, 0x0b, 0x00, 0x00, 0x1c, 0x0b, 0x00, 0x00, 0xe4, 0x0a, 0x00, 0x00, 0x70, 0x0a, 0x00, 0x00, 0xfc, 0x09, 0x00, 0x00, 0x88, 0x09, 0x00, 0x00, 0x14, 0x09, 0x00, 0x00, 0x6c, 0x08, 0x00, 0x00, 0xc4, 0x07, 0x00, 0x00, 0x1c, 0x07, 0x00, 0x00, 0x74, 0x06, 0x00, 0x00, 0x80, 0x05, 0x00, 0x00, 0x8c, 0x04, 0x00, 0x00, 0x98, 0x03, 0x00, 0x00, 0xa4, 0x02, 0x00, 0x00, 0x84, 0x02, 0x00, 0x00, 0x64, 0x02, 0x00, 0x00, 0x44, 0x02, 0x00, 0x00, 0x24, 0x02, 0x00, 0x00, 0xd8, 0x01, 0x00, 0x00, 0x50, 0x01, 0x00, 0x00, 0x48, 0x01, 0x00, 0x00, 0x10, 0x01, 0x00, 0x00, 0xb0, 0x00, 0x00, 0x00, 0xa8, 0x00, 0x00, 0x00, 0xa0, 0x00, 0x00, 0x00, 0x98, 0x00, 0x00, 0x00, 0x78, 0x00, 0x00, 0x00, 0x04, 0x00, 0x00, 0x00, 0x3e, 0xf3, 0xff, 0xff, 0x04, 0x00, 0x00, 0x00, 0x64, 0x00, 0x00, 0x00, 0x0c, 0x00, 0x00, 0x00, 0x08, 0x00, 0x0e, 0x00, 0x08, 0x00, 0x04, 0x00, 0x08, 0x00, 0x00, 0x00, 0x10, 0x00, 0x00, 0x00, 0x28, 0x00, 0x00, 0x00, 0x00, 0x00, 0x06, 0x00, 0x08, 0x00, 0x04, 0x00, 0x06, 0x00, 0x00, 0x00, 0x04, 0x00, 0x00, 0x00, 0x01, 0x00, 0x00, 0x00, 0xeb, 0x03, 0x00, 0x00, 0x00, 0x00, 0x0a, 0x00, 0x10, 0x00, 0x0c, 0x00, 0x08, 0x00, 0x04, 0x00, 0x0a, 0x00, 0x00, 0x00, 0x01, 0x00, 0x00, 0x00, 0x02, 0x00, 0x00, 0x00, 0x04, 0x00, 0x00, 0x00, 0x12, 0x00, 0x00, 0x00, 0x32, 0x2e, 0x31, 0x34, 0x2e, 0x30, 0x2d, 0x64, 0x65, 0x76, 0x32, 0x30, 0x32, 0x33, 0x30, 0x35, 0x32, 0x35, 0x00, 0x00, 0xae, 0xf3, 0xff, 0xff, 0x04, 0x00, 0x00, 0x00, 0x10, 0x00, 0x00, 0x00, 0x31, 0x2e, 0x31, 0x34, 0x2e, 0x30, 0x00, 0x00, 0x00, 0x00, 0x00, 0x00, 0x00, 0x00, 0x00, 0x00, 0xf0, 0xdf, 0xff, 0xff, 0xf4, 0xdf, 0xff, 0xff, 0xf8, 0xdf, 0xff, 0xff, 0xd6, 0xf3, 0xff, 0xff, 0x04, 0x00, 0x00, 0x00, 0x50, 0x00, 0x00, 0x00, 0xff, 0x7f, 0xff, 0x7f, 0xff, 0x7f, 0xff, 0x7f, 0xff, 0x7f, 0xff, 0x7f, 0xff, 0x7f, 0xff, 0x7f, 0xff, 0x7f, 0xff, 0x7f, 0xff, 0x7f, 0xff, 0x7f, 0xff, 0x7f, 0xff, 0x7f, 0xff, 0x7f, 0xff, 0x7f, 0xff, 0x7f, 0xff, 0x7f, 0xff, 0x7f, 0xff, 0x7f, 0xff, 0x7f, 0xff, 0x7f, 0xff, 0x7f, 0xff, 0x7f, 0xff, 0x7f, 0xff, 0x7f, 0xff, 0x7f, 0xff, 0x7f, 0xff, 0x7f, 0xff, 0x7f, 0xff, 0x7f, 0xff, 0x7f, 0xff, 0x7f, 0xff, 0x7f, 0xff, 0x7f, 0xff, 0x7f, 0xff, 0x7f, 0xff, 0x7f, 0xff, 0x7f, 0xff, 0x7f, 0x32, 0xf4, 0xff, 0xff, 0x04, 0x00, 0x00, 0x00, 0x28, 0x00, 0x00, 0x00, 0x7f, 0x7f, 0x7f, 0x7f, 0x7f, 0x7f, 0x7f, 0x7f, 0x7f, 0x7f, 0x7f, 0x7f, 0x7f, 0x7f, 0x7f, 0x7f, 0x7f, 0x7f, 0x7f, 0x7f, 0x7f, 0x7f, 0x7f, 0x7f, 0x7f, 0x7f, 0x7f, 0x7f, 0x7f, 0x7f, 0x7f, 0x7f, 0x7f, 0x7f, 0x7f, 0x7f, 0x7f, 0x7f, 0x7f, 0x7f, 0x8c, 0xe0, 0xff, 0xff, 0x6a, 0xf4, 0xff, 0xff, 0x04, 0x00, 0x00, 0x00, 0x78, 0x00, 0x00, 0x00, 0xff, 0x7f, 0xff, 0x7f, 0xff, 0x7f, 0xff, 0x7f, 0xff, 0x7f, 0xff, 0x7f, 0xff, 0x7f, 0xff, 0x7f, 0xff, 0x7f, 0xff, 0x7f, 0xff, 0x7f, 0xff, 0x7f, 0xff, 0x7f, 0xff, 0x7f, 0xff, 0x7f, 0xff, 0x7f, 0xff, 0x7f, 0xff, 0x7f, 0xff, 0x7f, 0xff, 0x7f, 0xff, 0x7f, 0xff, 0x7f, 0xff, 0x7f, 0xff, 0x7f, 0xff, 0x7f, 0xff, 0x7f, 0xff, 0x7f, 0xff, 0x7f, 0xff, 0x7f, 0xff, 0x7f, 0xff, 0x7f, 0xff, 0x7f, 0xff, 0x7f, 0xff, 0x7f, 0xff, 0x7f, 0xff, 0x7f, 0xff, 0x7f, 0xff, 0x7f, 0xff, 0x7f, 0xff, 0x7f, 0xff, 0x7f, 0xff, 0x7f, 0xff, 0x7f, 0xff, 0x7f, 0xff, 0x7f, 0xff, 0x7f, 0xff, 0x7f, 0xff, 0x7f, 0xff, 0x7f, 0xff, 0x7f, 0xff, 0x7f, 0xff, 0x7f, 0xff, 0x7f, 0xff, 0x7f, 0xff, 0x7f, 0xff, 0x7f, 0xff, 0x7f, 0xff, 0x7f, 0xff, 0x7f, 0xff, 0x7f, 0xee, 0xf4, 0xff, 0xff, 0x04, 0x00, 0x00, 0x00, 0x3c, 0x00, 0x00, 0x00, 0x7f, 0x7f, 0x7f, 0x7f, 0x7f, 0x7f, 0x7f, 0x7f, 0x7f, 0x7f, 0x7f, 0x7f, 0x7f, 0x7f, 0x7f, 0x7f, 0x7f, 0x7f, 0x7f, 0x7f, 0x7f, 0x7f, 0x7f, 0x7f, 0x7f, 0x7f, 0x7f, 0x7f, 0x7f, 0x7f, 0x7f, 0x7f, 0x7f, 0x7f, 0x7f, 0x7f, 0x7f, 0x7f, 0x7f, 0x7f, 0x7f, 0x7f, 0x7f, 0x7f, 0x7f, 0x7f, 0x7f, 0x7f, 0x7f, 0x7f, 0x7f, 0x7f, 0x7f, 0x7f, 0x7f, 0x7f, 0x7f, 0x7f, 0x7f, 0x7f, 0x36, 0xf5, 0xff, 0xff, 0x04, 0x00, 0x00, 0x00, 0x0f, 0x00, 0x00, 0x00, 0x7e, 0x7f, 0xad, 0xb8, 0xc5, 0x59, 0x72, 0xbc, 0x0b, 0x19, 0x00, 0x54, 0xea, 0xaf, 0x14, 0x00, 0x52, 0xf5, 0xff, 0xff, 0x04, 0x00, 0x00, 0x00, 0x0f, 0x00, 0x00, 0x00, 0xd2, 0x59, 0xf5, 0xf2, 0xec, 0x09, 0x7a, 0x23, 0xf5, 0x0f, 0x19, 0xd4, 0xdf, 0x81, 0x1d, 0x00, 0x6e, 0xf5, 0xff, 0xff, 0x04, 0x00, 0x00, 0x00, 0x0f, 0x00, 0x00, 0x00, 0x6c, 0x0d, 0x8b, 0x6c, 0x71, 0xab, 0x67, 0xc2, 0x22, 0x6f, 0xa5, 0x73, 0x7f, 0x93, 0xe2, 0x00, 0x8a, 0xf5, 0xff, 0xff, 0x04, 0x00, 0x00, 0x00, 0x0f, 0x00, 0x00, 0x00, 0x06, 0x17, 0x78, 0x74, 0x32, 0xe8, 0x5a, 0x2e, 0xd1, 0x6a, 0x7f, 0x4e, 0x3d, 0xc8, 0x24, 0x00, 0xa6, 0xf5, 0xff, 0xff, 0x04, 0x00, 0x00, 0x00, 0xe1, 0x00, 0x00, 0x00, 0xff, 0x0c, 0xf5, 0xf0, 0xef, 0x2b, 0x00, 0x08, 0xfd, 0xf7, 0xfd, 0xf5, 0x0b, 0x00, 0xf6, 0x03, 0xf1, 0xfa, 0x05, 0x0a, 0xf9, 0x0b, 0x14, 0x15, 0xf8, 0x05, 0x03, 0xf4, 0xed, 0x06, 0x1f, 0x39, 0x05, 0x16, 0x1c, 0x30, 0x21, 0xf4, 0x04, 0xe7, 0xe5, 0x2a, 0x23, 0x05, 0xef, 0x0b, 0x0c, 0xf5, 0x24, 0x0f, 0x1f, 0x11, 0xeb, 0xf1, 0xf2, 0xdf, 0x07, 0x05, 0x0f, 0x04, 0x08, 0x02, 0xf7, 0x25, 0x1a, 0x19, 0xfd, 0xfe, 0x07, 0xfc, 0x16, 0x26, 0x1b, 0xf6, 0xe6, 0x2e, 0x2b, 0xf8, 0x30, 0x27, 0x0e, 0x2a, 0xf1, 0x1f, 0xf8, 0xc6, 0x27, 0x22, 0x25, 0xce, 0x11, 0xfe, 0x03, 0x06, 0x23, 0x08, 0x01, 0x08, 0xfa, 0x04, 0xdf, 0x06, 0x15, 0x10, 0xff, 0x0e, 0x21, 0x00, 0x14, 0xe4, 0xfd, 0xed, 0x04, 0xff, 0xf7, 0x08, 0xfc, 0x0e, 0x15, 0x05, 0x08, 0xf5, 0x03, 0x16, 0xe5, 0x15, 0x0f, 0xfc, 0x0a, 0xe5, 0xf5, 0x06, 0x02, 0x00, 0xfd, 0x5d, 0x7f, 0xc7, 0x4e, 0x60, 0x36, 0x65, 0xd6, 0x4e, 0xf8, 0x9a, 0x51, 0x5f, 0x41, 0x8f, 0x00, 0x10, 0xff, 0x08, 0x16, 0x05, 0x13, 0xf7, 0x07, 0xff, 0x0a, 0xfd, 0xed, 0x1e, 0xf4, 0x30, 0x0c, 0x0c, 0x13, 0x03, 0x1b, 0xf8, 0xf8, 0x1c, 0xfa, 0xec, 0x03, 0x1d, 0x0c, 0xfc, 0x12, 0x08, 0xf1, 0xf0, 0xf2, 0x1f, 0x0d, 0x02, 0xf1, 0xe9, 0x03, 0x0b, 0x0b, 0xf6, 0xf3, 0x2b, 0x49, 0xd1, 0x2d, 0x35, 0x1f, 0x3c, 0xed, 0x47, 0x12, 0xb9, 0x37, 0x39, 0x37, 0xc6, 0x03, 0x06, 0x01, 0x00, 0xfe, 0x21, 0x01, 0xf7, 0x0c, 0xfd, 0xf6, 0x00, 0x0b, 0x0a, 0xf3, 0x00, 0x00, 0x00, 0x96, 0xf6, 0xff, 0xff, 0x04, 0x00, 0x00, 0x00, 0xe1, 0x00, 0x00, 0x00, 0xe4, 0xdd, 0xd4, 0xce, 0x00, 0x42, 0x01, 0x16, 0xe7, 0xd5, 0x40, 0xfb, 0xc7, 0xf8, 0x3f, 0xd9, 0xd0, 0x0c, 0xfb, 0xde, 0xda, 0xf3, 0x13, 0x0e, 0x0a, 0x31, 0xdc, 0x0e, 0xf5, 0x2f, 0xf5, 0x01, 0xea, 0xe1, 0xf6, 0x14, 0x1c, 0xe8, 0x1e, 0x81, 0xd7, 0xec, 0xeb, 0x41, 0xe3, 0x22, 0xed, 0xf1, 0xfe, 0xe8, 0x0b, 0x64, 0x27, 0xc0, 0x0b, 0x28, 0x04, 0x46, 0x08, 0x07, 0x1c, 0xf7, 0xf5, 0x18, 0x0b, 0x0d, 0x1d, 0xe6, 0x19, 0x37, 0x09, 0xfb, 0x2b, 0xe3, 0x05, 0x0d, 0x41, 0x1e, 0x05, 0xe7, 0xd4, 0x16, 0x27, 0xe7, 0xb1, 0x05, 0xf1, 0xab, 0x23, 0x31, 0x1e, 0x0f, 0x07, 0xfa, 0xfa, 0x1a, 0xef, 0xf9, 0xd0, 0xdc, 0x13, 0x20, 0xeb, 0xef, 0x33, 0xe1, 0xdb, 0x09, 0x0f, 0xd2, 0xf2, 0xda, 0x17, 0xff, 0xcb, 0x10, 0xb3, 0xc2, 0xfc, 0xee, 0xf2, 0x2e, 0x1b, 0x15, 0xfd, 0x23, 0x05, 0x3b, 0xed, 0xd8, 0xff, 0x1e, 0xe8, 0x3e, 0xff, 0x0f, 0x0c, 0x48, 0xfa, 0x32, 0x43, 0xcf, 0x54, 0xb9, 0xb1, 0x10, 0xdf, 0x0e, 0x4c, 0x21, 0xf4, 0xdd, 0x0a, 0x34, 0xec, 0x22, 0x31, 0x26, 0x1f, 0xfb, 0xd1, 0x0e, 0x0c, 0x00, 0x27, 0xdb, 0x3d, 0x1b, 0xf3, 0x28, 0x0c, 0xf1, 0xe2, 0x11, 0xb7, 0x38, 0xcd, 0x28, 0xfc, 0x3f, 0x0b, 0xe2, 0x01, 0xf9, 0x10, 0x36, 0xf1, 0x42, 0xef, 0x19, 0x1e, 0x16, 0xe7, 0xe0, 0xe3, 0xf8, 0x0a, 0x10, 0xec, 0xef, 0x71, 0xe8, 0x27, 0xdd, 0xb6, 0x20, 0xb1, 0xe6, 0x29, 0x28, 0xfb, 0x31, 0x1b, 0xcb, 0x03, 0x48, 0x18, 0x10, 0xf9, 0x01, 0xea, 0xc6, 0xe1, 0x04, 0xf7, 0x00, 0x00, 0x00, 0x86, 0xf7, 0xff, 0xff, 0x04, 0x00, 0x00, 0x00, 0xe1, 0x00, 0x00, 0x00, 0x1a, 0xbe, 0x40, 0x0b, 0x2d, 0xec, 0x4c, 0x32, 0x1b, 0xcf, 0x10, 0xd4, 0xd8, 0xf1, 0x14, 0x34, 0x0f, 0xe4, 0x39, 0x3f, 0x9a, 0x15, 0xc0, 0x3b, 0x12, 0x81, 0x2e, 0x1d, 0xc5, 0xcf, 0x1d, 0x3d, 0x10, 0xf5, 0xff, 0xc3, 0x04, 0xca, 0xfc, 0xfa, 0x03, 0x10, 0x5c, 0x2a, 0xd2, 0x55, 0xe1, 0xd5, 0xde, 0x38, 0x22, 0xf2, 0x0c, 0x24, 0x14, 0x11, 0xe2, 0xfa, 0x1f, 0x0c, 0x36, 0xb1, 0xe3, 0x01, 0x47, 0xed, 0xfb, 0xcb, 0x1f, 0xf0, 0x06, 0x0c, 0x07, 0xf5, 0xf5, 0x63, 0x00, 0xb2, 0xde, 0x24, 0x0c, 0x1e, 0xeb, 0x2f, 0xfe, 0xce, 0xe4, 0xde, 0xc7, 0xc8, 0x05, 0xe6, 0xd7, 0x0d, 0xb9, 0x23, 0xd3, 0xc4, 0x2a, 0xf4, 0x1a, 0x26, 0xf0, 0x33, 0x3f, 0xdc, 0xf6, 0x41, 0xfa, 0x0a, 0xdb, 0x47, 0x0a, 0x5b, 0xfc, 0x07, 0x0d, 0x37, 0x9e, 0xdd, 0x23, 0xc8, 0x10, 0xd5, 0x09, 0x0a, 0xd4, 0x50, 0x11, 0xa7, 0xfc, 0x77, 0xf5, 0x3f, 0x34, 0x09, 0x0a, 0x56, 0xf4, 0xdd, 0x56, 0xb9, 0x01, 0xe3, 0xf8, 0x72, 0xb4, 0xc2, 0x62, 0x22, 0xd8, 0xdc, 0x2d, 0x3c, 0x18, 0x25, 0x36, 0xe5, 0xde, 0xec, 0x39, 0xe3, 0xd6, 0x02, 0x44, 0x24, 0xc5, 0x1d, 0xb9, 0xbf, 0x08, 0x0c, 0x1c, 0xf5, 0x67, 0xfd, 0x08, 0x00, 0xef, 0x14, 0xdc, 0xdc, 0x14, 0x16, 0x1e, 0xfd, 0x60, 0xc6, 0xeb, 0x42, 0x36, 0x0d, 0xef, 0x11, 0xfb, 0x59, 0x44, 0xfd, 0x49, 0xe1, 0xd0, 0x57, 0xb8, 0x20, 0x39, 0xc0, 0x4d, 0xf3, 0xc6, 0x06, 0xd6, 0x3c, 0x4a, 0xd9, 0xfe, 0x1c, 0xeb, 0xf8, 0x22, 0xf2, 0xce, 0x69, 0xd2, 0xed, 0x36, 0x00, 0x00, 0x00, 0x76, 0xf8, 0xff, 0xff, 0x04, 0x00, 0x00, 0x00, 0xe1, 0x00, 0x00, 0x00, 0x0a, 0xf8, 0xfc, 0xf9, 0x15, 0x15, 0xf9, 0xf7, 0xfb, 0x04, 0x01, 0x03, 0xec, 0x06, 0x01, 0x18, 0xe8, 0xf6, 0x07, 0x00, 0xfb, 0x1b, 0xe9, 0x09, 0x0e, 0x0c, 0x09, 0x0a, 0x13, 0x00, 0x00, 0x12, 0xf0, 0x17, 0x16, 0x32, 0x08, 0xfa, 0x14, 0x07, 0xe7, 0x12, 0x08, 0x14, 0xe8, 0x00, 0x0c, 0xf1, 0x09, 0xfc, 0x08, 0x08, 0x12, 0x08, 0xf4, 0x07, 0xfa, 0x02, 0xfd, 0xfe, 0x0b, 0xff, 0xf2, 0x1a, 0x02, 0x0a, 0xf4, 0xf4, 0x07, 0x07, 0x00, 0x01, 0x03, 0xe8, 0xf8, 0x2e, 0x53, 0x09, 0x33, 0x13, 0x1e, 0x21, 0x16, 0x23, 0xf6, 0xdf, 0x11, 0x04, 0x1b, 0xd3, 0x0a, 0x0a, 0x12, 0xfe, 0x0f, 0x15, 0x13, 0xe9, 0x0a, 0x02, 0xf8, 0x0e, 0x08, 0xf9, 0xe9, 0xf6, 0x09, 0x05, 0x03, 0x01, 0xf4, 0xed, 0x10, 0xe5, 0xfc, 0xfe, 0xfe, 0xec, 0x03, 0x00, 0xfb, 0x08, 0xf2, 0x1a, 0x04, 0xfa, 0xfe, 0x16, 0x08, 0x02, 0x00, 0xfb, 0x0c, 0x09, 0xf4, 0x32, 0x7f, 0xd3, 0x41, 0x3d, 0x42, 0x36, 0xe6, 0x2e, 0xe7, 0xc5, 0x34, 0x2a, 0x27, 0xd8, 0x06, 0xfd, 0xe5, 0x06, 0x08, 0x10, 0x13, 0xfa, 0x07, 0xfd, 0x01, 0x1c, 0x0a, 0xfa, 0xed, 0x12, 0x16, 0xf7, 0xfc, 0x05, 0xf9, 0x08, 0xf7, 0x15, 0x11, 0x0e, 0x24, 0xfb, 0xfe, 0xef, 0xf5, 0xfb, 0x08, 0x0e, 0xf4, 0x11, 0xff, 0xf6, 0xe7, 0xf5, 0xfb, 0x0a, 0xf3, 0x07, 0xd4, 0x16, 0x40, 0xe7, 0x26, 0x1e, 0xfa, 0x26, 0xf0, 0x18, 0xe5, 0xd0, 0x1c, 0x28, 0x21, 0xda, 0x1e, 0xfa, 0x0d, 0xfc, 0x05, 0x01, 0xff, 0xef, 0xfa, 0xed, 0x05, 0xfb, 0x01, 0xfe, 0xec, 0x00, 0x00, 0x00, 0x66, 0xf9, 0xff, 0xff, 0x04, 0x00, 0x00, 0x00, 0x96, 0x00, 0x00, 0x00, 0xd7, 0x13, 0xff, 0xdd, 0x26, 0xcb, 0x34, 0x07, 0x26, 0x3c, 0xfa, 0x0e, 0xde, 0xdc, 0xfc, 0x2a, 0x07, 0xb6, 0x07, 0xf6, 0xfe, 0x18, 0xfc, 0xe2, 0x47, 0xd5, 0xeb, 0xea, 0xd0, 0xc6, 0xfe, 0x16, 0x1e, 0xe9, 0x10, 0xb9, 0x40, 0xcc, 0xe7, 0x25, 0x0e, 0x1d, 0x3f, 0xaf, 0xe6, 0x24, 0x06, 0x11, 0x2f, 0xef, 0x17, 0xea, 0xed, 0x1a, 0xc0, 0xd0, 0x22, 0xfb, 0x53, 0xe0, 0x00, 0xcf, 0xff, 0xe0, 0x20, 0x2b, 0x01, 0xe0, 0xf6, 0xed, 0x1b, 0xd1, 0xe3, 0x03, 0x0a, 0x3a, 0x25, 0xd9, 0xfd, 0x18, 0x11, 0xec, 0xf0, 0x18, 0x08, 0xfb, 0xff, 0x30, 0xbb, 0xe8, 0x2d, 0xdd, 0x05, 0xf7, 0x29, 0x0c, 0xe9, 0xed, 0x0d, 0x05, 0xf8, 0x00, 0xe5, 0xf2, 0xcf, 0xe5, 0x2f, 0x00, 0x11, 0x0d, 0x18, 0x2b, 0xe5, 0xf8, 0x04, 0xe2, 0x19, 0x39, 0xc9, 0x19, 0x12, 0xef, 0xf8, 0xea, 0xdf, 0xc7, 0xf4, 0xcb, 0xe7, 0x7f, 0xca, 0x2e, 0x06, 0xcd, 0xc5, 0x37, 0x23, 0x0d, 0x47, 0xf3, 0x0b, 0x15, 0xf7, 0x11, 0x14, 0xe5, 0x44, 0xf1, 0xd5, 0xc7, 0x00, 0x00, 0x0a, 0xfa, 0xff, 0xff, 0x04, 0x00, 0x00, 0x00, 0x96, 0x00, 0x00, 0x00, 0xee, 0xd3, 0xd9, 0xe2, 0x10, 0xd4, 0xef, 0x0a, 0xed, 0x4a, 0x0e, 0xe6, 0xe0, 0xb6, 0xe2, 0x20, 0xe5, 0x01, 0x18, 0xec, 0xcb, 0x26, 0xd3, 0xec, 0x7f, 0x09, 0x0d, 0xe7, 0xb5, 0xe7, 0x07, 0xea, 0xf4, 0x14, 0x09, 0xd0, 0x02, 0x0a, 0x06, 0x75, 0x0b, 0x16, 0x09, 0xa7, 0xde, 0xf5, 0xda, 0x11, 0xdb, 0xd4, 0x15, 0xeb, 0x18, 0xd9, 0xf5, 0x1d, 0xd7, 0xe7, 0xdd, 0x06, 0x0a, 0xdc, 0xe5, 0x11, 0x0c, 0xe6, 0xfc, 0xff, 0x12, 0xdd, 0x09, 0x01, 0x0c, 0x00, 0xef, 0x0a, 0xe6, 0x0c, 0x18, 0xe1, 0xc1, 0x18, 0xe3, 0x27, 0x35, 0xec, 0x02, 0xea, 0xab, 0xff, 0x2a, 0xd4, 0xe9, 0x29, 0xeb, 0xec, 0xf4, 0xdc, 0xe0, 0x2d, 0x15, 0x09, 0x0a, 0xcb, 0x10, 0xe8, 0xf1, 0xd8, 0xe3, 0x01, 0xf7, 0x20, 0xff, 0xfe, 0x5d, 0xed, 0x21, 0xfb, 0xf5, 0x0b, 0x02, 0xdf, 0xf3, 0x0c, 0xe7, 0x9d, 0xfb, 0xd1, 0xf6, 0x79, 0xd8, 0x17, 0x0b, 0xa3, 0x0d, 0x20, 0xff, 0xd5, 0x10, 0xdf, 0xe0, 0x21, 0xf4, 0xf5, 0x4a, 0x19, 0xf7, 0x10, 0xc6, 0x11, 0x00, 0x00, 0xae, 0xfa, 0xff, 0xff, 0x04, 0x00, 0x00, 0x00, 0x96, 0x00, 0x00, 0x00, 0x0d, 0xca, 0x30, 0xd8, 0x08, 0x1b, 0x19, 0x0e, 0x00, 0xe1, 0x20, 0xdf, 0x0d, 0x7f, 0x3a, 0x23, 0xe4, 0x12, 0xfb, 0xb4, 0x5b, 0xcc, 0xea, 0xdd, 0x8a, 0x3e, 0xbe, 0x04, 0x21, 0xd6, 0x4a, 0xfc, 0xff, 0x39, 0x34, 0x16, 0x50, 0x23, 0xf6, 0x1a, 0xdc, 0x4c, 0x49, 0xd2, 0xe9, 0x14, 0xeb, 0x3b, 0xf7, 0xc1, 0x02, 0xf2, 0xe2, 0xb5, 0xa9, 0xdc, 0xb0, 0x13, 0x12, 0x5d, 0xcc, 0x1a, 0x3b, 0xe6, 0x05, 0x3e, 0x23, 0x44, 0xe5, 0xd4, 0xf0, 0x1d, 0xf0, 0x08, 0xcb, 0x35, 0x26, 0xf7, 0x51, 0xec, 0x1d, 0x15, 0xb0, 0x12, 0x4f, 0xb2, 0x0d, 0x2d, 0xf8, 0xd4, 0xf3, 0x41, 0x09, 0x2a, 0xd7, 0x45, 0xbe, 0xf5, 0x22, 0x92, 0x48, 0xb5, 0xfd, 0x5e, 0x43, 0xfc, 0xd6, 0xde, 0xec, 0xd6, 0xf4, 0xd4, 0x02, 0xd0, 0x99, 0x0b, 0x11, 0xef, 0x43, 0x12, 0xe9, 0xf7, 0xea, 0x33, 0x41, 0xbd, 0xf1, 0xf8, 0xf7, 0x56, 0xb6, 0x37, 0x0f, 0xf5, 0xdc, 0xf5, 0x1b, 0x6a, 0xe8, 0x29, 0x59, 0xb5, 0x2e, 0xbb, 0xae, 0x33, 0x01, 0xfd, 0x14, 0xdc, 0x00, 0x00, 0x52, 0xfb, 0xff, 0xff, 0x04, 0x00, 0x00, 0x00, 0x96, 0x00, 0x00, 0x00, 0xff, 0xee, 0xdd, 0xfd, 0x06, 0xe9, 0xfb, 0x07, 0xfe, 0x55, 0xfc, 0x01, 0x03, 0xe2, 0xeb, 0xfd, 0xfb, 0xed, 0x25, 0x24, 0xdc, 0x05, 0xf5, 0xf2, 0x7f, 0xe7, 0x20, 0x27, 0xbb, 0x05, 0x16, 0x04, 0xcf, 0x04, 0x22, 0xef, 0xf7, 0xdf, 0xec, 0x3b, 0xec, 0xf4, 0x15, 0xdc, 0x12, 0x05, 0xec, 0xef, 0x09, 0x13, 0xfe, 0x07, 0x20, 0xfd, 0xd6, 0xf4, 0x05, 0x0a, 0x1c, 0xff, 0x03, 0x0b, 0xea, 0x03, 0xf7, 0x2c, 0xe2, 0xef, 0x18, 0xe6, 0xf0, 0x04, 0xf3, 0xef, 0x02, 0x08, 0xe5, 0xd1, 0x08, 0x23, 0xd7, 0x26, 0xd6, 0x04, 0x66, 0xf5, 0x24, 0xfa, 0xed, 0x0e, 0xfd, 0xe5, 0xd7, 0xed, 0xfe, 0xd1, 0xf8, 0xfb, 0xf5, 0x1d, 0xe8, 0x1b, 0x05, 0xf8, 0xde, 0x21, 0x05, 0xea, 0xf4, 0x0e, 0xbe, 0xf5, 0xf8, 0x20, 0x57, 0x14, 0xf3, 0x15, 0xef, 0xed, 0x21, 0x1d, 0xfe, 0x08, 0xf4, 0xc6, 0xf7, 0x06, 0xe9, 0x6a, 0x0b, 0x05, 0x15, 0xca, 0x0c, 0x2d, 0xef, 0xbf, 0xff, 0xf4, 0xce, 0x15, 0x02, 0x09, 0x3c, 0x0a, 0x0f, 0xfd, 0xd6, 0xe3, 0x00, 0x00, 0xf6, 0xfb, 0xff, 0xff, 0x04, 0x00, 0x00, 0x00, 0x64, 0x00, 0x00, 0x00, 0x01, 0xe5, 0x49, 0x5c, 0x18, 0xfd, 0xa5, 0xdb, 0x1a, 0x10, 0x0a, 0x0c, 0x1c, 0xef, 0x32, 0x35, 0x2d, 0xba, 0x08, 0xe5, 0x1a, 0xea, 0x27, 0xb7, 0x02, 0x02, 0xd3, 0xd3, 0xea, 0x32, 0x0c, 0xcb, 0x3a, 0xd0, 0x29, 0xe4, 0xcf, 0xd2, 0x0a, 0x1b, 0x3f, 0xe2, 0x4f, 0x71, 0xfb, 0x41, 0xfa, 0xf3, 0xcf, 0xe5, 0xb9, 0x4c, 0xe7, 0x13, 0xe7, 0x13, 0xdf, 0xb2, 0xce, 0x19, 0x05, 0x13, 0x23, 0x25, 0x72, 0xf5, 0x81, 0xc0, 0x45, 0x59, 0x1c, 0xdc, 0xe2, 0x37, 0x4a, 0xe7, 0x2f, 0xfe, 0x10, 0x32, 0x06, 0xb5, 0x0b, 0x24, 0x0a, 0xca, 0xf0, 0xad, 0xfa, 0x27, 0xbb, 0xe0, 0xcc, 0xbd, 0x52, 0x25, 0xdc, 0x0e, 0xf1, 0xe0, 0x66, 0xfc, 0xff, 0xff, 0x04, 0x00, 0x00, 0x00, 0x64, 0x00, 0x00, 0x00, 0x68, 0x2e, 0xa0, 0x33, 0x25, 0xdf, 0x12, 0xf0, 0xcf, 0xe4, 0x59, 0x42, 0x4b, 0x27, 0x08, 0xda, 0x29, 0x02, 0x17, 0x06, 0xfa, 0x4e, 0xf9, 0x2c, 0x3a, 0xfc, 0xea, 0x43, 0xed, 0x24, 0x16, 0x52, 0xd8, 0xe0, 0x46, 0xbc, 0x34, 0x29, 0x81, 0x2f, 0x35, 0x0a, 0xd7, 0x1c, 0xf5, 0xc7, 0xe0, 0x2e, 0xe8, 0x0d, 0x52, 0x06, 0xf4, 0xe1, 0x35, 0x0a, 0xf1, 0x31, 0xe9, 0x5e, 0x30, 0x09, 0x1b, 0x3a, 0xde, 0x01, 0xbd, 0x2f, 0xb3, 0x4b, 0x0f, 0xe7, 0x07, 0x18, 0x5c, 0x14, 0x09, 0xd2, 0xeb, 0x30, 0xf1, 0xbb, 0xef, 0x61, 0x55, 0xf2, 0xfd, 0x3b, 0xe2, 0x14, 0x38, 0x2e, 0xf0, 0x43, 0x79, 0xeb, 0x4b, 0x38, 0xd6, 0x6e, 0xd6, 0xfc, 0xff, 0xff, 0x04, 0x00, 0x00, 0x00, 0x64, 0x00, 0x00, 0x00, 0xff, 0x3f, 0x1d, 0xf1, 0x29, 0x88, 0xe8, 0x1e, 0xf0, 0x9d, 0x0b, 0xb7, 0xf4, 0xb1, 0xc4, 0xf5, 0x2f, 0x41, 0x31, 0xab, 0x64, 0x01, 0x0f, 0x07, 0x39, 0x23, 0xfd, 0xc8, 0xac, 0x24, 0xdb, 0xdc, 0x66, 0xda, 0x2c, 0x0d, 0x25, 0x18, 0x2d, 0xb7, 0xd0, 0xf8, 0xd4, 0xd4, 0xef, 0x0b, 0xd5, 0xf2, 0x36, 0xbb, 0x02, 0x24, 0x16, 0x2d, 0xe9, 0xd2, 0x1f, 0xeb, 0x1c, 0x7c, 0xd8, 0xd7, 0x16, 0xeb, 0xe9, 0xe6, 0x1d, 0xd7, 0xc5, 0xdc, 0xd9, 0x08, 0xc3, 0x20, 0x21, 0xec, 0xf4, 0x24, 0x39, 0x9c, 0x7f, 0x27, 0xe8, 0x36, 0x07, 0x4c, 0xcf, 0xec, 0x1f, 0x35, 0x0b, 0xc4, 0xd7, 0xd0, 0x1d, 0x22, 0xe5, 0xfc, 0x05, 0xe5, 0x46, 0xfd, 0xff, 0xff, 0x04, 0x00, 0x00, 0x00, 0x64, 0x00, 0x00, 0x00, 0xee, 0x17, 0x30, 0xf5, 0xff, 0xcd, 0x1a, 0x3d, 0xaa, 0x1f, 0x5e, 0xb7, 0xff, 0x06, 0xd7, 0x92, 0xe0, 0xd8, 0x0a, 0x25, 0x07, 0x0c, 0x33, 0xb6, 0x56, 0x38, 0xf9, 0xe8, 0x21, 0x10, 0xcc, 0xc6, 0x39, 0xfc, 0xbc, 0x59, 0xec, 0xf7, 0xe6, 0xc5, 0x2b, 0x12, 0x27, 0xf3, 0x1e, 0xfa, 0xfa, 0x03, 0x14, 0x0a, 0x1d, 0xea, 0x07, 0x1c, 0xee, 0xe7, 0x02, 0x45, 0x46, 0x7f, 0x2e, 0xf8, 0x08, 0x1a, 0x30, 0xf9, 0xcd, 0x64, 0x98, 0x24, 0x50, 0x39, 0x09, 0xeb, 0x2b, 0x22, 0xba, 0x40, 0x0a, 0x41, 0x60, 0x06, 0xcf, 0x54, 0xf4, 0x21, 0x2a, 0x16, 0xe6, 0x7b, 0x23, 0xfc, 0xc0, 0x15, 0x4c, 0x8c, 0x0d, 0x06, 0xe0, 0x24, 0xb6, 0xfd, 0xff, 0xff, 0x04, 0x00, 0x00, 0x00, 0x28, 0x00, 0x00, 0x00, 0xd6, 0xfb, 0xff, 0xff, 0x62, 0x10, 0x00, 0x00, 0xba, 0x0b, 0x00, 0x00, 0x9b, 0x09, 0x00, 0x00, 0x61, 0x08, 0x00, 0x00, 0x1b, 0x0b, 0x00, 0x00, 0xeb, 0x0a, 0x00, 0x00, 0xba, 0x05, 0x00, 0x00, 0x78, 0x0b, 0x00, 0x00, 0x18, 0x31, 0x00, 0x00, 0xea, 0xfd, 0xff, 0xff, 0x04, 0x00, 0x00, 0x00, 0x28, 0x00, 0x00, 0x00, 0xa8, 0x77, 0x00, 0x00, 0x5b, 0x87, 0x00, 0x00, 0x0a, 0x88, 0x00, 0x00, 0x7a, 0x7f, 0x00, 0x00, 0x91, 0x7e, 0x00, 0x00, 0xbc, 0x88, 0x00, 0x00, 0x25, 0x85, 0x00, 0x00, 0xaa, 0x85, 0x00, 0x00, 0x0b, 0x81, 0x00, 0x00, 0x73, 0x74, 0x00, 0x00, 0x1e, 0xfe, 0xff, 0xff, 0x04, 0x00, 0x00, 0x00, 0x28, 0x00, 0x00, 0x00, 0x37, 0xfc, 0xff, 0xff, 0xcc, 0xf7, 0xff, 0xff, 0x5b, 0x05, 0x00, 0x00, 0x1f, 0x05, 0x00, 0x00, 0x66, 0xfb, 0xff, 0xff, 0xc0, 0x05, 0x00, 0x00, 0xea, 0xfe, 0xff, 0xff, 0x61, 0xfa, 0xff, 0xff, 0xdb, 0x01, 0x00, 0x00, 0xc2, 0xfb, 0xff, 0xff, 0x52, 0xfe, 0xff, 0xff, 0x04, 0x00, 0x00, 0x00, 0x28, 0x00, 0x00, 0x00, 0xfe, 0xfb, 0xff, 0xff, 0x62, 0x07, 0x00, 0x00, 0xce, 0x06, 0x00, 0x00, 0x2e, 0x06, 0x00, 0x00, 0x95, 0x05, 0x00, 0x00, 0x61, 0x05, 0x00, 0x00, 0x36, 0x06, 0x00, 0x00, 0x42, 0x03, 0x00, 0x00, 0xa9, 0x05, 0x00, 0x00, 0xb0, 0x16, 0x00, 0x00, 0x86, 0xfe, 0xff, 0xff, 0x04, 0x00, 0x00, 0x00, 0x0a, 0x00, 0x00, 0x00, 0x9f, 0xa4, 0x7a, 0xe0, 0xe9, 0x42, 0xe2, 0xcc, 0x2e, 0x81, 0x00, 0x00, 0x9e, 0xfe, 0xff, 0xff, 0x04, 0x00, 0x00, 0x00, 0x04, 0x00, 0x00, 0x00, 0xdb, 0x04, 0x00, 0x00, 0xae, 0xfe, 0xff, 0xff, 0x04, 0x00, 0x00, 0x00, 0x3c, 0x00, 0x00, 0x00, 0x5e, 0x16, 0x00, 0x00, 0x02, 0x13, 0x00, 0x00, 0xb5, 0x59, 0x00, 0x00, 0xc6, 0x22, 0x00, 0x00, 0x41, 0x1d, 0x00, 0x00, 0xd0, 0x53, 0x00, 0x00, 0xa8, 0x2f, 0x00, 0x00, 0x03, 0xfd, 0xff, 0xff, 0x8a, 0x08, 0x00, 0x00, 0xaf, 0xd0, 0x00, 0x00, 0x75, 0x28, 0x00, 0x00, 0x32, 0x2e, 0x00, 0x00, 0x96, 0x22, 0x00, 0x00, 0x07, 0x9b, 0x00, 0x00, 0xd1, 0x04, 0x00, 0x00, 0xf6, 0xfe, 0xff, 0xff, 0x04, 0x00, 0x00, 0x00, 0x3c, 0x00, 0x00, 0x00, 0x97, 0xfc, 0xff, 0xff, 0x1c, 0x10, 0x00, 0x00, 0x04, 0x17, 0x00, 0x00, 0xe1, 0xfe, 0xff, 0xff, 0x9e, 0xfb, 0xff, 0xff, 0xb9, 0x1b, 0x00, 0x00, 0x53, 0x05, 0x00, 0x00, 0xe7, 0x0a, 0x00, 0x00, 0x56, 0xfd, 0xff, 0xff, 0xe7, 0xf0, 0xff, 0xff, 0xe5, 0xf9, 0xff, 0xff, 0x6d, 0xff, 0xff, 0xff, 0x79, 0xfc, 0xff, 0xff, 0x3a, 0x18, 0x00, 0x00, 0xde, 0xfc, 0xff, 0xff, 0x3e, 0xff, 0xff, 0xff, 0x04, 0x00, 0x00, 0x00, 0x3c, 0x00, 0x00, 0x00, 0x46, 0x14, 0x01, 0x00, 0x56, 0x1c, 0x01, 0x00, 0xd7, 0x13, 0x01, 0x00, 0x8c, 0x24, 0x01, 0x00, 0x17, 0x24, 0x01, 0x00, 0xe2, 0xfb, 0x00, 0x00, 0xb6, 0x1e, 0x01, 0x00, 0xa8, 0x02, 0x01, 0x00, 0x2f, 0x13, 0x01, 0x00, 0x85, 0x0a, 0x01, 0x00, 0x05, 0x24, 0x01, 0x00, 0xe7, 0x20, 0x01, 0x00, 0x14, 0x23, 0x01, 0x00, 0xb7, 0xf6, 0x00, 0x00, 0x3b, 0x14, 0x01, 0x00, 0x86, 0xff, 0xff, 0xff, 0x04, 0x00, 0x00, 0x00, 0x3c, 0x00, 0x00, 0x00, 0xf5, 0x13, 0x00, 0x00, 0x83, 0x12, 0x00, 0x00, 0x6c, 0x4f, 0x00, 0x00, 0x94, 0x24, 0x00, 0x00, 0x75, 0x1c, 0x00, 0x00, 0xab, 0x55, 0x00, 0x00, 0x55, 0x2c, 0x00, 0x00, 0x87, 0xfd, 0xff, 0xff, 0x52, 0x05, 0x00, 0x00, 0x5c, 0x7a, 0x00, 0x00, 0x27, 0x29, 0x00, 0x00, 0x71, 0x2b, 0x00, 0x00, 0x7e, 0x21, 0x00, 0x00, 0xbf, 0x87, 0x00, 0x00, 0xe8, 0x04, 0x00, 0x00, 0xce, 0xff, 0xff, 0xff, 0x04, 0x00, 0x00, 0x00, 0x0c, 0x00, 0x00, 0x00, 0x01, 0x00, 0x00, 0x00, 0x01, 0x00, 0x00, 0x00, 0x01, 0x00, 0x00, 0x00, 0xe6, 0xff, 0xff, 0xff, 0x04, 0x00, 0x00, 0x00, 0x0c, 0x00, 0x00, 0x00, 0x00, 0x00, 0x00, 0x00, 0x00, 0x00, 0x00, 0x00, 0x00, 0x00, 0x00, 0x00, 0x00, 0x00, 0x06, 0x00, 0x08, 0x00, 0x04, 0x00, 0x06, 0x00, 0x00, 0x00, 0x04, 0x00, 0x00, 0x00, 0x0c, 0x00, 0x00, 0x00, 0x00, 0x00, 0x00, 0x00, 0xff, 0xff, 0xff, 0xff, 0x00, 0x00, 0x00, 0x00, 0x44, 0xec, 0xff, 0xff, 0x48, 0xec, 0xff, 0xff, 0x0f, 0x00, 0x00, 0x00, 0x4d, 0x4c, 0x49, 0x52, 0x20, 0x43, 0x6f, 0x6e, 0x76, 0x65, 0x72, 0x74, 0x65, 0x64, 0x2e, 0x00, 0x01, 0x00, 0x00, 0x00, 0x14, 0x00, 0x00, 0x00, 0x00, 0x00, 0x0e, 0x00, 0x18, 0x00, 0x14, 0x00, 0x10, 0x00, 0x0c, 0x00, 0x08, 0x00, 0x04, 0x00, 0x0e, 0x00, 0x00, 0x00, 0x14, 0x00, 0x00, 0x00, 0x1c, 0x00, 0x00, 0x00, 0x34, 0x02, 0x00, 0x00, 0x38, 0x02, 0x00, 0x00, 0x3c, 0x02, 0x00, 0x00, 0x04, 0x00, 0x00, 0x00, 0x6d, 0x61, 0x69, 0x6e, 0x00, 0x00, 0x00, 0x00, 0x04, 0x00, 0x00, 0x00, 0x68, 0x01, 0x00, 0x00, 0xa4, 0x00, 0x00, 0x00, 0x4c, 0x00, 0x00, 0x00, 0x04, 0x00, 0x00, 0x00, 0xca, 0xff, 0xff, 0xff, 0x14, 0x00, 0x00, 0x00, 0x00, 0x00, 0x00, 0x08, 0x10, 0x00, 0x00, 0x00, 0x14, 0x00, 0x00, 0x00, 0x02, 0x00, 0x00, 0x00, 0xc8, 0xec, 0xff, 0xff, 0x01, 0x00, 0x00, 0x00, 0x2f, 0x00, 0x00, 0x00, 0x03, 0x00, 0x00, 0x00, 0x2e, 0x00, 0x00, 0x00, 0x09, 0x00, 0x00, 0x00, 0x08, 0x00, 0x00, 0x00, 0x00, 0x00, 0x0e, 0x00, 0x1a, 0x00, 0x14, 0x00, 0x10, 0x00, 0x0c, 0x00, 0x0b, 0x00, 0x04, 0x00, 0x0e, 0x00, 0x00, 0x00, 0x24, 0x00, 0x00, 0x00, 0x00, 0x00, 0x00, 0x20, 0x2c, 0x00, 0x00, 0x00, 0x30, 0x00, 0x00, 0x00, 0x01, 0x00, 0x00, 0x00, 0x00, 0x00, 0x0e, 0x00, 0x10, 0x00, 0x0c, 0x00, 0x08, 0x00, 0x00, 0x00, 0x00, 0x00, 0x04, 0x00, 0x0e, 0x00, 0x00, 0x00, 0x02, 0x00, 0x00, 0x00, 0x05, 0x00, 0x00, 0x00, 0x05, 0x00, 0x00, 0x00, 0x01, 0x00, 0x00, 0x00, 0x2e, 0x00, 0x00, 0x00, 0x04, 0x00, 0x00, 0x00, 0x2d, 0x00, 0x00, 0x00, 0x01, 0x00, 0x00, 0x00, 0x02, 0x00, 0x00, 0x00, 0x03, 0x00, 0x00, 0x00, 0x56, 0xff, 0xff, 0xff, 0x14, 0x00, 0x00, 0x00, 0x28, 0x00, 0x00, 0x00, 0x00, 0x00, 0x00, 0x47, 0x2c, 0x00, 0x00, 0x00, 0x30, 0x00, 0x00, 0x00, 0x05, 0x00, 0x00, 0x00, 0x28, 0x00, 0x00, 0x00, 0x29, 0x00, 0x00, 0x00, 0x2a, 0x00, 0x00, 0x00, 0x2b, 0x00, 0x00, 0x00, 0x2c, 0x00, 0x00, 0x00, 0x40, 0xff, 0xff, 0xff, 0x00, 0x00, 0x20, 0x41, 0x00, 0x00, 0x00, 0x04, 0x01, 0x00, 0x00, 0x00, 0x2d, 0x00, 0x00, 0x00, 0x18, 0x00, 0x00, 0x00, 0x25, 0x00, 0x00, 0x00, 0x15, 0x00, 0x00, 0x00, 0x14, 0x00, 0x00, 0x00, 0x13, 0x00, 0x00, 0x00, 0x12, 0x00, 0x00, 0x00, 0x11, 0x00, 0x00, 0x00, 0x10, 0x00, 0x00, 0x00, 0x0f, 0x00, 0x00, 0x00, 0x0e, 0x00, 0x00, 0x00, 0xff, 0xff, 0xff, 0xff, 0xff, 0xff, 0xff, 0xff, 0xff, 0xff, 0xff, 0xff, 0x0d, 0x00, 0x00, 0x00, 0x0c, 0x00, 0x00, 0x00, 0x0b, 0x00, 0x00, 0x00, 0x0a, 0x00, 0x00, 0x00, 0xff, 0xff, 0xff, 0xff, 0xff, 0xff, 0xff, 0xff, 0x26, 0x00, 0x00, 0x00, 0x27, 0x00, 0x00, 0x00, 0xff, 0xff, 0xff, 0xff, 0xff, 0xff, 0xff, 0xff, 0xff, 0xff, 0xff, 0xff, 0xff, 0xff, 0xff, 0xff, 0x00, 0x00, 0x16, 0x00, 0x18, 0x00, 0x00, 0x00, 0x14, 0x00, 0x10, 0x00, 0x0f, 0x00, 0x08, 0x00, 0x00, 0x00, 0x00, 0x00, 0x00, 0x00, 0x04, 0x00, 0x16, 0x00, 0x00, 0x00, 0x14, 0x00, 0x00, 0x00, 0x30, 0x00, 0x00, 0x00, 0x00, 0x00, 0x00, 0x47, 0x34, 0x00, 0x00, 0x00, 0x38, 0x00, 0x00, 0x00, 0x05, 0x00, 0x00, 0x00, 0x20, 0x00, 0x00, 0x00, 0x21, 0x00, 0x00, 0x00, 0x22, 0x00, 0x00, 0x00, 0x23, 0x00, 0x00, 0x00, 0x24, 0x00, 0x00, 0x00, 0x08, 0x00, 0x0c, 0x00, 0x0b, 0x00, 0x04, 0x00, 0x08, 0x00, 0x00, 0x00, 0x00, 0x00, 0x20, 0x41, 0x00, 0x00, 0x00, 0x04, 0x01, 0x00, 0x00, 0x00, 0x25, 0x00, 0x00, 0x00, 0x18, 0x00, 0x00, 0x00, 0x00, 0x00, 0x00, 0x00, 0x1d, 0x00, 0x00, 0x00, 0x1c, 0x00, 0x00, 0x00, 0x1b, 0x00, 0x00, 0x00, 0x1a, 0x00, 0x00, 0x00, 0x19, 0x00, 0x00, 0x00, 0x18, 0x00, 0x00, 0x00, 0x17, 0x00, 0x00, 0x00, 0x16, 0x00, 0x00, 0x00, 0xff, 0xff, 0xff, 0xff, 0xff, 0xff, 0xff, 0xff, 0xff, 0xff, 0xff, 0xff, 0x04, 0x00, 0x00, 0x00, 0x05, 0x00, 0x00, 0x00, 0x06, 0x00, 0x00, 0x00, 0x07, 0x00, 0x00, 0x00, 0xff, 0xff, 0xff, 0xff, 0xff, 0xff, 0xff, 0xff, 0x1e, 0x00, 0x00, 0x00, 0x1f, 0x00, 0x00, 0x00, 0xff, 0xff, 0xff, 0xff, 0xff, 0xff, 0xff, 0xff, 0xff, 0xff, 0xff, 0xff, 0xff, 0xff, 0xff, 0xff, 0x01, 0x00, 0x00, 0x00, 0x2f, 0x00, 0x00, 0x00, 0x01, 0x00, 0x00, 0x00, 0x00, 0x00, 0x00, 0x00, 0x30, 0x00, 0x00, 0x00, 0x74, 0x11, 0x00, 0x00, 0x14, 0x11, 0x00, 0x00, 0xd0, 0x10, 0x00, 0x00, 0x8c, 0x10, 0x00, 0x00, 0x30, 0x10, 0x00, 0x00, 0xd4, 0x0f, 0x00, 0x00, 0x78, 0x0f, 0x00, 0x00, 0x1c, 0x0f, 0x00, 0x00, 0xa0, 0x0e, 0x00, 0x00, 0x34, 0x0e, 0x00, 0x00, 0xd0, 0x0d, 0x00, 0x00, 0x6c, 0x0d, 0x00, 0x00, 0x08, 0x0d, 0x00, 0x00, 0xa4, 0x0c, 0x00, 0x00, 0x40, 0x0c, 0x00, 0x00, 0xdc, 0x0b, 0x00, 0x00, 0x78, 0x0b, 0x00, 0x00, 0x14, 0x0b, 0x00, 0x00, 0xb0, 0x0a, 0x00, 0x00, 0x4c, 0x0a, 0x00, 0x00, 0xe8, 0x09, 0x00, 0x00, 0x84, 0x09, 0x00, 0x00, 0x20, 0x09, 0x00, 0x00, 0xbc, 0x08, 0x00, 0x00, 0x58, 0x08, 0x00, 0x00, 0xf4, 0x07, 0x00, 0x00, 0x90, 0x07, 0x00, 0x00, 0x2c, 0x07, 0x00, 0x00, 0xc8, 0x06, 0x00, 0x00, 0x64, 0x06, 0x00, 0x00, 0x04, 0x06, 0x00, 0x00, 0x88, 0x05, 0x00, 0x00, 0x4c, 0x05, 0x00, 0x00, 0xf4, 0x04, 0x00, 0x00, 0xb8, 0x04, 0x00, 0x00, 0x78, 0x04, 0x00, 0x00, 0x0c, 0x04, 0x00, 0x00, 0x7c, 0x03, 0x00, 0x00, 0x1c, 0x03, 0x00, 0x00, 0xb8, 0x02, 0x00, 0x00, 0x78, 0x02, 0x00, 0x00, 0x38, 0x02, 0x00, 0x00, 0xfc, 0x01, 0x00, 0x00, 0xbc, 0x01, 0x00, 0x00, 0x4c, 0x01, 0x00, 0x00, 0xd4, 0x00, 0x00, 0x00, 0x70, 0x00, 0x00, 0x00, 0x04, 0x00, 0x00, 0x00, 0x62, 0xef, 0xff, 0xff, 0x00, 0x00, 0x00, 0x01, 0x14, 0x00, 0x00, 0x00, 0x30, 0x00, 0x00, 0x00, 0x26, 0x00, 0x00, 0x00, 0x00, 0x00, 0x00, 0x09, 0x44, 0x00, 0x00, 0x00, 0x4c, 0xef, 0xff, 0xff, 0x08, 0x00, 0x00, 0x00, 0x10, 0x00, 0x00, 0x00, 0x01, 0x00, 0x00, 0x00, 0x80, 0xff, 0xff, 0xff, 0xff, 0xff, 0xff, 0xff, 0x01, 0x00, 0x00, 0x00, 0xdc, 0x2c, 0x5a, 0x3b, 0x19, 0x00, 0x00, 0x00, 0x53, 0x74, 0x61, 0x74, 0x65, 0x66, 0x75, 0x6c, 0x50, 0x61, 0x72, 0x74, 0x69, 0x74, 0x69, 0x6f, 0x6e, 0x65, 0x64, 0x43, 0x61, 0x6c, 0x6c, 0x3a, 0x30, 0x00, 0x00, 0x00, 0x02, 0x00, 0x00, 0x00, 0x04, 0x00, 0x00, 0x00, 0x01, 0x00, 0x00, 0x00, 0xca, 0xef, 0xff, 0xff, 0x00, 0x00, 0x00, 0x01, 0x14, 0x00, 0x00, 0x00, 0x30, 0x00, 0x00, 0x00, 0x25, 0x00, 0x00, 0x00, 0x00, 0x00, 0x00, 0x09, 0x3c, 0x00, 0x00, 0x00, 0xb4, 0xef, 0xff, 0xff, 0x08, 0x00, 0x00, 0x00, 0x10, 0x00, 0x00, 0x00, 0x01, 0x00, 0x00, 0x00, 0xee, 0xff, 0xff, 0xff, 0xff, 0xff, 0xff, 0xff, 0x01, 0x00, 0x00, 0x00, 0xad, 0x7d, 0x36, 0x3b, 0x11, 0x00, 0x00, 0x00, 0x74, 0x66, 0x6c, 0x2e, 0x73, 0x74, 0x72, 0x69, 0x64, 0x65, 0x64, 0x5f, 0x73, 0x6c, 0x69, 0x63, 0x65, 0x00, 0x00, 0x00, 0x02, 0x00, 0x00, 0x00, 0x04, 0x00, 0x00, 0x00, 0x0a, 0x00, 0x00, 0x00, 0x2a, 0xf0, 0xff, 0xff, 0x00, 0x00, 0x00, 0x01, 0x14, 0x00, 0x00, 0x00, 0x30, 0x00, 0x00, 0x00, 0x24, 0x00, 0x00, 0x00, 0x00, 0x00, 0x00, 0x09, 0x4c, 0x00, 0x00, 0x00, 0x14, 0xf0, 0xff, 0xff, 0x08, 0x00, 0x00, 0x00, 0x10, 0x00, 0x00, 0x00, 0x01, 0x00, 0x00, 0x00, 0xee, 0xff, 0xff, 0xff, 0xff, 0xff, 0xff, 0xff, 0x01, 0x00, 0x00, 0x00, 0xad, 0x7d, 0x36, 0x3b, 0x21, 0x00, 0x00, 0x00, 0x74, 0x66, 0x6c, 0x2e, 0x75, 0x6e, 0x69, 0x64, 0x69, 0x72, 0x65, 0x63, 0x74, 0x69, 0x6f, 0x6e, 0x61, 0x6c, 0x5f, 0x73, 0x65, 0x71, 0x75, 0x65, 0x6e, 0x63, 0x65, 0x5f, 0x6c, 0x73, 0x74, 0x6d, 0x31, 0x00, 0x00, 0x00, 0x03, 0x00, 0x00, 0x00, 0x04, 0x00, 0x00, 0x00, 0x05, 0x00, 0x00, 0x00, 0x0a, 0x00, 0x00, 0x00, 0x76, 0xfd, 0xff, 0xff, 0x00, 0x00, 0x00, 0x01, 0x10, 0x00, 0x00, 0x00, 0x2c, 0x00, 0x00, 0x00, 0x00, 0x00, 0x00, 0x09, 0x50, 0x00, 0x00, 0x00, 0x84, 0xf0, 0xff, 0xff, 0x08, 0x00, 0x00, 0x00, 0x10, 0x00, 0x00, 0x00, 0x01, 0x00, 0x00, 0x00, 0xee, 0xff, 0xff, 0xff, 0xff, 0xff, 0xff, 0xff, 0x01, 0x00, 0x00, 0x00, 0xad, 0x7d, 0x36, 0x3b, 0x24, 0x00, 0x00, 0x00, 0x65, 0x66, 0x66, 0x65, 0x63, 0x74, 0x69, 0x76, 0x65, 0x5f, 0x68, 0x69, 0x64, 0x64, 0x65, 0x6e, 0x5f, 0x73, 0x63, 0x61, 0x6c, 0x65, 0x5f, 0x69, 0x6e, 0x74, 0x65, 0x72, 0x6d, 0x65, 0x64, 0x69, 0x61, 0x74, 0x65, 0x31, 0x00, 0x00, 0x00, 0x00, 0x01, 0x00, 0x00, 0x00, 0x00, 0x00, 0x00, 0x00, 0xb2, 0xfc, 0xff, 0xff, 0x00, 0x00, 0x00, 0x01, 0x08, 0x00, 0x00, 0x00, 0x28, 0x00, 0x00, 0x00, 0x1d, 0x00, 0x00, 0x00, 0x69, 0x6e, 0x70, 0x75, 0x74, 0x5f, 0x74, 0x6f, 0x5f, 0x6f, 0x75, 0x74, 0x70, 0x75, 0x74, 0x5f, 0x69, 0x6e, 0x74, 0x65, 0x72, 0x6d, 0x65, 0x64, 0x69, 0x61, 0x74, 0x65, 0x31, 0x00, 0x00, 0x00, 0x01, 0x00, 0x00, 0x00, 0x00, 0x00, 0x00, 0x00, 0xee, 0xfc, 0xff, 0xff, 0x00, 0x00, 0x00, 0x01, 0x08, 0x00, 0x00, 0x00, 0x24, 0x00, 0x00, 0x00, 0x1b, 0x00, 0x00, 0x00, 0x69, 0x6e, 0x70, 0x75, 0x74, 0x5f, 0x74, 0x6f, 0x5f, 0x63, 0x65, 0x6c, 0x6c, 0x5f, 0x69, 0x6e, 0x74, 0x65, 0x72, 0x6d, 0x65, 0x64, 0x69, 0x61, 0x74, 0x65, 0x31, 0x00, 0x01, 0x00, 0x00, 0x00, 0x00, 0x00, 0x00, 0x00, 0x26, 0xfd, 0xff, 0xff, 0x00, 0x00, 0x00, 0x01, 0x08, 0x00, 0x00, 0x00, 0x28, 0x00, 0x00, 0x00, 0x1d, 0x00, 0x00, 0x00, 0x69, 0x6e, 0x70, 0x75, 0x74, 0x5f, 0x74, 0x6f, 0x5f, 0x66, 0x6f, 0x72, 0x67, 0x65, 0x74, 0x5f, 0x69, 0x6e, 0x74, 0x65, 0x72, 0x6d, 0x65, 0x64, 0x69, 0x61, 0x74, 0x65, 0x31, 0x00, 0x00, 0x00, 0x01, 0x00, 0x00, 0x00, 0x00, 0x00, 0x00, 0x00, 0x62, 0xfd, 0xff, 0xff, 0x00, 0x00, 0x00, 0x01, 0x08, 0x00, 0x00, 0x00, 0x28, 0x00, 0x00, 0x00, 0x1c, 0x00, 0x00, 0x00, 0x69, 0x6e, 0x70, 0x75, 0x74, 0x5f, 0x74, 0x6f, 0x5f, 0x69, 0x6e, 0x70, 0x75, 0x74, 0x5f, 0x69, 0x6e, 0x74, 0x65, 0x72, 0x6d, 0x65, 0x64, 0x69, 0x61, 0x74, 0x65, 0x31, 0x00, 0x00, 0x00, 0x00, 0x01, 0x00, 0x00, 0x00, 0x00, 0x00, 0x00, 0x00, 0xee, 0xfc, 0xff, 0xff, 0x00, 0x00, 0x01, 0x01, 0x10, 0x00, 0x00, 0x00, 0x30, 0x00, 0x00, 0x00, 0x00, 0x00, 0x00, 0x07, 0x40, 0x00, 0x00, 0x00, 0xdc, 0xf1, 0xff, 0xff, 0x08, 0x00, 0x00, 0x00, 0x14, 0x00, 0x00, 0x00, 0x01, 0x00, 0x00, 0x00, 0x00, 0x00, 0x00, 0x00, 0x00, 0x00, 0x00, 0x00, 0x00, 0x00, 0x00, 0x00, 0x01, 0x00, 0x00, 0x00, 0x00, 0x00, 0x00, 0x38, 0x12, 0x00, 0x00, 0x00, 0x74, 0x66, 0x6c, 0x2e, 0x70, 0x73, 0x65, 0x75, 0x64, 0x6f, 0x5f, 0x71, 0x63, 0x6f, 0x6e, 0x73, 0x74, 0x33, 0x00, 0x00, 0x02, 0x00, 0x00, 0x00, 0x04, 0x00, 0x00, 0x00, 0x0a, 0x00, 0x00, 0x00, 0x4e, 0xfd, 0xff, 0xff, 0x00, 0x00, 0x01, 0x01, 0x10, 0x00, 0x00, 0x00, 0x2c, 0x00, 0x00, 0x00, 0x00, 0x00, 0x00, 0x09, 0x3c, 0x00, 0x00, 0x00, 0x3c, 0xf2, 0xff, 0xff, 0x08, 0x00, 0x00, 0x00, 0x10, 0x00, 0x00, 0x00, 0x01, 0x00, 0x00, 0x00, 0xee, 0xff, 0xff, 0xff, 0xff, 0xff, 0xff, 0xff, 0x01, 0x00, 0x00, 0x00, 0xad, 0x7d, 0x36, 0x3b, 0x12, 0x00, 0x00, 0x00, 0x74, 0x66, 0x6c, 0x2e, 0x70, 0x73, 0x65, 0x75, 0x64, 0x6f, 0x5f, 0x71, 0x63, 0x6f, 0x6e, 0x73, 0x74, 0x32, 0x00, 0x00, 0x02, 0x00, 0x00, 0x00, 0x04, 0x00, 0x00, 0x00, 0x0a, 0x00, 0x00, 0x00, 0xb2, 0xf2, 0xff, 0xff, 0x00, 0x00, 0x00, 0x01, 0x14, 0x00, 0x00, 0x00, 0x30, 0x00, 0x00, 0x00, 0x21, 0x00, 0x00, 0x00, 0x00, 0x00, 0x00, 0x09, 0x4c, 0x00, 0x00, 0x00, 0x9c, 0xf2, 0xff, 0xff, 0x08, 0x00, 0x00, 0x00, 0x10, 0x00, 0x00, 0x00, 0x01, 0x00, 0x00, 0x00, 0x03, 0x00, 0x00, 0x00, 0x00, 0x00, 0x00, 0x00, 0x01, 0x00, 0x00, 0x00, 0x88, 0x8c, 0x5b, 0x3b, 0x20, 0x00, 0x00, 0x00, 0x74, 0x66, 0x6c, 0x2e, 0x75, 0x6e, 0x69, 0x64, 0x69, 0x72, 0x65, 0x63, 0x74, 0x69, 0x6f, 0x6e, 0x61, 0x6c, 0x5f, 0x73, 0x65, 0x71, 0x75, 0x65, 0x6e, 0x63, 0x65, 0x5f, 0x6c, 0x73, 0x74, 0x6d, 0x00, 0x00, 0x00, 0x00, 0x03, 0x00, 0x00, 0x00, 0x04, 0x00, 0x00, 0x00, 0x05, 0x00, 0x00, 0x00, 0x0f, 0x00, 0x00, 0x00, 0x00, 0x00, 0x16, 0x00, 0x18, 0x00, 0x14, 0x00, 0x13, 0x00, 0x00, 0x00, 0x0c, 0x00, 0x08, 0x00, 0x00, 0x00, 0x00, 0x00, 0x00, 0x00, 0x07, 0x00, 0x16, 0x00, 0x00, 0x00, 0x00, 0x00, 0x00, 0x01, 0x10, 0x00, 0x00, 0x00, 0x2c, 0x00, 0x00, 0x00, 0x00, 0x00, 0x00, 0x09, 0x4c, 0x00, 0x00, 0x00, 0x24, 0xf3, 0xff, 0xff, 0x08, 0x00, 0x00, 0x00, 0x10, 0x00, 0x00, 0x00, 0x01, 0x00, 0x00, 0x00, 0x03, 0x00, 0x00, 0x00, 0x00, 0x00, 0x00, 0x00, 0x01, 0x00, 0x00, 0x00, 0x88, 0x8c, 0x5b, 0x3b, 0x23, 0x00, 0x00, 0x00, 0x65, 0x66, 0x66, 0x65, 0x63, 0x74, 0x69, 0x76, 0x65, 0x5f, 0x68, 0x69, 0x64, 0x64, 0x65, 0x6e, 0x5f, 0x73, 0x63, 0x61, 0x6c, 0x65, 0x5f, 0x69, 0x6e, 0x74, 0x65, 0x72, 0x6d, 0x65, 0x64, 0x69, 0x61, 0x74, 0x65, 0x00, 0x01, 0x00, 0x00, 0x00, 0x00, 0x00, 0x00, 0x00, 0x4e, 0xff, 0xff, 0xff, 0x00, 0x00, 0x00, 0x01, 0x08, 0x00, 0x00, 0x00, 0x28, 0x00, 0x00, 0x00, 0x1c, 0x00, 0x00, 0x00, 0x69, 0x6e, 0x70, 0x75, 0x74, 0x5f, 0x74, 0x6f, 0x5f, 0x6f, 0x75, 0x74, 0x70, 0x75, 0x74, 0x5f, 0x69, 0x6e, 0x74, 0x65, 0x72, 0x6d, 0x65, 0x64, 0x69, 0x61, 0x74, 0x65, 0x00, 0x00, 0x00, 0x00, 0x01, 0x00, 0x00, 0x00, 0x00, 0x00, 0x00, 0x00, 0x8a, 0xff, 0xff, 0xff, 0x00, 0x00, 0x00, 0x01, 0x08, 0x00, 0x00, 0x00, 0x24, 0x00, 0x00, 0x00, 0x1a, 0x00, 0x00, 0x00, 0x69, 0x6e, 0x70, 0x75, 0x74, 0x5f, 0x74, 0x6f, 0x5f, 0x63, 0x65, 0x6c, 0x6c, 0x5f, 0x69, 0x6e, 0x74, 0x65, 0x72, 0x6d, 0x65, 0x64, 0x69, 0x61, 0x74, 0x65, 0x00, 0x00, 0x01, 0x00, 0x00, 0x00, 0x00, 0x00, 0x00, 0x00, 0xc2, 0xff, 0xff, 0xff, 0x00, 0x00, 0x00, 0x01, 0x08, 0x00, 0x00, 0x00, 0x28, 0x00, 0x00, 0x00, 0x1c, 0x00, 0x00, 0x00, 0x69, 0x6e, 0x70, 0x75, 0x74, 0x5f, 0x74, 0x6f, 0x5f, 0x66, 0x6f, 0x72, 0x67, 0x65, 0x74, 0x5f, 0x69, 0x6e, 0x74, 0x65, 0x72, 0x6d, 0x65, 0x64, 0x69, 0x61, 0x74, 0x65, 0x00, 0x00, 0x00, 0x00, 0x01, 0x00, 0x00, 0x00, 0x00, 0x00, 0x00, 0x00, 0x00, 0x00, 0x16, 0x00, 0x10, 0x00, 0x0c, 0x00, 0x00, 0x00, 0x00, 0x00, 0x08, 0x00, 0x00, 0x00, 0x00, 0x00, 0x00, 0x00, 0x00, 0x00, 0x07, 0x00, 0x16, 0x00, 0x00, 0x00, 0x00, 0x00, 0x00, 0x01, 0x08, 0x00, 0x00, 0x00, 0x24, 0x00, 0x00, 0x00, 0x1b, 0x00, 0x00, 0x00, 0x69, 0x6e, 0x70, 0x75, 0x74, 0x5f, 0x74, 0x6f, 0x5f, 0x69, 0x6e, 0x70, 0x75, 0x74, 0x5f, 0x69, 0x6e, 0x74, 0x65, 0x72, 0x6d, 0x65, 0x64, 0x69, 0x61, 0x74, 0x65, 0x00, 0x01, 0x00, 0x00, 0x00, 0x00, 0x00, 0x00, 0x00, 0x9e, 0xff, 0xff, 0xff, 0x00, 0x00, 0x01, 0x01, 0x10, 0x00, 0x00, 0x00, 0x30, 0x00, 0x00, 0x00, 0x00, 0x00, 0x00, 0x07, 0x40, 0x00, 0x00, 0x00, 0x8c, 0xf4, 0xff, 0xff, 0x08, 0x00, 0x00, 0x00, 0x14, 0x00, 0x00, 0x00, 0x01, 0x00, 0x00, 0x00, 0x00, 0x00, 0x00, 0x00, 0x00, 0x00, 0x00, 0x00, 0x00, 0x00, 0x00, 0x00, 0x01, 0x00, 0x00, 0x00, 0x00, 0x00, 0x00, 0x38, 0x12, 0x00, 0x00, 0x00, 0x74, 0x66, 0x6c, 0x2e, 0x70, 0x73, 0x65, 0x75, 0x64, 0x6f, 0x5f, 0x71, 0x63, 0x6f, 0x6e, 0x73, 0x74, 0x31, 0x00, 0x00, 0x02, 0x00, 0x00, 0x00, 0x04, 0x00, 0x00, 0x00, 0x0f, 0x00, 0x00, 0x00, 0x00, 0x00, 0x16, 0x00, 0x18, 0x00, 0x14, 0x00, 0x13, 0x00, 0x00, 0x00, 0x0c, 0x00, 0x08, 0x00, 0x07, 0x00, 0x00, 0x00, 0x00, 0x00, 0x06, 0x00, 0x16, 0x00, 0x00, 0x00, 0x00, 0x00, 0x01, 0x01, 0x10, 0x00, 0x00, 0x00, 0x2c, 0x00, 0x00, 0x00, 0x00, 0x00, 0x00, 0x09, 0x3c, 0x00, 0x00, 0x00, 0x04, 0xf5, 0xff, 0xff, 0x08, 0x00, 0x00, 0x00, 0x10, 0x00, 0x00, 0x00, 0x01, 0x00, 0x00, 0x00, 0x03, 0x00, 0x00, 0x00, 0x00, 0x00, 0x00, 0x00, 0x01, 0x00, 0x00, 0x00, 0x88, 0x8c, 0x5b, 0x3b, 0x11, 0x00, 0x00, 0x00, 0x74, 0x66, 0x6c, 0x2e, 0x70, 0x73, 0x65, 0x75, 0x64, 0x6f, 0x5f, 0x71, 0x63, 0x6f, 0x6e, 0x73, 0x74, 0x00, 0x00, 0x00, 0x02, 0x00, 0x00, 0x00, 0x04, 0x00, 0x00, 0x00, 0x0f, 0x00, 0x00, 0x00, 0x7a, 0xf5, 0xff, 0xff, 0x00, 0x00, 0x00, 0x01, 0x14, 0x00, 0x00, 0x00, 0x34, 0x00, 0x00, 0x00, 0x1e, 0x00, 0x00, 0x00, 0x00, 0x00, 0x00, 0x09, 0x3c, 0x00, 0x00, 0x00, 0x64, 0xf5, 0xff, 0xff, 0x08, 0x00, 0x00, 0x00, 0x14, 0x00, 0x00, 0x00, 0x01, 0x00, 0x00, 0x00, 0x00, 0x00, 0x00, 0x00, 0x00, 0x00, 0x00, 0x00, 0x00, 0x00, 0x00, 0x00, 0x01, 0x00, 0x00, 0x00, 0x76, 0x69, 0x27, 0x3b, 0x0f, 0x00, 0x00, 0x00, 0x61, 0x72, 0x69, 0x74, 0x68, 0x2e, 0x63, 0x6f, 0x6e, 0x73, 0x74, 0x61, 0x6e, 0x74, 0x38, 0x00, 0x02, 0x00, 0x00, 0x00, 0x0f, 0x00, 0x00, 0x00, 0x01, 0x00, 0x00, 0x00, 0xda, 0xf5, 0xff, 0xff, 0x00, 0x00, 0x00, 0x01, 0x14, 0x00, 0x00, 0x00, 0x34, 0x00, 0x00, 0x00, 0x1d, 0x00, 0x00, 0x00, 0x00, 0x00, 0x00, 0x09, 0x3c, 0x00, 0x00, 0x00, 0xc4, 0xf5, 0xff, 0xff, 0x08, 0x00, 0x00, 0x00, 0x14, 0x00, 0x00, 0x00, 0x01, 0x00, 0x00, 0x00, 0x00, 0x00, 0x00, 0x00, 0x00, 0x00, 0x00, 0x00, 0x00, 0x00, 0x00, 0x00, 0x01, 0x00, 0x00, 0x00, 0x1a, 0x6c, 0x71, 0x3b, 0x0f, 0x00, 0x00, 0x00, 0x61, 0x72, 0x69, 0x74, 0x68, 0x2e, 0x63, 0x6f, 0x6e, 0x73, 0x74, 0x61, 0x6e, 0x74, 0x39, 0x00, 0x02, 0x00, 0x00, 0x00, 0x0f, 0x00, 0x00, 0x00, 0x01, 0x00, 0x00, 0x00, 0x3a, 0xf6, 0xff, 0xff, 0x00, 0x00, 0x00, 0x01, 0x14, 0x00, 0x00, 0x00, 0x30, 0x00, 0x00, 0x00, 0x1c, 0x00, 0x00, 0x00, 0x00, 0x00, 0x00, 0x09, 0x3c, 0x00, 0x00, 0x00, 0x24, 0xf6, 0xff, 0xff, 0x08, 0x00, 0x00, 0x00, 0x10, 0x00, 0x00, 0x00, 0x01, 0x00, 0x00, 0x00, 0x00, 0x00, 0x00, 0x00, 0x00, 0x00, 0x00, 0x00, 0x01, 0x00, 0x00, 0x00, 0xab, 0x40, 0x4f, 0x3b, 0x10, 0x00, 0x00, 0x00, 0x61, 0x72, 0x69, 0x74, 0x68, 0x2e, 0x63, 0x6f, 0x6e, 0x73, 0x74, 0x61, 0x6e, 0x74, 0x31, 0x30, 0x00, 0x00, 0x00, 0x00, 0x02, 0x00, 0x00, 0x00, 0x0f, 0x00, 0x00, 0x00, 0x01, 0x00, 0x00, 0x00, 0x9a, 0xf6, 0xff, 0xff, 0x00, 0x00, 0x00, 0x01, 0x14, 0x00, 0x00, 0x00, 0x30, 0x00, 0x00, 0x00, 0x1b, 0x00, 0x00, 0x00, 0x00, 0x00, 0x00, 0x09, 0x3c, 0x00, 0x00, 0x00, 0x84, 0xf6, 0xff, 0xff, 0x08, 0x00, 0x00, 0x00, 0x10, 0x00, 0x00, 0x00, 0x01, 0x00, 0x00, 0x00, 0x00, 0x00, 0x00, 0x00, 0x00, 0x00, 0x00, 0x00, 0x01, 0x00, 0x00, 0x00, 0xb7, 0x95, 0x1f, 0x3b, 0x10, 0x00, 0x00, 0x00, 0x61, 0x72, 0x69, 0x74, 0x68, 0x2e, 0x63, 0x6f, 0x6e, 0x73, 0x74, 0x61, 0x6e, 0x74, 0x31, 0x31, 0x00, 0x00, 0x00, 0x00, 0x02, 0x00, 0x00, 0x00, 0x0f, 0x00, 0x00, 0x00, 0x01, 0x00, 0x00, 0x00, 0xfa, 0xf6, 0xff, 0xff, 0x00, 0x00, 0x00, 0x01, 0x14, 0x00, 0x00, 0x00, 0x34, 0x00, 0x00, 0x00, 0x1a, 0x00, 0x00, 0x00, 0x00, 0x00, 0x00, 0x09, 0x3c, 0x00, 0x00, 0x00, 0xe4, 0xf6, 0xff, 0xff, 0x08, 0x00, 0x00, 0x00, 0x14, 0x00, 0x00, 0x00, 0x01, 0x00, 0x00, 0x00, 0x00, 0x00, 0x00, 0x00, 0x00, 0x00, 0x00, 0x00, 0x00, 0x00, 0x00, 0x00, 0x01, 0x00, 0x00, 0x00, 0x68, 0xe8, 0x23, 0x3c, 0x0e, 0x00, 0x00, 0x00, 0x61, 0x72, 0x69, 0x74, 0x68, 0x2e, 0x63, 0x6f, 0x6e, 0x73, 0x74, 0x61, 0x6e, 0x74, 0x00, 0x00, 0x02, 0x00, 0x00, 0x00, 0x0f, 0x00, 0x00, 0x00, 0x0f, 0x00, 0x00, 0x00, 0x5a, 0xf7, 0xff, 0xff, 0x00, 0x00, 0x00, 0x01, 0x14, 0x00, 0x00, 0x00, 0x34, 0x00, 0x00, 0x00, 0x19, 0x00, 0x00, 0x00, 0x00, 0x00, 0x00, 0x09, 0x3c, 0x00, 0x00, 0x00, 0x44, 0xf7, 0xff, 0xff, 0x08, 0x00, 0x00, 0x00, 0x14, 0x00, 0x00, 0x00, 0x01, 0x00, 0x00, 0x00, 0x00, 0x00, 0x00, 0x00, 0x00, 0x00, 0x00, 0x00, 0x00, 0x00, 0x00, 0x00, 0x01, 0x00, 0x00, 0x00, 0xb3, 0x2a, 0x85, 0x3b, 0x0f, 0x00, 0x00, 0x00, 0x61, 0x72, 0x69, 0x74, 0x68, 0x2e, 0x63, 0x6f, 0x6e, 0x73, 0x74, 0x61, 0x6e, 0x74, 0x31, 0x00, 0x02, 0x00, 0x00, 0x00, 0x0f, 0x00, 0x00, 0x00, 0x0f, 0x00, 0x00, 0x00, 0xba, 0xf7, 0xff, 0xff, 0x00, 0x00, 0x00, 0x01, 0x14, 0x00, 0x00, 0x00, 0x34, 0x00, 0x00, 0x00, 0x18, 0x00, 0x00, 0x00, 0x00, 0x00, 0x00, 0x09, 0x3c, 0x00, 0x00, 0x00, 0xa4, 0xf7, 0xff, 0xff, 0x08, 0x00, 0x00, 0x00, 0x14, 0x00, 0x00, 0x00, 0x01, 0x00, 0x00, 0x00, 0x00, 0x00, 0x00, 0x00, 0x00, 0x00, 0x00, 0x00, 0x00, 0x00, 0x00, 0x00, 0x01, 0x00, 0x00, 0x00, 0xe6, 0x04, 0x4e, 0x3b, 0x0f, 0x00, 0x00, 0x00, 0x61, 0x72, 0x69, 0x74, 0x68, 0x2e, 0x63, 0x6f, 0x6e, 0x73, 0x74, 0x61, 0x6e, 0x74, 0x32, 0x00, 0x02, 0x00, 0x00, 0x00, 0x0f, 0x00, 0x00, 0x00, 0x0f, 0x00, 0x00, 0x00, 0x1a, 0xf8, 0xff, 0xff, 0x00, 0x00, 0x00, 0x01, 0x14, 0x00, 0x00, 0x00, 0x34, 0x00, 0x00, 0x00, 0x17, 0x00, 0x00, 0x00, 0x00, 0x00, 0x00, 0x09, 0x3c, 0x00, 0x00, 0x00, 0x04, 0xf8, 0xff, 0xff, 0x08, 0x00, 0x00, 0x00, 0x14, 0x00, 0x00, 0x00, 0x01, 0x00, 0x00, 0x00, 0x00, 0x00, 0x00, 0x00, 0x00, 0x00, 0x00, 0x00, 0x00, 0x00, 0x00, 0x00, 0x01, 0x00, 0x00, 0x00, 0xfc, 0xaf, 0x2b, 0x3c, 0x0f, 0x00, 0x00, 0x00, 0x61, 0x72, 0x69, 0x74, 0x68, 0x2e, 0x63, 0x6f, 0x6e, 0x73, 0x74, 0x61, 0x6e, 0x74, 0x33, 0x00, 0x02, 0x00, 0x00, 0x00, 0x0f, 0x00, 0x00, 0x00, 0x0f, 0x00, 0x00, 0x00, 0x7a, 0xf8, 0xff, 0xff, 0x00, 0x00, 0x00, 0x01, 0x14, 0x00, 0x00, 0x00, 0x30, 0x00, 0x00, 0x00, 0x16, 0x00, 0x00, 0x00, 0x00, 0x00, 0x00, 0x09, 0x3c, 0x00, 0x00, 0x00, 0x64, 0xf8, 0xff, 0xff, 0x08, 0x00, 0x00, 0x00, 0x10, 0x00, 0x00, 0x00, 0x01, 0x00, 0x00, 0x00, 0x00, 0x00, 0x00, 0x00, 0x00, 0x00, 0x00, 0x00, 0x01, 0x00, 0x00, 0x00, 0x67, 0x78, 0xdc, 0x3b, 0x10, 0x00, 0x00, 0x00, 0x61, 0x72, 0x69, 0x74, 0x68, 0x2e, 0x63, 0x6f, 0x6e, 0x73, 0x74, 0x61, 0x6e, 0x74, 0x32, 0x30, 0x00, 0x00, 0x00, 0x00, 0x02, 0x00, 0x00, 0x00, 0x0a, 0x00, 0x00, 0x00, 0x0f, 0x00, 0x00, 0x00, 0xda, 0xf8, 0xff, 0xff, 0x00, 0x00, 0x00, 0x01, 0x14, 0x00, 0x00, 0x00, 0x30, 0x00, 0x00, 0x00, 0x15, 0x00, 0x00, 0x00, 0x00, 0x00, 0x00, 0x09, 0x3c, 0x00, 0x00, 0x00, 0xc4, 0xf8, 0xff, 0xff, 0x08, 0x00, 0x00, 0x00, 0x10, 0x00, 0x00, 0x00, 0x01, 0x00, 0x00, 0x00, 0x00, 0x00, 0x00, 0x00, 0x00, 0x00, 0x00, 0x00, 0x01, 0x00, 0x00, 0x00, 0x15, 0x09, 0x0c, 0x3c, 0x10, 0x00, 0x00, 0x00, 0x61, 0x72, 0x69, 0x74, 0x68, 0x2e, 0x63, 0x6f, 0x6e, 0x73, 0x74, 0x61, 0x6e, 0x74, 0x32, 0x31, 0x00, 0x00, 0x00, 0x00, 0x02, 0x00, 0x00, 0x00, 0x0a, 0x00, 0x00, 0x00, 0x0f, 0x00, 0x00, 0x00, 0x3a, 0xf9, 0xff, 0xff, 0x00, 0x00, 0x00, 0x01, 0x14, 0x00, 0x00, 0x00, 0x30, 0x00, 0x00, 0x00, 0x14, 0x00, 0x00, 0x00, 0x00, 0x00, 0x00, 0x09, 0x3c, 0x00, 0x00, 0x00, 0x24, 0xf9, 0xff, 0xff, 0x08, 0x00, 0x00, 0x00, 0x10, 0x00, 0x00, 0x00, 0x01, 0x00, 0x00, 0x00, 0x00, 0x00, 0x00, 0x00, 0x00, 0x00, 0x00, 0x00, 0x01, 0x00, 0x00, 0x00, 0x9a, 0x66, 0xa2, 0x3b, 0x10, 0x00, 0x00, 0x00, 0x61, 0x72, 0x69, 0x74, 0x68, 0x2e, 0x63, 0x6f, 0x6e, 0x73, 0x74, 0x61, 0x6e, 0x74, 0x32, 0x32, 0x00, 0x00, 0x00, 0x00, 0x02, 0x00, 0x00, 0x00, 0x0a, 0x00, 0x00, 0x00, 0x0f, 0x00, 0x00, 0x00, 0x9a, 0xf9, 0xff, 0xff, 0x00, 0x00, 0x00, 0x01, 0x14, 0x00, 0x00, 0x00, 0x30, 0x00, 0x00, 0x00, 0x13, 0x00, 0x00, 0x00, 0x00, 0x00, 0x00, 0x09, 0x3c, 0x00, 0x00, 0x00, 0x84, 0xf9, 0xff, 0xff, 0x08, 0x00, 0x00, 0x00, 0x10, 0x00, 0x00, 0x00, 0x01, 0x00, 0x00, 0x00, 0x00, 0x00, 0x00, 0x00, 0x00, 0x00, 0x00, 0x00, 0x01, 0x00, 0x00, 0x00, 0x60, 0xa2, 0x2f, 0x3c, 0x10, 0x00, 0x00, 0x00, 0x61, 0x72, 0x69, 0x74, 0x68, 0x2e, 0x63, 0x6f, 0x6e, 0x73, 0x74, 0x61, 0x6e, 0x74, 0x32, 0x33, 0x00, 0x00, 0x00, 0x00, 0x02, 0x00, 0x00, 0x00, 0x0a, 0x00, 0x00, 0x00, 0x0f, 0x00, 0x00, 0x00, 0xfa, 0xf9, 0xff, 0xff, 0x00, 0x00, 0x00, 0x01, 0x14, 0x00, 0x00, 0x00, 0x30, 0x00, 0x00, 0x00, 0x12, 0x00, 0x00, 0x00, 0x00, 0x00, 0x00, 0x09, 0x3c, 0x00, 0x00, 0x00, 0xe4, 0xf9, 0xff, 0xff, 0x08, 0x00, 0x00, 0x00, 0x10, 0x00, 0x00, 0x00, 0x01, 0x00, 0x00, 0x00, 0x00, 0x00, 0x00, 0x00, 0x00, 0x00, 0x00, 0x00, 0x01, 0x00, 0x00, 0x00, 0x35, 0x46, 0x67, 0x3b, 0x10, 0x00, 0x00, 0x00, 0x61, 0x72, 0x69, 0x74, 0x68, 0x2e, 0x63, 0x6f, 0x6e, 0x73, 0x74, 0x61, 0x6e, 0x74, 0x31, 0x32, 0x00, 0x00, 0x00, 0x00, 0x02, 0x00, 0x00, 0x00, 0x0a, 0x00, 0x00, 0x00, 0x0a, 0x00, 0x00, 0x00, 0x5a, 0xfa, 0xff, 0xff, 0x00, 0x00, 0x00, 0x01, 0x14, 0x00, 0x00, 0x00, 0x30, 0x00, 0x00, 0x00, 0x11, 0x00, 0x00, 0x00, 0x00, 0x00, 0x00, 0x09, 0x3c, 0x00, 0x00, 0x00, 0x44, 0xfa, 0xff, 0xff, 0x08, 0x00, 0x00, 0x00, 0x10, 0x00, 0x00, 0x00, 0x01, 0x00, 0x00, 0x00, 0x00, 0x00, 0x00, 0x00, 0x00, 0x00, 0x00, 0x00, 0x01, 0x00, 0x00, 0x00, 0x65, 0xa6, 0x97, 0x3b, 0x10, 0x00, 0x00, 0x00, 0x61, 0x72, 0x69, 0x74, 0x68, 0x2e, 0x63, 0x6f, 0x6e, 0x73, 0x74, 0x61, 0x6e, 0x74, 0x31, 0x33, 0x00, 0x00, 0x00, 0x00, 0x02, 0x00, 0x00, 0x00, 0x0a, 0x00, 0x00, 0x00, 0x0a, 0x00, 0x00, 0x00, 0xba, 0xfa, 0xff, 0xff, 0x00, 0x00, 0x00, 0x01, 0x14, 0x00, 0x00, 0x00, 0x30, 0x00, 0x00, 0x00, 0x10, 0x00, 0x00, 0x00, 0x00, 0x00, 0x00, 0x09, 0x3c, 0x00, 0x00, 0x00, 0xa4, 0xfa, 0xff, 0xff, 0x08, 0x00, 0x00, 0x00, 0x10, 0x00, 0x00, 0x00, 0x01, 0x00, 0x00, 0x00, 0x00, 0x00, 0x00, 0x00, 0x00, 0x00, 0x00, 0x00, 0x01, 0x00, 0x00, 0x00, 0xce, 0x52, 0x7a, 0x3b, 0x10, 0x00, 0x00, 0x00, 0x61, 0x72, 0x69, 0x74, 0x68, 0x2e, 0x63, 0x6f, 0x6e, 0x73, 0x74, 0x61, 0x6e, 0x74, 0x31, 0x34, 0x00, 0x00, 0x00, 0x00, 0x02, 0x00, 0x00, 0x00, 0x0a, 0x00, 0x00, 0x00, 0x0a, 0x00, 0x00, 0x00, 0x1a, 0xfb, 0xff, 0xff, 0x00, 0x00, 0x00, 0x01, 0x14, 0x00, 0x00, 0x00, 0x30, 0x00, 0x00, 0x00, 0x0f, 0x00, 0x00, 0x00, 0x00, 0x00, 0x00, 0x09, 0x3c, 0x00, 0x00, 0x00, 0x04, 0xfb, 0xff, 0xff, 0x08, 0x00, 0x00, 0x00, 0x10, 0x00, 0x00, 0x00, 0x01, 0x00, 0x00, 0x00, 0x00, 0x00, 0x00, 0x00, 0x00, 0x00, 0x00, 0x00, 0x01, 0x00, 0x00, 0x00, 0x0d, 0x3e, 0x4f, 0x3b, 0x10, 0x00, 0x00, 0x00, 0x61, 0x72, 0x69, 0x74, 0x68, 0x2e, 0x63, 0x6f, 0x6e, 0x73, 0x74, 0x61, 0x6e, 0x74, 0x31, 0x35, 0x00, 0x00, 0x00, 0x00, 0x02, 0x00, 0x00, 0x00, 0x0a, 0x00, 0x00, 0x00, 0x0a, 0x00, 0x00, 0x00, 0x7a, 0xfb, 0xff, 0xff, 0x00, 0x00, 0x00, 0x01, 0x14, 0x00, 0x00, 0x00, 0x34, 0x00, 0x00, 0x00, 0x0e, 0x00, 0x00, 0x00, 0x00, 0x00, 0x00, 0x02, 0x40, 0x00, 0x00, 0x00, 0x64, 0xfb, 0xff, 0xff, 0x08, 0x00, 0x00, 0x00, 0x14, 0x00, 0x00, 0x00, 0x01, 0x00, 0x00, 0x00, 0x00, 0x00, 0x00, 0x00, 0x00, 0x00, 0x00, 0x00, 0x00, 0x00, 0x00, 0x00, 0x01, 0x00, 0x00, 0x00, 0x07, 0x14, 0xbd, 0x37, 0x10, 0x00, 0x00, 0x00, 0x61, 0x72, 0x69, 0x74, 0x68, 0x2e, 0x63, 0x6f, 0x6e, 0x73, 0x74, 0x61, 0x6e, 0x74, 0x31, 0x36, 0x00, 0x00, 0x00, 0x00, 0x01, 0x00, 0x00, 0x00, 0x0a, 0x00, 0x00, 0x00, 0xda, 0xfb, 0xff, 0xff, 0x00, 0x00, 0x00, 0x01, 0x14, 0x00, 0x00, 0x00, 0x34, 0x00, 0x00, 0x00, 0x0d, 0x00, 0x00, 0x00, 0x00, 0x00, 0x00, 0x02, 0x40, 0x00, 0x00, 0x00, 0xc4, 0xfb, 0xff, 0xff, 0x08, 0x00, 0x00, 0x00, 0x14, 0x00, 0x00, 0x00, 0x01, 0x00, 0x00, 0x00, 0x00, 0x00, 0x00, 0x00, 0x00, 0x00, 0x00, 0x00, 0x00, 0x00, 0x00, 0x00, 0x01, 0x00, 0x00, 0x00, 0x49, 0x31, 0xf0, 0x37, 0x10, 0x00, 0x00, 0x00, 0x61, 0x72, 0x69, 0x74, 0x68, 0x2e, 0x63, 0x6f, 0x6e, 0x73, 0x74, 0x61, 0x6e, 0x74, 0x31, 0x37, 0x00, 0x00, 0x00, 0x00, 0x01, 0x00, 0x00, 0x00, 0x0a, 0x00, 0x00, 0x00, 0x3a, 0xfc, 0xff, 0xff, 0x00, 0x00, 0x00, 0x01, 0x14, 0x00, 0x00, 0x00, 0x34, 0x00, 0x00, 0x00, 0x0c, 0x00, 0x00, 0x00, 0x00, 0x00, 0x00, 0x02, 0x40, 0x00, 0x00, 0x00, 0x24, 0xfc, 0xff, 0xff, 0x08, 0x00, 0x00, 0x00, 0x14, 0x00, 0x00, 0x00, 0x01, 0x00, 0x00, 0x00, 0x00, 0x00, 0x00, 0x00, 0x00, 0x00, 0x00, 0x00, 0x00, 0x00, 0x00, 0x00, 0x01, 0x00, 0x00, 0x00, 0xec, 0x46, 0x8b, 0x37, 0x10, 0x00, 0x00, 0x00, 0x61, 0x72, 0x69, 0x74, 0x68, 0x2e, 0x63, 0x6f, 0x6e, 0x73, 0x74, 0x61, 0x6e, 0x74, 0x31, 0x38, 0x00, 0x00, 0x00, 0x00, 0x01, 0x00, 0x00, 0x00, 0x0a, 0x00, 0x00, 0x00, 0x9a, 0xfc, 0xff, 0xff, 0x00, 0x00, 0x00, 0x01, 0x14, 0x00, 0x00, 0x00, 0x34, 0x00, 0x00, 0x00, 0x0b, 0x00, 0x00, 0x00, 0x00, 0x00, 0x00, 0x02, 0x40, 0x00, 0x00, 0x00, 0x84, 0xfc, 0xff, 0xff, 0x08, 0x00, 0x00, 0x00, 0x14, 0x00, 0x00, 0x00, 0x01, 0x00, 0x00, 0x00, 0x00, 0x00, 0x00, 0x00, 0x00, 0x00, 0x00, 0x00, 0x00, 0x00, 0x00, 0x00, 0x01, 0x00, 0x00, 0x00, 0x52, 0xa0, 0x16, 0x38, 0x10, 0x00, 0x00, 0x00, 0x61, 0x72, 0x69, 0x74, 0x68, 0x2e, 0x63, 0x6f, 0x6e, 0x73, 0x74, 0x61, 0x6e, 0x74, 0x31, 0x39, 0x00, 0x00, 0x00, 0x00, 0x01, 0x00, 0x00, 0x00, 0x0a, 0x00, 0x00, 0x00, 0xfa, 0xfc, 0xff, 0xff, 0x00, 0x00, 0x00, 0x01, 0x14, 0x00, 0x00, 0x00, 0x30, 0x00, 0x00, 0x00, 0x0a, 0x00, 0x00, 0x00, 0x00, 0x00, 0x00, 0x09, 0x44, 0x00, 0x00, 0x00, 0xe4, 0xfc, 0xff, 0xff, 0x08, 0x00, 0x00, 0x00, 0x10, 0x00, 0x00, 0x00, 0x01, 0x00, 0x00, 0x00, 0x00, 0x00, 0x00, 0x00, 0x00, 0x00, 0x00, 0x00, 0x01, 0x00, 0x00, 0x00, 0x6a, 0xea, 0xbc, 0x3b, 0x1b, 0x00, 0x00, 0x00, 0x73, 0x65, 0x71, 0x75, 0x65, 0x6e, 0x74, 0x69, 0x61, 0x6c, 0x5f, 0x32, 0x2f, 0x64, 0x65, 0x6e, 0x73, 0x65, 0x5f, 0x32, 0x2f, 0x4d, 0x61, 0x74, 0x4d, 0x75, 0x6c, 0x00, 0x02, 0x00, 0x00, 0x00, 0x01, 0x00, 0x00, 0x00, 0x0a, 0x00, 0x00, 0x00, 0x62, 0xfd, 0xff, 0xff, 0x00, 0x00, 0x00, 0x01, 0x14, 0x00, 0x00, 0x00, 0x34, 0x00, 0x00, 0x00, 0x09, 0x00, 0x00, 0x00, 0x00, 0x00, 0x00, 0x02, 0x58, 0x00, 0x00, 0x00, 0x4c, 0xfd, 0xff, 0xff, 0x08, 0x00, 0x00, 0x00, 0x14, 0x00, 0x00, 0x00, 0x01, 0x00, 0x00, 0x00, 0x00, 0x00, 0x00, 0x00, 0x00, 0x00, 0x00, 0x00, 0x00, 0x00, 0x00, 0x00, 0x01, 0x00, 0x00, 0x00, 0x65, 0xab, 0x86, 0x37, 0x2b, 0x00, 0x00, 0x00, 0x73, 0x65, 0x71, 0x75, 0x65, 0x6e, 0x74, 0x69, 0x61, 0x6c, 0x5f, 0x32, 0x2f, 0x64, 0x65, 0x6e, 0x73, 0x65, 0x5f, 0x32, 0x2f, 0x42, 0x69, 0x61, 0x73, 0x41, 0x64, 0x64, 0x2f, 0x52, 0x65, 0x61, 0x64, 0x56, 0x61, 0x72, 0x69, 0x61, 0x62, 0x6c, 0x65, 0x4f, 0x70, 0x00, 0x01, 0x00, 0x00, 0x00, 0x01, 0x00, 0x00, 0x00, 0xda, 0xfd, 0xff, 0xff, 0x00, 0x00, 0x00, 0x01, 0x14, 0x00, 0x00, 0x00, 0x30, 0x00, 0x00, 0x00, 0x08, 0x00, 0x00, 0x00, 0x00, 0x00, 0x00, 0x02, 0x38, 0x00, 0x00, 0x00, 0xc4, 0xfd, 0xff, 0xff, 0x08, 0x00, 0x00, 0x00, 0x10, 0x00, 0x00, 0x00, 0x01, 0x00, 0x00, 0x00, 0x00, 0x00, 0x00, 0x00, 0x00, 0x00, 0x00, 0x00, 0x01, 0x00, 0x00, 0x00, 0xc1, 0xb1, 0x17, 0x37, 0x0f, 0x00, 0x00, 0x00, 0x61, 0x72, 0x69, 0x74, 0x68, 0x2e, 0x63, 0x6f, 0x6e, 0x73, 0x74, 0x61, 0x6e, 0x74, 0x37, 0x00, 0x01, 0x00, 0x00, 0x00, 0x0f, 0x00, 0x00, 0x00, 0x32, 0xfe, 0xff, 0xff, 0x00, 0x00, 0x00, 0x01, 0x14, 0x00, 0x00, 0x00, 0x30, 0x00, 0x00, 0x00, 0x07, 0x00, 0x00, 0x00, 0x00, 0x00, 0x00, 0x02, 0x38, 0x00, 0x00, 0x00, 0x1c, 0xfe, 0xff, 0xff, 0x08, 0x00, 0x00, 0x00, 0x10, 0x00, 0x00, 0x00, 0x01, 0x00, 0x00, 0x00, 0x00, 0x00, 0x00, 0x00, 0x00, 0x00, 0x00, 0x00, 0x01, 0x00, 0x00, 0x00, 0x58, 0x01, 0x45, 0x37, 0x0f, 0x00, 0x00, 0x00, 0x61, 0x72, 0x69, 0x74, 0x68, 0x2e, 0x63, 0x6f, 0x6e, 0x73, 0x74, 0x61, 0x6e, 0x74, 0x36, 0x00, 0x01, 0x00, 0x00, 0x00, 0x0f, 0x00, 0x00, 0x00, 0x8a, 0xfe, 0xff, 0xff, 0x00, 0x00, 0x00, 0x01, 0x14, 0x00, 0x00, 0x00, 0x30, 0x00, 0x00, 0x00, 0x06, 0x00, 0x00, 0x00, 0x00, 0x00, 0x00, 0x02, 0x38, 0x00, 0x00, 0x00, 0x74, 0xfe, 0xff, 0xff, 0x08, 0x00, 0x00, 0x00, 0x10, 0x00, 0x00, 0x00, 0x01, 0x00, 0x00, 0x00, 0x00, 0x00, 0x00, 0x00, 0x00, 0x00, 0x00, 0x00, 0x01, 0x00, 0x00, 0x00, 0x46, 0x7c, 0x65, 0x37, 0x0f, 0x00, 0x00, 0x00, 0x61, 0x72, 0x69, 0x74, 0x68, 0x2e, 0x63, 0x6f, 0x6e, 0x73, 0x74, 0x61, 0x6e, 0x74, 0x35, 0x00, 0x01, 0x00, 0x00, 0x00, 0x0f, 0x00, 0x00, 0x00, 0xe2, 0xfe, 0xff, 0xff, 0x00, 0x00, 0x00, 0x01, 0x14, 0x00, 0x00, 0x00, 0x30, 0x00, 0x00, 0x00, 0x05, 0x00, 0x00, 0x00, 0x00, 0x00, 0x00, 0x02, 0x38, 0x00, 0x00, 0x00, 0xcc, 0xfe, 0xff, 0xff, 0x08, 0x00, 0x00, 0x00, 0x10, 0x00, 0x00, 0x00, 0x01, 0x00, 0x00, 0x00, 0x00, 0x00, 0x00, 0x00, 0x00, 0x00, 0x00, 0x00, 0x01, 0x00, 0x00, 0x00, 0x6d, 0x22, 0x1f, 0x37, 0x0f, 0x00, 0x00, 0x00, 0x61, 0x72, 0x69, 0x74, 0x68, 0x2e, 0x63, 0x6f, 0x6e, 0x73, 0x74, 0x61, 0x6e, 0x74, 0x34, 0x00, 0x01, 0x00, 0x00, 0x00, 0x0f, 0x00, 0x00, 0x00, 0x3a, 0xff, 0xff, 0xff, 0x00, 0x00, 0x00, 0x01, 0x14, 0x00, 0x00, 0x00, 0x14, 0x00, 0x00, 0x00, 0x04, 0x00, 0x00, 0x00, 0x00, 0x00, 0x00, 0x02, 0x20, 0x00, 0x00, 0x00, 0x80, 0xff, 0xff, 0xff, 0x10, 0x00, 0x00, 0x00, 0x61, 0x72, 0x69, 0x74, 0x68, 0x2e, 0x63, 0x6f, 0x6e, 0x73, 0x74, 0x61, 0x6e, 0x74, 0x32, 0x36, 0x00, 0x00, 0x00, 0x00, 0x01, 0x00, 0x00, 0x00, 0x03, 0x00, 0x00, 0x00, 0x7a, 0xff, 0xff, 0xff, 0x00, 0x00, 0x00, 0x01, 0x14, 0x00, 0x00, 0x00, 0x14, 0x00, 0x00, 0x00, 0x03, 0x00, 0x00, 0x00, 0x00, 0x00, 0x00, 0x02, 0x20, 0x00, 0x00, 0x00, 0xc0, 0xff, 0xff, 0xff, 0x10, 0x00, 0x00, 0x00, 0x61, 0x72, 0x69, 0x74, 0x68, 0x2e, 0x63, 0x6f, 0x6e, 0x73, 0x74, 0x61, 0x6e, 0x74, 0x32, 0x35, 0x00, 0x00, 0x00, 0x00, 0x01, 0x00, 0x00, 0x00, 0x03, 0x00, 0x00, 0x00, 0xba, 0xff, 0xff, 0xff, 0x00, 0x00, 0x00, 0x01, 0x18, 0x00, 0x00, 0x00, 0x18, 0x00, 0x00, 0x00, 0x02, 0x00, 0x00, 0x00, 0x00, 0x00, 0x00, 0x02, 0x24, 0x00, 0x00, 0x00, 0x04, 0x00, 0x04, 0x00, 0x04, 0x00, 0x00, 0x00, 0x10, 0x00, 0x00, 0x00, 0x61, 0x72, 0x69, 0x74, 0x68, 0x2e, 0x63, 0x6f, 0x6e, 0x73, 0x74, 0x61, 0x6e, 0x74, 0x32, 0x34, 0x00, 0x00, 0x00, 0x00, 0x01, 0x00, 0x00, 0x00, 0x03, 0x00, 0x00, 0x00, 0x00, 0x00, 0x16, 0x00, 0x1c, 0x00, 0x18, 0x00, 0x17, 0x00, 0x10, 0x00, 0x0c, 0x00, 0x08, 0x00, 0x00, 0x00, 0x00, 0x00, 0x00, 0x00, 0x07, 0x00, 0x16, 0x00, 0x00, 0x00, 0x00, 0x00, 0x00, 0x01, 0x20, 0x00, 0x00, 0x00, 0x40, 0x00, 0x00, 0x00, 0x01, 0x00, 0x00, 0x00, 0x00, 0x00, 0x00, 0x09, 0x4c, 0x00, 0x00, 0x00, 0x0c, 0x00, 0x0c, 0x00, 0x00, 0x00, 0x00, 0x00, 0x08, 0x00, 0x04, 0x00, 0x0c, 0x00, 0x00, 0x00, 0x08, 0x00, 0x00, 0x00, 0x14, 0x00, 0x00, 0x00, 0x01, 0x00, 0x00, 0x00, 0x80, 0xff, 0xff, 0xff, 0xff, 0xff, 0xff, 0xff, 0x00, 0x00, 0x00, 0x00, 0x01, 0x00, 0x00, 0x00, 0xa7, 0x57, 0x73, 0x3b, 0x13, 0x00, 0x00, 0x00, 0x73, 0x65, 0x72, 0x76, 0x69, 0x6e, 0x67, 0x5f, 0x64, 0x65, 0x66, 0x61, 0x75, 0x6c, 0x74, 0x5f, 0x78, 0x3a, 0x30, 0x00, 0x03, 0x00, 0x00, 0x00, 0x04, 0x00, 0x00, 0x00, 0x05, 0x00, 0x00, 0x00, 0x01, 0x00, 0x00, 0x00, 0x03, 0x00, 0x00, 0x00, 0x44, 0x00, 0x00, 0x00, 0x24, 0x00, 0x00, 0x00, 0x04, 0x00, 0x00, 0x00, 0xf0, 0xff, 0xff, 0xff, 0x09, 0x00, 0x00, 0x00, 0x04, 0x00, 0x00, 0x00, 0x00, 0x00, 0x00, 0x09, 0x0c, 0x00, 0x10, 0x00, 0x0f, 0x00, 0x00, 0x00, 0x08, 0x00, 0x04, 0x00, 0x0c, 0x00, 0x00, 0x00, 0x2d, 0x00, 0x00, 0x00, 0x02, 0x00, 0x00, 0x00, 0x00, 0x00, 0x00, 0x2d, 0x0c, 0x00, 0x0c, 0x00, 0x0b, 0x00, 0x00, 0x00, 0x00, 0x00, 0x04, 0x00, 0x0c, 0x00, 0x00, 0x00, 0x2c, 0x00, 0x00, 0x00, 0x00, 0x00, 0x00, 0x2c};
const int model_data_len = 9048;
float x[5] = {0.2715297121634169, 0.32079851439182916, 0.2946262766945218, 0.2924791086350975, 0.26978876508820804};
const int input_size = 5;
const int output_size = 1;