
    // if having troubles with min/max, uncomment the following
    // #undef min    
    // #undef max
    #ifdef __has_attribute
    #define HAVE_ATTRIBUTE(x) __has_attribute(x)
    #else
    #define HAVE_ATTRIBUTE(x) 0
    #endif
    #if HAVE_ATTRIBUTE(aligned) || (defined(__GNUC__) && !defined(__clang__))
    #define DATA_ALIGN_ATTRIBUTE __attribute__((aligned(4)))
    #else
    #define DATA_ALIGN_ATTRIBUTE
    #endif
    const unsigned char model_data[] DATA_ALIGN_ATTRIBUTE = {0x1c, 0x00, 0x00, 0x00, 0x54, 0x46, 0x4c, 0x33, 0x14, 0x00, 0x20, 0x00, 0x1c, 0x00, 0x18, 0x00, 0x14, 0x00, 0x10, 0x00, 0x0c, 0x00, 0x00, 0x00, 0x08, 0x00, 0x04, 0x00, 0x14, 0x00, 0x00, 0x00, 0x1c, 0x00, 0x00, 0x00, 0x88, 0x00, 0x00, 0x00, 0xe0, 0x00, 0x00, 0x00, 0x58, 0x0e, 0x00, 0x00, 0x68, 0x0e, 0x00, 0x00, 0x58, 0x1c, 0x00, 0x00, 0x03, 0x00, 0x00, 0x00, 0x01, 0x00, 0x00, 0x00, 0x04, 0x00, 0x00, 0x00, 0xba, 0xf0, 0xff, 0xff, 0x0c, 0x00, 0x00, 0x00, 0x1c, 0x00, 0x00, 0x00, 0x38, 0x00, 0x00, 0x00, 0x0f, 0x00, 0x00, 0x00, 0x73, 0x65, 0x72, 0x76, 0x69, 0x6e, 0x67, 0x5f, 0x64, 0x65, 0x66, 0x61, 0x75, 0x6c, 0x74, 0x00, 0x01, 0x00, 0x00, 0x00, 0x04, 0x00, 0x00, 0x00, 0x94, 0xff, 0xff, 0xff, 0x10, 0x00, 0x00, 0x00, 0x04, 0x00, 0x00, 0x00, 0x07, 0x00, 0x00, 0x00, 0x64, 0x65, 0x6e, 0x73, 0x65, 0x5f, 0x35, 0x00, 0x01, 0x00, 0x00, 0x00, 0x04, 0x00, 0x00, 0x00, 0x2e, 0xf2, 0xff, 0xff, 0x04, 0x00, 0x00, 0x00, 0x0e, 0x00, 0x00, 0x00, 0x63, 0x6f, 0x6e, 0x76, 0x32, 0x64, 0x5f, 0x32, 0x5f, 0x69, 0x6e, 0x70, 0x75, 0x74, 0x00, 0x00, 0x02, 0x00, 0x00, 0x00, 0x34, 0x00, 0x00, 0x00, 0x04, 0x00, 0x00, 0x00, 0xdc, 0xff, 0xff, 0xff, 0x13, 0x00, 0x00, 0x00, 0x04, 0x00, 0x00, 0x00, 0x13, 0x00, 0x00, 0x00, 0x43, 0x4f, 0x4e, 0x56, 0x45, 0x52, 0x53, 0x49, 0x4f, 0x4e, 0x5f, 0x4d, 0x45, 0x54, 0x41, 0x44, 0x41, 0x54, 0x41, 0x00, 0x08, 0x00, 0x0c, 0x00, 0x08, 0x00, 0x04, 0x00, 0x08, 0x00, 0x00, 0x00, 0x12, 0x00, 0x00, 0x00, 0x04, 0x00, 0x00, 0x00, 0x13, 0x00, 0x00, 0x00, 0x6d, 0x69, 0x6e, 0x5f, 0x72, 0x75, 0x6e, 0x74, 0x69, 0x6d, 0x65, 0x5f, 0x76, 0x65, 0x72, 0x73, 0x69, 0x6f, 0x6e, 0x00, 0x14, 0x00, 0x00, 0x00, 0x74, 0x0d, 0x00, 0x00, 0x6c, 0x0d, 0x00, 0x00, 0x54, 0x0d, 0x00, 0x00, 0x38, 0x0d, 0x00, 0x00, 0x18, 0x0d, 0x00, 0x00, 0xc8, 0x0c, 0x00, 0x00, 0xb8, 0x03, 0x00, 0x00, 0x68, 0x03, 0x00, 0x00, 0x58, 0x01, 0x00, 0x00, 0x28, 0x01, 0x00, 0x00, 0xd0, 0x00, 0x00, 0x00, 0xc8, 0x00, 0x00, 0x00, 0xc0, 0x00, 0x00, 0x00, 0xb8, 0x00, 0x00, 0x00, 0xb0, 0x00, 0x00, 0x00, 0xa8, 0x00, 0x00, 0x00, 0xa0, 0x00, 0x00, 0x00, 0x98, 0x00, 0x00, 0x00, 0x78, 0x00, 0x00, 0x00, 0x04, 0x00, 0x00, 0x00, 0xfa, 0xf2, 0xff, 0xff, 0x04, 0x00, 0x00, 0x00, 0x64, 0x00, 0x00, 0x00, 0x0c, 0x00, 0x00, 0x00, 0x08, 0x00, 0x0e, 0x00, 0x08, 0x00, 0x04, 0x00, 0x08, 0x00, 0x00, 0x00, 0x10, 0x00, 0x00, 0x00, 0x28, 0x00, 0x00, 0x00, 0x00, 0x00, 0x06, 0x00, 0x08, 0x00, 0x04, 0x00, 0x06, 0x00, 0x00, 0x00, 0x04, 0x00, 0x00, 0x00, 0x01, 0x00, 0x00, 0x00, 0xeb, 0x03, 0x00, 0x00, 0x00, 0x00, 0x0a, 0x00, 0x10, 0x00, 0x0c, 0x00, 0x08, 0x00, 0x04, 0x00, 0x0a, 0x00, 0x00, 0x00, 0x02, 0x00, 0x00, 0x00, 0x02, 0x00, 0x00, 0x00, 0x04, 0x00, 0x00, 0x00, 0x12, 0x00, 0x00, 0x00, 0x32, 0x2e, 0x31, 0x34, 0x2e, 0x30, 0x2d, 0x64, 0x65, 0x76, 0x32, 0x30, 0x32, 0x33, 0x30, 0x35, 0x32, 0x35, 0x00, 0x00, 0x6a, 0xf3, 0xff, 0xff, 0x04, 0x00, 0x00, 0x00, 0x10, 0x00, 0x00, 0x00, 0x31, 0x2e, 0x31, 0x34, 0x2e, 0x30, 0x00, 0x00, 0x00, 0x00, 0x00, 0x00, 0x00, 0x00, 0x00, 0x00, 0x44, 0xe6, 0xff, 0xff, 0x48, 0xe6, 0xff, 0xff, 0x4c, 0xe6, 0xff, 0xff, 0x50, 0xe6, 0xff, 0xff, 0x54, 0xe6, 0xff, 0xff, 0x58, 0xe6, 0xff, 0xff, 0x5c, 0xe6, 0xff, 0xff, 0xa2, 0xf3, 0xff, 0xff, 0x04, 0x00, 0x00, 0x00, 0x48, 0x00, 0x00, 0x00, 0xfa, 0xea, 0xd6, 0xa7, 0x81, 0x94, 0xce, 0xb0, 0xe9, 0x7e, 0x7f, 0x04, 0x3a, 0x31, 0xe3, 0x19, 0x13, 0xe2, 0x0c, 0x16, 0x30, 0x96, 0x83, 0xc9, 0x86, 0x81, 0xc1, 0x9b, 0xdd, 0xc3, 0xc0, 0xa8, 0xe3, 0x81, 0x94, 0xaf, 0xf8, 0xfc, 0x11, 0xa2, 0x81, 0x9d, 0xa2, 0x92, 0xaf, 0x84, 0x9a, 0x81, 0x7e, 0x2b, 0x83, 0xad, 0x5a, 0xb4, 0x3c, 0x3d, 0xd9, 0x3e, 0x81, 0x9c, 0xc4, 0x9d, 0xd5, 0x0b, 0xf6, 0x0b, 0xa6, 0x81, 0xa4, 0xa5, 0xa7, 0x9b, 0xf6, 0xf3, 0xff, 0xff, 0x04, 0x00, 0x00, 0x00, 0x20, 0x00, 0x00, 0x00, 0x75, 0x5d, 0x01, 0x00, 0x8c, 0xd2, 0x01, 0x00, 0xc7, 0xbf, 0x00, 0x00, 0x00, 0x00, 0x00, 0x00, 0x0e, 0xdd, 0x00, 0x00, 0x00, 0x00, 0x00, 0x00, 0xf3, 0x34, 0xfd, 0xff, 0x7e, 0xd4, 0x00, 0x00, 0x22, 0xf4, 0xff, 0xff, 0x04, 0x00, 0x00, 0x00, 0x00, 0x02, 0x00, 0x00, 0xe2, 0x1a, 0x58, 0xdf, 0x48, 0x27, 0x71, 0x1b, 0x91, 0x02, 0x27, 0x5e, 0x8f, 0x7f, 0x7d, 0x8c, 0x3b, 0xaf, 0x94, 0xe8, 0x0c, 0x3a, 0xcf, 0xf5, 0x2e, 0xf1, 0xc8, 0x2d, 0x1b, 0xa0, 0x25, 0x66, 0x4b, 0x21, 0x87, 0xe2, 0x0d, 0x7d, 0x6b, 0x14, 0x6e, 0x4b, 0xf9, 0x91, 0xdb, 0x0e, 0x0e, 0x88, 0x45, 0xcc, 0xcf, 0x3a, 0x6f, 0xfc, 0x72, 0xd0, 0x81, 0x81, 0xb5, 0x90, 0xa6, 0x5b, 0x2f, 0x09, 0x2b, 0x13, 0x29, 0xf5, 0x11, 0x07, 0xf6, 0x28, 0x57, 0xee, 0x7f, 0x05, 0x4b, 0xf6, 0x09, 0x4b, 0xfe, 0x00, 0xc3, 0x09, 0xda, 0x00, 0x06, 0xe1, 0xfe, 0xee, 0xf4, 0xf4, 0x11, 0xff, 0xf8, 0xfa, 0xe2, 0xf2, 0xec, 0x01, 0xed, 0xf6, 0xf8, 0xf0, 0xd0, 0x0b, 0xcf, 0xfc, 0xd5, 0xf6, 0xf9, 0xd9, 0x2f, 0xee, 0x7f, 0xfd, 0x55, 0x0c, 0x0a, 0x44, 0x1d, 0x09, 0x3b, 0xff, 0x24, 0xfc, 0xf9, 0x18, 0x81, 0xd2, 0xa3, 0x65, 0x40, 0x73, 0xc7, 0xf5, 0x12, 0x9a, 0x07, 0x2f, 0xba, 0x9f, 0xe5, 0x6a, 0x95, 0x5e, 0xba, 0xb7, 0x88, 0xdc, 0x2e, 0xc1, 0xb3, 0xca, 0x03, 0x55, 0xb7, 0xa2, 0xa7, 0x8d, 0x81, 0x20, 0xe3, 0xf3, 0xce, 0x0a, 0xf9, 0xd3, 0xa9, 0x40, 0xcd, 0x02, 0xf3, 0xf0, 0xf1, 0x10, 0xbc, 0x0b, 0xcc, 0x06, 0xe1, 0x0f, 0xff, 0xd9, 0xcf, 0x13, 0xaf, 0xf1, 0xcc, 0xf5, 0xf4, 0xd1, 0x94, 0x44, 0x40, 0xaa, 0xb2, 0x77, 0x96, 0x81, 0x64, 0xae, 0x22, 0xff, 0xe7, 0x90, 0x4c, 0x19, 0xd0, 0x49, 0x59, 0xf5, 0x00, 0xdc, 0x43, 0x30, 0x40, 0xb7, 0xaf, 0x4d, 0x59, 0x26, 0xf1, 0xdb, 0x81, 0x37, 0x77, 0x2b, 0xcf, 0xa3, 0x63, 0xe1, 0xbc, 0xfe, 0xbe, 0x9b, 0x7d, 0xe5, 0x8e, 0xa2, 0x4d, 0xc0, 0x16, 0xa9, 0x95, 0x2c, 0x34, 0xde, 0x04, 0xf0, 0xa3, 0x98, 0xc5, 0xba, 0x48, 0xb1, 0x9a, 0x2c, 0xa2, 0xf9, 0xd8, 0x14, 0xea, 0xdd, 0xea, 0x24, 0xdf, 0xf0, 0x05, 0xfc, 0x03, 0xfc, 0x18, 0x0b, 0x52, 0xee, 0x50, 0x09, 0xf4, 0x53, 0x23, 0xea, 0x7f, 0x01, 0x48, 0x13, 0xee, 0x57, 0x41, 0xea, 0x7e, 0x13, 0x57, 0xef, 0x10, 0x63, 0x4a, 0x04, 0x7f, 0x0a, 0x48, 0xff, 0xeb, 0x33, 0x5d, 0xe4, 0x50, 0x05, 0x69, 0xf4, 0x00, 0x65, 0x4b, 0xd7, 0x74, 0xfe, 0x48, 0x07, 0x05, 0x41, 0x08, 0x89, 0x9e, 0x3f, 0x32, 0x86, 0x03, 0x7f, 0xa1, 0x85, 0xc1, 0x77, 0x4c, 0xec, 0x62, 0xdb, 0x72, 0xe0, 0x0a, 0x5f, 0x37, 0x67, 0x08, 0x9f, 0x82, 0x55, 0x93, 0xf2, 0xb9, 0x0a, 0x38, 0x91, 0x7f, 0xfa, 0x33, 0xf0, 0x56, 0xf6, 0xf1, 0x4d, 0x73, 0xce, 0x7b, 0x16, 0x45, 0xf4, 0x05, 0x1b, 0x5b, 0x12, 0x30, 0x13, 0x4a, 0x02, 0xfd, 0x3f, 0x1e, 0xe2, 0x51, 0x0f, 0x0c, 0x03, 0xf7, 0x1b, 0xf0, 0x15, 0x26, 0x07, 0x0f, 0x06, 0xf9, 0x0d, 0xc5, 0x48, 0xc1, 0xff, 0xd0, 0xff, 0xf6, 0xe6, 0xc6, 0x03, 0xb3, 0xf8, 0xc9, 0x05, 0xf8, 0xc8, 0xcc, 0x2e, 0x81, 0xf6, 0xa3, 0xf8, 0xf8, 0xaa, 0xc5, 0xb4, 0x25, 0x3c, 0x81, 0x32, 0x8e, 0xfa, 0x3b, 0x24, 0x1f, 0x61, 0x3d, 0xaa, 0x2d, 0xda, 0xcc, 0xb4, 0x35, 0x7a, 0xd5, 0x28, 0xe3, 0xcc, 0x38, 0xa6, 0x04, 0xce, 0x81, 0xee, 0x4e, 0xc2, 0x51, 0xc1, 0x81, 0xb5, 0xbd, 0x30, 0x56, 0x20, 0xc4, 0x06, 0xdd, 0x1d, 0xf2, 0x31, 0xe9, 0xc9, 0xb9, 0xf3, 0x9c, 0x2b, 0x4a, 0xe0, 0x3a, 0x0f, 0x4d, 0x6a, 0x3e, 0x60, 0xa2, 0xae, 0xa0, 0xf5, 0xe7, 0xf7, 0xd6, 0x08, 0xd6, 0x02, 0xf6, 0xe0, 0xbf, 0x0e, 0x81, 0xfc, 0xc4, 0x01, 0xf8, 0xc6, 0x1b, 0xf0, 0x37, 0xf5, 0x2d, 0x0c, 0x01, 0x18, 0xea, 0x0e, 0xec, 0xf7, 0xf7, 0x08, 0x00, 0xf1, 0x2e, 0xf6, 0xff, 0xff, 0x04, 0x00, 0x00, 0x00, 0x40, 0x00, 0x00, 0x00, 0x71, 0xfa, 0xff, 0xff, 0x25, 0x33, 0xff, 0xff, 0x74, 0x12, 0x00, 0x00, 0x62, 0x29, 0x00, 0x00, 0x00, 0x00, 0x00, 0x00, 0x27, 0xa6, 0x00, 0x00, 0xf9, 0x23, 0xff, 0xff, 0x90, 0xd3, 0xff, 0xff, 0xff, 0x66, 0x00, 0x00, 0x6e, 0xe4, 0xff, 0xff, 0x00, 0x00, 0x00, 0x00, 0xc8, 0x27, 0x00, 0x00, 0x9e, 0x68, 0x00, 0x00, 0x3e, 0xe9, 0xff, 0xff, 0x11, 0x68, 0xff, 0xff, 0x93, 0x49, 0x00, 0x00, 0x7a, 0xf6, 0xff, 0xff, 0x04, 0x00, 0x00, 0x00, 0x00, 0x09, 0x00, 0x00, 0xf6, 0x0a, 0x07, 0x02, 0xff, 0xfb, 0xff, 0xf6, 0xf8, 0xd8, 0xf5, 0xfe, 0xf0, 0xf5, 0x0b, 0xf2, 0xff, 0xf8, 0xee, 0x51, 0xf5, 0xc5, 0x09, 0xfa, 0x09, 0x24, 0xfc, 0x35, 0xa5, 0xf5, 0xf9, 0xfd, 0x07, 0x0c, 0xd0, 0x45, 0x0b, 0x04, 0x0a, 0x02, 0x03, 0xe9, 0xfa, 0xfe, 0x11, 0xf2, 0xfa, 0x29, 0xf7, 0x01, 0x22, 0xdb, 0xf9, 0x15, 0xfd, 0x0b, 0x0e, 0xfb, 0xf6, 0x10, 0x03, 0xf5, 0xf2, 0x05, 0x0b, 0xf8, 0x69, 0xc0, 0x05, 0xba, 0x02, 0x04, 0x03, 0x24, 0xfb, 0x43, 0xe7, 0xf4, 0x05, 0xc1, 0x04, 0xfb, 0x03, 0x11, 0xf9, 0xfe, 0x01, 0x07, 0x06, 0x0e, 0xfe, 0x18, 0x26, 0x0e, 0xfc, 0x10, 0xf6, 0xf7, 0xfd, 0xcb, 0x0c, 0x3d, 0x0a, 0x0d, 0xf8, 0xbe, 0xf5, 0xcc, 0x38, 0xfd, 0xf2, 0x1b, 0xfe, 0xfb, 0x1e, 0xd6, 0x0e, 0x2f, 0x05, 0x0a, 0xf7, 0xc1, 0xff, 0xeb, 0x2f, 0xf3, 0x04, 0xf9, 0x02, 0x0e, 0xe3, 0xf2, 0x05, 0x2e, 0xfa, 0x0b, 0xfd, 0xe0, 0x06, 0xe0, 0x27, 0x09, 0xfd, 0x18, 0x00, 0xfd, 0x0d, 0x16, 0x07, 0x1a, 0x06, 0xf8, 0x18, 0x24, 0x02, 0x07, 0x1c, 0x0c, 0x05, 0x19, 0xfe, 0x0d, 0x21, 0xbd, 0xf5, 0x4c, 0x06, 0xfa, 0xf4, 0xef, 0xf2, 0xc6, 0x56, 0xf6, 0x04, 0x0c, 0x0e, 0xfa, 0x42, 0xdd, 0x05, 0x0b, 0x07, 0x09, 0x08, 0x1b, 0xfd, 0xf5, 0x02, 0x0d, 0x0c, 0xd3, 0xfa, 0xff, 0xe8, 0x1c, 0xff, 0xff, 0x05, 0xf6, 0x06, 0x18, 0x06, 0x05, 0x18, 0xf3, 0x0d, 0x0d, 0xfe, 0xfc, 0x90, 0x4e, 0xfd, 0x3c, 0xf2, 0x03, 0x20, 0xd3, 0xfb, 0xaf, 0x2e, 0xfb, 0xff, 0x39, 0xff, 0xfc, 0x0c, 0xfe, 0x02, 0x1c, 0x05, 0xf3, 0x12, 0x00, 0xfe, 0xfb, 0xdd, 0xf9, 0x01, 0x08, 0x08, 0x06, 0x02, 0x42, 0xf5, 0xd3, 0x07, 0xf9, 0x0c, 0x49, 0x08, 0x33, 0xca, 0x0b, 0x02, 0x01, 0x02, 0xfb, 0xec, 0x3a, 0x07, 0xe9, 0xf7, 0xf7, 0x0f, 0x46, 0xf8, 0x18, 0xe3, 0xf4, 0xf2, 0x02, 0xf2, 0x0c, 0x0f, 0x0b, 0x0d, 0xe8, 0x0a, 0x03, 0x08, 0x24, 0x09, 0x23, 0xd6, 0x02, 0xf9, 0xed, 0x00, 0xf7, 0xfe, 0xf9, 0xfd, 0xf6, 0xf3, 0xfa, 0x09, 0xfa, 0x00, 0xf6, 0x01, 0x0c, 0x0d, 0x0c, 0x02, 0xfc, 0xf6, 0x02, 0xf9, 0x08, 0xfc, 0x02, 0xff, 0xfa, 0xf6, 0x00, 0xf2, 0xf3, 0xf6, 0xf9, 0x0c, 0x00, 0xf7, 0x00, 0x00, 0xf7, 0xf6, 0xf2, 0x06, 0x00, 0xf5, 0x09, 0xf9, 0xf8, 0xff, 0xf4, 0xfc, 0x00, 0xfe, 0x03, 0xf7, 0x08, 0x04, 0xfc, 0x06, 0x0a, 0x02, 0xf5, 0xf6, 0x00, 0xf7, 0xf7, 0x0a, 0xfb, 0xfc, 0xf6, 0xf3, 0xfe, 0xf3, 0xff, 0x07, 0xf1, 0x0e, 0x05, 0x08, 0xf5, 0x0a, 0xf6, 0xf5, 0xf4, 0xf2, 0xf0, 0x0e, 0xf1, 0xfd, 0x0c, 0xf4, 0x06, 0x0b, 0x03, 0xf8, 0xfb, 0xf5, 0x00, 0xfa, 0xf7, 0xff, 0x07, 0x07, 0x08, 0xfb, 0x00, 0x0a, 0x08, 0xfc, 0x02, 0x05, 0xfb, 0x09, 0xfe, 0x0c, 0xf7, 0x06, 0xf8, 0xfb, 0x05, 0x00, 0x00, 0xf7, 0x04, 0xf3, 0xfa, 0xfe, 0x06, 0xf9, 0x0c, 0x0a, 0x0c, 0x0a, 0x05, 0xfd, 0xfd, 0x0a, 0x05, 0xf5, 0xf5, 0x03, 0x0c, 0x08, 0x03, 0x01, 0x08, 0xf9, 0xf5, 0xfe, 0x1c, 0xfa, 0x20, 0x01, 0xfa, 0x03, 0x2b, 0x02, 0x11, 0x1d, 0x05, 0x00, 0x13, 0xfe, 0x06, 0x25, 0xb5, 0x09, 0x52, 0x00, 0xfd, 0xef, 0xfa, 0xf6, 0xd8, 0x5e, 0xfd, 0x06, 0xfe, 0xfb, 0x0c, 0x37, 0xd5, 0x02, 0x05, 0x0d, 0xf9, 0x08, 0x1a, 0xf4, 0xf2, 0x06, 0x08, 0x0c, 0xd1, 0x0a, 0x0c, 0xd0, 0x17, 0x01, 0x0d, 0x0d, 0x06, 0xf7, 0x10, 0x09, 0xfe, 0x14, 0xfe, 0x05, 0x05, 0xf3, 0xf8, 0x90, 0x50, 0x0a, 0x47, 0xfc, 0xf9, 0x1a, 0xd9, 0x03, 0xb6, 0x29, 0xf5, 0xf9, 0x3f, 0xfb, 0xf2, 0x0a, 0x02, 0x0b, 0x16, 0xf8, 0x04, 0x19, 0x0b, 0xf8, 0xfc, 0xdc, 0xf2, 0xf7, 0x03, 0xf6, 0xf5, 0x07, 0x43, 0x09, 0xda, 0xf5, 0xfd, 0x14, 0x53, 0x0b, 0x31, 0xd6, 0xfd, 0x0e, 0xe9, 0x09, 0x0a, 0xfd, 0x4b, 0xf5, 0xdb, 0x0a, 0xfe, 0x15, 0x40, 0xff, 0x19, 0xd2, 0xf2, 0xf4, 0xfe, 0x0b, 0xf7, 0x20, 0x02, 0xf4, 0xe8, 0x01, 0xf3, 0x0c, 0x33, 0x00, 0x1f, 0xe3, 0x02, 0xf8, 0xff, 0x0a, 0xfb, 0x05, 0x04, 0x0e, 0x15, 0x05, 0xf9, 0x0b, 0x1d, 0xf3, 0x07, 0x20, 0xf7, 0x03, 0x04, 0x05, 0x00, 0x17, 0xc3, 0xfa, 0x56, 0xf7, 0xfa, 0xf2, 0xef, 0xfb, 0xce, 0x5e, 0xf6, 0x07, 0x01, 0xff, 0xfb, 0x3b, 0xc9, 0xfb, 0x0e, 0x09, 0xf7, 0x0f, 0x25, 0xf6, 0xf9, 0x0b, 0x0e, 0x0f, 0xd5, 0x00, 0xf6, 0xd3, 0x2c, 0x06, 0x0b, 0x0d, 0xfe, 0xff, 0x0f, 0x04, 0x0a, 0x11, 0xf3, 0xfd, 0x0a, 0x03, 0xf9, 0x96, 0x39, 0x08, 0x3c, 0x0e, 0x08, 0x20, 0xd1, 0xfc, 0xaa, 0x2c, 0xf9, 0x10, 0x52, 0xf7, 0xf5, 0x06, 0x0b, 0xf6, 0x1d, 0x08, 0xf5, 0x24, 0x0d, 0x03, 0xee, 0xe7, 0x09, 0xf5, 0x07, 0x09, 0xf5, 0x0a, 0x38, 0x0d, 0xd5, 0x0a, 0x05, 0x0b, 0x3f, 0x08, 0x2e, 0xd5, 0x09, 0x07, 0x03, 0x06, 0xfe, 0xe8, 0x4c, 0x0d, 0xe5, 0x03, 0x0b, 0x1e, 0x46, 0xf5, 0x11, 0xd3, 0x06, 0x0b, 0xf6, 0x08, 0xfa, 0x18, 0x06, 0xf3, 0xe0, 0xf5, 0x00, 0x13, 0x36, 0xf6, 0x27, 0xd1, 0xfd, 0xf1, 0xff, 0xf6, 0xff, 0x09, 0xe9, 0x0d, 0x00, 0xf8, 0xf5, 0x0b, 0xdf, 0x0e, 0x06, 0xed, 0x01, 0xfe, 0x05, 0x0b, 0x06, 0xf2, 0x40, 0xfe, 0xc5, 0x0d, 0xfb, 0x1c, 0x1d, 0x06, 0x32, 0xb1, 0xff, 0x0f, 0x0e, 0xff, 0xfd, 0xca, 0x3a, 0x01, 0xf3, 0x03, 0xfe, 0xf9, 0xd2, 0x06, 0x10, 0x09, 0xf9, 0x06, 0x2d, 0x03, 0x07, 0x2b, 0xf5, 0x05, 0x06, 0x07, 0x0e, 0x08, 0xf8, 0x0e, 0x0a, 0xf4, 0xf7, 0x05, 0x02, 0xf9, 0xfc, 0x6c, 0xc5, 0x0e, 0xb8, 0xfe, 0x08, 0xef, 0x34, 0xf8, 0x55, 0xdc, 0x00, 0x09, 0xc6, 0xf6, 0xf2, 0xf5, 0xf8, 0xfc, 0x04, 0x04, 0xfe, 0xfd, 0x0a, 0x06, 0x14, 0x32, 0x0b, 0xf7, 0x09, 0xf9, 0xf5, 0x13, 0xd1, 0x04, 0x42, 0x0c, 0x01, 0x08, 0xc7, 0x01, 0xe6, 0x36, 0xf9, 0x03, 0x15, 0xf7, 0x08, 0x20, 0xbe, 0xfd, 0x30, 0x08, 0x02, 0xf2, 0xc8, 0xfe, 0xeb, 0x29, 0x0a, 0x01, 0x0e, 0x0e, 0x0c, 0xef, 0xef, 0xf8, 0x1c, 0xff, 0x0b, 0x0c, 0xd4, 0x06, 0xe3, 0x3b, 0x01, 0xfd, 0x18, 0x00, 0xf9, 0xf2, 0xfc, 0xf4, 0xf7, 0x0d, 0xfd, 0x07, 0xf8, 0x01, 0x07, 0x03, 0xf6, 0xfb, 0xfa, 0xf4, 0x06, 0xf5, 0x0c, 0xfc, 0xf2, 0x0d, 0x0a, 0xfd, 0xfc, 0x0d, 0x09, 0xff, 0x0d, 0x08, 0x0a, 0xfa, 0x0e, 0xfa, 0x02, 0x00, 0xff, 0xf9, 0xf6, 0x00, 0x03, 0xf6, 0x0c, 0xf7, 0xf8, 0xf3, 0x08, 0xfd, 0x04, 0xfe, 0xf6, 0xf3, 0x0e, 0xf9, 0xfb, 0x02, 0x03, 0x04, 0xf2, 0x03, 0x0b, 0x0d, 0x07, 0x01, 0x05, 0xfa, 0x01, 0xf5, 0xff, 0x07, 0x09, 0x00, 0xfa, 0x09, 0xf3, 0x03, 0x04, 0x0d, 0x02, 0x0a, 0xf4, 0xf9, 0x08, 0x0d, 0x09, 0x09, 0x06, 0x03, 0xf5, 0xf9, 0xf6, 0xf4, 0x0c, 0xf3, 0x0b, 0x05, 0xf3, 0xfc, 0x03, 0xf8, 0xfc, 0x00, 0x07, 0x01, 0x08, 0xf8, 0xfe, 0x02, 0x00, 0xf4, 0xf8, 0x0a, 0xfb, 0x0a, 0xf8, 0x0e, 0xf6, 0xf7, 0x02, 0xfc, 0xfe, 0x04, 0x0d, 0x0c, 0xf7, 0x06, 0xf2, 0x0d, 0x0e, 0x01, 0x04, 0x04, 0xf6, 0x08, 0x05, 0xf9, 0x04, 0x0b, 0xfe, 0xfa, 0xf5, 0xf5, 0x03, 0x06, 0xfa, 0xfc, 0x03, 0x0b, 0xf3, 0x04, 0x03, 0xf5, 0x02, 0xfc, 0xf2, 0xfa, 0xfa, 0x03, 0x01, 0xfe, 0xfb, 0x0e, 0x03, 0xff, 0x01, 0xf5, 0xfd, 0x0b, 0xf3, 0x0c, 0xfe, 0xfb, 0xf9, 0xfb, 0xf7, 0xf9, 0x03, 0xfe, 0x01, 0xf7, 0x08, 0xf3, 0x0a, 0xfc, 0xf4, 0xf2, 0xf8, 0xf3, 0xf2, 0xf9, 0x0b, 0xfc, 0x03, 0x02, 0xf3, 0xf3, 0xf7, 0xf5, 0xf7, 0xf2, 0xff, 0xf2, 0x04, 0x04, 0xf6, 0x03, 0xf4, 0xf3, 0xfa, 0xfd, 0xfd, 0x01, 0x07, 0xfa, 0x08, 0xff, 0x09, 0xfe, 0xf7, 0xfc, 0x08, 0xfd, 0x00, 0x0a, 0x04, 0x06, 0x04, 0x0e, 0xf7, 0xfd, 0xf6, 0x0a, 0x07, 0x04, 0x01, 0xfa, 0x07, 0x03, 0x0b, 0x05, 0xf7, 0xf2, 0xf4, 0xfc, 0x01, 0x03, 0x08, 0xfd, 0xfc, 0x0e, 0x04, 0xf6, 0xf5, 0xfc, 0x01, 0x07, 0x03, 0x01, 0x0d, 0x0e, 0x04, 0x05, 0x03, 0xf6, 0x0b, 0xf2, 0xf9, 0x0c, 0xf5, 0xff, 0xff, 0x07, 0x0a, 0xfd, 0xfc, 0xfa, 0x04, 0xfe, 0x01, 0x04, 0x06, 0x0b, 0xfb, 0x05, 0xf8, 0x04, 0x01, 0x01, 0x06, 0x12, 0xf6, 0xf8, 0xf4, 0xf8, 0xfc, 0x05, 0xdd, 0x0a, 0xf3, 0xf1, 0x09, 0x0a, 0xf9, 0x07, 0x04, 0xf9, 0x57, 0xfe, 0xb9, 0x0c, 0xfd, 0x22, 0x23, 0x0d, 0x2f, 0xa3, 0x0e, 0xfc, 0xfe, 0xfa, 0x08, 0xdd, 0x3c, 0xf3, 0x01, 0xf8, 0xfa, 0x02, 0xdc, 0x06, 0x04, 0x12, 0x0b, 0x06, 0x3f, 0xf2, 0x09, 0x35, 0xd6, 0xfc, 0x0d, 0xf5, 0x02, 0x07, 0xe7, 0x0b, 0x09, 0x04, 0x05, 0xf0, 0x06, 0xfc, 0xf8, 0x7f, 0xb7, 0x0c, 0xd0, 0x08, 0xf4, 0xfa, 0x27, 0x00, 0x5c, 0xd9, 0x02, 0x0b, 0xca, 0xf7, 0xfd, 0xf0, 0x02, 0x07, 0xf0, 0xfc, 0x0e, 0xed, 0x14, 0x00, 0x0c, 0x2a, 0x0b, 0x05, 0x01, 0xfc, 0xf5, 0x15, 0xd1, 0x04, 0x38, 0xf9, 0x09, 0xf7, 0xb7, 0xfa, 0xde, 0x47, 0x01, 0x07, 0x19, 0x0c, 0x05, 0x12, 0xcb, 0xff, 0x39, 0x0e, 0x0e, 0xed, 0xc9, 0x08, 0xf5, 0x2a, 0xf6, 0x0c, 0x13, 0xf2, 0xf4, 0xe4, 0x06, 0x09, 0x2a, 0x01, 0x03, 0x03, 0xd1, 0x0a, 0xd9, 0x34, 0xfd, 0xfe, 0x07, 0x04, 0xfe, 0xf9, 0x03, 0xf2, 0xfd, 0x0c, 0xf5, 0x06, 0x04, 0xfc, 0xf3, 0xf9, 0x06, 0xfb, 0xfb, 0xf9, 0x00, 0x0a, 0xf1, 0xf6, 0x09, 0xf4, 0x0b, 0xf2, 0x09, 0x0a, 0x09, 0xf1, 0xf2, 0xf3, 0x05, 0xf2, 0xfa, 0xf1, 0xff, 0xf8, 0x00, 0xf8, 0x0c, 0x00, 0x00, 0x03, 0x0d, 0xf7, 0xfb, 0x05, 0xf9, 0x01, 0x03, 0x09, 0xf2, 0x0e, 0x03, 0xf2, 0xf3, 0xf2, 0xfb, 0xf5, 0xf3, 0x06, 0xf7, 0x0e, 0x03, 0x0a, 0x08, 0x0c, 0x03, 0x08, 0x04, 0x08, 0x06, 0xf1, 0x02, 0x0d, 0xfb, 0xf4, 0x00, 0x02, 0xf8, 0x06, 0xf9, 0xf0, 0x0b, 0x02, 0xf8, 0xf9, 0xfe, 0x08, 0x09, 0xfd, 0x02, 0x0a, 0xff, 0x00, 0xf6, 0xfb, 0xfc, 0x04, 0xfb, 0x06, 0xf1, 0x0a, 0x01, 0x09, 0x06, 0x03, 0x0c, 0xf8, 0xf8, 0x06, 0x07, 0x08, 0x0e, 0xfb, 0x05, 0x06, 0xfb, 0x02, 0x04, 0x09, 0xfc, 0x06, 0x04, 0xf5, 0xf3, 0xfd, 0xfa, 0x0a, 0xf2, 0xfc, 0x08, 0xf5, 0x08, 0xfb, 0x06, 0xf1, 0x0c, 0xfd, 0xf5, 0xf6, 0xf6, 0x05, 0x0b, 0x06, 0x05, 0x00, 0xf6, 0xf3, 0xf7, 0xf8, 0x05, 0x05, 0xea, 0x04, 0xfa, 0xfa, 0x06, 0xfd, 0x08, 0x02, 0xf2, 0xf2, 0x51, 0x04, 0xbf, 0x07, 0x0e, 0x1f, 0x10, 0xff, 0x37, 0xb0, 0xff, 0x06, 0x08, 0x02, 0x04, 0xc4, 0x39, 0xfe, 0x0d, 0x01, 0xf8, 0xf8, 0xe0, 0xf9, 0x15, 0x0a, 0xff, 0xfa, 0x33, 0xf4, 0x01, 0x2c, 0xf4, 0xf8, 0x11, 0xf4, 0x00, 0x0a, 0xfb, 0xfc, 0x14, 0xf9, 0xf2, 0xf0, 0xfb, 0xf5, 0xff, 0x73, 0xbf, 0x08, 0xca, 0xf8, 0x05, 0xf6, 0x25, 0x0d, 0x56, 0xd9, 0x0a, 0x00, 0xc4, 0xfe, 0x03, 0xff, 0x0a, 0xfb, 0xf2, 0xf4, 0x00, 0xed, 0x09, 0x01, 0x03, 0x27, 0x04, 0xfc, 0x04, 0x0e, 0xfa, 0x0e, 0xd5, 0x03, 0x41, 0x01, 0xff, 0xf1, 0xc4, 0xf8, 0xe3, 0x35, 0x01, 0xfc, 0x13, 0xf9, 0xfa, 0x0e, 0xcb, 0xfc, 0x27, 0xff, 0x06, 0xea, 0xdd, 0xf3, 0xea, 0x3a, 0x05, 0x0c, 0x0a, 0xfd, 0x02, 0xe2, 0xfd, 0x04, 0x2b, 0x03, 0xf4, 0x0c, 0xda, 0x0e, 0xd7, 0x3a, 0x03, 0x07, 0x04, 0x0e, 0x02, 0x10, 0xee, 0xfc, 0xf8, 0x02, 0xf7, 0x01, 0xed, 0x06, 0x03, 0xfe, 0x0a, 0xfb, 0xf6, 0xfa, 0x09, 0xf4, 0x47, 0x0b, 0xbf, 0x0c, 0x09, 0x1c, 0x13, 0xfc, 0x36, 0xb9, 0xfb, 0x05, 0x04, 0x03, 0x0a, 0xdf, 0x2a, 0x06, 0xfc, 0xf8, 0x0b, 0x02, 0xe8, 0x07, 0x06, 0x02, 0x06, 0xfe, 0x2f, 0xf4, 0x0b, 0x1d, 0xdf, 0xfe, 0x14, 0x0a, 0xf5, 0x00, 0xe8, 0xff, 0x10, 0xfc, 0x01, 0x05, 0xf2, 0x01, 0x0c, 0x66, 0xc1, 0x00, 0xb9, 0x08, 0x0c, 0x04, 0x3c, 0x0d, 0x52, 0xe2, 0x09, 0x05, 0xc3, 0x05, 0x08, 0xf5, 0x07, 0x08, 0xf7, 0x0a, 0x00, 0x06, 0x10, 0x04, 0x06, 0x2a, 0x0b, 0x02, 0x11, 0x07, 0xf6, 0x01, 0xd1, 0xf5, 0x30, 0xf4, 0x00, 0x06, 0xb2, 0x0e, 0xd4, 0x45, 0xf4, 0xf7, 0x07, 0x02, 0xf2, 0x1a, 0xc6, 0x04, 0x1d, 0xf2, 0x0d, 0xef, 0xd6, 0x05, 0xe5, 0x3b, 0xf8, 0x08, 0x08, 0x0e, 0x00, 0xea, 0x0a, 0xf8, 0x36, 0x09, 0xfb, 0x09, 0xe1, 0xfc, 0xda, 0x25, 0xff, 0xfd, 0x0a, 0x06, 0x06, 0x04, 0x0b, 0xfb, 0xff, 0xfb, 0xf3, 0xfd, 0x02, 0xf4, 0xf5, 0x0e, 0xf2, 0x04, 0x0e, 0xff, 0x0a, 0xfc, 0xf8, 0xf4, 0x0b, 0x0e, 0x03, 0xf7, 0x0d, 0xfe, 0x09, 0xff, 0xf3, 0x09, 0x04, 0xf1, 0xfd, 0xf1, 0xf1, 0x01, 0xf4, 0x0e, 0xf8, 0x03, 0xf8, 0x07, 0x02, 0xf2, 0xf4, 0xf9, 0xf9, 0x07, 0xf7, 0xf6, 0xf8, 0x00, 0x04, 0x04, 0xf5, 0x0d, 0x05, 0x06, 0xfe, 0xf9, 0xf9, 0xf8, 0xf9, 0x0c, 0x0c, 0xf3, 0xf5, 0xfb, 0x00, 0xf4, 0x03, 0xf2, 0x09, 0xfe, 0x0b, 0x02, 0xfb, 0x05, 0x0e, 0x02, 0x03, 0x05, 0x0b, 0xfe, 0xf4, 0x00, 0xf6, 0x06, 0x08, 0xf2, 0x0b, 0x07, 0xf4, 0x07, 0xfa, 0xf7, 0x00, 0x07, 0xf5, 0x0d, 0xff, 0x00, 0x05, 0xf2, 0x08, 0x06, 0xf2, 0x0e, 0x02, 0x01, 0xfe, 0xf5, 0x02, 0xfa, 0x00, 0x03, 0xf7, 0xf3, 0xf4, 0x0c, 0xf9, 0xff, 0xf4, 0xfc, 0x01, 0x08, 0x06, 0x05, 0x09, 0xff, 0xfe, 0x04, 0xf5, 0x07, 0xf7, 0x01, 0xf2, 0xf6, 0xf6, 0xf9, 0xf4, 0xf3, 0x00, 0xfd, 0xf9, 0xfc, 0x19, 0xf3, 0x14, 0xfc, 0xf6, 0x0c, 0x1e, 0xf4, 0x05, 0x1c, 0x04, 0x04, 0x04, 0x01, 0xfc, 0x0e, 0xb2, 0x02, 0x57, 0xfd, 0xf2, 0xf6, 0xfb, 0x0e, 0xda, 0x64, 0xfe, 0x07, 0x0a, 0xfa, 0x08, 0x2c, 0xd2, 0x03, 0x1a, 0xf3, 0x0b, 0x0b, 0x1c, 0xf3, 0xfe, 0x01, 0x01, 0x01, 0xdf, 0x06, 0x03, 0xdc, 0x1b, 0x0d, 0x09, 0xfe, 0x06, 0x10, 0x14, 0x00, 0x0d, 0x15, 0xf7, 0xf8, 0x0c, 0x07, 0x06, 0x8c, 0x4b, 0xfd, 0x55, 0x06, 0xf5, 0x20, 0xe1, 0x07, 0xba, 0x38, 0x07, 0x08, 0x4e, 0x02, 0x08, 0x02, 0x07, 0x03, 0x04, 0xf6, 0xfc, 0x17, 0xfc, 0xfc, 0x07, 0xda, 0xff, 0x02, 0xfe, 0x09, 0xf6, 0xf4, 0x41, 0x03, 0xda, 0x0d, 0xf4, 0x04, 0x4f, 0xf5, 0x26, 0xd6, 0x03, 0xf7, 0xf8, 0x01, 0x02, 0xf1, 0x3b, 0xf4, 0xe7, 0x0b, 0x07, 0x20, 0x3e, 0xfa, 0x0f, 0xd5, 0xfb, 0xf6, 0x09, 0x01, 0xff, 0x0d, 0x17, 0xf2, 0xe3, 0xfe, 0xfd, 0x09, 0x21, 0x0e, 0x21, 0xdc, 0x0c, 0xf7, 0xfc, 0xfb, 0x09, 0x07, 0xed, 0x03, 0xf1, 0xf6, 0x0c, 0x05, 0xdd, 0x0b, 0xf4, 0xe8, 0xfb, 0x00, 0xf8, 0xf2, 0xf3, 0xf2, 0x5a, 0xf5, 0xc0, 0x0a, 0x05, 0x21, 0x1c, 0xfc, 0x31, 0xb4, 0x00, 0xff, 0x03, 0x06, 0xff, 0xda, 0x36, 0xf3, 0xf9, 0x08, 0x01, 0x03, 0xe4, 0xf6, 0x02, 0xf9, 0x0b, 0x01, 0x3e, 0xfb, 0x03, 0x2d, 0xe9, 0xfc, 0x07, 0x0a, 0x0b, 0x15, 0xe8, 0xf2, 0x11, 0xfb, 0x05, 0xf4, 0xf8, 0xf4, 0x0a, 0x66, 0xbe, 0xfb, 0xc0, 0x07, 0xff, 0xf8, 0x36, 0xf9, 0x46, 0xde, 0xf9, 0xff, 0xc7, 0x0c, 0xf5, 0xf1, 0x00, 0xfa, 0x02, 0x00, 0x08, 0xee, 0x04, 0xf8, 0x15, 0x39, 0x0c, 0xf4, 0x0e, 0x09, 0x0e, 0x10, 0xcd, 0xfb, 0x39, 0x0d, 0x02, 0xf3, 0xb9, 0xf6, 0xe0, 0x34, 0x02, 0x03, 0x1a, 0x03, 0xf3, 0x16, 0xca, 0xf3, 0x1f, 0x0a, 0xf7, 0xf9, 0xd5, 0xfc, 0xe7, 0x3c, 0xfe, 0x05, 0xff, 0xf3, 0x00, 0xfb, 0xf3, 0x0c, 0x39, 0xfd, 0xff, 0x0d, 0xd1, 0xfe, 0xe7, 0x3b, 0x0c, 0xfc, 0x0b, 0xfc, 0xfe, 0x05, 0x0b, 0x0e, 0x17, 0xfb, 0x06, 0x02, 0x2d, 0xfb, 0x05, 0x21, 0x09, 0x06, 0x05, 0xf4, 0xf7, 0x27, 0xb1, 0x00, 0x42, 0xfb, 0x0d, 0xf8, 0xf3, 0xfd, 0xc3, 0x5c, 0x08, 0xfe, 0x0a, 0xf5, 0xfc, 0x39, 0xd0, 0xf9, 0x06, 0x03, 0x0d, 0x01, 0x21, 0x00, 0xfc, 0x17, 0xf2, 0xfb, 0xd3, 0x06, 0x0a, 0xcf, 0x29, 0xfc, 0x07, 0x04, 0x02, 0xf8, 0x14, 0x01, 0x0b, 0x0d, 0x06, 0x09, 0x19, 0x0b, 0x00, 0x97, 0x44, 0x09, 0x53, 0xfc, 0xf7, 0x18, 0xe1, 0xfc, 0xba, 0x39, 0xfb, 0x03, 0x3e, 0x02, 0x06, 0x0a, 0x04, 0xf5, 0x19, 0xfd, 0x07, 0x1b, 0x00, 0x0e, 0xfa, 0xda, 0x0d, 0xf7, 0x08, 0xf2, 0xf7, 0xfb, 0x32, 0x08, 0xd8, 0x06, 0x04, 0x12, 0x54, 0x03, 0x28, 0xcf, 0xf1, 0xf3, 0xf9, 0x07, 0xfb, 0xe9, 0x40, 0x00, 0xd7, 0x04, 0xf5, 0x1b, 0x3d, 0x02, 0x10, 0xe5, 0x04, 0xfa, 0x01, 0x03, 0x0e, 0x21, 0x0f, 0xf8, 0xda, 0x06, 0xff, 0x17, 0x2a, 0xf8, 0x2e, 0xdc, 0xf2, 0xf8, 0x05, 0x86, 0xff, 0xff, 0xff, 0x04, 0x00, 0x00, 0x00, 0x40, 0x00, 0x00, 0x00, 0xbf, 0x05, 0x00, 0x00, 0x29, 0x17, 0x00, 0x00, 0xe2, 0xfc, 0xff, 0xff, 0xbb, 0x12, 0x00, 0x00, 0xb0, 0x14, 0x00, 0x00, 0x4a, 0x02, 0x00, 0x00, 0xad, 0xfc, 0xff, 0xff, 0x00, 0x00, 0x00, 0x00, 0xb7, 0x09, 0x00, 0x00, 0xca, 0xf8, 0xff, 0xff, 0x90, 0x05, 0x00, 0x00, 0xef, 0x01, 0x00, 0x00, 0xf9, 0xfd, 0xff, 0xff, 0x0a, 0x16, 0x00, 0x00, 0x87, 0x03, 0x00, 0x00, 0xec, 0x12, 0x00, 0x00, 0xd2, 0xff, 0xff, 0xff, 0x04, 0x00, 0x00, 0x00, 0x10, 0x00, 0x00, 0x00, 0x7f, 0x98, 0x06, 0x98, 0x8a, 0x78, 0x08, 0x21, 0x57, 0x18, 0x72, 0x6b, 0xf6, 0x9d, 0x56, 0x93, 0xee, 0xff, 0xff, 0xff, 0x04, 0x00, 0x00, 0x00, 0x04, 0x00, 0x00, 0x00, 0xb0, 0xfd, 0xff, 0xff, 0x00, 0x00, 0x06, 0x00, 0x08, 0x00, 0x04, 0x00, 0x06, 0x00, 0x00, 0x00, 0x04, 0x00, 0x00, 0x00, 0x08, 0x00, 0x00, 0x00, 0xff, 0xff, 0xff, 0xff, 0x90, 0x00, 0x00, 0x00, 0xd8, 0xf2, 0xff, 0xff, 0xdc, 0xf2, 0xff, 0xff, 0x0f, 0x00, 0x00, 0x00, 0x4d, 0x4c, 0x49, 0x52, 0x20, 0x43, 0x6f, 0x6e, 0x76, 0x65, 0x72, 0x74, 0x65, 0x64, 0x2e, 0x00, 0x01, 0x00, 0x00, 0x00, 0x14, 0x00, 0x00, 0x00, 0x00, 0x00, 0x0e, 0x00, 0x18, 0x00, 0x14, 0x00, 0x10, 0x00, 0x0c, 0x00, 0x08, 0x00, 0x04, 0x00, 0x0e, 0x00, 0x00, 0x00, 0x14, 0x00, 0x00, 0x00, 0x1c, 0x00, 0x00, 0x00, 0xf8, 0x01, 0x00, 0x00, 0xfc, 0x01, 0x00, 0x00, 0x00, 0x02, 0x00, 0x00, 0x04, 0x00, 0x00, 0x00, 0x6d, 0x61, 0x69, 0x6e, 0x00, 0x00, 0x00, 0x00, 0x07, 0x00, 0x00, 0x00, 0x90, 0x01, 0x00, 0x00, 0x2c, 0x01, 0x00, 0x00, 0xd8, 0x00, 0x00, 0x00, 0xb0, 0x00, 0x00, 0x00, 0x60, 0x00, 0x00, 0x00, 0x28, 0x00, 0x00, 0x00, 0x04, 0x00, 0x00, 0x00, 0x6a, 0xff, 0xff, 0xff, 0x0c, 0x00, 0x00, 0x00, 0x10, 0x00, 0x00, 0x00, 0x04, 0x00, 0x00, 0x00, 0x01, 0x00, 0x00, 0x00, 0x10, 0x00, 0x00, 0x00, 0x01, 0x00, 0x00, 0x00, 0x0f, 0x00, 0x00, 0x00, 0x1a, 0xff, 0xff, 0xff, 0x14, 0x00, 0x00, 0x00, 0x00, 0x00, 0x00, 0x08, 0x10, 0x00, 0x00, 0x00, 0x14, 0x00, 0x00, 0x00, 0x03, 0x00, 0x00, 0x00, 0x88, 0xf3, 0xff, 0xff, 0x01, 0x00, 0x00, 0x00, 0x0f, 0x00, 0x00, 0x00, 0x03, 0x00, 0x00, 0x00, 0x0e, 0x00, 0x00, 0x00, 0x03, 0x00, 0x00, 0x00, 0x02, 0x00, 0x00, 0x00, 0x4e, 0xff, 0xff, 0xff, 0x1c, 0x00, 0x00, 0x00, 0x00, 0x00, 0x00, 0x08, 0x1c, 0x00, 0x00, 0x00, 0x20, 0x00, 0x00, 0x00, 0x03, 0x00, 0x00, 0x00, 0x00, 0x00, 0x06, 0x00, 0x08, 0x00, 0x07, 0x00, 0x06, 0x00, 0x00, 0x00, 0x00, 0x00, 0x00, 0x01, 0x01, 0x00, 0x00, 0x00, 0x0e, 0x00, 0x00, 0x00, 0x03, 0x00, 0x00, 0x00, 0x0d, 0x00, 0x00, 0x00, 0x05, 0x00, 0x00, 0x00, 0x04, 0x00, 0x00, 0x00, 0x00, 0x00, 0x0a, 0x00, 0x10, 0x00, 0x0c, 0x00, 0x08, 0x00, 0x04, 0x00, 0x0a, 0x00, 0x00, 0x00, 0x0c, 0x00, 0x00, 0x00, 0x10, 0x00, 0x00, 0x00, 0x02, 0x00, 0x00, 0x00, 0x01, 0x00, 0x00, 0x00, 0x0d, 0x00, 0x00, 0x00, 0x02, 0x00, 0x00, 0x00, 0x0c, 0x00, 0x00, 0x00, 0x01, 0x00, 0x00, 0x00, 0x5e, 0xff, 0xff, 0xff, 0x10, 0x00, 0x00, 0x00, 0x00, 0x00, 0x00, 0x01, 0x1c, 0x00, 0x00, 0x00, 0x20, 0x00, 0x00, 0x00, 0x50, 0xff, 0xff, 0xff, 0x00, 0x00, 0x00, 0x01, 0x01, 0x00, 0x00, 0x00, 0x01, 0x00, 0x00, 0x00, 0x00, 0x00, 0x00, 0x01, 0x01, 0x00, 0x00, 0x00, 0x0c, 0x00, 0x00, 0x00, 0x03, 0x00, 0x00, 0x00, 0x0b, 0x00, 0x00, 0x00, 0x07, 0x00, 0x00, 0x00, 0x06, 0x00, 0x00, 0x00, 0x00, 0x00, 0x0e, 0x00, 0x1a, 0x00, 0x14, 0x00, 0x10, 0x00, 0x0c, 0x00, 0x0b, 0x00, 0x04, 0x00, 0x0e, 0x00, 0x00, 0x00, 0x24, 0x00, 0x00, 0x00, 0x00, 0x00, 0x00, 0x05, 0x34, 0x00, 0x00, 0x00, 0x38, 0x00, 0x00, 0x00, 0x01, 0x00, 0x00, 0x00, 0x00, 0x00, 0x0e, 0x00, 0x18, 0x00, 0x17, 0x00, 0x10, 0x00, 0x0c, 0x00, 0x08, 0x00, 0x04, 0x00, 0x0e, 0x00, 0x00, 0x00, 0x02, 0x00, 0x00, 0x00, 0x02, 0x00, 0x00, 0x00, 0x02, 0x00, 0x00, 0x00, 0x02, 0x00, 0x00, 0x00, 0x00, 0x00, 0x00, 0x01, 0x01, 0x00, 0x00, 0x00, 0x0b, 0x00, 0x00, 0x00, 0x01, 0x00, 0x00, 0x00, 0x0a, 0x00, 0x00, 0x00, 0x00, 0x00, 0x0e, 0x00, 0x14, 0x00, 0x00, 0x00, 0x10, 0x00, 0x0c, 0x00, 0x0b, 0x00, 0x04, 0x00, 0x0e, 0x00, 0x00, 0x00, 0x1c, 0x00, 0x00, 0x00, 0x00, 0x00, 0x00, 0x01, 0x28, 0x00, 0x00, 0x00, 0x2c, 0x00, 0x00, 0x00, 0x0c, 0x00, 0x14, 0x00, 0x13, 0x00, 0x0c, 0x00, 0x08, 0x00, 0x07, 0x00, 0x0c, 0x00, 0x00, 0x00, 0x00, 0x00, 0x00, 0x01, 0x01, 0x00, 0x00, 0x00, 0x01, 0x00, 0x00, 0x00, 0x00, 0x00, 0x00, 0x01, 0x01, 0x00, 0x00, 0x00, 0x0a, 0x00, 0x00, 0x00, 0x03, 0x00, 0x00, 0x00, 0x00, 0x00, 0x00, 0x00, 0x09, 0x00, 0x00, 0x00, 0x08, 0x00, 0x00, 0x00, 0x01, 0x00, 0x00, 0x00, 0x10, 0x00, 0x00, 0x00, 0x01, 0x00, 0x00, 0x00, 0x00, 0x00, 0x00, 0x00, 0x11, 0x00, 0x00, 0x00, 0x28, 0x0b, 0x00, 0x00, 0xbc, 0x0a, 0x00, 0x00, 0x2c, 0x0a, 0x00, 0x00, 0xc0, 0x09, 0x00, 0x00, 0x44, 0x09, 0x00, 0x00, 0xd8, 0x08, 0x00, 0x00, 0xa4, 0x07, 0x00, 0x00, 0x78, 0x06, 0x00, 0x00, 0xa4, 0x05, 0x00, 0x00, 0xd8, 0x04, 0x00, 0x00, 0xe4, 0x03, 0x00, 0x00, 0x48, 0x03, 0x00, 0x00, 0x54, 0x02, 0x00, 0x00, 0xd0, 0x01, 0x00, 0x00, 0x1c, 0x01, 0x00, 0x00, 0x80, 0x00, 0x00, 0x00, 0x04, 0x00, 0x00, 0x00, 0x32, 0xf5, 0xff, 0xff, 0x00, 0x00, 0x00, 0x01, 0x18, 0x00, 0x00, 0x00, 0x20, 0x00, 0x00, 0x00, 0x3c, 0x00, 0x00, 0x00, 0x11, 0x00, 0x00, 0x00, 0x00, 0x00, 0x00, 0x09, 0x50, 0x00, 0x00, 0x00, 0x02, 0x00, 0x00, 0x00, 0xff, 0xff, 0xff, 0xff, 0x01, 0x00, 0x00, 0x00, 0x14, 0xf5, 0xff, 0xff, 0x08, 0x00, 0x00, 0x00, 0x10, 0x00, 0x00, 0x00, 0x01, 0x00, 0x00, 0x00, 0x80, 0xff, 0xff, 0xff, 0xff, 0xff, 0xff, 0xff, 0x01, 0x00, 0x00, 0x00, 0x00, 0x00, 0x80, 0x3b, 0x19, 0x00, 0x00, 0x00, 0x53, 0x74, 0x61, 0x74, 0x65, 0x66, 0x75, 0x6c, 0x50, 0x61, 0x72, 0x74, 0x69, 0x74, 0x69, 0x6f, 0x6e, 0x65, 0x64, 0x43, 0x61, 0x6c, 0x6c, 0x3a, 0x30, 0x00, 0x00, 0x00, 0x02, 0x00, 0x00, 0x00, 0x01, 0x00, 0x00, 0x00, 0x01, 0x00, 0x00, 0x00, 0xaa, 0xf5, 0xff, 0xff, 0x00, 0x00, 0x00, 0x01, 0x18, 0x00, 0x00, 0x00, 0x20, 0x00, 0x00, 0x00, 0x3c, 0x00, 0x00, 0x00, 0x10, 0x00, 0x00, 0x00, 0x00, 0x00, 0x00, 0x09, 0x70, 0x00, 0x00, 0x00, 0x02, 0x00, 0x00, 0x00, 0xff, 0xff, 0xff, 0xff, 0x01, 0x00, 0x00, 0x00, 0x8c, 0xf5, 0xff, 0xff, 0x08, 0x00, 0x00, 0x00, 0x10, 0x00, 0x00, 0x00, 0x01, 0x00, 0x00, 0x00, 0xef, 0xff, 0xff, 0xff, 0xff, 0xff, 0xff, 0xff, 0x01, 0x00, 0x00, 0x00, 0xca, 0xdb, 0xbb, 0x3d, 0x38, 0x00, 0x00, 0x00, 0x73, 0x65, 0x71, 0x75, 0x65, 0x6e, 0x74, 0x69, 0x61, 0x6c, 0x5f, 0x32, 0x2f, 0x64, 0x65, 0x6e, 0x73, 0x65, 0x5f, 0x35, 0x2f, 0x4d, 0x61, 0x74, 0x4d, 0x75, 0x6c, 0x3b, 0x73, 0x65, 0x71, 0x75, 0x65, 0x6e, 0x74, 0x69, 0x61, 0x6c, 0x5f, 0x32, 0x2f, 0x64, 0x65, 0x6e, 0x73, 0x65, 0x5f, 0x35, 0x2f, 0x42, 0x69, 0x61, 0x73, 0x41, 0x64, 0x64, 0x00, 0x00, 0x00, 0x00, 0x02, 0x00, 0x00, 0x00, 0x01, 0x00, 0x00, 0x00, 0x01, 0x00, 0x00, 0x00, 0x42, 0xf6, 0xff, 0xff, 0x00, 0x00, 0x00, 0x01, 0x18, 0x00, 0x00, 0x00, 0x20, 0x00, 0x00, 0x00, 0x3c, 0x00, 0x00, 0x00, 0x0f, 0x00, 0x00, 0x00, 0x00, 0x00, 0x00, 0x09, 0x88, 0x00, 0x00, 0x00, 0x02, 0x00, 0x00, 0x00, 0xff, 0xff, 0xff, 0xff, 0x10, 0x00, 0x00, 0x00, 0x24, 0xf6, 0xff, 0xff, 0x08, 0x00, 0x00, 0x00, 0x10, 0x00, 0x00, 0x00, 0x01, 0x00, 0x00, 0x00, 0x80, 0xff, 0xff, 0xff, 0xff, 0xff, 0xff, 0xff, 0x01, 0x00, 0x00, 0x00, 0x1c, 0x4e, 0xb4, 0x3b, 0x52, 0x00, 0x00, 0x00, 0x73, 0x65, 0x71, 0x75, 0x65, 0x6e, 0x74, 0x69, 0x61, 0x6c, 0x5f, 0x32, 0x2f, 0x64, 0x65, 0x6e, 0x73, 0x65, 0x5f, 0x34, 0x2f, 0x4d, 0x61, 0x74, 0x4d, 0x75, 0x6c, 0x3b, 0x73, 0x65, 0x71, 0x75, 0x65, 0x6e, 0x74, 0x69, 0x61, 0x6c, 0x5f, 0x32, 0x2f, 0x64, 0x65, 0x6e, 0x73, 0x65, 0x5f, 0x34, 0x2f, 0x52, 0x65, 0x6c, 0x75, 0x3b, 0x73, 0x65, 0x71, 0x75, 0x65, 0x6e, 0x74, 0x69, 0x61, 0x6c, 0x5f, 0x32, 0x2f, 0x64, 0x65, 0x6e, 0x73, 0x65, 0x5f, 0x34, 0x2f, 0x42, 0x69, 0x61, 0x73, 0x41, 0x64, 0x64, 0x00, 0x00, 0x02, 0x00, 0x00, 0x00, 0x01, 0x00, 0x00, 0x00, 0x10, 0x00, 0x00, 0x00, 0xf2, 0xf6, 0xff, 0xff, 0x00, 0x00, 0x00, 0x01, 0x18, 0x00, 0x00, 0x00, 0x20, 0x00, 0x00, 0x00, 0x40, 0x00, 0x00, 0x00, 0x0e, 0x00, 0x00, 0x00, 0x00, 0x00, 0x00, 0x09, 0x58, 0x00, 0x00, 0x00, 0x02, 0x00, 0x00, 0x00, 0xff, 0xff, 0xff, 0xff, 0x90, 0x00, 0x00, 0x00, 0xd4, 0xf6, 0xff, 0xff, 0x08, 0x00, 0x00, 0x00, 0x14, 0x00, 0x00, 0x00, 0x01, 0x00, 0x00, 0x00, 0x80, 0xff, 0xff, 0xff, 0xff, 0xff, 0xff, 0xff, 0x00, 0x00, 0x00, 0x00, 0x01, 0x00, 0x00, 0x00, 0x1e, 0x42, 0xb4, 0x3a, 0x1e, 0x00, 0x00, 0x00, 0x73, 0x65, 0x71, 0x75, 0x65, 0x6e, 0x74, 0x69, 0x61, 0x6c, 0x5f, 0x32, 0x2f, 0x66, 0x6c, 0x61, 0x74, 0x74, 0x65, 0x6e, 0x5f, 0x32, 0x2f, 0x52, 0x65, 0x73, 0x68, 0x61, 0x70, 0x65, 0x00, 0x00, 0x02, 0x00, 0x00, 0x00, 0x01, 0x00, 0x00, 0x00, 0x90, 0x00, 0x00, 0x00, 0x72, 0xf7, 0xff, 0xff, 0x00, 0x00, 0x00, 0x01, 0x18, 0x00, 0x00, 0x00, 0x28, 0x00, 0x00, 0x00, 0x44, 0x00, 0x00, 0x00, 0x0d, 0x00, 0x00, 0x00, 0x00, 0x00, 0x00, 0x09, 0xc0, 0x00, 0x00, 0x00, 0x04, 0x00, 0x00, 0x00, 0xff, 0xff, 0xff, 0xff, 0x03, 0x00, 0x00, 0x00, 0x03, 0x00, 0x00, 0x00, 0x10, 0x00, 0x00, 0x00, 0x5c, 0xf7, 0xff, 0xff, 0x08, 0x00, 0x00, 0x00, 0x10, 0x00, 0x00, 0x00, 0x01, 0x00, 0x00, 0x00, 0x80, 0xff, 0xff, 0xff, 0xff, 0xff, 0xff, 0xff, 0x01, 0x00, 0x00, 0x00, 0x1e, 0x42, 0xb4, 0x3a, 0x82, 0x00, 0x00, 0x00, 0x73, 0x65, 0x71, 0x75, 0x65, 0x6e, 0x74, 0x69, 0x61, 0x6c, 0x5f, 0x32, 0x2f, 0x63, 0x6f, 0x6e, 0x76, 0x32, 0x64, 0x5f, 0x33, 0x2f, 0x52, 0x65, 0x6c, 0x75, 0x3b, 0x73, 0x65, 0x71, 0x75, 0x65, 0x6e, 0x74, 0x69, 0x61, 0x6c, 0x5f, 0x32, 0x2f, 0x63, 0x6f, 0x6e, 0x76, 0x32, 0x64, 0x5f, 0x33, 0x2f, 0x42, 0x69, 0x61, 0x73, 0x41, 0x64, 0x64, 0x3b, 0x73, 0x65, 0x71, 0x75, 0x65, 0x6e, 0x74, 0x69, 0x61, 0x6c, 0x5f, 0x32, 0x2f, 0x63, 0x6f, 0x6e, 0x76, 0x32, 0x64, 0x5f, 0x33, 0x2f, 0x43, 0x6f, 0x6e, 0x76, 0x32, 0x44, 0x3b, 0x73, 0x65, 0x71, 0x75, 0x65, 0x6e, 0x74, 0x69, 0x61, 0x6c, 0x5f, 0x32, 0x2f, 0x63, 0x6f, 0x6e, 0x76, 0x32, 0x64, 0x5f, 0x33, 0x2f, 0x42, 0x69, 0x61, 0x73, 0x41, 0x64, 0x64, 0x2f, 0x52, 0x65, 0x61, 0x64, 0x56, 0x61, 0x72, 0x69, 0x61, 0x62, 0x6c, 0x65, 0x4f, 0x70, 0x00, 0x00, 0x04, 0x00, 0x00, 0x00, 0x01, 0x00, 0x00, 0x00, 0x03, 0x00, 0x00, 0x00, 0x03, 0x00, 0x00, 0x00, 0x10, 0x00, 0x00, 0x00, 0x62, 0xf8, 0xff, 0xff, 0x00, 0x00, 0x00, 0x01, 0x18, 0x00, 0x00, 0x00, 0x28, 0x00, 0x00, 0x00, 0x48, 0x00, 0x00, 0x00, 0x0c, 0x00, 0x00, 0x00, 0x00, 0x00, 0x00, 0x09, 0x68, 0x00, 0x00, 0x00, 0x04, 0x00, 0x00, 0x00, 0xff, 0xff, 0xff, 0xff, 0x04, 0x00, 0x00, 0x00, 0x04, 0x00, 0x00, 0x00, 0x08, 0x00, 0x00, 0x00, 0x4c, 0xf8, 0xff, 0xff, 0x08, 0x00, 0x00, 0x00, 0x14, 0x00, 0x00, 0x00, 0x01, 0x00, 0x00, 0x00, 0x80, 0xff, 0xff, 0xff, 0xff, 0xff, 0xff, 0xff, 0x00, 0x00, 0x00, 0x00, 0x01, 0x00, 0x00, 0x00, 0xb8, 0x57, 0x92, 0x39, 0x24, 0x00, 0x00, 0x00, 0x73, 0x65, 0x71, 0x75, 0x65, 0x6e, 0x74, 0x69, 0x61, 0x6c, 0x5f, 0x32, 0x2f, 0x6d, 0x61, 0x78, 0x5f, 0x70, 0x6f, 0x6f, 0x6c, 0x69, 0x6e, 0x67, 0x32, 0x64, 0x5f, 0x32, 0x2f, 0x4d, 0x61, 0x78, 0x50, 0x6f, 0x6f, 0x6c, 0x00, 0x00, 0x00, 0x00, 0x04, 0x00, 0x00, 0x00, 0x01, 0x00, 0x00, 0x00, 0x04, 0x00, 0x00, 0x00, 0x04, 0x00, 0x00, 0x00, 0x08, 0x00, 0x00, 0x00, 0xfa, 0xf8, 0xff, 0xff, 0x00, 0x00, 0x00, 0x01, 0x18, 0x00, 0x00, 0x00, 0x28, 0x00, 0x00, 0x00, 0x44, 0x00, 0x00, 0x00, 0x0b, 0x00, 0x00, 0x00, 0x00, 0x00, 0x00, 0x09, 0xc0, 0x00, 0x00, 0x00, 0x04, 0x00, 0x00, 0x00, 0xff, 0xff, 0xff, 0xff, 0x08, 0x00, 0x00, 0x00, 0x08, 0x00, 0x00, 0x00, 0x08, 0x00, 0x00, 0x00, 0xe4, 0xf8, 0xff, 0xff, 0x08, 0x00, 0x00, 0x00, 0x10, 0x00, 0x00, 0x00, 0x01, 0x00, 0x00, 0x00, 0x80, 0xff, 0xff, 0xff, 0xff, 0xff, 0xff, 0xff, 0x01, 0x00, 0x00, 0x00, 0xb8, 0x57, 0x92, 0x39, 0x82, 0x00, 0x00, 0x00, 0x73, 0x65, 0x71, 0x75, 0x65, 0x6e, 0x74, 0x69, 0x61, 0x6c, 0x5f, 0x32, 0x2f, 0x63, 0x6f, 0x6e, 0x76, 0x32, 0x64, 0x5f, 0x32, 0x2f, 0x52, 0x65, 0x6c, 0x75, 0x3b, 0x73, 0x65, 0x71, 0x75, 0x65, 0x6e, 0x74, 0x69, 0x61, 0x6c, 0x5f, 0x32, 0x2f, 0x63, 0x6f, 0x6e, 0x76, 0x32, 0x64, 0x5f, 0x32, 0x2f, 0x42, 0x69, 0x61, 0x73, 0x41, 0x64, 0x64, 0x3b, 0x73, 0x65, 0x71, 0x75, 0x65, 0x6e, 0x74, 0x69, 0x61, 0x6c, 0x5f, 0x32, 0x2f, 0x63, 0x6f, 0x6e, 0x76, 0x32, 0x64, 0x5f, 0x32, 0x2f, 0x43, 0x6f, 0x6e, 0x76, 0x32, 0x44, 0x3b, 0x73, 0x65, 0x71, 0x75, 0x65, 0x6e, 0x74, 0x69, 0x61, 0x6c, 0x5f, 0x32, 0x2f, 0x63, 0x6f, 0x6e, 0x76, 0x32, 0x64, 0x5f, 0x32, 0x2f, 0x42, 0x69, 0x61, 0x73, 0x41, 0x64, 0x64, 0x2f, 0x52, 0x65, 0x61, 0x64, 0x56, 0x61, 0x72, 0x69, 0x61, 0x62, 0x6c, 0x65, 0x4f, 0x70, 0x00, 0x00, 0x04, 0x00, 0x00, 0x00, 0x01, 0x00, 0x00, 0x00, 0x08, 0x00, 0x00, 0x00, 0x08, 0x00, 0x00, 0x00, 0x08, 0x00, 0x00, 0x00, 0x52, 0xfa, 0xff, 0xff, 0x00, 0x00, 0x00, 0x01, 0x14, 0x00, 0x00, 0x00, 0x84, 0x00, 0x00, 0x00, 0x0a, 0x00, 0x00, 0x00, 0x00, 0x00, 0x00, 0x09, 0x9c, 0x00, 0x00, 0x00, 0xbc, 0xf9, 0xff, 0xff, 0x08, 0x00, 0x00, 0x00, 0x48, 0x00, 0x00, 0x00, 0x08, 0x00, 0x00, 0x00, 0x00, 0x00, 0x00, 0x00, 0x00, 0x00, 0x00, 0x00, 0x00, 0x00, 0x00, 0x00, 0x00, 0x00, 0x00, 0x00, 0x00, 0x00, 0x00, 0x00, 0x00, 0x00, 0x00, 0x00, 0x00, 0x00, 0x00, 0x00, 0x00, 0x00, 0x00, 0x00, 0x00, 0x00, 0x00, 0x00, 0x00, 0x00, 0x00, 0x00, 0x00, 0x00, 0x00, 0x00, 0x00, 0x00, 0x00, 0x00, 0x00, 0x00, 0x00, 0x00, 0x00, 0x00, 0x00, 0x00, 0x00, 0x00, 0x00, 0x00, 0x00, 0x00, 0x00, 0x00, 0x08, 0x00, 0x00, 0x00, 0xab, 0x43, 0xd3, 0x3c, 0xb9, 0x12, 0xd0, 0x3c, 0x51, 0x67, 0xc1, 0x3c, 0x22, 0x23, 0xf3, 0x3a, 0x13, 0x30, 0xca, 0x3c, 0x89, 0x81, 0xcd, 0x3a, 0x38, 0x3f, 0x0a, 0x3b, 0x13, 0xeb, 0xc2, 0x3c, 0x1c, 0x00, 0x00, 0x00, 0x73, 0x65, 0x71, 0x75, 0x65, 0x6e, 0x74, 0x69, 0x61, 0x6c, 0x5f, 0x32, 0x2f, 0x63, 0x6f, 0x6e, 0x76, 0x32, 0x64, 0x5f, 0x32, 0x2f, 0x43, 0x6f, 0x6e, 0x76, 0x32, 0x44, 0x00, 0x00, 0x00, 0x00, 0x04, 0x00, 0x00, 0x00, 0x08, 0x00, 0x00, 0x00, 0x03, 0x00, 0x00, 0x00, 0x03, 0x00, 0x00, 0x00, 0x01, 0x00, 0x00, 0x00, 0x1a, 0xfb, 0xff, 0xff, 0x00, 0x00, 0x00, 0x01, 0x14, 0x00, 0x00, 0x00, 0x88, 0x00, 0x00, 0x00, 0x09, 0x00, 0x00, 0x00, 0x00, 0x00, 0x00, 0x02, 0xb0, 0x00, 0x00, 0x00, 0x84, 0xfa, 0xff, 0xff, 0x08, 0x00, 0x00, 0x00, 0x4c, 0x00, 0x00, 0x00, 0x08, 0x00, 0x00, 0x00, 0x00, 0x00, 0x00, 0x00, 0x00, 0x00, 0x00, 0x00, 0x00, 0x00, 0x00, 0x00, 0x00, 0x00, 0x00, 0x00, 0x00, 0x00, 0x00, 0x00, 0x00, 0x00, 0x00, 0x00, 0x00, 0x00, 0x00, 0x00, 0x00, 0x00, 0x00, 0x00, 0x00, 0x00, 0x00, 0x00, 0x00, 0x00, 0x00, 0x00, 0x00, 0x00, 0x00, 0x00, 0x00, 0x00, 0x00, 0x00, 0x00, 0x00, 0x00, 0x00, 0x00, 0x00, 0x00, 0x00, 0x00, 0x00, 0x00, 0x00, 0x00, 0x00, 0x00, 0x00, 0x00, 0x00, 0x00, 0x00, 0x08, 0x00, 0x00, 0x00, 0xdc, 0x80, 0xc6, 0x34, 0x42, 0x81, 0xc3, 0x34, 0xb1, 0xb8, 0xb5, 0x34, 0x78, 0x73, 0xe4, 0x32, 0x9e, 0xf9, 0xbd, 0x34, 0xc5, 0x17, 0xc1, 0x32, 0x7d, 0xe5, 0x01, 0x33, 0x07, 0x25, 0xb7, 0x34, 0x2c, 0x00, 0x00, 0x00, 0x73, 0x65, 0x71, 0x75, 0x65, 0x6e, 0x74, 0x69, 0x61, 0x6c, 0x5f, 0x32, 0x2f, 0x63, 0x6f, 0x6e, 0x76, 0x32, 0x64, 0x5f, 0x32, 0x2f, 0x42, 0x69, 0x61, 0x73, 0x41, 0x64, 0x64, 0x2f, 0x52, 0x65, 0x61, 0x64, 0x56, 0x61, 0x72, 0x69, 0x61, 0x62, 0x6c, 0x65, 0x4f, 0x70, 0x00, 0x00, 0x00, 0x00, 0x01, 0x00, 0x00, 0x00, 0x08, 0x00, 0x00, 0x00, 0xea, 0xfb, 0xff, 0xff, 0x00, 0x00, 0x00, 0x01, 0x14, 0x00, 0x00, 0x00, 0xe4, 0x00, 0x00, 0x00, 0x08, 0x00, 0x00, 0x00, 0x00, 0x00, 0x00, 0x09, 0xfc, 0x00, 0x00, 0x00, 0x54, 0xfb, 0xff, 0xff, 0x08, 0x00, 0x00, 0x00, 0x88, 0x00, 0x00, 0x00, 0x10, 0x00, 0x00, 0x00, 0x00, 0x00, 0x00, 0x00, 0x00, 0x00, 0x00, 0x00, 0x00, 0x00, 0x00, 0x00, 0x00, 0x00, 0x00, 0x00, 0x00, 0x00, 0x00, 0x00, 0x00, 0x00, 0x00, 0x00, 0x00, 0x00, 0x00, 0x00, 0x00, 0x00, 0x00, 0x00, 0x00, 0x00, 0x00, 0x00, 0x00, 0x00, 0x00, 0x00, 0x00, 0x00, 0x00, 0x00, 0x00, 0x00, 0x00, 0x00, 0x00, 0x00, 0x00, 0x00, 0x00, 0x00, 0x00, 0x00, 0x00, 0x00, 0x00, 0x00, 0x00, 0x00, 0x00, 0x00, 0x00, 0x00, 0x00, 0x00, 0x00, 0x00, 0x00, 0x00, 0x00, 0x00, 0x00, 0x00, 0x00, 0x00, 0x00, 0x00, 0x00, 0x00, 0x00, 0x00, 0x00, 0x00, 0x00, 0x00, 0x00, 0x00, 0x00, 0x00, 0x00, 0x00, 0x00, 0x00, 0x00, 0x00, 0x00, 0x00, 0x00, 0x00, 0x00, 0x00, 0x00, 0x00, 0x00, 0x00, 0x00, 0x00, 0x00, 0x00, 0x00, 0x00, 0x00, 0x00, 0x00, 0x00, 0x00, 0x00, 0x00, 0x00, 0x00, 0x00, 0x00, 0x00, 0x00, 0x00, 0x10, 0x00, 0x00, 0x00, 0x61, 0x46, 0xf8, 0x3a, 0xc8, 0x76, 0xf5, 0x3a, 0x2c, 0xed, 0x89, 0x3c, 0xd4, 0xce, 0xa7, 0x3c, 0x69, 0xaa, 0xf4, 0x3a, 0x60, 0x64, 0x6e, 0x3c, 0xef, 0x97, 0x06, 0x3b, 0xce, 0xd2, 0xf7, 0x3a, 0x05, 0x43, 0x28, 0x3c, 0x11, 0x89, 0x41, 0x3c, 0xf2, 0x66, 0xff, 0x3a, 0x4a, 0x63, 0x2f, 0x3c, 0xe2, 0x84, 0xad, 0x3c, 0xd8, 0xbc, 0xfe, 0x3a, 0xf4, 0xe1, 0x0b, 0x3b, 0x4f, 0xe2, 0x9d, 0x3c, 0x1c, 0x00, 0x00, 0x00, 0x73, 0x65, 0x71, 0x75, 0x65, 0x6e, 0x74, 0x69, 0x61, 0x6c, 0x5f, 0x32, 0x2f, 0x63, 0x6f, 0x6e, 0x76, 0x32, 0x64, 0x5f, 0x33, 0x2f, 0x43, 0x6f, 0x6e, 0x76, 0x32, 0x44, 0x00, 0x00, 0x00, 0x00, 0x04, 0x00, 0x00, 0x00, 0x10, 0x00, 0x00, 0x00, 0x02, 0x00, 0x00, 0x00, 0x02, 0x00, 0x00, 0x00, 0x08, 0x00, 0x00, 0x00, 0x12, 0xfd, 0xff, 0xff, 0x00, 0x00, 0x00, 0x01, 0x14, 0x00, 0x00, 0x00, 0xe8, 0x00, 0x00, 0x00, 0x07, 0x00, 0x00, 0x00, 0x00, 0x00, 0x00, 0x02, 0x10, 0x01, 0x00, 0x00, 0x7c, 0xfc, 0xff, 0xff, 0x08, 0x00, 0x00, 0x00, 0x8c, 0x00, 0x00, 0x00, 0x10, 0x00, 0x00, 0x00, 0x00, 0x00, 0x00, 0x00, 0x00, 0x00, 0x00, 0x00, 0x00, 0x00, 0x00, 0x00, 0x00, 0x00, 0x00, 0x00, 0x00, 0x00, 0x00, 0x00, 0x00, 0x00, 0x00, 0x00, 0x00, 0x00, 0x00, 0x00, 0x00, 0x00, 0x00, 0x00, 0x00, 0x00, 0x00, 0x00, 0x00, 0x00, 0x00, 0x00, 0x00, 0x00, 0x00, 0x00, 0x00, 0x00, 0x00, 0x00, 0x00, 0x00, 0x00, 0x00, 0x00, 0x00, 0x00, 0x00, 0x00, 0x00, 0x00, 0x00, 0x00, 0x00, 0x00, 0x00, 0x00, 0x00, 0x00, 0x00, 0x00, 0x00, 0x00, 0x00, 0x00, 0x00, 0x00, 0x00, 0x00, 0x00, 0x00, 0x00, 0x00, 0x00, 0x00, 0x00, 0x00, 0x00, 0x00, 0x00, 0x00, 0x00, 0x00, 0x00, 0x00, 0x00, 0x00, 0x00, 0x00, 0x00, 0x00, 0x00, 0x00, 0x00, 0x00, 0x00, 0x00, 0x00, 0x00, 0x00, 0x00, 0x00, 0x00, 0x00, 0x00, 0x00, 0x00, 0x00, 0x00, 0x00, 0x00, 0x00, 0x00, 0x00, 0x00, 0x00, 0x00, 0x00, 0x00, 0x00, 0x00, 0x00, 0x00, 0x00, 0x10, 0x00, 0x00, 0x00, 0x36, 0xed, 0x0d, 0x35, 0xda, 0x51, 0x0c, 0x35, 0x0c, 0xb1, 0x9d, 0x36, 0xea, 0xda, 0xbf, 0x36, 0x06, 0xdd, 0x0b, 0x35, 0xee, 0x46, 0x88, 0x36, 0x89, 0xe1, 0x19, 0x35, 0x24, 0xab, 0x0d, 0x35, 0xc1, 0x5f, 0x40, 0x36, 0xf9, 0x44, 0x5d, 0x36, 0x3a, 0x00, 0x12, 0x35, 0x72, 0x85, 0x48, 0x36, 0x7c, 0x62, 0xc6, 0x36, 0xfc, 0x9e, 0x11, 0x35, 0x97, 0xed, 0x1f, 0x35, 0x55, 0x82, 0xb4, 0x36, 0x2c, 0x00, 0x00, 0x00, 0x73, 0x65, 0x71, 0x75, 0x65, 0x6e, 0x74, 0x69, 0x61, 0x6c, 0x5f, 0x32, 0x2f, 0x63, 0x6f, 0x6e, 0x76, 0x32, 0x64, 0x5f, 0x33, 0x2f, 0x42, 0x69, 0x61, 0x73, 0x41, 0x64, 0x64, 0x2f, 0x52, 0x65, 0x61, 0x64, 0x56, 0x61, 0x72, 0x69, 0x61, 0x62, 0x6c, 0x65, 0x4f, 0x70, 0x00, 0x00, 0x00, 0x00, 0x01, 0x00, 0x00, 0x00, 0x10, 0x00, 0x00, 0x00, 0x42, 0xfe, 0xff, 0xff, 0x00, 0x00, 0x00, 0x01, 0x14, 0x00, 0x00, 0x00, 0x30, 0x00, 0x00, 0x00, 0x06, 0x00, 0x00, 0x00, 0x00, 0x00, 0x00, 0x09, 0x44, 0x00, 0x00, 0x00, 0xac, 0xfd, 0xff, 0xff, 0x08, 0x00, 0x00, 0x00, 0x10, 0x00, 0x00, 0x00, 0x01, 0x00, 0x00, 0x00, 0x00, 0x00, 0x00, 0x00, 0x00, 0x00, 0x00, 0x00, 0x01, 0x00, 0x00, 0x00, 0xae, 0xf7, 0x5b, 0x3c, 0x1b, 0x00, 0x00, 0x00, 0x73, 0x65, 0x71, 0x75, 0x65, 0x6e, 0x74, 0x69, 0x61, 0x6c, 0x5f, 0x32, 0x2f, 0x64, 0x65, 0x6e, 0x73, 0x65, 0x5f, 0x34, 0x2f, 0x4d, 0x61, 0x74, 0x4d, 0x75, 0x6c, 0x00, 0x02, 0x00, 0x00, 0x00, 0x10, 0x00, 0x00, 0x00, 0x90, 0x00, 0x00, 0x00, 0xaa, 0xfe, 0xff, 0xff, 0x00, 0x00, 0x00, 0x01, 0x14, 0x00, 0x00, 0x00, 0x34, 0x00, 0x00, 0x00, 0x05, 0x00, 0x00, 0x00, 0x00, 0x00, 0x00, 0x02, 0x58, 0x00, 0x00, 0x00, 0x14, 0xfe, 0xff, 0xff, 0x08, 0x00, 0x00, 0x00, 0x14, 0x00, 0x00, 0x00, 0x01, 0x00, 0x00, 0x00, 0x00, 0x00, 0x00, 0x00, 0x00, 0x00, 0x00, 0x00, 0x00, 0x00, 0x00, 0x00, 0x01, 0x00, 0x00, 0x00, 0xf6, 0xe2, 0x9a, 0x37, 0x2b, 0x00, 0x00, 0x00, 0x73, 0x65, 0x71, 0x75, 0x65, 0x6e, 0x74, 0x69, 0x61, 0x6c, 0x5f, 0x32, 0x2f, 0x64, 0x65, 0x6e, 0x73, 0x65, 0x5f, 0x34, 0x2f, 0x42, 0x69, 0x61, 0x73, 0x41, 0x64, 0x64, 0x2f, 0x52, 0x65, 0x61, 0x64, 0x56, 0x61, 0x72, 0x69, 0x61, 0x62, 0x6c, 0x65, 0x4f, 0x70, 0x00, 0x01, 0x00, 0x00, 0x00, 0x10, 0x00, 0x00, 0x00, 0x22, 0xff, 0xff, 0xff, 0x00, 0x00, 0x00, 0x01, 0x14, 0x00, 0x00, 0x00, 0x30, 0x00, 0x00, 0x00, 0x04, 0x00, 0x00, 0x00, 0x00, 0x00, 0x00, 0x09, 0x44, 0x00, 0x00, 0x00, 0x8c, 0xfe, 0xff, 0xff, 0x08, 0x00, 0x00, 0x00, 0x10, 0x00, 0x00, 0x00, 0x01, 0x00, 0x00, 0x00, 0x00, 0x00, 0x00, 0x00, 0x00, 0x00, 0x00, 0x00, 0x01, 0x00, 0x00, 0x00, 0xc3, 0x14, 0x83, 0x3c, 0x1b, 0x00, 0x00, 0x00, 0x73, 0x65, 0x71, 0x75, 0x65, 0x6e, 0x74, 0x69, 0x61, 0x6c, 0x5f, 0x32, 0x2f, 0x64, 0x65, 0x6e, 0x73, 0x65, 0x5f, 0x35, 0x2f, 0x4d, 0x61, 0x74, 0x4d, 0x75, 0x6c, 0x00, 0x02, 0x00, 0x00, 0x00, 0x01, 0x00, 0x00, 0x00, 0x10, 0x00, 0x00, 0x00, 0x8a, 0xff, 0xff, 0xff, 0x00, 0x00, 0x00, 0x01, 0x14, 0x00, 0x00, 0x00, 0x30, 0x00, 0x00, 0x00, 0x03, 0x00, 0x00, 0x00, 0x00, 0x00, 0x00, 0x02, 0x54, 0x00, 0x00, 0x00, 0xf4, 0xfe, 0xff, 0xff, 0x08, 0x00, 0x00, 0x00, 0x10, 0x00, 0x00, 0x00, 0x01, 0x00, 0x00, 0x00, 0x00, 0x00, 0x00, 0x00, 0x00, 0x00, 0x00, 0x00, 0x01, 0x00, 0x00, 0x00, 0x30, 0xa5, 0xb8, 0x38, 0x2b, 0x00, 0x00, 0x00, 0x73, 0x65, 0x71, 0x75, 0x65, 0x6e, 0x74, 0x69, 0x61, 0x6c, 0x5f, 0x32, 0x2f, 0x64, 0x65, 0x6e, 0x73, 0x65, 0x5f, 0x35, 0x2f, 0x42, 0x69, 0x61, 0x73, 0x41, 0x64, 0x64, 0x2f, 0x52, 0x65, 0x61, 0x64, 0x56, 0x61, 0x72, 0x69, 0x61, 0x62, 0x6c, 0x65, 0x4f, 0x70, 0x00, 0x01, 0x00, 0x00, 0x00, 0x01, 0x00, 0x00, 0x00, 0x00, 0x00, 0x16, 0x00, 0x1c, 0x00, 0x18, 0x00, 0x17, 0x00, 0x10, 0x00, 0x0c, 0x00, 0x08, 0x00, 0x00, 0x00, 0x00, 0x00, 0x00, 0x00, 0x07, 0x00, 0x16, 0x00, 0x00, 0x00, 0x00, 0x00, 0x00, 0x01, 0x18, 0x00, 0x00, 0x00, 0x18, 0x00, 0x00, 0x00, 0x02, 0x00, 0x00, 0x00, 0x00, 0x00, 0x00, 0x02, 0x30, 0x00, 0x00, 0x00, 0x04, 0x00, 0x04, 0x00, 0x04, 0x00, 0x00, 0x00, 0x1c, 0x00, 0x00, 0x00, 0x73, 0x65, 0x71, 0x75, 0x65, 0x6e, 0x74, 0x69, 0x61, 0x6c, 0x5f, 0x32, 0x2f, 0x66, 0x6c, 0x61, 0x74, 0x74, 0x65, 0x6e, 0x5f, 0x32, 0x2f, 0x43, 0x6f, 0x6e, 0x73, 0x74, 0x00, 0x00, 0x00, 0x00, 0x01, 0x00, 0x00, 0x00, 0x02, 0x00, 0x00, 0x00, 0x00, 0x00, 0x16, 0x00, 0x20, 0x00, 0x1c, 0x00, 0x1b, 0x00, 0x14, 0x00, 0x10, 0x00, 0x0c, 0x00, 0x00, 0x00, 0x00, 0x00, 0x08, 0x00, 0x07, 0x00, 0x16, 0x00, 0x00, 0x00, 0x00, 0x00, 0x00, 0x01, 0x18, 0x00, 0x00, 0x00, 0x34, 0x00, 0x00, 0x00, 0x50, 0x00, 0x00, 0x00, 0x01, 0x00, 0x00, 0x00, 0x00, 0x00, 0x00, 0x09, 0x6c, 0x00, 0x00, 0x00, 0x04, 0x00, 0x00, 0x00, 0xff, 0xff, 0xff, 0xff, 0x0a, 0x00, 0x00, 0x00, 0x0a, 0x00, 0x00, 0x00, 0x01, 0x00, 0x00, 0x00, 0x0c, 0x00, 0x0c, 0x00, 0x00, 0x00, 0x00, 0x00, 0x08, 0x00, 0x04, 0x00, 0x0c, 0x00, 0x00, 0x00, 0x08, 0x00, 0x00, 0x00, 0x10, 0x00, 0x00, 0x00, 0x01, 0x00, 0x00, 0x00, 0x80, 0xff, 0xff, 0xff, 0xff, 0xff, 0xff, 0xff, 0x01, 0x00, 0x00, 0x00, 0x70, 0x89, 0x70, 0x37, 0x20, 0x00, 0x00, 0x00, 0x73, 0x65, 0x72, 0x76, 0x69, 0x6e, 0x67, 0x5f, 0x64, 0x65, 0x66, 0x61, 0x75, 0x6c, 0x74, 0x5f, 0x63, 0x6f, 0x6e, 0x76, 0x32, 0x64, 0x5f, 0x32, 0x5f, 0x69, 0x6e, 0x70, 0x75, 0x74, 0x3a, 0x30, 0x00, 0x00, 0x00, 0x00, 0x04, 0x00, 0x00, 0x00, 0x01, 0x00, 0x00, 0x00, 0x0a, 0x00, 0x00, 0x00, 0x0a, 0x00, 0x00, 0x00, 0x01, 0x00, 0x00, 0x00, 0x05, 0x00, 0x00, 0x00, 0x68, 0x00, 0x00, 0x00, 0x48, 0x00, 0x00, 0x00, 0x38, 0x00, 0x00, 0x00, 0x18, 0x00, 0x00, 0x00, 0x04, 0x00, 0x00, 0x00, 0xb8, 0xff, 0xff, 0xff, 0x0e, 0x00, 0x00, 0x00, 0x02, 0x00, 0x00, 0x00, 0x00, 0x00, 0x00, 0x0e, 0xc8, 0xff, 0xff, 0xff, 0x09, 0x00, 0x00, 0x00, 0x04, 0x00, 0x00, 0x00, 0x00, 0x00, 0x00, 0x09, 0x0c, 0x00, 0x0c, 0x00, 0x0b, 0x00, 0x00, 0x00, 0x00, 0x00, 0x04, 0x00, 0x0c, 0x00, 0x00, 0x00, 0x16, 0x00, 0x00, 0x00, 0x00, 0x00, 0x00, 0x16, 0xf0, 0xff, 0xff, 0xff, 0x11, 0x00, 0x00, 0x00, 0x02, 0x00, 0x00, 0x00, 0x00, 0x00, 0x00, 0x11, 0x0c, 0x00, 0x10, 0x00, 0x0f, 0x00, 0x00, 0x00, 0x08, 0x00, 0x04, 0x00, 0x0c, 0x00, 0x00, 0x00, 0x03, 0x00, 0x00, 0x00, 0x03, 0x00, 0x00, 0x00, 0x00, 0x00, 0x00, 0x03};
const int model_data_len = 7432;
float x[100] = {0.000781188969611749, 0.0009061792047496289, 0.0010624169986719787, 0.0011717834544176236, 0.0012186547925943285, 0.0012811499101632684, 0.0013123974689477384, 0.0013280212483399733, 0.0013436450277322083, 0.0013905163659089135, 0.0007186938520428092, 0.000765565190219514, 0.0009218029841418639, 0.0010155456604952738, 0.0010780407780642137, 0.0011092883368486839, 0.0011405358956331538, 0.0012186547925943285, 0.0012499023513787985, 0.0012967736895555034, 0.0007186938520428092, 
0.000765565190219514, 0.000781188969611749, 0.000765565190219514, 0.000781188969611749, 0.000765565190219514, 0.000828060307788454, 0.0009374267635340989, 0.0010780407780642137, 0.0011874072338098585, 0.000765565190219514, 0.0008124365283962191, 0.000843684087180689, 0.000874931645965159, 0.0009061792047496289, 0.0009686743223185689, 0.0009999218811030388, 0.0009842981017108038, 0.0009530505429263339, 0.0010311694398875088, 0.0006561987344738692, 
0.0007343176314350442, 0.000781188969611749, 0.000781188969611749, 0.000828060307788454, 0.000890555425357394, 0.000859307866572924, 0.0009218029841418639, 0.0010155456604952738, 0.000843684087180689, 0.0005780798375126944, 0.000765565190219514, 0.000874931645965159, 0.0007968127490039841, 0.0007499414108272792, 0.000765565190219514, 0.0008124365283962191, 0.0009218029841418639, 0.0009061792047496289, 0.000828060307788454, 0.0005780798375126944, 
0.0007499414108272792, 0.000890555425357394, 0.000890555425357394, 0.000859307866572924, 0.000890555425357394, 0.0009374267635340989, 0.0009530505429263339, 0.000859307866572924, 0.0008124365283962191, 0.0006249511756893992, 0.0007186938520428092, 0.0009061792047496289, 0.0009530505429263339, 0.0009842981017108038, 0.0009686743223185689, 0.0009842981017108038, 0.0010155456604952738, 0.0009218029841418639, 0.0009374267635340989, 0.0006405749550816342, 
0.000765565190219514, 0.000859307866572924, 0.0009061792047496289, 0.0009374267635340989, 0.0009530505429263339, 0.0009999218811030388, 0.0009999218811030388, 0.0009374267635340989, 0.0009842981017108038, 0.0006093273962971642, 0.000843684087180689, 0.0009686743223185689, 0.0009999218811030388, 0.0010155456604952738, 0.0010467932192797437, 0.0011092883368486839, 0.0011092883368486839, 0.0009999218811030388, 0.0009999218811030388};const int input_size = 100;
const int output_size = 1;